#version: 0.2 - Trained by `huggingface/tokenizers`
Ð °
Ñ ĭ
Ġ Ð
Ð µ
Ð ½
Ñ Ĥ
Ñ Ģ
Ñ ĸ
Ð »
Ñ ģ
Ð ´
Ò Ľ
Ð ¼
Ñ ĥ
Ð º
Ð ¾
Ð° ÑĢ
Ð° Ð
Ò ĵ
Ð ¸
Ò £
Ð° Ð½
Ð° Ð»
ĠÐ ±
Ñĭ Ð½
ĠÐ ¶
Ñ Ī
Ð ·
Ðµ ÑĢ
Ð ³
Ġ ÒĽ
Ġ ÑĤ
Ð ¿
Ðµ Ð½
Ñĸ Ð½
Ð´ Ñĭ
Ð° Ñģ
Ò ±
Ó Ļ
ĠÐ º
Ó ©
ÑĤ Ñĭ
Ð°Ð ¹
Ðµ ÑĤ
Ò ¯
Ġ Ñģ
ĠÐ ¼
Ð ±
Ñĭ Ð»
Ð ¹
Ð´ Ð°
Ð´ Ñĸ
Ð° ÒĽ
Ð° ÑĤ
ĠÐ ¾
Ñĭ ÒĽ
Ðµ Ðº
Ð¾ Ð»
Ð° Ñĥ
ÑĤ Ñĸ
ĠÐ ´
Ð´ Ðµ
Ð» Ñĸ
Ñĭ Ñģ
Ðµ Ñģ
Ñĭ Ò£
Ñ ı
Ð° Ð¼
ĠÐ µ
Ð°Ð ·
Ñĸ ÑĢ
Ð° Òĵ
Ð³ Ñĸ
Ò ļ
Ðµ Ð»
Ðµ Ð¼
Ġ Ó©
Ñģ ÑĤ
Ñĭ Ð·
Ñĭ Ð¼
Òĵ Ð°Ð½
Ð¸ Ñı
ÑĤ Ð°ÑĢ
Ð´ Ð°ÑĢ
Ò± ÑĢ
ÓĻ Ð½
Ð¾ ÑĢ
Òĵ Ð°
Ñĸ Ð»
Ñ ħ
ÑĭÐ½ Ð´Ð°
Ġ ÑĪ
Òĵ Ñĭ
ĠÐº Ó©
Ñĸ Ð¼
Ð°Ð ¿
Ġ ÓĻ
Ñĭ Ð¿
Ð ¶
ÓĻÐ½ Ðµ
Ñĸ Ð·
ĠÐ¶ ÓĻÐ½Ðµ
Ð³ Ðµ
Ñĸ Ò£
ÑĭÐ½ ÑĭÒ£
ĠÐ± Ð¾Ð»
Ð Ĳ
Ġ Òļ
Ð°Ð ±
Ñĭ ÑĢ
Ð ²
ĠÐ ¿
Â »
Ð°Ð» ÑĭÒĽ
ĠÐ Ĳ
Ðµ Ð¹
ÑĤ ÐµÑĢ
Ġ Ð°Ð»
Â «
ĠÐ ½
Ð´Ñĭ Ò£
Ð¾ Ð½
Ð³ ÐµÐ½
Ð° Ð´Ñĭ
â Ģ
Ġ Ò¯
Ð¸ Ðº
Ð° Ò£
ĠÐ± Ð°Ñģ
ÑĤÑĭ ÑĢ
Ò± Ð»
ĠÐ ĳ
Ð´ Ð°Ð½
ÑĭÐ½ Ð°
ÐµÑĤ ÑĤÑĸ
ĠÐ´ Ðµ
Ñĥ ÑĢ
Ð» Ð°ÑĢ
ÑĤ Ðµ
Ð´ ÐµÑĢ
Ò¯ ÑĢ
Ð°Ð· Ð°ÒĽ
ÑĸÐ½ Ð´Ðµ
Ð» ÑĭÒĽ
ĠÐ¾ ÑĢ
Ġ Â«
Ñ Ĩ
Ġ Ð°ÑĢ
ĠÐ¶ ÑĭÐ»
ÑģÑĤ Ð°Ð½
Ġ 2
Ð°Ð» Ð°ÑĢ
ÑĸÐ½ ÑĸÒ£
Ð»Ñĸ Ðº
Ð¾ Ð¹
Ð¸ Ð½
ÑĪ Ð°
Ñ Ħ
Ð°Ð» Ñĭ
Ġ âĢ
ĠÐ¼ ÐµÐ½
Ð´Ñĭ ÒĽ
ĠÐ ¡
Ġ Ð°
ĠÐº Ðµ
ÑĤ Ñĥ
Ñĸ Ñģ
ĠÐ± ÑĸÑĢ
Ð°Ñģ Ñĭ
Ġ 1
Ð± Ð»
Ð ¡
ĠÐ ľ
Ġ ÑĢ
ÑĤÑĭ ÒĽ
Ð¾ Ð¼
Ñģ Ñĭ
Ġ Ð°Ñĥ
Ð° ÑĤÑĭ
Ð» ÐµÐº
ĠÐ± ÐµÑĢ
Ġ (
Ð´ Ð°Ð¹
ÒĽ Ð°
ÑĸÐ½ Ðµ
ÑĪ ÑĭÐ»
Ġ Ò±
Ð´Ñĸ Ò£
Ġ Ð°Ð¹
Ñĸ Ð¿
Ð ĳ
Ð»Ñĸ Ð¼
ĠÒĽ Ð°Ð»
ĠÐ ŀ
Ðº ÐµÐ½
ĠÓ© Ð·
Ð½ ÑĭÒ£
ÑĤ Ð°Ð½
ĠÒĽ Ð°ÑĢ
ĠÐ ĸ
Ð ľ
Ð ¢
ÑĪ Ñĸ
Ð°Ð·Ð°ÒĽ ÑģÑĤÐ°Ð½
ĠÒĽ ÑĭÐ·
Ð» ÐµÑĢ
Ò± Ð¼
ÑĤ Ð°
ÐµÑĤÑĤÑĸ Ðº
Ð°ÑĤ ÑĭÐ½
ĠÐºÓ© ÑĢ
0 1
ĠÐ ¢
ĠÐ ļ
ĠÐ± Ð°ÑĢ
Ðµ Ò£
ĠâĢ ĵ
ÐµÐ¼ Ð»ÐµÐº
Ð¼ ÐµÐ½
Ð¼ ÐµÑĤ
Ñĭ Òĵ
Ð´ ÐµÐ½
Ð¾ Ñģ
ĠÐ ·
Ðµ Ñĥ
Ð³Ñĸ Ð·
Ġ -
ÑĨ Ð¸Ñı
ĠÐ± Ð¾Ð¹
ĠÐº Ò¯
Ġ Ñħ
Ġ Ð°ÑĤ
Ð ķ
ÑĤÑĭ Ò£
Ðµ Ð´Ñĸ
ĠÑĤ ÑĥÑĢ
ÓĻ ÑĢ
ÑĭÐ½ ÑĪÐ°
ĠÐ¶ Ò±Ð¼
ĠÐ¶ Ð°Ñģ
ÑĢ Ñĥ
ĠÐ ¸
ĠÒĽ Ò±ÑĢ
Ð¾ Ð²
ÓĻ Ñģ
ĠÒ¯ ÑĪ
Ð´Ð° Ð¼
Ð¿ Ð°ÑĢ
ĠÒĽ Ò±
Ð ļ
Ð½ Ð°Ð»
ĠÑĤÑĥÑĢ Ð°Ð»Ñĭ
Ð ŀ
Ñ į
ĠÐ¾ ÒĽ
Ð¾ Ð³
Ðº Ðµ
ĠÐ±Ð¾Ð¹ ÑĭÐ½ÑĪÐ°
ĠÒĽÑĭÐ· Ð¼ÐµÑĤ
ĠÐ¶Ò±Ð¼ ÑĭÑģ
ÐµÑĤ ÑĸÐ½
Ñ Į
Ó ĺ
Ð°Ð¹ Ð»
ÒĽ Ð°Ð½
Ðº Ñĸ
ĠÐ ł
ĠÐº ÐµÐ»
Ð´Ñĸ Ðº
Ð ł
ĠÑĤ Ò¯
Ð ĸ
Ñĭ ÑĤ
ĠÒļ Ð°Ð·Ð°ÒĽÑģÑĤÐ°Ð½
ÐµÐ¼Ð»ÐµÐº ÐµÑĤÑĤÑĸÐº
ÑĭÑģ Ñĭ
ĠÒ¯ÑĪ ÑĸÐ½
ÒĽ Ð°ÑĢ
ĠÐºÐµ Ð·
ĠÐ± Ð°Òĵ
. .
ĠÑģ Ð°Ð»
ĠÑĤ Ò±ÑĢ
ĠÒĽ Ð¾Ð»
ĠÐ¶ Ð¾
Ġ Ñĸ
ÐµÑģ Ñĸ
ĠÐ¶ Ò¯
Ġ2 01
Ðº ÐµÑĢ
ĠÐ± Ó©
ÐµÐ» ÐµÑĢ
Ð Ŀ
Ġ Ð°Ñģ
Ð°Òĵ Ð°Ð½
Ġ Ð°ÒĽ
Ð¸Ðº Ð°Ð»ÑĭÒĽ
ĠÐ¶ Ò¯ÑĢ
Ð³ ÐµÑĢ
Ð´Ð° Ñĥ
ĠÐ ķ
ĠÐ¾ Ð±Ð»
ĠÐ´ Ð°
ÑĭÐ½Ð´Ð° ÒĵÑĭ
Ð Ĩ
Ð¿ Ñĥ
ÑĤ Ð°Ð»
ÑĤÑĸ Ðº
Ġ Ñį
ĠÓ© ÑĤ
Ñĸ Ðº
Ðº ÑĸÐ¼
ĠÐ½ Ðµ
Ñģ ÐµÑĤ
ÑĤ Ð°Ð¼
ĠÐ¼ Ò¯
ÑĭÐ¼ ÐµÐ½
Ó© Ð·
Ñĸ Ð»ÑĸÐ¼
ĠÐµ Ñģ
ĠÐºÓ©ÑĢ ÑģÐµÑĤ
Ð°ÑĤ ÑĤÐ°ÑĢ
ĠÑĤ Ð°ÑĢ
ĠÒĽ Ð¾ÑĢ
Ðµ Ð²
ĠÐ° Ð´Ð°Ð¼
Â Ń
ÑĪÑĭÐ» Ð°ÑĢ
Ð³ ÑĸÐ½
Ð°Ñģ ÑĭÐ½ÑĭÒ£
ĠÐºÒ¯ Ð½
Ðµ Ð´
ÑĤ Ð¸
Ġ Òĵ
0 0
Ñģ ÑĭÐ½
Ðµ Ð·
Ġ ÑĦ
Ð¿Ñĥ Ð±Ð»
ÑĤ Ð°Ñĥ
ÐµÑģ Ð¿ÑĥÐ±Ð»
Ð°Ð± ÑĭÐ»
Ðº ÑĸÐ½
Ð± Ð¸
ĠÐ´Ðµ Ð¿
Ð Ķ
Ð´Ð° ÒĵÑĭ
ĠÐĲ Ð»
ÐµÐ¹ ÑĸÐ½
Ð «
ĠÓĻ ÑĢ
ĠÐ¼ ÐµÐ¼Ð»ÐµÐºÐµÑĤÑĤÑĸÐº
ÑĪ Ñĭ
Ñĥ ÒĵÐ°
Ð¸ ÑĤ
ĠÐ± Ð°Ð»
Ó ¨
ĠÑĤ Ò¯ÑĢ
ÑĪ Ðµ
Ðµ Ð¿
Ġ Ò
ĠÐ¶ Ð°Òĵ
ĠÑĤÒ¯ Ñģ
ĠÐ¾ ÑĤÑĭÑĢ
ĠÐ¶ Ð°ÑĢ
ĠÑģ Ð¾
Ð» ÐµÑĥ
ÑĭÐ½ Ð°Ð½
Ð» ÐµÐ¼
Ñ İ
Ð°Ð¹ Ð´Ñĭ
ĠÐ¿ Ð°Ð¹
Ð°Ð ¶
Ġ Ñĥ
ĠÑĪ Ð°ÑĢ
Ġ Óĺ
ÐµÑģ Ðµ
ĠÐ¶ ÐµÑĢ
ĠÑĤ Ó©
ĠÐ¼ ÐµÐº
Ð°Ñģ ÑĤÑĭÑĢ
ĠÐ¶ ÐµÑĤ
ĠÐ¶ Ð°Ò£
ĠÐ±ÐµÑĢ Ñĥ
ĠÑĤ Ð°Ð»
ĠÐ Ł
Ñĥ Ñĭ
ĠÐ ³
ÐµÑģÐ¿ÑĥÐ±Ð» Ð¸Ðº
Ð° Ñı
ÐµÑĢ ÐµÐº
ĠÐ Ŀ
Ð´ Ð°Ð»
ĠÐ¶ Ð¾Ð»
ÑĤ ÑĭÐ½
Ð°Ð½ Ñĭ
ĠÐ´ Ð°Ð¼
ĠÓ© Ð½
ĠÐµ ÑĢ
ĠÒĽ Ð¾
ÑĭÐ» ÑĭÐ¼
Ġ Ð°Ð½
Ð¸ Ñħ
Ð¾Ð» Ð¾Ð³
ĠÑĤ Ð¾
Ð¹ ÑĭÐ¼
ĠÐ Ķ
Ð° ÑĪ
Ð» Ð°Ð¼
Ġ ÑĸÑģ
Ð¸Ñı Ð»ÑĭÒĽ
ĠÑĪ ÑĭÒĵ
ĠÑĸ ÑĪ
Ð°Ð½ ÑĭÑģ
Ð¸ Ð¼
ĠÐ±Ð¾Ð» ÑĭÐ¿
ĠÐł ÐµÑģÐ¿ÑĥÐ±Ð»Ð¸Ðº
Ð» Ñĭ
ÓĻ Ñĥ
ĠÐ± ÑĸÐ»ÑĸÐ¼
ĠÐº Ð¾Ð¼
Ð°Òĵ Ñĭ
Ð Ľ
ÑĢ Ð¾
ĠÒ¯ Ð¹
ĠÐµ Ð¼
Ð± ÐµÐº
ĠÐ¾ÒĽ Ñĥ
Ð½ Ñĭ
ÑĤÑĸ Ò£
Ð°ÑĤÑĭ Ñģ
Ð½ Ð¸
ĠÐ°Ñĥ Ð´Ð°Ð½
ÒĽ ÑĭÐ»
ÑĤ Ð°Ð¿
ĠÒĽ Ð°Ð¹
ĠÐ¼ ÓĻ
ĠÑĤ Ðµ
ÒĽ Ñĭ
ĠÐ¾ Ð¹
Ġ 3
Ð° Ðº
ĠÐµ Ð»
ĠÐ´Ðµ Ð³ÐµÐ½
ÐµÑĤ ÑĤÐµÑĢ
Ð°ÑĢ Ñĭ
Ð¿Ð°ÑĢ Ð°ÑĤ
Ð± Ð°
ĠÑĤ ÑĸÐ»
ĠÐµ Ò£
Ó© Ð½
Ð°Ñģ ÑĭÐ½Ð´Ð°
Ġ Ð°Ð·
ĠÐ± ÐµÐ»
Ð´Ð°ÑĢ Ñĭ
ĠÐ¶ Ð°Ð·
Ðµ Ð±
Ð¸ Ð·
ĠÐ¼ Ð°ÒĽ
ĠÐ± Ò±Ð»
ĠÐ¶Ð°Òĵ Ð´Ð°Ð¹
Ñģ ÑĸÐ·
ĠÐ ¨
Ð°Ð½ ÑĭÒ£
i Ð½
ĠÐ¸ Ð½
Ð Ł
ÑĸÐ½Ð´Ðµ Ð³Ñĸ
Ñĭ Ð±
Ð¿ ÐµÐ½
Ð¸ ÑģÑĤ
Ðµ Ð³Ðµ
Ð½Ð°Ð» ÒĵÐ°Ð½
Ð°Ð ³
ĠÐ±Ð¾Ð» Ð°Ð´Ñĭ
Ð¸ Ð»
ÑĤÐ°ÑĢ Ñĭ
ĠÓĻ ÐºÑĸÐ¼
ÐµÐ¼ ÐµÑģÐµ
ĠÐ¾ÑĢ ÑĭÐ½
Ð´Ñĸ ÑĢ
Ñħ Ð°Ð½
ĠÐ½Ðµ Ð³ÑĸÐ·
ĠÐ¶ Ð°ÑĤ
Ð¸Ðº Ð°
Òĵ Ð°Ð»
ÑĭÐ» ÒĵÐ°Ð½
ÑĤÐµ Ñĥ
ĠÑĤ Ð¸
ĠÐ°ÑĢ Ð½Ð°Ð»ÒĵÐ°Ð½
ĠÐ±Ð°Ñģ ÒĽÐ°ÑĢ
Ð ¨
ĠÐ¾ Ð»Ð°ÑĢ
ĠÒ± Ð¹ÑĭÐ¼
ĠÐ¶ Ð°Ð»
Ð¼ ÐºÑĸÐ½
Ð°Ð ²
Ð°Ð± Ð°ÒĽ
Ðº ÑĸÐ·
Ñĭ ÑĤÑĥ
Òĵ ÑĭÐ½
ĠÒĽ Ð°ÑĤÑĭÑģ
ĠÑģ Ó©Ð·
ĠÐ± Ð°Ð¹Ð»
ÑĤ ÑĤÑĭÒĽ
Ð°Ñģ ÑĭÐ½
ÑĸÐ½ ÐµÐ½
ÐµÐº Ðµ
ĠÐ¶Ò¯ÑĢ Ð³ÑĸÐ·
ĠÐ¾Ð±Ð» ÑĭÑģ
ĠÐ± ÑĸÐ»
Ð¼ ÑĸÑĢ
ĠÒĽ Ð°Ð¼
Ð°Ð¼ Ð°Ð½
ĠÒĽ Ð¾Ñģ
ĠÒĽ Ð°Ð±ÑĭÐ»
ÑĪÑĭÐ» ÑĭÒĽ
ĠÑĢ ÐµÑĤ
ĠÐ¼Ò¯ Ð¼ÐºÑĸÐ½
ÑĤ Ð¾ÑĢ
Ð¼ Ð°Ð½
Ð» Ð°Ð½
Ð°ÒĽ ÑĤÑĭ
Òĵ Ð°Ð¼
ĠÐµÐ¼ ÐµÑģ
Ð ĺ
ĠÐ°Ð» Ñĥ
ĠÐ¶ÑĭÐ» Ñĭ
ÑģÑĤ ÐµÑĢ
Ð°Òĵ Ð°
ĠÐ½ ÐµÐ¼ÐµÑģÐµ
ĠÐ »
Ð»Ñĸ Ð³Ñĸ
ĠÐĳ Ò±Ð»
ĠÐ· Ð°Ò£
ĠÒĽ Ð°Ð½
Ġ "
ÐµÑĤ Ñĸ
ÑĤÐµ Ð¿
Ñģ Ð°ÑĤ
Ð¼ Ð°
ÑĤ ÑĢ
Ġ Ò±Ð»
Ðº Ð¾Ð½
ĠÐ¾ Ð½ÑĭÒ£
ĠÑĪÑĭÒĵ Ð°ÑĢ
ÑĭÐ½ Ð´Ñĭ
ĠÒĽ Ð°Ð·Ð°ÒĽ
Òļ Ð°Ð·Ð°ÒĽÑģÑĤÐ°Ð½
ĠÐ¾Ð±Ð» ÑĭÑģÑĭ
ÑĸÐ· Ð´ÑĸÒ£
ĠÐ±Ð°Ð¹Ð» Ð°Ð½ÑĭÑģ
ĠÐºÓ© Ð¿
ĠÐ¶ Ó©Ð½
ĠÒĽÐ¾Ð» Ð´Ð°Ð½
Ñ ĩ
ĠÐ¾ ÑģÑĭ
Ñģ Ð°
Ð± ÑĸÑĢ
ĠÒĽ Ð°ÑĤ
ÑĭÐ¼ ÑĭÐ·
ÑĤ ÐµÐ½
ĠÑħ Ð°Ð»ÑĭÒĽ
ÒĽÑĭÐ» Ñĭ
Ò¯ Ð¹
ĠÐ¼ Ò±
ĠÐº ÐµÑĢÐµÐº
ÑĸÐ» Ð³ÐµÐ½
ĠÑĤ ÓĻÑĢ
ÒĽ Ð¾ÑĢ
Ġ Ó¨
Ñħ Ð½
ĠÐ¶Ò¯ Ð¹
ĠÐµ Ð½
2 01
.. .
ĠÐ¾ÑĢ ÑĤ
ĠÐ±Ð¾Ð» ÒĵÐ°Ð½
ĠÑģ Ð°ÒĽ
Ð¸ ÑĢ
Ð° ÑĨÐ¸Ñı
Ð¸ Ñģ
ĠÐ¾ Ð»
ÑĸÐ¼ Ð´Ñĸ
Ðµ ÑĪ
ÓĻÑģ ÑĸÐ¿
ĠÑĤ Ð¾Ð»
ĠÐ°Ð½ ÑĭÒĽ
ĠÐ¶ Ð°ÒĽ
ĠÑģ Ð°Ð½
Ð°ÒĽ ÑĭÑĢ
Ġ 5
ÐºÐ¾Ð½ Ð¾Ð¼
ĠÐ¼ ÓĻÑģ
ĠÐ±Ð°Òĵ Ð´Ð°ÑĢ
ĠâĢ Ķ
ĠÐ¶ÑĭÐ» Ð´ÑĭÒ£
Ð¼ ÐµÑĤÑĤÑĸÐº
ĠÑģ Ð°Ð¹
ĠÐµ ÐºÐµÐ½
ĠÒ¯ Ð»
Ð´ÐµÑĢ Ñĸ
ĠÐºÐµÐ· Ð´Ðµ
ĠÑģ Ð¾Ð½
Ð¼ Ð°ÒĽ
ĠÑĤ Ð°Ð±
Ð»Ñĸ Ñģ
ĠÐ¶ Ð°Ð½
ÐµÐ¹ Ð´Ñĸ
Ð»ÑĸÐº ÑĤÑĸ
ĠÐ°ÑĢ ÒĽÑĭÐ»Ñĭ
ĠÑģ ÓĻ
ÒĽ ÑĭÒĽ
ĠÐ´ ÐµÐ¹ÑĸÐ½
Ð¿ Ð¾ÑĢ
Ð½ ÑĸÒ£
Ð°Ò£ ÑĭÐ·
ĠÒĽ Ð°Ð¶
ÑĸÐ¼ ÐµÐ½
ĠÐ¶Ð°Ò£ Ð°
Ð¸ Ð¿
Ð´Ñĭ ÑĢ
Ð°ÒĽ ÑĭÑĤ
ÑĤ ÑĸÐ½
Ñĥ Ð³Ðµ
Ð»ÐµÑĥ Ð¼ÐµÑĤÑĤÑĸÐº
ĠÐ°ÒĽ Ð¿Ð°ÑĢÐ°ÑĤ
ĠÐ°Ñģ ÑĭÑĢ
ĠÐ¶ Ð°Ñĥ
ĠÐ°Ñĥ ÑĭÐ»
Ġ 4
ĠÐ¶Ò¯ Ð·
Ð±Ð° ÐµÐ²
ĠÐ±ÐµÐ» Ð³Ñĸ
ÐµÐ½ ÑĤ
Ð´Ð°Ð» Ð°Ð½
Ð´Ðµ Ð³Ñĸ
ĠÐ±Ó© Ð»ÑĸÐ¼
ÐµÑĢ ÑĤ
Ð± Ð°Ñģ
Ġ1 9
ĠÑĤ Ð°Ð¿
ĠÒĽ Ð¾Ð¹
Ðº ÐµÑģ
Ð°Ð± Ð°ÑĢ
Ð¾Ð»Ð¾Ð³ Ð¸Ñı
Ð¸ Ð°Ð»
Ð £
ĠÐºÓ© Ð·
Ò °
ĠÐ ĺ
ĠÐºÐµ Ò£
ĠÐ± Ò±
ĠÒ °
ÒĽ Ñģ
Ð¾Ñģ Ð¿Ð°ÑĢ
ĠÑģ Ñĥ
Ñģ ÐµÑĢ
ĠÐ±Ð°ÒĵÐ´Ð°ÑĢ Ð»Ð°Ð¼
Ð»Ñĸ Ð¿
Ðµ Ð³
Ð´Ð°ÑĢ Ð´ÑĭÒ£
ĠÐ¼ÓĻÑģ ÐµÐ»
ĠÐ ¥
ĠÑĤ Ñĥ
ÑĤÑĭÑĢ Ð°Ñĥ
Ð¿ Ñĭ
ĠÐ¶ ÐµÐºÐµ
ĠÐ¿Ð°Ð¹ Ð´Ð°Ð»Ð°Ð½
ĠÒĽ Ð°Ð·
Ð°ÑģÑĤÑĭÑĢ Ñĥ
ÑĤ Ð¾
ĠÑĤ ÐµÒ£
Â» ,
â Ħ
ĠÐ¶ ÐµÐ¼
ÑĤÐµÑĢ Ñĸ
âĦ ĸ
ĠÐ¶ Ð¾ÑģÐ¿Ð°ÑĢ
ĠÒĵ ÑĭÐ»ÑĭÐ¼
Ð´Ðµ Ñĥ
ĠÐ¶Ð¾ ÒĽ
ÑĤ Ð°Ñģ
ĠÐ ²
ĠÐ°Ð· Ð°Ð¼
ÐĲ Ð»
ĠÑģ Ò±ÑĢ
ĠÓ© Ð¼ÑĸÑĢ
Ñĥ Ð»
ĠÐ° Ñı
Ð´Ñĭ ÑĢÑĥ
Ð³ Ð°Ð½
ĠÑĤÐ°ÑĢ Ð¸Ñħ
Ð° Ð´
ĠÐłÐµÑģÐ¿ÑĥÐ±Ð»Ð¸Ðº Ð°ÑģÑĭÐ½ÑĭÒ£
ĠÒĽÒ± ÒĽÑĭÒĽ
Ñĭ ÒĵÑĭ
Ð Ĺ
Ðµ Ð¶
ĠÑħ Ð°Ð±Ð°ÑĢ
ÑĸÐ½ Ð´
ĠÐ°Ð¹ ÑĤ
ÑĪÑĸ Ð»ÑĸÐº
ĠÑĤ Ò±
Ð¿ Ð°Ð½
ĠÐ¿ ÑĢÐ¾
Ñģ ÑĭÐ·
ÒĽÐ¾ÑĢ Ð»ÑĭÒĽ
Ð° Ð´Ð°
ĠÐ¶ÑĭÐ» ÒĵÑĭ
ĠÒĽÐ¾ ÒĵÐ°Ð¼
ĠÑģ ÑĭÐ½
ĠÑģ Ð°Ñı
ĠÐµÑģ ÐµÐ¿
ĠÐº ÐµÐ¹ÑĸÐ½
ĠÓĻ Ð»ÐµÑĥÐ¼ÐµÑĤÑĤÑĸÐº
ĠÐ± Ð¸
Ñĥ Ð°
Ðº ÑĸÐ»
ÑĤÑĭ Ð»
ĠÐ±Ð°Ñģ ÒĽÐ°
ĠÐº ÐµÑĤ
Ð»ÐµÑĢ Ñĸ
Ð¸ ÑĨ
Ð°Ð¹ ÑĤÑĭÐ½
ÑĢ ÐµÐ·
ĠÐ±Ð¾Ð» Ð´Ñĭ
Ð» Ð°Ñĥ
Ð°Ñģ ÑĭÐ·
Ð°ÑĢ Ð°Ð»ÑĭÒĽ
ĠÒĽ Ð°Ñĥ
ÑĸÐ» ÐµÑĤÑĸÐ½
ĠÐº Ð¾Ð½
ĠÐ¡ Ð¾Ð½
ĠÑĤÐµ ÑħÐ½
Ð± Ðµ
Ġ Ð°Ð¿
ĠÓ©ÑĤ ÐºÑĸÐ·
ÒĵÐ°Ð½ Ð°
ÑĤ i
Ð¼ Ð°ÑĤÑĭ
ĠÑĤ ÐµÐº
ĠÑĤ ÐµÑĢ
ĠÐ¶ÐµÐ¼ ÒĽÐ¾ÑĢÐ»ÑĭÒĽ
Ð¸ÑģÑĤ ÑĢ
ĠÑģ Ð¾Ð»
ĠÐ¾ÑĢ Ð³Ð°Ð½
ĠÐ° Ðº
Ġ âĦĸ
Ġ ÒĵÐ°Ð½Ð°
ĠÒĽÐ°Ð±ÑĭÐ» Ð´Ð°Ñĥ
ĠÒ± ÑģÑĭÐ½
ĠÑģÐ¾ Ò£
ĠÑĪ ÐµÑĪ
ĠÐ¼ ÑĸÐ½Ð´
ĠÑĤ Ò±Ð»
Ð°Ð¹ Ñĭ
ÑĸÐ» Ð´Ñĸ
ĠÐ±Ó© Ð»
ĠÑĥ Ð°ÒĽÑĭÑĤ
Ð°Ð¹Ð» Ð°Ñģ
ÑĤÑĸ Ð¿
ĠÑĤ ÑĸÑĢ
ĠÐ¶Ð¾ Òĵ
Ð½ Ð°Ð½
Ð´ÐµÐ½ Ð¸
Ð± ÐµÑĢ
Ð´Ð°ÑĢ Ð´Ñĭ
Ñģ ÑĭÑĢ
ĠÐ¼ ÐµÐ¼Ð»ÐµÐº
Ñĭ ÑĪ
ÑĭÐ± Ð°Ð¹Ð»Ð°Ñģ
ĠÒĽÐ°Ð» ÑĭÐ¿
Ð°Ð· Ð°ÑĢ
ÑĭÒ£ ÑĭÐ·
ĠÐ±Ð°Ð» Ð°Ð»Ð°ÑĢ
Ð°Ñģ ÑĭÐ½Ð´Ð°ÒĵÑĭ
ĠÐµ ÐºÑĸ
ĠÐ Ĩ
ÑĸÑģ Ñĸ
Ð¸ Ð´ÐµÐ½
Ð° Ñħ
ĠÐ¼ Ð°ÑĤ
ĠÐ° ÑĪ
ĠÑĤ Ð°Ð±ÑĭÐ»
ĠÐ ĵ
ĠÐ±Ð°ÑģÒĽÐ°ÑĢ Ð¼
ĠÐ¼ Ð¸Ð½
Ð¾ Ð¿
ÑĤÑĭÑĢ Ñĥ
Ġ 6
ÑĭÐ» Ð´Ñĭ
ĠÐ¶Ð°Ñĥ Ð°Ð¿
Ð´Ðµ Ð»
ÐµÑģ ÑĸÐ½
Ð°ÑĤ ÑĤÑĭ
ĠÑĤÒ±ÑĢ ÒĵÑĭÐ½
Ð¼ Ðµ
ĠÐ±Ð°Ð¹Ð»Ð°Ð½ÑĭÑģ ÑĤÑĭ
ĠÑģ Ð°Ð±Ð°ÒĽ
ĠÐ¼ÐµÐº ÑĤÐµÐ¿
ĠÑĤ ÓĻÑĥ
ÑĸÐ» ÐµÑĢ
Ó© Ð»
Ð° ÑĦ
ĠÐ¿ ÐµÐ½
Ġ 7
Ð¾ Ðº
ĠÐŀ Ð»
ĠÐĳ ÑĸÑĢ
ÑĤÐ¸ Ð¶
ĠÐµ ÑĤ
ÐµÐ»ÐµÑĢ Ñĸ
Ð± Ð°Ð¹
Ñĥ ÑĪÑĭÐ»Ð°ÑĢ
ĠÑį ÐºÐ¾Ð½Ð¾Ð¼
ĠÐºÓ© ÑĪ
Ð ¥
Ð°Ð¹ ÑĭÐ½
ĠÐĲ ÒĽ
ÓĻ ÑĤÐ¸Ð¶
Ġ Ð°Òĵ
ĠÐ¾ Ð½
ĠÐº ÓĻÑģÑĸÐ¿
ÐµÐº ÑĤÑĸ
ĠÓ©Ð· Ð³ÐµÑĢ
Ð¹ ÐºÐµÑģ
Ð´Ðµ Ð¹
ÑĢÐµÐ· Ð¸Ð´ÐµÐ½
Ð»Ð°ÑĢ Ñĭ
ĠÑĤÒ¯Ñģ ÑĸÐ½
ĠÐ´Ð°Ð¼ ÑĭÑĤÑĥ
ÑĢ ÑĤ
Ð° ÑĤÑĭÑĢ
Ð¸ Ð¾Ð½
ÐµÑģ ÑĤ
ÑĤÐ°ÑĢ Ð´ÑĭÒ£
ĠÑĪÐ°ÑĢ ÑĥÐ°
ĠÐ¶Ò¯Ð· ÐµÐ³Ðµ
ĠÐ±Ð°Ñģ ÑĪ
ÑĸÐ¼ Ð´ÐµÑĢ
ÑĤÐ°ÑĢ ÑĭÐ½
ĠÐ´Ð°Ð¼ Ñĥ
ÐĲ ÑĤÑĭÑĢÐ°Ñĥ
Ð°Ð¼ ÑĭÐ·
ÒĽÑģ Ð°Ð½
ÑĤÑĭ Ð¿
Ð ĵ
ÐµÑĢ Ð¸Ð°Ð»
ĠÐµ ÑĤÑĥ
ĠÑĤ Ð°Ò£
ĠÑĸÑĪ ÐºÑĸ
Ġ201 8
ĠÓ© Ñģ
ĠÒĽÐ°ÑĤ Ð°ÑĢ
ÑĸÒ£ ÑĸÐ·
ÑĤ Ò¯
Ð¼ ÐµÐº
ÑĤÐ°ÑĢ Ð´Ñĭ
Ð°Ð»Ð°ÑĢ Ñĭ
ĠÐºÒ¯Ð½ Ñĸ
ĠÑģÓĻ Ð¹ÐºÐµÑģ
ĠÑĤÐ¾ Ð¿
ĠÐ¶ Ð¸Ð½
ĠÓĻ Ð´Ñĸ
ÑĤ Ð°ÒĵÑĭ
Ñĸ ÑĪ
ĠÐºÐµÐ» Ð³ÐµÐ½
ÑĤ ÐµÐ¼
Ðº ÐµÐ»
Ð» ÐµÐ½
Ð´ i
Òĵ ÑĭÑģ
ÒĵÐ° ÑĪ
ĠÒĽÒ±ÑĢ ÑĭÐ»
ĠÐ±Ð°ÑĢ Ð»ÑĭÒĽ
Ðµ Ð»Ñĸ
ĠÓ© Ð»
Ð°Ð» Ð°Ñĥ
Ð°ÑĤÑĭ Ð¿
ÑĤ Ð°Ð¹
ÐµÐ» Ð´ÐµÑĢ
ĠÐ¶Ð°ÑĤ ÒĽÐ°Ð½
ĠÒĽÐ°ÑĢ ÑģÑĭ
ĠÒļ Ð°ÑĢ
ÑĤÑĸ ÑĢ
ĠÐ Ĺ
ÐµÐº Ñĸ
ĠÐµ Ð´Ñĸ
Ð¸ Òĵ
ĠÐ± Ò±ÑĢ
ĠÐ± Ò¯
ĠÐ¶Ð¾ Ð±
ĠÐ½ ÓĻÑĤÐ¸Ð¶
Ð¾ÑĢ Ð¼
ĠÒ ®
Ð³Ðµ Ð¹
ĠÐ±Ð¾Ð» Ð¼
ĠÐ¶Ò¯ÑĢÐ³ÑĸÐ· Ñĥ
Ð°Ñģ ÑĭÐ½Ð°
ĠÑĤÐ°Ð¿ ÑģÑĭÑĢ
Ð½ Ðµ
Ñģ ÑĭÐ½ÑĭÒ£
ĠÐµÒ£ Ð±ÐµÐº
ĠÐ´ ÓĻ
Ñĥ Ñĸ
ÑĤÐ°Ð» ÒĵÐ°Ð½
ÑĸÐ¼ ÑĸÐ·
ĠÐ°Ð» Ð¼
Ġ 8
ĠÐ· ÐµÑĢÑĤ
ÑĭÐ» Ð°Ð´Ñĭ
ÑĪ ÑĸÐ»ÐµÑĢ
ĠÑģ ÐµÐ½
ĠÐ¶Ð¾Òĵ Ð°ÑĢÑĭ
ĠÓĻ Ð´Ðµ
Ð³ ÑĸÐ½ÑĸÒ£
1 9
ĠÒ±Ð¹ÑĭÐ¼ Ð´
Ð¾Ð»Ð¾Ð³ Ð¸ÑıÐ»ÑĭÒĽ
Ð°Ð» ÒĵÐ°Ð½
ĠÑĸ ÑģÑĤ
ĠÑĤÐ°Ð» Ð´Ð°Ñĥ
Ġ Ð°Ð²
ĠÒĽ Ð°Ð±
ÒĽ ÑĭÐ½
ĠÑģ Ð°Ñĥ
Òĵ Ð°Ñĥ
ĠÐµÐ½ Ð³ÑĸÐ·
ĠÐ°Ð¹ Ð½Ð°Ð»
ĠÐ±Ð¾Ð» ÑģÐ°
âĢ Ŀ
ĠÒĽÒ± Ð¶
Ð¿Ð¾ÑĢ ÑĤ
ÑĸÐ½ ÑĪÑĸ
Ñģ Ð°Ñĥ
Ġ /
Ġ2 0
ĠÒ± ÑģÑĤ
ĠÐ¶Ó©Ð½ ÑĸÐ½Ð´ÐµÐ³Ñĸ
Ð± Ñĸ
Ð°ÑĢ ÑĤ
ĠÑĸÑĪ ÑĸÐ½Ð´Ðµ
Ñģ ÐµÐ½
ĠÐ¼ Ð°Ò£ÑĭÐ·
ĠÐº ÑĸÑĢ
ĠÐ¶ Ñĸ
ĠÐ± Ð°Ð¹
Ñĥ Ð½
ĠÐ±Ð°Òĵ ÑĭÑĤ
ĠÐ¶Ð°Ñģ Ð°Ñĥ
Ð°ÒĽ ÑĭÐ»
ÑĸÐ» ÐµÐ´Ñĸ
Ð»Ð°ÑĢ Ð´ÑĭÒ£
ĠÐ´ ÐµÐ½
ĠÒĽÐ°Ð¶ ÐµÑĤ
ĠÐ°ÑĤ ÒĽÐ°ÑĢ
ĠÐ¼ ÑĭÒ£
ĠÑĤÓĻÑĢ Ð±Ð¸
ĠÐłÐµÑģÐ¿ÑĥÐ±Ð»Ð¸Ðº Ð°ÑģÑĭ
ĠÐ°Ð» ÑĭÐ¿
ÑĢ Ð°Ð½
Ð¸ Ð´
2 0
ĠÐµÑĢ ÐµÐº
Ð´Ð°ÑĢ ÑĭÐ½ÑĭÒ£
Ñĥ ÑĪÑĭ
Ñĸ Ð»Ñĸ
ĠÐ°ÑĢ Ð½
ĠÓĻ Ð»ÐµÐ¼
ĠÐºÓ©ÑĢÑģÐµÑĤ Ñĥ
ĠÐ¼ÓĻ Ð»ÑĸÐ¼
ĠÐ¾Ð»Ð°ÑĢ Ð´ÑĭÒ£
ĠÐľ Ò±
ĠÐ¼ Ð°Ð¼Ð°Ð½
ĠÐ¶Ð°Ð» Ð¿Ñĭ
Ð°Ð»Ð°ÑĢ Ð´Ñĭ
Ñģ Ñĸ
Ð¾ Ð·
ĠÐ¾ÑĢ ÑĤÐ°
ĠÓ© ÑĤÐµ
Ó© ÑĢ
ÓĻÑĢ Ñĸ
ĠÑĤ Ð°ÒĽÑĭÑĢ
Ġ2 00
ĠÑĤÐ¸ ÑĸÑģ
Ñģ ÑĭÐ½Ð´Ð°
ĠÐºÐµÐ· ÐµÒ£
ĠÐ¼ÐµÐº ÐµÐ¼
Ò£ Ð³ÐµÐ¹
ĠÐº Ñĸ
Ð´Ñĸ Ð³Ñĸ
ÑĤÐ°Ð¼ Ð°ÑģÑĭÐ·
Ð¸ Ð²
Ð°Ð¼ Ð°
Ð¼ ÑĭÑģ
k z
ĠÑģ Ð°Ð¿
ÑĭÒĽ ÑĤÑĭ
Ð¸Ñı ÑģÑĭ
Ñģ Ðº
Ð°Òĵ ÑĭÐ½
ÓĻ Ð¶
ĠÐ°Ð» Ð´
ĠÐ°ÑĢ ÑĤ
ĠÑĢ ÐµÑģ
ĠÐ´Ðµ Ò£Ð³ÐµÐ¹
Ð´ÑĭÒĽ ÑĤÐ°Ð½
Ð´Ð°ÑĢ ÒĵÐ°
Ð Ĵ
ĠÓ©Ð½ ÐµÑĢ
ĠÐ½ÐµÐ³ÑĸÐ· Ð³Ñĸ
ĠÑĤ Ð°Ð½
ÑĸÑĢ Ð³Ñĸ
Ġ201 7
ĠÒĽÐ°Ð¼ ÑĤÐ°Ð¼Ð°ÑģÑĭÐ·
ĠÐ± ÑĸÐ·
ĠÐ°Ð» ÒĵÐ°Ð½
Ð°ÑĢ Ð°
ĠÐ¾ÑĤÑĭÑĢ ÑĭÐ¿
Ò¯ Ð½Ð¸
Ñģ ÑĭÐ»
Ð»ÐµÐº ÑĤÑĢ
ĠÒĽÐ°ÑĢ Ð¶
ÑĸÐ¼ Ñĸ
Ñģ Ðµ
ĠÐ±Ð¾Ð» Ð°ÑĤÑĭÐ½
ĠÒļ Ð°Ð·Ð°ÒĽ
Ò Ĵ
Ð» ÐµÑģ
ĠÐ¼Ð°ÑĤ ÐµÑĢÐ¸Ð°Ð»
ÐµÐ¹ Ð½
Ð°ÑĤÑĭÐ½ Ð°Ñģ
Ð°ÑĤÑĤÐ°ÑĢ Ð´Ñĭ
ĠÑĤÒ±Ð» Òĵ
ĠÐĲÐ» Ð¼Ð°ÑĤÑĭ
ĠÐ¼ ÐµÑĢ
Ð¾ Ð´
ĠÑĤÐ¾Ð» ÑĭÒĽ
ÑĭÒĵ ÑĭÐ½
Ð¾ ÑĤ
Ġ1 0
ĠÐ ¤
Ð´Ð°ÑĢ ÑĭÐ½
Ġ 9
ĠÓ©ÑĤ ÐºÐµÐ½
ĠÐ± ÐµÑĤ
ĠÐµÑĢÐµÐº ÑĪÐµ
ÑĤÑĸ Ð»
ĠÑĤÐ°Ð±ÑĭÐ» Ð°Ð´Ñĭ
ĠÐ¼ÓĻ Ð´ÐµÐ½Ð¸
Ð´Ñĸ ÑĢÑĥ
Ð°Ð½ Ðº
Ð°Ð»Ð°ÑĢ Ð´ÑĭÒ£
Ð»Ð°ÑĢ Ð´Ñĭ
ÐµÑģ ÑĸÐ½ÑĸÒ£
ÐµÑĢ Ñģ
) .
ĠÐ¾ÑĢ Ð½Ð°Ð»
ĠÑĤ Ð°Ñģ
ĠÐ°ÑĥÐ´Ð°Ð½ Ñĭ
ĠÓ© Ò£
ÑĤÐµÑĢ Ð´ÑĸÒ£
ĠÑĤ Ð°Ñĥ
Ð¸Ð½ Ð³
ĠÐ Ń
ĠÐŀ ÑģÑĭ
ĠÐ¼Ð¸Ð½ Ð¸ÑģÑĤÑĢ
ĠÑĢÐµÑĤ ÑĸÐ½Ð´Ðµ
ÑģÑĤÐ°Ð½ Ð°
ĠÐ¶Ð°ÑĢ Ð¸Ñı
Ð°Ð» Ð°
Ð°Ð» Ð´Ñĭ
ÑĤÒ¯ Ñģ
ĠÑħ Ð°Ð»
ĠÒļ Ð°Ð·
Ñģ Ð°ÑĤÑĭ
Ð¾Ð² Ð°
ĠÐ±Ð°Ñģ ÑĤÐ°Ð¿
ĠÐ¼ ÐµÐ´
Ð¸ Ð¹
Ġ I
ĠÐ Ĵ
ĠÒĽÐ¾ÑĢ ÒĵÐ°Ñĥ
ĠÐ¾ Ð½Ñĭ
Ó© Ð¹
ÐºÐµÑĢ Ð»ÐµÑĢ
ĠÑģ ÑĭÐ±Ð°Ð¹Ð»Ð°Ñģ
ĠÑĤÐ°Ð» Ð°Ð¿
ĠÐ¶ ÐµÒ£
ĠÒĽÐ°ÑĤÑĭÑģ ÑĤÑĭ
ÑĭÐ¼ Ð´Ñĭ
Ð¶ Ð°Ð½
ĠÐºÓ©ÑĢÑģÐµÑĤ ÑĸÐ»ÐµÑĤÑĸÐ½
ÑĥÑĢ Ñģ
ÑĤ ÐµÑģ
ÐĲ ÒĽ
) ,
ÑĤÐµÑĢ Ð´Ñĸ
ĠÑģÑĭÐ½ ÑĭÐ¿
i Ð»
Òļ Ð°Ð·Ð°ÒĽ
ÐĲ Ðł
ÑĭÑĤ ÑĭÐ½Ð´Ñĭ
ĠÐ¼Ð°ÒĽ ÑģÐ°ÑĤ
Ðµ Ð³ÐµÐ½
Ð´Ðµ Ð¼
ĠÒ±Ð» ÑĤÑĤÑĭÒĽ
Ðµ ÑĦ
Ð Ń
ÐµÑĤ ÑĸÐ½ÑĸÒ£
ĠÑģ ÑĤÐ°Ð½
ĠÐ¾ÑĢ Ð½
ĠÐ¿ ÑĢ
ĠÐ°Ð» Ð°Ð´Ñĭ
ĠÐº Ò¯ÑĢ
Ð½ ÐµÐ½
ĠÑģÐ°ÒĽ ÑĤÐ°Ñĥ
ÑĭÑģ ÑĭÐ½ÑĭÒ£
ĠÐ¶ Ð¸
ĠÓĻÐ´Ðµ Ð±Ð¸
ĠÒĽ Ñĥ
ĠÑĤ Ð°Òĵ
Ð°ÑĤ ÑĤÑĭÒĽ
Ò ®
ĠÐ¾ ÑĤ
ĠÐ¾ÒĽ ÑĭÑĤÑĥ
ĠÐ¾Ð¹ ÑĭÐ½
ÐµÑĤÑĤÑĸ Ò£
ĠÐ £
ÑĸÐº ÑĸÑĢ
Ð°Ð»Ñĭ Òĵ
Ð´ Ð¶
ĠÐ± Ñĸ
ÑĭÐ½Ð´Ð° Ñĥ
ĠÑģÐ¾Ð½ Ð´Ð°Ð¹
ĠÐ°Ñĥ ÑĢÑĥ
ÑĭÑĢ ÑĤ
ĠÐ¾ÒĽÑĥ ÑĪÑĭÐ»Ð°ÑĢ
ĠÐºÐµ Ð»ÑĸÑģ
ÐµÐ½ ÑĸÒ£
ÑĤÐµÑĢ ÑĸÐ½
ĠÐº Ð»
ĠÐ±Ð°ÑģÒĽÐ°ÑĢÐ¼ Ð°ÑģÑĭ
ĠÐºÐµÐ·Ð´Ðµ Ñģ
Ð¾Ð³ ÑĢ
ÑĪÑĭÐ» ÑĭÒĵÑĭ
ĠÐºÐµÐ» ÐµÐ´Ñĸ
ĠÒĽÐ°Ð½ Ð´Ð°Ð¹
ĠÒļ Ðł
Òĵ ÑĭÐ·
Ðº ÐµÑĥ
Ñĸ ÑģÑĤÐµÑĢ
ĠâĢ ľ
ĠÒ¯Ð» ÐºÐµÐ½
ĠÐºÐµÐ· ÑĸÐ½Ð´Ðµ
ĠÒĵÑĭÐ»ÑĭÐ¼ Ð¸
Ð°ÒĽ ÑĤÐ°ÑĢ
ĠÐ± ÐµÐºÑĸ
ĠÓĻ Ñģ
Ñ Ĭ
ÐµÐ¹ ÑĤÑĸÐ½
Ð»Ñĸ Ð³ÑĸÐ½
ĠÒĽÒ±ÑĢ Ð°Ð»
Ð¿ ÐµÑĢ
Ðķ Ð¡
ĠÐ±Ò±ÑĢ ÑĭÐ½
ĠÑį Ðº
Ð°Òĵ Ð°ÑĤ
ĠÐºÓ© Ð¼ÐµÐº
ĠÒĽÒ±ÑĢ Ð°Ð¼
ĠÐ¶Ð°ÒĽ ÑģÑĭ
ĠÐºÐµ ÑĪ
ÑģÑĸÐ· Ð´ÑĸÐº
ĠÐĲ Òļ
Ð´ Ð°Ð¿
ĠÐ¼ÐµÐ¼Ð»ÐµÐº ÐµÑĤ
ĠÐ±ÑĸÑĢ Ñĸ
ĠÐ±Ð¾Ð» ÑĥÑĭ
ĠÒĽÐ¾ÑĢ ÑĭÑĤÑĭÐ½Ð´Ñĭ
ĠÐºÒ¯ ÑĪ
ĠÑĤÐµÒ£ Ð³Ðµ
ĠÐ°Ð» Ð´Ñĭ
Ð¼ ÑĭÐ·
ÑĤ ÐºÐµÐ½
ĠÐ¶ÐµÑĤ ÐºÑĸÐ·
ĠÐ± Ð°ÒĽÑĭÐ»
Ð½ Ð°
Ñģ Ð¸
ĠÓĻ Ð¹
ĠÐ·ÐµÑĢÑĤ ÑĤÐµÑĥ
ĠÐ³ Ð°Ð·
Ðµ Ð»ÑĸÐº
ĠÐ¶ Ð°ÑĤÑĭÑĢ
ÑĨÐ¸Ñı Ð»ÑĭÒĽ
i n
ÑģÑĤ Ð¸
Ð°Ð¹ ÑĤ
Ð°Ð»Ð°ÑĢ ÑĭÐ½
ĠÑĤÒ¯ÑĢ Ð´Ðµ
Ð¸ÑĨ Ð¸Ð½
âĢ ĵ
ĠÐºÓ© Ð»ÐµÐ¼
ĠÐ± Ñİ
Ð°Ð»ÑĭÒĽ ÑĤÐ°ÑĢ
Ð´ÐµÑĢ ÑĸÐ½
ÑĤÐ°Ð¼ Ð°
Ðĳ Ò±Ð»
ĠÑĤÒ¯ÑĢ Ð»Ñĸ
ĠÑģ ÐµÐ±
Ð³ i
ĠÑĤ ÑĸÐ»Ñĸ
ĠÐ Ľ
ĠÑĤÓ© Ð¼ÐµÐ½
ÑĤÒ¯Ñģ ÑĤÑĸÐº
ÒĵÐ°ÑĪ ÒĽÑĭ
Ð°ÑĤ Ñĥ
ĠÐŁ ÑĢÐµÐ·Ð¸Ð´ÐµÐ½
Ò£ Ð³Ñĸ
Ò¯ Ð»
ĠÒĽ Ð°Ñģ
ÑĤ ÐµÐ»
ĠÒĽÐ°Ð» Ð°ÑģÑĭ
Ð»Ñĭ ÒĵÑĭ
ĠÐ¾ Ðº
ĠÐ¿ ÓĻÐ½
ĠÐ´ Ò¯Ð½Ð¸
Ð°Ð·Ð°ÑĢ Ð±Ð°ÐµÐ²
ĠÓ©ÑĤ ÑĤÑĸ
ĠÓ©Ð½ Ð´ÑĸÑĢ
Ñģ Ð¸Ñı
ÒĽ ÑĤÑĭ
ÑģÑĤ Ð°ÑĢ
ÐµÑĢ Ñĸ
ĠÒĽÐ°Ð» Ð°Ð¹
ĠÑħÐ°Ð±Ð°ÑĢ Ð»
i ÑĢ
ĠÑģÑĤÐ°Ð½ Ð´Ð°ÑĢ
Ð ¤
ÑĤ Ð°Ð´Ñĭ
Ġ Ñı
ĠÓĻÑĢ Ñĸ
Ð°ÑĢ Ð»ÑĭÒĽ
Ò±ÑĢ ÑĭÑģ
ĠÐ¼ÐµÑĢ Ð·
ĠÑĤÓĻÑĥ ÐµÐº
Ð¸Ð· Ð¼
ÐĲ ÐĿ
ĠÒĽÐ°Ð¹ ÑĤÐ°
ÐµÐ½ Ñĸ
ĠÒĽ Ð°Òĵ
ĠÐ·Ð°Ò£ Ð´Ñĭ
Ð°Ñģ ÑĭÑĢ
ĠÐ¾Ð±Ð»ÑĭÑģ ÑĤÑĭÒĽ
ĠÑĸÑģ ÐºÐµ
ĠÐ±Ò± Ð·
Ð½ ÐµÑĢ
Ð¼ Ð°Òĵ
Ðº Ð°
Ġ ...
ĠÑħÐ°Ð»ÑĭÒĽ Ð°ÑĢÐ°Ð»ÑĭÒĽ
ÑĭÑģ ÒĽÐ°
ĠÑĪ ÐµÐº
ĠÓ© ÐºÑĸÐ»
Ð°ÒĽ Ñĭ
ĠÐĳ Ð°Ñģ
ĠÐ¼Ò¯Ð¼ÐºÑĸÐ½ Ð´ÑĸÐº
ĠÓĻ ÑģÐµÑĢ
ĠÐµ ÑĪ
ĠÓĻÐºÑĸÐ¼ Ñĸ
ĠÐº ÐµÐ¹
ĠÑģ Ð°ÑĤÑĭÐ¿
ÐµÐº ÑĤÐ¾ÑĢ
Ð°Ñĥ Ñĭ
Ð± ÑĬ
ĠÐ±Ð°ÑģÒĽÐ°ÑĢ Ñĥ
ÑĭÑģ ÑĭÐ½Ð´Ð°
Ðĳ Ð°Ñģ
ĠÐ¶Ð°ÒĵÐ´Ð°Ð¹ Ð´Ð°
ÐµÐ» ÐµÐ½
Ð± Ð°ÑģÑĭ
ĠÒĽÐ°Ñĥ ÑĸÐ¿
Ð°Ò£ Ð°
ĠÐ¿Ð°Ð¹ Ð´Ð°
ÑģÑĤÐ¸ ÑĤÑĥ
ĠÐ¾Ðº ÑĢÑĥ
ĠÐ±ÐµÑĢ ÐµÐ´Ñĸ
ÐµÐ´ Ð°Ð³
ĠÐ°ÑĤ ÑĤÑĭ
Ð½Ð¸ Ð²
e r
ÑĭÐ» ÑĭÐ¿
ÑĤÐ¸ Ð²
ÐµÐ´Ð°Ð³ Ð¾Ð³
ĠÐŀ ÑĢ
Ð¼ Ò±
ÐµÑģ ÑĸÐ½Ð´Ðµ
Ò ¢
Ð· Ð¸Ñı
ÑĤÐµ Ð´Ñĸ
Ò±Ð» Ñĭ
Ð± ÑĭÐ»
ĠÐºÓ© ÑĤÐµÑĢ
1 0
ĠÒĽ ÑĭÑĢ
Ð½Ð¸Ð² ÐµÑĢÑģ
ÐºÑĸÐ½ ÑĪÑĸ
ĠÐ°ÑĤ Ð°
ĠÐ°ÑģÑĭÑĢ Ñĥ
ĠÐºÑĸ ÑĤÐ°Ð¿
ĠÑģ ÐµÑĢ
Ðľ ÐµÐ¼Ð»ÐµÐºÐµÑĤÑĤÑĸÐº
ĠÐ±Ó©Ð»ÑĸÐ¼ Ñĸ
Òĵ ÑĭÐ»
Ð´ ÐµÑĤ
ĠÐĲ ÑĢ
ĠÐ±Ð°Ñģ ÑĤÑĭ
ĠÐ¼ Ð»
ĠÐ±Ñİ Ð´Ð¶
ĠÐ°ÑĤ ÑĭÐ½Ð´Ð°ÒĵÑĭ
ĠÐ¼Ò± Ð½
Ð´ Ð°Ñģ
Ġ1 5
o n
Ð°Ð¹ Ð´Ð°
Ð°Ð» Ð°Ð´Ñĭ
ĠÑģ Ð¿Ð¾ÑĢÑĤ
ÑĪ Ð°ÑĢ
ĠÐ¶Ò±Ð¼ÑĭÑģ ÑĤÐ°ÑĢ
ĠÑĤÓĻÑĥÐµÐº ÐµÐ»Ð´ÐµÑĢ
Ġ _
ÐĲ ÐĽ
ĠÐ¾ÑĢÐ½Ð°Ð» Ð°Ñģ
ĠÐ± ÑĸÐ·Ð´ÑĸÒ£
Ò »
Ð°Ð» ÑĮ
ĠÑĤ ÑĸÐ·
ĠÐ°ÑĢ Ð°ÑģÑĭÐ½Ð´Ð°
ĠÐ¡ Ð¾Ð»
ĠÐķ Ð»
Ð½Ð¸Ð²ÐµÑĢÑģ Ð¸ÑĤ
Ġ ÑĸÐ·
Ð°Ð¹Ð» Ñĭ
Ð°Ñĥ ÑĢ
ÑĤ ÑĤÐ°ÑĢ
Ġ201 6
Ñĭ Ð¹
ĠÐ¾ Ò£
Ñĥ ÑĭÐ½
Ð½ Ð¾
ĠÐ°ÑĥÑĭÐ» Ð´ÑĭÒĽ
i Ð¼
ÑĪ ÑĸÑģÑĸ
ĠÑģ Ó©Ð¹
ĠÐĲ Ð¹
Ñĥ ÑĭÐ½Ð°
ĠÐľ ÐµÐ¼Ð»ÐµÐºÐµÑĤÑĤÑĸÐº
Ð½ Ð°Ð¼
Ġ Ò±ÑĢ
ĠÐ±Ð°Ð¹ ÒĽ
Ð³Ñĸ Ð»ÑĸÐºÑĤÑĸ
Ð» Ð°
ĠÑį Ð»ÐµÐºÑĤÑĢ
ĠÐ±Ð°ÒĽÑĭÐ» Ð°Ñĥ
ĠÒ° Ð»
ĠÐ±ÑĸÑĢ ÑĸÐ½ÑĪÑĸ
Ð» ÑĮ
a n
ĠÐ¼Ò± ÒĵÐ°Ð»
ĠÐ´ Ð°Ð¹ÑĭÐ½
ĠÐ¼Ð°Ò£ÑĭÐ· Ð´Ñĭ
Ðº ÑĨÐ¸Ñı
ĠÐ¼ ÓĻÐ½
ÐĲ Òļ
ĠÑĤ ÐµÐ»
ĠÒĽ ÑĭÐ»
ÓĻÐ¶ ÑĸÑĢ
ĠÐ¿Ð°Ð¹Ð´Ð°Ð»Ð°Ð½ Ñĥ
ĠÑĢ Ñĥ
ĠÐ°ÑĥÐ´Ð°Ð½ Ð´ÑĭÒĽ
ÐµÑģ ÐµÐ¹
ĠÑĪ ÑĭÐ½
ĠÑĤÓ© ÑĢ
ĠÐº ÐµÑģÑĤ
Ð»Ð°ÑĢ ÑĭÐ½
ĠÐ¶Ñĸ Ð±ÐµÑĢ
ĠÐ±ÐµÐ»Ð³Ñĸ Ð»Ñĸ
ĠÑģÐ¾ ÑĤ
ĠÐ¶ ÐµÐ»
ĠÐµÑģ ÐºÐµÑĢ
ĠÒ± Ð·
ĠÐĿ Ò±ÑĢ
ĠÒĽ Ð¸
Ġ ÓĻÐ½
ĠÑģ Ð°ÑĢ
ĠÓĻ Ð»
ÓĻÐ¶ÑĸÑĢ Ð¸
Ġ ,
Ñģ ÑĸÐ½
âĢ ¦
Ð· ÑĸÑĢ
Ġ [
ÑĤÑĸ ÑĢÑĥ
Ð´ÐµÑĢ ÑĸÐ½ÑĸÒ£
Ð¸ ÑĦ
ĠÒĽÐ°ÑĢ Ð°Ð¹
ĠÐ°Ñĥ Ð´Ð°ÑĢ
Ð¼ ÑĭÐ½
Ð´ÐµÑĢ Ð´Ñĸ
Ð°Ð»Ñĭ ÒĵÑĭ
Ð» Ð°Ð¹
ĠÐķ ÑĢ
Ð½ ÐµÑģ
ĠÐļ Ó©
Ð¼ Ð¸
ÑĤÑĥ Ð´ÐµÐ½
ĠÑģ Ò¯Ð¹
ĠÒĽÐ°Ð¶ ÐµÑĤÑĤÑĸ
ĠÐ¿ÑĢÐ¾ ÑĨ
Òĵ Ð½Ð¸
ĠÑĤÐµÑħÐ½ Ð¾Ð»Ð¾Ð³Ð¸Ñı
ĠÑĦ Ð¸Ð»
ĠÐ´ ÐµÐ¹Ð´Ñĸ
ĠÒļ Ò±ÑĢ
ÑĤÐµ Ð³Ñĸ
ĠÐºÐ¾Ð¼ Ð¼
ĠÓĻÑĢ ÐµÐº
ÑĭÐ· ÑĭÐ»
ĠÒĽÐ¾ÒĵÐ°Ð¼ Ð´ÑĭÒĽ
ĠÑģ ÑĸÐ·
Ġ ÑĸÑĢ
Ò± Ñģ
Ð»ÐµÑĢ ÑĸÐ½
ĠÐ´Ðµ Ð´Ñĸ
Ġ 0
ÑĤÐ°Ð½ Ð´ÑĭÑĢÑĥ
ĠÐ±ÑĸÑĢ Ð³Ðµ
Òĵ ÑĭÐ½Ð°
Ð°Ð½ Ð´
ĠÑįÐºÐ¾Ð½Ð¾Ð¼ Ð¸ÐºÐ°Ð»ÑĭÒĽ
ĠÐº ÐµÐ¼
ĠÐº Ð¾ÑĢ
ĠÐ¿ Ð°ÑĢ
ĠÐ¶ Ð°Ð¹
ĠÐ¼ÐµÐ´ Ð¸ÑĨÐ¸Ð½
Ð¿Ð°Ð½ Ð¸Ñı
ÑĤ Ð¾Ð¼
ĠÐ±Ð°ÑģÑĪ ÑĭÑģÑĭ
ĠÐ±Ð°Ð» Ð°
ÑĤÐµ Ð³ÐµÐ½
Ñĥ ÑĤ
ĠÐ¿ ÑĸÐºÑĸÑĢ
i Ðº
Ð¼ ÐµÑĤÑĤÑĸ
Ð°ÑĤÑĭ Ð»
Ñģ Ð°ÒĽ
ÑĸÑģ ÑĤÑĸÐº
ĠÑģ Ð¸Ð¿
ĠÓ©Ð· Ñĸ
Ð°Ð½ Ð´Ñĭ
ÓĻÑĥ ÑĸÑĢ
ĠÑĤ Ð°Ð¼
ÑĭÐ½ ÒĵÐ°Ð½
ĠÐ± Ð°Ð½Ðº
ĠÒĽ Ð°ÑĤÑĭÐ½Ð°Ñģ
Ñĥ Ð¼
ĠÒ±Ð¹ÑĭÐ¼Ð´ Ð°ÑģÑĤÑĭÑĢÑĥ
ĠÓ©Ð· ÑĸÐ½
ĠÒĽÐ°Ð» Ð°
ÑģÐ°Ñĥ Ð»ÑĭÒĽ
ÑĭÐ» Ð°ÑĤÑĭÐ½
ĠÑģ Ð¸Ñı
Ñĥ Ð·
ĠÒĵ Ð°ÑģÑĭÑĢ
ĠÑģ ÑĥÑĢ
Ò± ÒĽ
ĠÓ¨ Ð·
ÐµÑģ ÑĸÐ½Ðµ
Ð¾Ð³ÑĢ Ð°ÑĦ
Ð³ ÑĸÐ½Ðµ
ĠÑĤÐ¾ ÒĽÑģÐ°Ð½
ĠÑĤÓĻÑĥÐµÐºÐµÐ»Ð´ÐµÑĢ ÑĸÐ½Ðµ
Ð¿ Ð°ÒĽ
ĠÒĽÐ°Ð»ÑĭÐ¿ ÑĤ
ĠÐ¾ÑĤÑĭÑĢ ÒĵÐ°Ð½
ĠÑĤÐ°Ð± Ð¸Òĵ
ĠÑĪ ÐµÑĤ
Ġ1 2
ĠÐ¼ Ðµ
Ð°ÑĤ Ð¸Ð²
ĠÐ´ Ò±ÑĢÑĭÑģ
ĠÑģ ÑĭÐ¹
ĠÑĤÐ°ÒĽÑĭÑĢ ÑĭÐ±
a r
ĠÐ¼ Ò±ÑĢ
Òļ Ð°Ð·
1 2
t i
ÑĢ Ð°ÑĤ
ĠÐ°Ð¹ ÑĤÑĥ
ÐµÑģÐ¿ÑĥÐ±Ð» Ð¸ÐºÐ°Ð»ÑĭÒĽ
ĠÐ´ ÑĸÐ½
Ð´ÐµÑĢ Ð´ÑĸÒ£
ĠÒļ Ð¾
ĠÐ´ ÐµÐ¼
ĠÑĪ ÑĭÒĽ
ĠÐ°ÑĢÐ½ Ð°Ð¹Ñĭ
ĠÐ½ ÑĭÑģ
ÑĤ ÑĤÑĭ
ĠÒ¯Ð¹ ÑĢ
ÑĤÐ¾ ÒĽÑģÐ°Ð½
ĠÓ©Ð· ÑĸÐ½ÑĸÒ£
ĠÑģÐ¸Ñı ÒĽÑĤÑĭ
ĠÑĪ Ð°ÒĽÑĭÑĢ
ĠÑĤ Ð°Ð½ÑĭÑģ
Ð± Ð¾Ð»
ĠÐ½ Ð°ÒĽÑĤÑĭ
ÑħÐ°Ð½ Ð¸
ĠÒ¯ Ð·
ÑĭÑģ ÑĤÐ°ÑĢ
ĠÓ©Ð· Ð³Ðµ
ĠÐ¿ Ð¾
Ðº Ò¯Ð¹
Ð°Ð» Ð¿Ñĭ
ĠÐ· Ð°Ð¼Ð°Ð½
1 8
ÑĤÑĥÐ´ÐµÐ½ ÑĤ
ÑĪ ÑĭÑģÑĭ
ĠÐ¼ÑĸÐ½Ð´ ÐµÑĤÑĤÑĸ
ÑĤ Ó©
201 8
ĠÐ°Ñı ÒĽ
ĠÑĸ ÑģÑĤÐµÑĢ
ĠÐŀ Ð½ÑĭÒ£
ĠÒ¯ ÐºÑĸÐ¼
ĠÓ© ÑĢ
Ð°ÑĥÑĢ ÑĭÐ·
Ġ1 8
Ð» ÐµÑĤ
Ð Ļ
ĠÒĽÐ¾ Ð·
ĠÒĽÐ°Ð» ÒĵÐ°Ð½
ÑĤÐ°Ð» Ð´Ñĭ
ĠÐ±Ò¯ Ð³ÑĸÐ½
5 0
ĠÑĤÐ¸ ÑĸÐ¼Ð´Ñĸ
ÑĢ Ð¸
ĠÐºÐµÒ£ ÐµÑģ
ÑģÑĤ ÐµÐ¼
ĠÑģ Ð°Ð½Ñĭ
ĠÒ± ÑĪ
Ð½Ðµ ÑĪÐµ
Ð°Ð· Ñĭ
ĠÑĦ Ð°Ðº
ÐµÐ¼ ÑĸÐ·
ĠÓĻÑģ ÐºÐµÑĢ
ĠÒĽ Ð¾Ð½
ĠÓĻÐºÑĸÐ¼ ÑĸÐ½ÑĸÒ£
ĠÐºÐµÑģÑĤ ÐµÑģÑĸ
ĠÐ¾Ð±Ð»ÑĭÑģ ÑĭÐ½ÑĭÒ£
âĢ Ķ
ĠÑĪÐ°ÑĢÑĥÐ° ÑĪÑĭÐ»ÑĭÒĵÑĭ
Ġ201 5
Ò¯ Ð½
Ð´Ñĸ Ð³ÑĸÐ½
ĠÐ¶Ò¯ÑĢ Ð³ÐµÐ½
ĠÐ¼Ò¯ ÑĪ
ĠÒ Ĵ
Ñģ Ð¸Ñħ
ÐµÐ± Ñĸ
ĠÐ¶Ð°ÑĢ ÑĤÑĭ
ÑĭÐ» ÑĭÒĽ
Ð¾ Ò£
Ð¼ ÑĸÐ·
ĠÒĽÐ°ÑĢ Ð°
Ð°Ð» Ð°Ð»Ð°ÑĢ
Ðµ Ð³Ñĸ
s t
Ò±Ð» ÑĤÐ°Ð½
É Ļ
ĠÐ±Ð°ÑĢ ÑĭÑģÑĭÐ½Ð´Ð°
ĠÐ¶ Ð°Ð±
o r
ÐºÑĸ ÑĪ
ĠÐµ Ð»ÑĸÐ¼
ĠÐ¼Ð°ÒĽ ÑģÐ°ÑĤÑĭ
Ð¾ÑĢ ÑĭÐ½
ÐĲ Ñĥ
ĠÑģÐ°Ñı ÑģÐ°ÑĤ
Ñģ Ð¿
ĠÑĤ ÓĻÐ¶ÑĸÑĢÐ¸
ĠÐĳÑĸÑĢ Ð°ÒĽ
ĠÒĽÐ¾Ð» Ð´Ð°Ñĥ
ĠÑĤÐ¾ ÒĽ
1 7
ĠÐ¸ Ðµ
ĠÐ¼ Ð°
ĠÒĽÐ¾Ð»Ð´Ð°Ð½ Ñĥ
ĠÐ±Ð°ÑģÑĪ ÑĭÑģÑĭÐ½ÑĭÒ£
ĠÐ°Ð» ÑĥÒĵÐ°
ÐµÐ» ÐµÑĥ
ĠÐĲ ÑģÑĤÐ°Ð½Ð°
ĠÑĥ Ð½Ð¸Ð²ÐµÑĢÑģÐ¸ÑĤ
ĠÑģ ÑĸÐ»
ÑĤi Ðº
Òĵ Ð°Ð¹
Ðº ÐµÐ¼
ĠÐ¶ÑĭÐ» ÒĵÐ°
ĠÐ¼ÓĻÑģÐµÐ» ÐµÐ»ÐµÑĢ
ĠÑĤÐµÐº ÑģÐµÑĢ
ĠÐł ÐµÑģÐµÐ¹
ĠÐĿ Ð°Ð·Ð°ÑĢÐ±Ð°ÐµÐ²
ĠÐ¶ÐµÐ¼ÒĽÐ¾ÑĢÐ»ÑĭÒĽ ÒĽÐ°
_ _
ĠÒļ Ò±
ÑĤÐµÑĢ Ð³Ðµ
ĠÒĽÒ± Ð½
ĠÐ¾ ÒĵÐ°Ð½
Ð³ ÑĸÐ½Ð´Ðµ
ĠÑĤÒ±ÑĢ ÒĵÐ°Ð½
Ñģ ÑĭÐ¼
Ò¯ÑĢ Ð»Ñĸ
ĠÐ¥ Ð°Ð»ÑĭÒĽ
ĠÐºÒ¯ Ð¹
Ð¸Ð· Ð½ÐµÑģ
ĠÒĽÑĭÐ·Ð¼ÐµÑĤ Ñĸ
ĠÐ¶ÐµÑĢ Ð³ÑĸÐ»ÑĸÐºÑĤÑĸ
ĠÓ©Ð» ÐµÒ£
ÑĥÐ» ÑĮ
ĠÐ¿Ð°Ð¹ ÑĭÐ·
Ð² ÐµÑģ
Ð´Ðµ Ñģ
ĠÐ¼ÐµÐº ÐµÐ½
ĠÐ°Ð¹ÑĤ ÒĽÐ°Ð½
ĠÐº Ð¸
ĠÐ° ÑĪÑĭÐ»
ĠÐºÓ© Ò£
ĠÒĽÐ°Ñģ Ð¸
Ð°Ð» ÑĭÐ¼
Ð´Ð°ÑĢ ÑĭÐ½Ð°
1 1
ĠÐµÐºÐµÐ½ ÑĸÐ½
Ðķ Ðł
ÑĪÑĸ Ðº
ĠÐ°Ð´Ð°Ð¼ Ð½ÑĭÒ£
Ð»Ð°Ð½ ÒĵÐ°Ð½
ĠÑģ ÐµÐ·
ĠÐµ ÑĤÐµÐ´Ñĸ
Ð»Ð°ÑĢ ÑĭÐ½ÑĭÒ£
Ð¾ ÒĽ
Ò±Ð¼ ÑĭÑģ
ĠÐ± Ð¾Ñģ
Ðĳ ÑĸÑĢ
ĠÐ±Ð°Òĵ Ð°Ð»Ð°Ñĥ
ĠÐºÐµÐ» Ðµ
ĠÐ¶Ð¾ÑģÐ¿Ð°ÑĢ Ñĭ
ĠÐºÓ©ÑĢ ÑĸÐ½
ĠÑħ Ð°ÑĤ
ĠÐ´ ÓĻÑĢ
ĠÐ¼ Ð°ÑĢ
ĠÐ¼ Ð°Ð·
ĠÐ´ ÐµÑĢÐµÐº
ÐµÐº Ñģ
ĠÑħÐ°Ð» ÒĽ
Ġ19 9
ĠÐ±ÑĸÐ» Ð´ÑĸÑĢ
ÑĭÐ¼ ÑĪÐ°
Ðµ Ð³ÑĸÐ·
ĠÑĢ Ðµ
ÑĤ Ð°ÒĵÐ°Ð½
ÐµÐ¼ ÐµÐ½
ÐµÐ¼Ð»ÐµÐº ÐµÑĤ
e n
ĠÐ¿ Ð¾ÑĢ
ĠÐ¿ ÐµÐ´Ð°Ð³Ð¾Ð³
ĠÑĪÑĭÒĵÐ°ÑĢ Ð¼Ð°
ÑģÑĤ ÑĢ
Ð´Ñĭ ÒĵÑĭ
Ó©Ð» ÑĪ
ĠÑĤ Ð°ÒĵÑĭ
ĠÐ½ Ð°ÑĢ
ĠÐµ ÐºÑĸÐ½ÑĪÑĸ
ĠÐ°Ð» ÒĵÐ°ÑĪÒĽÑĭ
ĠÓ©Ò£ ÑĸÑĢ
Ð¿ Ð°Ð¹
ÐºÐµÑĢ Ð»ÑĸÐº
Ð±ÑĬ ÐµÐºÑĤÑĸ
ĠÐ´ÓĻ Ð»
Ð± Ð°ÑĤ
ĠÐ´ÐµÐ¹ÑĸÐ½ Ð³Ñĸ
Ð« ÐĿ
ĠÑģ Ò¯ÑĢ
ĠÐ°Ð¹ ÑĭÑĢ
ĠÒļÐ°Ð·Ð°ÒĽÑģÑĤÐ°Ð½ Ð½ÑĭÒ£
ÑĨ Ð¸Ð¾Ð½
Ð°Ñĥ ÒĵÐ°
ĠÐ± ÐµÐ¹
ĠÐ¾ÑĢÑĭÐ½ Ð±Ð°Ñģ
ĠÒĽÐ°Ð· ÑĸÑĢÐ³Ñĸ
Ð°Ñģ Ñģ
ĠÑĤÐ°ÑĢÐ¸Ñħ Ñĭ
ÒĽ ÑĭÐ·
ĠÐ¶Ò¯ Ðº
ĠÐŀ ÒĽ
ĠÒ°Ð» ÑĤÑĤÑĭÒĽ
ĠÑģ ÑĭÑĢÑĤ
ÑĤÐ°ÑĢ ÒĵÐ°
Ð¸Ñģ ÑģÐ¸Ñı
ĠÐ±ÑĸÑĢ Ð½ÐµÑĪÐµ
Ð¡ Ð°Ð±Ð°ÒĽ
ÒĵÑĭ ÑĢ
ĠÐĹ Ð°Ò£
Ð¿ Ð°Ñģ
ÐĲ Ð¡
Ġ ÑĭÒĽ
Ð« Òļ
Ò¯ Ð³ÑĸÐ½
Ġ A
ĠÐ±ÐµÐ» ÑģÐµÐ½
ÑĪ ÑĭÐ½
Ð°Ñĥ ÑģÑĭÐ¼
ĠÓ©Ð½ ÑĸÐ¼
Ð°ÑĤ ÐµÐ³
Ð¾ÑĢ Ð´Ð°
Ð¸Ð» Ð»
201 7
ÑĢ Ð°Ð¼
Ðļ Ó©
Ð» Ð¾
Ð¸ Ð´Ðµ
ÑĦ ÐµÑĢ
ÑģÑĭÐ½ Ð´Ð°Ð¹
Ñĥ Ñģ
ĠÐºÐµ Ð»ÑĸÐ¿
ĠÓ©ÑĤ ÑĸÐ½
ĠÐ±Ð¾Ð» Ñĥ
Ð°ÑĪ Ð°ÒĽ
ÑĤ Ð°ÑĤ
Ð¸ Ðµ
Ð»Ñĸ Ð³ÑĸÐ½ÑĸÒ£
ĠÑĤÐ°Ð¿ÑģÑĭÑĢ Ð¼
Ð¡ Ð¾Ð½
ĠÐ°Ñı ÑģÑĭÐ½Ð´Ð°
Ð½ÐµÑĢ Ð³
Ðŀ ÒĽ
ĠÐ°Ñĥ ÑĭÑĢ
Ð»Ð°ÑĢ ÒĵÐ°
Ð¶ ÑĭÐ¼
1 6
ĠÒĽ Ò±Ð»
ĠÑģÐ¸Ð¿ Ð°ÑĤ
ĠÑģÐ°Ð¹ ÑĭÐ½
Ð± ÐµÑĤ
Ð´Ðµ Ð¿
a l
Ð¸ Ð³
ĠÒĽÒ±Ð¶ Ð°ÑĤÑĤÐ°ÑĢ
ĠÓĺ ÑĢ
Ð¼ Ð°Ð¹
1 4
ĠÐ´ ÓĻÑĢÑĸ
ĠÐ¼ ÐµÑĤ
Ð¼ Ð°ÒĵÐ°Ð½
ÐµÑĤÑĤÐµÑĢ Ñĸ
ĠÐ°Ð´Ð°Ð¼ Ð´Ð°ÑĢ
Ð¼ Ñĸ
ĠÐ½ÑĭÑģ Ð°Ð½
Ð°Ñı Ð½
ĠÑĤÐ°Ð± ÑĭÑģ
ÓĻÑģ Ñĸ
ĠÐ¢ Ò¯ÑĢ
ĠÓ©Ð·Ð³ÐµÑĢ ÑĸÑģÑĤÐµÑĢ
ÑĤÑĭÐ» ÒĵÐ°Ð½
Ð°ÑĤ ÑĥÑĢ
ĠÑģÐµÐ± ÐµÐ¿
Ðº ÑĥÑĢÑģ
ĠÐĲ Ñĥ
Ð¸ ÐµÐ²
ÑĸÐ¿ ÑĤÑĸ
Ġ ÑĭÐ½
ĠÑģ ÑĤÑĥÐ´ÐµÐ½ÑĤ
ĠÐ¡Ð¾Ð½ Ð´ÑĭÒĽÑĤÐ°Ð½
ĠÐ´ Ð°Ñĥ
ĠÒĽÒ±ÑĢ ÑĭÐ»ÑĭÐ¼
ĠÐ°ÑĪ ÑĭÒĽ
ĠÐ±ÐµÑĢ ÐµÑĤÑĸÐ½
i Ò£
ĠÒ±Ð¹ÑĭÐ¼Ð´ Ð°ÑģÑĤÑĭÑĢ
Ġ Ð°Ð³
ĠÒĽ ÑĭÑģ
ĠÑĪÐµÑĪ ÑĸÐ¼
ÑĤ ÑĤÑĸ
ĠÒ¯ ÑģÑĤ
ÐµÑģ Ñģ
ĠÒ¯ Ð½
Ð°Ò£ ÑĤÐ°ÑĢ
ĠÑĤÒ±ÑĢ Ð°ÒĽÑĤÑĭ
ĠÐ±ÐµÑĢ ÑĸÐ»Ð³ÐµÐ½
Ġ2 5
ĠÐ±ÐµÑĢ Ð³ÐµÐ½
ÑĤÐµÐ¼ Ðµ
ĠÐµÐ½Ð³ÑĸÐ· Ñĥ
3 0
Ð°Ñģ Ð°
Ġ Â»
ÑĪ ÑĭÐ½ÑĭÒ£
ĠÐ¼Ð°ÒĽÑģÐ°ÑĤ ÑĭÐ½Ð´Ð°
Ð± ÐµÐ½
ĠÐ°ÑĢÑĤ ÑĤÑĭÑĢÑĥ
ÑĤÓ© Ð±Ðµ
ÐµÑĤ ÐºÐµ
ĠÐ¶ÑĭÐ» Ð´Ð°Ð½
ĠÐ¼ Ó©Ð»ÑĪ
ĠÑģ Ð°ÒĵÐ°ÑĤ
ĠÐ°ÑĢ Ð°ÑģÑĭÐ½Ð´Ð°ÒĵÑĭ
Ġ1 4
Ð´Ð° ÒĵÐ°Ð½
ĠÒĽÐ°Ð»ÑĭÐ¿ ÑĤÐ°Ñģ
Ñĥ Ð´Ð°
ĠÒĽÑĭÐ» Ð¼ÑĭÑģ
ĠÐ°Ð¹ ÑĤÑĭÐ¿
ÑĭÒĵ ÑĭÐ½Ð°
ĠÒĽÐ°ÑĢÐ¶ Ñĭ
Ġ C
ĠÑĤÑĥ ÒĵÐ°Ð½
ĠÐ±ÑĸÑĢ Ð°ÒĽ
ĠÒĽÐ°Ð± ÑĸÐ»
2 5
ĠÐºÐ¾Ð¼ Ð¿Ð°Ð½Ð¸Ñı
ÑĤÐ°Ð» Ð°Ð´Ñĭ
ĠÐ°Ð·Ð°Ð¼ Ð°ÑĤÑĤÐ°ÑĢÐ´Ñĭ
ÑĭÑģ ÑĤÑĭÑĢ
ĠÒĵ Ð¾Ð¹
Ġ1 6
ĠÒĽÒ±ÑĢÑĭÐ» ÑĭÑģ
1 5
ĠÓĻ Ð·ÑĸÑĢ
ĠÑģÐ°Ð¹ ÑĤ
ĠÒ¯Ð» Ð³Ñĸ
ĠÐ°ÑĤ Ð°Ð¿
Ð°Ð¼ ÐµÐ½
ĠÐµÑĢ ÐµÐ¶
ĠÐ°ÒĽÐ¿Ð°ÑĢÐ°ÑĤ ÑĤÑĭÒĽ
ĠÐ¾Ð»Ð°ÑĢ Ð´Ñĭ
ÑĸÐ½Ðµ Ð´Ñĸ
ĠÐ± ÐµÑģ
Ġ3 0
ÐµÐ¼ Ð°ÑĤ
ĠÐ¾ÑĢÐ½Ð°Ð»Ð°Ñģ ÒĽÐ°Ð½
Òļ Ò±ÑĢ
Ñĥ Ð±
ĠÒĽÑĭÐ·Ð¼ÐµÑĤ ÑĤÐµÑĢ
ĠÒĽÐ¸ ÑĭÐ½
Ðĳ ÑĸÐ·
ĠÐ°ÒĽ ÑĭÐ½
ĠÒĽ Ð°
Ð° ÐµÐ²
ĠÐºÓ© Ðº
ĠÐ¼ÐµÐ´Ð¸ÑĨÐ¸Ð½ Ð°Ð»ÑĭÒĽ
ÐºÐ¾Ð½Ð¾Ð¼ Ð¸ÐºÐ°Ð»ÑĭÒĽ
ĠÑģÐ¾Ò£ ÒĵÑĭ
ĠÐ¼Ð°Ð· Ð¼Ò±
ĠÐ°Ð»Ð´ ÑĭÐ½
ĠÑģÐ°Ð» Ð°ÑģÑĭÐ½Ð´Ð°ÒĵÑĭ
ĠÐĺ Ð½
ĠÑĢÐµÑģ Ð¼Ð¸
ÐµÐ½ ÑĤÑĸ
Ð°Ð» Ð´ÑĭÒĽ
ĠÐ°Ð·Ð°Ð¼ Ð°ÑĤÑĤÐ°ÑĢ
ÑĭÑĤ Ð°Ð¹
ĠÐ±ÐµÐºÑĸ ÑĤÑĥ
ĠÑģÒ±ÑĢ Ð°ÒĽ
ĠÑĪÑĭÒĽ ÒĽÐ°Ð½
Ġ S
Ð· Ð°Ð¼
ÑĭÑģ ÑĤÑĭÒĽ
ĠÑģÐ°Ñı ÑģÐ¸
Ñģ Ð°ÑĢ
Ð»ÐµÐ½ Ð³ÐµÐ½
ĠÐ¾ Ð´Ð°Ð½
ĠÐ¾ÑĢÑĤ Ð°Ð»ÑĭÒĵÑĭ
ĠÐ°Ð¿ Ð¿Ð°ÑĢ
ĠÓĻ Ò£Ð³Ñĸ
ĠÐ´ Ð¸
l e
ĠÒĽÐ°Ð¼ ÑĤÑĥ
ÑĥÑĢ Ð½Ð°Ð»
ĠÐ±ÐµÑĢ Ð´Ñĸ
ĠÐ°Ð¹ Ð¼Ð°ÒĽ
ĠÑĤÒ¯ÑĢ Ñĸ
Ñĥ Ð´Ñĭ
Òĵ ÑĭÐ¼
ĠÑĤÓĻÑĢ ÑĤÑĸ
ĠÐ¼ ÐµÑĢÐµÐº
Òļ Ð°ÑĢ
ĠÐľ ÐµÐ½
ÐĨ ÐĨ
Ð¸ÑĤ Ð¾ÑĢ
ĠÑįÐ»ÐµÐºÑĤÑĢ Ð¾Ð½
Ð¸Ð¼ ÑĭÐ»
ÒĽ Ò±
Ð°ÑĤ ÑĤÑĭÒ£
ÐµÐ» ÑĮ
Ð»ÐµÑĢ Ð´ÑĸÒ£
ÓĻ Ð»
ĠÓĻÑģÐºÐµÑĢ Ð¸
ĠÐºÐµÑĤ ÐºÐµÐ½
Ð°Ð»ÑĭÒĵ ÑĭÐ½Ð´Ð°
Ñĥ Ð´Ðµ
ĠÑĤ ÐµÐ¼
ĠÐ¾ÑĢÑĤ Ð°Ð»ÑĭÒĽ
Ð°Ñĥ Ð°Ð·
ÑĤ Ð¸ÐºÐ°Ð»ÑĭÒĽ
ĠÑĥÐ°ÒĽÑĭÑĤ ÑĤÐ°
ĠÑĤÐ°ÒĽÑĭÑĢ ÑĭÐ¿
Ðº ÑĥÑĢ
ĠÐ±ÐµÐ»ÑģÐµÐ½ Ð´Ñĸ
Ð¼ Ð¸Ð½
ÑĭÐ¼ Ð°Ð»
Ð´Ð°Ð¹ Ð´Ñĭ
ĠÑĪÐ°ÑĢÑĥÐ° ÑĪÑĭÐ»ÑĭÒĽ
ĠÐ¶Ò¯Ð¹ ÐµÑģÑĸ
Ð²ÐµÑģ ÑĤÐ¸
ÑĪ ÑĭÒĽ
Ð¿ Ðµ
Ð°ÑĨÐ¸Ñı Ð»ÑĭÒĽ
Ġ1 7
Ġ .
ÐĲÐ» Ð¼Ð°ÑĤÑĭ
ĠÐºÒ¯ÑĢ ÐµÑģ
ĠÐ½ Ò±Ñģ
Ð°Ð»Ð°ÑĢ ÒĵÐ°
ĠÐ¼ ÑĭÐ½Ð°
Ð¹ ÑĤÐºÐµÐ½
Â» .
ĠÑĤÐ°Ñĥ Ð°ÑĢ
ĠÐ¿ Ð¾Ð»
ĠÐĲ ÑĤÑĭÑĢÐ°Ñĥ
ÓĻ Ð¼
ĠÒĽÐ°Ð»ÑĭÐ¿ÑĤ Ð°ÑģÑĤÑĭÑĢÑĥ
ĠÐ±Ð¾Ð¹ Ñĭ
ĠÒĽ Ð°Ð·Ð°ÒĽÑģÑĤÐ°Ð½
ĠÒĽÐ°ÑĢ ÑĭÐ¼
Ð°ÑĤ Ð¾ÑĢ
ĠÐ¶Ð°Ð» Òĵ
ÐµÒ£ Ð³ÐµÑĢ
ĠÑı ÒĵÐ½Ð¸
ĠÐ¼Ð» Ð½
ĠÐĸ Ð°ÑĢ
Ġ- -
Ñĥ ÑĪÑĭÐ»ÑĭÒĽ
Ð¸Ð½ Ð°ÑĢ
. ,
ĠÐ¶ÐµÑĢ Ð´Ðµ
ÐµÐº ÑĤÐµÐ¿
ĠÐºÓ©Ò£ ÑĸÐ»
ĠÐ» Ð°ÑĥÐ°Ð·
ÐºÐµÐ» Ð³ÐµÐ½
ĠÐ¼ Ð¾Ð½
ÑĭÒĵ ÑĭÑģ
ÐĲ ÑĢ
ÑĤÑĸ Ð³Ñĸ
ĠÑģ Ð°Ð»ÑĭÒĽ
ĠÐĸ Ð¾Ð»
Ð¾ Òĵ
ÑĤÐµÑĢ Ð½
ÑĸÑĢ Ñĥ
ĠÐ¶ÐµÐ» ÑĤÐ¾ÒĽÑģÐ°Ð½
Ð¾ Ð±
ĠÐº ÐµÑģ
ĠÒĽÐ°ÑĢ Ð°Ð¿
Ġ1 1
ĠÐ°Ð½ÑĭÒĽ ÑĤÐ°Ñĥ
ÑĤÐµ Ò£
Ð´Ð°ÑĢ ÑĭÐ½Ð´Ð°
Ðŀ ÑģÑĭ
ĠÓ©ÑĤÐºÑĸÐ· Ñĥ
ĠÐºÐµÐ» Ð´Ñĸ
ÑĤÐ°Ð½ Ñĥ
Ð°Ð¼ ÑĭÑĢ
iÐ½ Ð´Ðµ
ĠÐºÓ© Ð±
ĠÐ¼ Ð°ÑĥÑģÑĭÐ¼
Ð´ÐµÑĢ Ð³Ðµ
Ġ1 00
ĠÑħÐ°Ð±Ð°ÑĢÐ» Ð°Ð¹Ð´Ñĭ
ĠÒ±ÑģÑĤ Ð°Ð·
ÐĿ Ò±ÑĢ
ĠÐºÓ©Ð¿ ÑĤÐµÐ³ÐµÐ½
Ġ1 3
ĠÐ±Ó© Ð»ÑĸÑģ
ÑĭÐ» ÑĥÑĭ
Ð¸Ð´Ðµ Ð¾
Ð´Ðµ Ð»Ñĸ
ĠÐºÐ¾Ð¼ Ð¸ÑģÑģÐ¸Ñı
Ð¹ÑĤÐºÐµÐ½ Ñĸ
t t
ĠÑģ Ð°Ð¹Ð»
ĠÐŀ Ð»Ð°ÑĢ
ÓĻÑĥ ÐµÐ»
Ðº ÓĻÑģÑĸÐ¿
Ð»ÐµÑĢ Ð´Ñĸ
Ó¨ Ð·
Ð¼ ÐµÐ¹
Ðľ Ò±
Ð¸ÑĢ ÐµÐºÑĤÐ¾ÑĢ
Ð± Ð°ÑĢ
ĠÐ¼ÐµÐº ÑĤÐµ
ĠÐºÐµÐ»ÑĸÑģ ÑĸÐ¼
Ð¸ ÑĨÐ¸Ñı
ÐºÐµÐ½ ÑĤ
Ð°ÒĵÐ°Ð½ Ð´Ð°
ÑĤÐµÑĢ ÑĸÐ½ÑĸÒ£
Ð¼ ÐµÐ¹Ð´Ñĸ
Ð´ÐµÐ» Ð³ÐµÐ½
Ðķ Ð¢
ĠÐ¿ Ð°ÑĤ
Ò¯ Ð·
ĠÐ°Ð¿Ð¿Ð°ÑĢ Ð°ÑĤÑĭ
ÒĽ Ð°ÑĤ
ĠÐ½ ÓĻÑĢ
ĠÐ±Ó©Ð» ÑĸÐ½
ĠÐ¿ ÑģÐ¸Ñħ
Ð» Ð°Ð¿
ĠÐºÐ¾Ð¼ Ð¸ÑĤ
Ðº ÑĸÑĢ
ĠÑĤÓĻÑĥ ÐµÐ»
ÑĭÒĵ ÑĭÐ½ÑĭÒ£
ĠÐ°Ñģ ÑĤÐ°Ð¼
ĠÐ¾ÑĢÑĭÐ½ Ð´Ð°Ð»
ĠÐŀ ÑĤÐ°Ð½
ĠÐ¾Ð½ Ð´Ð°
ĠÑĤÐ¾ Ð±
ĠÐļ Ð¾Ð½
ĠÐ½ÐµÐ³ÑĸÐ· ÑĸÐ½Ð´Ðµ
i Ð·
a z
ĠÐº ÐµÑĢ
ÓĻ Ð´ÐµÐ½Ð¸
ĠÑĤÒ±ÑĢ Ð°Ð´Ñĭ
Ð°Ð» ÑĭÐ¿
ĠÒĽÐ¾Ð· ÒĵÐ°Ð»
ÑĭÑģ Ð°Ð»Ñĭ
Ð¼ ÑĸÐ½
ĠÑĤ ÑĭÒ£
ĠÐ±ÑĸÑĢ Ð»ÐµÑģ
d i
Ñģ Ò±Ð»ÑĤÐ°Ð½
ĠÒĽÐ°Ð» Ð°ÑģÑĭÐ½ÑĭÒ£
ĠÐ¼ ÐµÒ£Ð³ÐµÑĢ
ĠÒĽ Ð°Ò£ÑĤÐ°ÑĢ
ĠÐ°Ðº ÑĤÑĸ
ĠÐ°Ð½ÑĭÒĽ ÑĤÐ°Ð¼Ð°
ĠÐķ Ð³ÐµÑĢ
Ð°Ð· Ð°
ĠÐ¾ÑĢ ÑĭÑģ
ĠÑĪ Ñĭ
ĠÐ¾ÐºÑĢÑĥ Ð³Ñĸ
ĠÑĤ ÓĻÑģ
ĠÑģÑĤÐ°Ð½Ð´Ð°ÑĢ ÑĤÑĭ
Ġ N
ĠÐŁÑĢÐµÐ·Ð¸Ð´ÐµÐ½ ÑĤÑĸ
ĠÐĳ ÑĸÐ·
Ð¸Ð¼ Ð¿
ĠÑĪÐ°ÑĢ ÑĤ
Ð´ÑĭÒĽ ÑĤÐ°ÑĢ
1 3
ÐĲ Ð¹
ĠÐ¼ÓĻÐ´ÐµÐ½Ð¸ ÐµÑĤ
ĠÑģ ÐµÐº
ÑĮ Ñİ
Ð± Ð°Ð¿
ÑĪÑĸ Ð»ÑĸÐ³Ñĸ
Ðº Ó©
ĠÐºÓĻÑģÑĸÐ¿ Ð¾ÑĢÑĭÐ½
Ð¿Ð°ÑĢ ÑĤÐ°Ð¼
ĠÑĤÓ©ÑĢ Ð°Òĵ
Ð¸ Ð¾
ĠÒĽÐ¾Ñģ ÑĭÐ¼ÑĪÐ°
ĠÐ¸Ð½ ÑģÑĤÐ¸ÑĤÑĥ
ÒĵÑĭ ÑĪ
ĠÐ¶ Ðµ
Ñĥ Ð½Ð°Ð»
ĠÐ± ÐµÐ¹Ð½
ÓĻÑĢ ÐµÐº
ĠÐĳ ÑĸÐ»ÑĸÐ¼
ÐµÑĢ Ð»ÑĸÐº
Ð½ Ð¾Ð²
ĠÑĪÐµÑĤ ÐµÐ»
ĠÑĤÐµ Ð³ÑĸÐ½
Ðķ Ð»
ĠÐºÐ¾ÑĢ Ð¿Ð¾ÑĢ
ĠÐºÐ¾Ð¼ Ð¿
ĠÐķ ÑĥÑĢ
Ð°Ð»Ð°ÑĢ ÑĭÐ½ÑĭÒ£
ĠÒĽÑĭÐ·Ð¼ÐµÑĤ ÐºÐµÑĢ
ĠÑĢÑĥ ÑħÐ°Ð½Ð¸
ĠÐ¸ Ð¼
ĠÐ¡Ð¾Ð½ ÑĭÐ¼ÐµÐ½
ĠÑĤÐ°ÑĢÐ¸Ñħ Ð¸
ÑĤÑĢ Ð°ÑĤÐµÐ³
ĠÐ±Ð°ÒĵÐ´Ð°ÑĢÐ»Ð°Ð¼ Ð°ÑģÑĭ
ĠÒĵ Ð°Ð»ÑĭÐ¼
ĠÒĽÑĭÐ·Ð¼ÐµÑĤ ÐºÐµÑĢÐ»ÐµÑĢ
ĠÑģÐ°Ñĥ Ð´Ð°
ĠÐ¼ Ð¸Ð»Ð»
Ð¸Ð½ Ð°
ĠÐ¶ Ñĥ
Ð°ÒĵÐ°Ð½ Ð´Ñĭ
ÑĤ Ð°Ð¹Ð´Ñĭ
Ġ :
Ġ Ñĩ
I I
ĠÐ·Ð°Ò£ Ð½Ð°Ð¼
Ð¹ ÑĢ
ĠÒĽÐ°Ð» Ð°Ð»ÑĭÒĽ
ĠÐ°Ð» Ð°
Ñĸ Ð»ÑĸÐ¿
Ð°Ð¹ ÑĭÐ¼
Ð¿Ð°Ñģ Ó©Ð·
ĠÐº Ñĥ
ĠÐľÒ± Ð½
2 00
ĠÐ¾ Ð¿ÐµÑĢ
ĠÑĢ ÐµÑĦ
ĠÐ± Ð¸Ð·Ð½ÐµÑģ
ĠÐ¼ÓĻÑģÐµÐ» ÐµÐ»ÐµÑĢÑĸ
ĠÐ¼ Ð°Ð»
ÒĽ ÑĭÑĢ
Ġ T
ĠÓ©Ð· Ð°ÑĢÐ°
Ð¸Ñı Ð½ÑĭÒ£
ĠÒĽÐ°ÑĢ Ð°Ð¶
Ñĥ Ð´ÑĭÒ£
ĠÐ¶Ð°Ñģ Ð°Ð»ÒĵÐ°Ð½
Ò±ÒĽ ÑģÐ°ÑĤ
Ġ ÑĨ
ĠÑĢ ÐµÑģÐ¿ÑĥÐ±Ð»Ð¸ÐºÐ°Ð»ÑĭÒĽ
Ð°Ð¹ ÑĭÐ½Ð´Ð°Ñĥ
. )
ĠÑĤÒ¯Ñģ ÐºÐµÐ½
ĠÐ°Ð» Ð°ÑĤÑĭÐ½
Ð³Ñĸ ÑĤ
ĠÐ½ Ð¾ÑĢÐ¼
ĠÒĽÒ±ÒĽÑĭÒĽ ÑĤÑĭÒĽ
ÒĽ Ð°Ð¹
ĠÐµ ÑĤÑĸÐ¿
Ñĥ Ð°ÑĢ
ÑĭÐ·ÑĭÐ» Ð¾ÑĢÐ´Ð°
ÑĭÐ¼ÑĭÐ· Ð´ÑĭÒ£
Ð¾ ÑĦ
Ð½ Ð´Ñĸ
ĠÐĲ Ð·Ð¸Ñı
ĠÑĪ Ð°Ð¼
ĠÒĽÐ°Ð» Ð°ÑģÑĭÐ½Ð´Ð°
ÑĥÐ½Ð°Ð» Ð´ÑĭÒĽ
ĠÐ¶Ð°ÒĵÐ´Ð°Ð¹ Ð»Ð°ÑĢ
ÑĤÑĸÐ» Ð³ÐµÐ½
ÑĢÑĤ Ð°Ð»ÑĭÒĽ
ÑĤÐ°ÑĢ ÑĭÐ½ÑĭÒ£
ĠÐĲÒļ Ð¨
ÑĭÑģ ÑĭÐ½
ÐµÐ»ÐµÑĢ ÑĸÐ½
i l
ĠÐ· Ð¾ÑĢ
ĠÑģ Ò¯
ĠÐŁÑĢÐµÐ·Ð¸Ð´ÐµÐ½ ÑĤ
ĠÐ¿ Ð°ÑĢÑĤ
ĠÑĤÐµÑħÐ½ Ð¸ÐºÐ°Ð»ÑĭÒĽ
ÐĲ Ð¢
ĠÑĤÓ© Ð»ÐµÐ¼
Ð± ÑĭÑĢ
Ð¥ Ð°Ð»ÑĭÒĽ
ÒĽ Ð°Ñģ
o m
ĠÐ¶Ð°Ñģ Ð°Ð¿
ĠÒĽÐ°ÑĢ Ð°ÑģÑĤÑĭÑĢ
ĠÐ± Ðµ
ĠÐ°Ð» ÑĭÐ½ÒĵÐ°Ð½
ĠÒļ Ð¾ÑĢ
ĠÐ°Ð² ÑĤÐ¾Ð¼
ĠÐ¶Ð°Ò£ Ð°Ð»ÑĭÒĽÑĤÐ°ÑĢ
ÐĲ ÑģÑĤÐ°Ð½Ð°
Ð¡ Ð¢
Ð³ ÐµÐ»
ÑĤÐ° ÑĨÐ¸Ñı
Ð¡Ð°Ð±Ð°ÒĽ ÑĤÑĭÒ£
ĠÐµÐ½ Ð´Ñĸ
ĠÒĽÐ°Ð±ÑĭÐ» Ð´Ð°Ð½
ĠÐ¶Ó©Ð½ ÑĸÐ½Ð´Ðµ
Ð´ Ñĥ
ĠÑĢ Ò±ÒĽÑģÐ°ÑĤ
ĠÐķ Ò£
Ð°Ð² Ð»Ð¾
ĠÐ¸Ð½ ÑĦ
ĠÐ´ Ð¸ÑĢÐµÐºÑĤÐ¾ÑĢ
Ð¾Ð» ÑĮ
ĠÐºÐ¾Ð½ ÐºÑĥÑĢÑģ
ÐµÐ´ Ð¶
ĠÒĽ Ð°ÑĪ
Ð´ ÑĢ
Ð°Ð½ Ð°
ĠÑĤ ÑĸÐº
ĠÐ¼ÓĻÐ»ÑĸÐ¼ ÐµÑĤÑĤÐµÑĢ
Òĵ Ð°Ð·Ñĭ
ĠÐĲ Ð½
ĠÐ´ÓĻ ÑģÑĤ
ĠÐ¶ ÐµÐ»Ñĸ
ĠÐºÓ© Ð»ÑĸÐº
ĠÒ±Ð» ÑĤ
Ð°Ð²Ð»Ð¾ Ð´Ð°ÑĢ
ĠÐ¼Ð°ÒĽ Ð°Ð»
ĠÐ³ Ðµ
ĠÐºÐµÐ¹ Ð±ÑĸÑĢ
ÑĤÐ°Ð¼ Ð°ÑģÑĭ
ĠÑħ Ð°Ð½
ĠÓĻÑĢ Ð±ÑĸÑĢ
ĠÐ°ÑĢ Ð°Ð»
ĠÐ¾ÑĢ ÑĭÐ½Ð´Ð°Ñĥ
ÑĪ ÐµÐº
ĠÐ±Ð¾Ð» ÑģÑĭÐ½
ĠÐĳ Ð°Ð»
ĠÐ´ Ð°Òĵ
ĠÑĤÐ°Ð» ÒĽÑĭÐ»
ÑĸÐ¼ Ð´ÑĸÐº
ÐµÑĤ Ñĥ
ĠÐ¶ÑĭÐ» Ð´Ð°ÑĢÑĭ
ĠÒĽÒ±ÑĢ Ñĥ
Ð°ÑĤÐ¸Ð² ÑĤÑĸÐº
Ð°Ð ¸
ĠÐ¶ Ð°Ð¹Ð»Ñĭ
ĠÐ°Ñģ Ð°
ÐµÑĦ Ð¾Ð½
ĠÑĦ ÑĥÐ½
Ò±ÑĢ ÑĤ
Ð°Òĵ ÑĭÐ¼
ĠÐ½ Ð°Ð·Ð°ÑĢ
ĠÑĤÐ°ÑĢ Ð°Ð¿
ĠÐ´ÐµÐ½ ÑģÐ°ÑĥÐ»ÑĭÒĽ
Ð» ÑĭÒĵÑĭÐ½
ĠÐ°Ð¹ÑĤ ÑĤÑĭ
Ð°Ð± Ñĭ
ĠÒĽÐ°ÑĤÑĭÑģ Ñĥ
ĠÐ´Ðµ Ð¿Ð°ÑĢÑĤÐ°Ð¼
ĠÐ¿ ÑĢÐµÐ·Ð¸Ð´ÐµÐ½
ĠÑĤÑĸÑĢ ÐºÐµÑĥ
Ð¶ ÑĭÐ»
ĠÐ¾ ÑģÑĭÐ½Ð´Ð°Ð¹
2 4
ÐµÐ½ ÑĨÐ¸Ñı
ĠÒ¯Ð· Ð´ÑĸÐº
ÑĸÐ» Ð´Ðµ
ĠÓĻÐºÑĸÐ¼ ÑĪÑĸÐ»ÑĸÐº
Ð¼ Ð°ÑĤ
ĠÑĤÐ°ÑĢ ÑĤÑĥ
ĠÐ¶Ð¾Ð» Ð´Ð°ÑĢÑĭ
ÑĭÒĵ ÑĭÐ¼ÐµÐ½
ĠÐº ÑĸÐ¼
Ð¾Ð² ÑĤÑĭÒ£
Ð¿ Ð°Ð»
ĠÐ°Ð» Ð°Ò£
ÐµÐ¹Ð½ ÐµÑĤ
ĠÓĻÐ¹ ÐµÐ»
Ð°Ñĥ ÑĭÑĢ
ĠÑĥ ÓĻ
Ó©Ð· Ñĸ
Ðķ ÐĿ
ĠÑģÓ©Ð· Ð´ÐµÑĢ
Ðľ ÐµÐ½
ĠÐ¾ÑĢ Ð°Ð¹
Ġ201 4
Ð°Ð¼ ÑĭÐ½
Òĵ ÑĭÐ½ÑĭÒ£
ĠÒĽÑĭÐ· Ð¼ÐµÑĤÑĤÑĸ
ĠÑĤÒ¯ÑģÑĸÐ½ ÑĸÐº
ĠÐľ ÓĻÑģ
ĠÐ¶ ÑĥÑĢÐ½Ð°Ð»
ĠÑĸÑĢ Ñĸ
Ð¼ Ð°Ð¹Ð´Ñĭ
ĠÐĸ Ð°Ò£Ð°
ĠÐ¼Ð°Ò£ÑĭÐ· Ñĭ
ĠÑĸÑģÑĤ ÐµÑĥ
ĠÐºÐ¾ÑĢÐ¿Ð¾ÑĢ Ð°ÑĨÐ¸Ñı
Ð± ÑĢ
ĠÒĽÐ°Ð· Ð°Ð½
ÒĽ Ð¸Ð¼ÑĭÐ»
ÒĵÐ°Ð½ Ð´Ð°
ĠÐºÐµ Ð¿
ĠÐ¼ÐµÐ½ ÑĸÒ£
ĠÒĽÐ¾ÑĢÑĭÑĤÑĭÐ½Ð´Ñĭ ÑģÑĭ
Ðŀ ÑĢ
Ð¾ Ð±Ð¸
ÐķÐ¡ ÐĨ
Ð ¯
ĠÐ¸ Ð´Ðµ
ÐµÐ¼ ÑĸÐ½
ĠÐ¶Ð°ÑĤ Ð°Ð´Ñĭ
Ð¸ Ð´Ð°
ĠÐ¾ÑĢÑĭÐ½Ð±Ð°Ñģ Ð°ÑĢÑĭ
ĠÐ° ÑĤÑĭ
ĠÑĢÐµ Ð´Ð°
ĠÐ±Ñĸ Ð»ÑĸÐºÑĤÑĸ
ĠÐºÐµÑĪ ÐµÐ½
ĠÐºÐµÐ» ÑĤÑĸÑĢ
ĠÑĤ Ð°ÒĽ
ĠÒ® ÐºÑĸÐ¼
ÑĥÑĪÑĭÐ»Ð°ÑĢ Ð´ÑĭÒ£
ĠÐ½ Ð°ÑĥÑĢÑĭÐ·
ĠÐº Ð°Ð·
ĠÐ¾ÑĢ ÑĭÐ½Ð´Ð°
Ñģ Ð»Ð°Ð¼
Ñı ÑĢ
ĠÑģÐ¾Ð½ ÑĭÐ¼ÐµÐ½
ÒĽ Ð°ÑĤÑĭÐ½Ð°Ñģ
ÑĤÐ°ÑĢ Ð»ÑĭÒĽ
Ð°ÑĤ ÑĢ
ĠÐ½ÓĻÑĤÐ¸Ð¶ ÐµÐ»ÐµÑĢÑĸ
ÒĽ Ð°Ñĥ
ÐµÐ» ÐµÐ¹
ĠÐĳ Ò±
Ðĺ Ð½
ÐµÐ³ÑĸÐ· Ð³Ñĸ
ĠÒĽÑĭÐ·Ð¼ÐµÑĤ ÑĸÐ½
ĠÐ¡ ÑĸÐ·
ĠÐµÑĤ ÐµÑĤÑĸÐ½
Ð» Ð¾Ð¼
ĠÑį Ð½ÐµÑĢÐ³
Ð¼Ð°Ð½ ÒĵÐ°Ð·Ñĭ
Ġ Â
ĠÑĤ ÑĭÑģ
ĠÐ±Ð°Ñģ ÑĤÐ°Ð´Ñĭ
ĠÓĺ Ð±
ÑĪ Ð°ÒĵÐ°Ð½
iÐ½ iÒ£
ĠÑįÐºÐ¾Ð½Ð¾Ð¼ Ð¸Ðº
ÐºÒ¯Ð¹ ÐµÐº
ĠÐ´ ÐµÑĢ
Ò£ ÑĤÒ¯ÑģÑĤÑĸÐº
w w
ĠÐ¶ ÐµÐº
ĠÐ· Ð¸Ñı
ĠÐ±Ò¯Ð³ÑĸÐ½ Ð³Ñĸ
ĠÐ¼Ó©Ð»ÑĪ ÐµÑĢ
ĠÓĻÑĢ ÑĸÐ¿
ĠÒĽÒ±Ð½ Ð´Ñĭ
ĠÐºÓ©ÑĢÑģÐµÑĤ ÑĸÐ»Ð³ÐµÐ½
ĠÐ¶Ð¾Ð» Ñĭ
ĠÐ¼ Ð¾Ð»
ĠÐº ÐµÑĤÑĤÑĸ
ĠÐ¶ ÑĭÑĢ
.. ..
ĠÐĲ Ñģ
Ġ P
ĠÐļ ÐµÒ£
Ġ/ /
ĠÐ½ ÐµÑģ
ÑĭÒĵÑĭ Ð¿
ĠÐĲ Ð±Ð°Ð¹
ĠÐļ Ð¾Ð¼
ĠÐ±Ð°Ñģ ÑĤÐ°Ñĥ
ĠÑĤÒ¯ Ð·
ÑĥÑĢ ÑģÑĤÐ°ÑĢ
ĠÐ±Ð°Ñģ ÑĪÑĭÐ»Ð°ÑĢ
ĠÑĤÐµÐºÑģÐµÑĢ Ñĥ
Ð¶ Ð°Ð¹
ĠÒĽÐ°Ð·Ð°ÒĽÑģÑĤÐ°Ð½ Ð´ÑĭÒĽ
ÑħÐ°Ð½ Ð°
ĠÓ©ÑĤÑĸÐ½ ÑĸÑĪ
Ð¶ ÐµÑĤ
ĠÐµÐ» Ð´ÑĸÒ£
ĠÐ¸Ð½ Ð²ÐµÑģÑĤÐ¸
ĠÒĽÐ°Ð» Ð´Ñĭ
Ġ W
ĠÓ©Ð½Ð´ÑĸÑĢ ÑĸÑģ
ĠÐľ Ðľ
ÑĭÐ¼ Ð´ÑĭÒĽ
ÑĭÑģ ÑĤÑĭ
ÓĻÑģÑĸ Ð±Ð¸
ĠÑģÒ±ÑĢ Ð°ÒĽÑĤÐ°ÑĢ
ĠÑĪ Ð°ÒĵÑĭÐ½
ĠÐĨ ÐĨ
ĠÐ°Ð·Ð°Ð¼ Ð°ÑĤÑĤÑĭÒĽ
Ð°Ð» Ð°Ð¹
ĠÐ±Ð°ÑģÒĽÐ°ÑĢÐ¼ Ð°ÑģÑĭÐ½ÑĭÒ£
ĠÑĦ Ð¾ÑĢÐ¼
ĠÑħÐ°Ð»ÑĭÒĽ ÑĤÑĭÒ£
ÑĤÑĭ Ð¼Ð°ÒĽ
Ð°ÑĢ Ð´ÑĭÒ£
ĠÐ¼ ÑĥÐ·
ĠÐ½ Ð°
ĠÐ°Ð»Ð¼ Ð°Ð¹
Ġ i
ĠÒĽÒ±Ð¶ Ð°ÑĤ
ĠÑģÐ¾ ÒĵÑĭÑģ
ĠÑĤÒ¯Ñģ ÑĸÑĢ
Ð¾Ð±Ð¸ Ð»ÑĮ
ÐĲ ÐĹ
Ð»ÐµÑĢ ÑĸÐ½ÑĸÒ£
Ðµ Ñı
Ðĸ Ð°Ñģ
Ðķ ÑĢ
ÑĭÐ» ÑĭÑģ
ÓĻÑĢ Ð±Ð¸
ĠÐ¶ÐµÑĤ ÐµÐº
ĠÐºÓ©Ð»ÐµÐ¼ Ñĸ
a t
Ð¶ Ñĭ
ĠÐºÓ©ÑĢÑģÐµÑĤ ÐºÑĸÑĪ
ĠÐ¶Ð°Ñģ Ð°ÒĵÐ°Ð½
Ð´Ð° ÒĽ
ÐµÐ¼ Ð¿
ĠÐ´ÓĻÑĢ ÐµÐ¶
Ð¶ ÑĭÐ»Ð´Ñĭ
ÑģÑĤÐµÐ¼ ÐµÐ»ÑĸÐº
ĠÐ°Ð¿ Ð¿Ð°ÑĢÐ°ÑĤ
ÑĭÐ¼ ÐºÐµÐ½ÑĤ
ĠÐ± Ð¾
ĠÐ°Ð² ÑĤÐ¾ÑĢ
ĠÐºÐµÐ» ÐµÑģÑĸ
ĠÐ±Ð°ÒĵÐ´Ð°ÑĢÐ»Ð°Ð¼ Ð°Ð»Ð°ÑĢ
ÑĭÒĽ ÑĤÑĭÒĽ
Ð¾Ð³ÑĢÐ°ÑĦ Ð¸Ñı
ĠÐ¶Ð°Ð· Ñĥ
ĠÓĻ Ñĥ
i k
ĠÐ±Ð¾Ð» Ð°
ĠÒ± Ð¼
Òļ Ðł
ĠÐ ¯
Ñĥ ÑĸÐ½Ðµ
ĠÐ°ÒĽ ÑĪÐ°
Ðĸ Ð°Ò£Ð°
Ġ Ð°Ð±
ĠÑģ ÑĭÑĢ
ĠÐ± Ð°ÑĤÑĭÑĢ
Ñı Ð½
ÐķÐ¡ Ð¢
Ð¸Ñħ Ð°ÑĤ
ĠÑĤÒ¯ÑĢ Ð»ÐµÑĢÑĸ
ĠÑĪÑĭÒĵÐ°ÑĢ Ñĥ
ĠÒĽÐ¾ Ñİ
Ð´Ñĸ Ð³ÑĸÐ½ÑĸÒ£
ĠÐĳ Ð°ÑĢÐ»ÑĭÒĽ
Ðĳ ÑĸÐ»ÑĸÐ¼
ĠÐ¶ÐµÒ£ ÑĸÐ»
ĠÓĻÐ´Ñĸ ÑģÑĤÐµÑĢ
ÑĸÐ½ ÑĪÐµ
ÑĭÐ» Ñĥ
Ġ5 0
ĠÑĤÐµÐ» ÐµÑĦÐ¾Ð½
ÑĤÑĭ Ñģ
ĠÐ¶Ð¸ ÑĭÐ½
Ð¸Ð¿ Ð»Ð¾Ð¼
ĠÑģÐ°ÑĢ Ð°Ð¿
ĠÐ¾ÑĢ Ð½Ñĭ
ĠÐ¶Ð¸Ð½ Ð°ÒĽ
ĠÑĤÐ¸ÑĸÑģ ÑĤÑĸ
ÐĶ ÐĲ
ĠÐ±ÐµÑĢ Ñĸ
ÒĵÐ° Ð´Ñĭ
ÑĭÑģ ÑĭÐ½Ð°
ĠÐµÐ» Ð´ÐµÑĢ
ĠÓ©Ð½ Ð´ÑĸÑĢÑĥ
ĠÑĤÐ°ÒĽÑĭÑĢÑĭÐ± Ñĭ
Ðº Ð¾Ð¼
ĠÐĲÐ» Ð»Ð°
Ð°Ñģ ÑĤÐ°Ð½
Ð°Ñĥ ÑĪÑĭÐ»Ð°ÑĢ
ĠÐ°Ð¹ ÒĽÑĭÐ½
ĠÒļ Ð°Ð¹
ÐºÑĸ ÑģÑĤÐ°Ð½
2 3
ĠÐ°ÑĢ ÑĤÑĭÒĽ
ÑĤÐµÑĢÐ½ ÐµÑĤ
ĠÐ¶Ð°Ñģ ÑĤÐ°ÑĢ
Ð¡ ÑĭÐ±Ð°Ð¹Ð»Ð°Ñģ
ĠÐ´ÓĻÑĢÑĸ Ð³ÐµÑĢ
ĉ Ċ
Ġ Ð°Ð¼
ĠÐµÑĢÐµÐºÑĪÐµ Ð»ÑĸÐº
ĠÓ© ÑĤÑĥ
ĠÐºÑĥ ÓĻ
ĠÐ¼ Ð°Ð¼ÑĭÑĢ
ĠÑĤÒ±ÑĢ Ð°ÑĤÑĭÐ½
ĠÑģÑĥÑĢ ÐµÑĤ
Ð°Ñģ ÑĤ
Ð¶ Ð°ÑĢ
ĠÐķ Ñģ
ĠÐ¼ÐµÑĢÐ· ÑĸÐ¼
Ġ2 4
ĠÒĽÐ°Òĵ Ð°Ð·
ĠÐ¶Ò±Ð¼ÑĭÑģ ÑĤÐ°ÑĢÑĭ
ĠÑĤÒ¯Ñģ ÑĤÑĸ
Ð°Ñģ ÑĭÐ½Ð°Ð½
ĠÑĤÑĸÐ» ÑĸÐ½Ð´Ðµ
ÐµÐ¹ ÑĤ
Ġ B
ĠÐ± Ð°
ĠÐ¾ÒĽ Ð¸
Ðĸ Ð°Ð»Ð¿Ñĭ
ĠÒ¯ÐºÑĸÐ¼ ÐµÑĤ
ĠÒ±Ð· Ð°ÒĽ
ĠÑĤÐµ Ð¾ÑĢ
ÐµÐ¼Ð¿ Ð¸Ð¾Ð½
ĠÑĪ ÑĭÒĽÑĤÑĭ
ĠÐĶ ÐµÐ½
e s
ĠÑĤÓĻÐ¶ÑĸÑĢÐ¸ Ð±
ĠÐ¶ Ò±
ĠÑĤÐµÑĢ ÐµÒ£
ÐµÐ»ÐµÑĢ ÑĸÐ½ÑĸÒ£
ĠÒ¯Ð¹ÑĢ ÐµÐ½
ĠÐ· Ð°ÑĤÑĤÐ°ÑĢ
2 7
Ð¼ ÐµÑĢ
ĠÓ©Ð½ ÑĸÐ¼Ð´ÐµÑĢ
ĠÐ¼Ð°Ð·Ð¼Ò± Ð½
ĠÑĤÓĻÑĢÐ±Ð¸ Ðµ
ĠÒĽÐ¾ÑĢ ÒĵÐ°Ð»
Ð¼ Ð°ÒĵÑĭ
Ðº ÐµÑĤ
ĠÐ±ÑİÐ´Ð¶ ÐµÑĤ
ÐµÑĤÑĤÐµÑĢ ÑĸÐ½
ĠÐ¼ ÑĸÐ½Ðµ
Ð°Ð» Ð°ÑĤÑĭÐ½
ĠÐ± ÓĻÑĢÑĸ
i Ð¿
ÒĵÑĭ ÑĢÑĥ
ĠÑģÑĸÐ» ÑĤÐµÐ¼Ðµ
ÑĭÑĢ ÑĭÐ¼
ĠÐ±ÑĸÐ» Ñĥ
ĠÓĻ Ð»Ñĸ
ĠÐ¶Ð°ÒĽ ÑĭÐ½
ĠÐ¢ Ð°ÑĢ
ĠÐµÑģ ÐµÐ±
ĠÐ· ÐµÐ¹Ð½ÐµÑĤ
Òļ Ð¾
ĠÑĤ Ð°
ÑĭÑĢ Ð°ÒĽ
ÑĤÐµ ÑħÐ½
Ðº ÑĢ
ĠÑģ ÓĻÑĥÑĸÑĢ
ĠÐ°Ð»Ð´ ÑĭÐ½Ð´Ð°
ÑĤÐ°ÑĢ ÑĭÐ½Ð°
ÒĽÐ° ÑĪ
Ñģ ÑĭÐ½Ð°
ÐĲÒĽ Ð¿Ð°ÑĢÐ°ÑĤ
ĠÐ± ÑĭÐ»
Ð¸Ñı ÑģÑĭÐ½ÑĭÒ£
ĠÐº Ð¾Ð´
ĠÑįÐºÐ¾Ð½Ð¾Ð¼ Ð¸ÐºÐ°
ĠÑģÑĭÑĢÑĤ ÒĽÑĭ
ĠÐ¶Ð°Òĵ ÑĭÐ½Ð°Ð½
ĠÐ¶Ò±Ð¼ÑĭÑģ Ð¿ÐµÐ½
Ð°Ñģ ÑĤÑĭ
Ðķ Ñģ
Ð¼Ðµ Ð³ÐµÐ½
ÑĤ Ò¯ÑĢÐ»Ñĸ
ĠÑĤÓ© ÑĢÑĤ
ĠÐ°Ð³ ÐµÐ½ÑĤ
ĠÐ¶Ð°ÑĢ ÑĭÒĽ
Ð»Ð°Ð½ Ð´ÑĭÑĢÑĥ
ĠÐº Ð¾Ð»
ĠÐ¼ ÐµÐ¹
ĠÐ°Ñģ Ð¿
2 8
00 0
ĠÓĺ Ð»
ĠÑĤÓ© Ð»ÐµÑĥ
ĠÐ¶Ð¸ Ñĸ
ĠÐĸ ÐµÑĢ
ĠÐ±Ó©Ð»ÑĸÐ¼ ÑĸÐ½ÑĸÒ£
ĠÐ¼ÓĻÐ»ÑĸÐ¼ ÐµÑĤ
ĠÑĤ Ð¾Ð¹
ĠÐ°ÒĽ ÑĪ
Ð°Ñĥ Ð°Ð¿
ĠÐ´ Ð¾Ð»
ĠÑĢÐµÑĤ ÑĤÐµÑĥ
ĠÑĤÒ¯ Ð¹
Ð°Ð¹ ÑĭÒĽ
Ð¼Ð°Òĵ ÑĭÐ½Ð´Ð°
Ð°Ð» ÑĭÑģ
Ð´Ñĭ Ð·
ĠÐ±Ð°Ñģ Ð¿Ð°ÑģÓ©Ð·
ÑĤÑĭÐ¼Ð°ÒĽ ÑĤÐ°Ñģ
Ð»ÐµÑĢ ÑĸÐ½Ðµ
ĠÐ¾ÑĤ Ð±Ð°Ñģ
Ð°ÑĢ ÒĵÑĭ
Ġ F
Ñģ ÐµÐº
ĠÑģÐ°Ð» Ñĥ
ÑĦÐµÑĢ ÐµÐ½ÑĨÐ¸Ñı
ÐµÐ»ÐµÑĢ Ð´Ñĸ
ĠÐ°ÒĽ ÑĭÐ»
2 6
" ,
ĠÑĤÓĻÑĢÐ±Ð¸ ÐµÐ»ÐµÑĥ
ÑĸÐ¼ Ð½ÑĸÒ£
ĠÐ±ÐµÑĢ ÑĸÐ»ÐµÐ´Ñĸ
Òļ Ò±
ĠÐŀ Ð½
ÐµÐ» Ð³Ñĸ
ĠÐ±Ð¾Ð»Ð¼ Ð°Ð¹Ð´Ñĭ
ĠÓĻÑĢÐµÐº ÐµÑĤ
Ñį ÐºÐ¾Ð½Ð¾Ð¼Ð¸ÐºÐ°Ð»ÑĭÒĽ
ĠÐĸ Ð°Ð½
ĠÐ»Ð°ÑĥÐ°Ð· ÑĭÐ¼
Ó© Ò£
ĠÐĿÒ±ÑĢ ÑģÒ±Ð»ÑĤÐ°Ð½
ÐĽ ÐĨ
ĠÐ¶ÑĭÐ» Ð´Ð°ÑĢ
ĠÐ°ÑĤ Ð°Ñĥ
Ġ M
ĠÑĪÑĭÒĵÐ°ÑĢÐ¼Ð° ÑĪÑĭÐ»ÑĭÒĽ
ÑģÑĤÐ°Ð½ Ð°Ð¹
ĠÒ¯ ÑĢ
ÑģÑĭÐ» Ð°Ð¹
ĠÐĲ Ð´Ð°Ð¼
ĠÑĤÓĻÑĢ ÑĤÑĸÐ¿
ĠÐ°Ð² ÑĤÐ¾
ĠÐ± Ð°ÑıÐ½
ĠÒĽÐ¾Ñģ Ð°
Ð¿ Ð°
Ðķ Ðļ
ĠÑģ ÑĤÑĢÐ°ÑĤÐµÐ³
ĠÐºÒ¯Ð½ Ð´Ðµ
ĠÑĥ Ñĩ
ĠÒĽÐ°Ð· ÑĸÑĢ
o o
ĠÑĤÐ°Ò£ Ð´Ð°
ĠÑĤÒ±Ð»Òĵ Ð°Ð»Ð°ÑĢÐ´ÑĭÒ£
ĠÐ¶Ð°ÑĥÐ°Ð¿ ÐºÐµÑĢ
Ð¾Ð» ÑĭÒĽ
Ð« ÐĽ
m a
ĠÐĳ Ð°Ð¹
ĠÐľ Ð°ÒĽ
Ð»Ð°Ð¼ ÐµÐ½ÑĤ
ĠÐ°ÑĥÐ´Ð°Ð½ ÑĭÐ½ÑĭÒ£
Ð´ ÐµÐº
ÑĭÐ½ ÑĭÐ¿
ĠÐĸ ÑĭÐ»
Ò±Ð» Ð´ÑĭÐ·
4 0
ÐµÑĤ ÐµÑĢ
ĠÐ¶Ð°Ð· ÑĭÐ»ÒĵÐ°Ð½
Ð°ÑĤÑĤÐ°ÑĢ Ñĭ
Ġ t
ĠÓ©Ò£ Ð´ÐµÑĥ
ĠÐ¶Ð°Ð± Ð´ÑĭÒĽ
ĠÐ¿Ð°Ð¹ Ð´
ÑĭÐ» Ð°ÑĢ
ĠÒĽÐ°Ð½ Ð°
ĠÐ¾ Ð±ÑĬÐµÐºÑĤÑĸ
Ñģ Ð°Ð¼
ĠÐ¶ÑĭÐ» Ð´ÑĭÒĽ
ÐµÒ£ ÑĸÐ·
ĠÒļ ÑĭÑĤÐ°Ð¹
ĠÓĻÒ£Ð³Ñĸ Ð¼
ĠÑĪ ÐµÐ±
ÐĲ Ð·Ð°Ð¼
ĠÑĤÐ°Ð±Ð¸Òĵ Ð¸
ÐµÐ» ÐµÑģ
ĠÐ± ÓĻÑĢ
Ð¸Ð¼ Ð°ÑĢ
Ð»Ñĸ Ð³ÑĸÐ½Ðµ
ĠÒĽÐ°ÑĤ ÑĤÑĭ
ĠÑģ ÓĻÑĥ
Ñĭ ÒĵÐ°Ð½
Ñĥ ÑĪ
ĠÐ±Ò¯ ÐºÑĸÐ»
ĠÐ¶Ð°ÑĢÑĤÑĭ Ð¶ÑĭÐ»Ð´Ñĭ
ĠÐ¶Ð°Ò£ ÒĵÑĭÑĢÑĥ
ĠÐºÓ©Ð· ÒĽÐ°ÑĢ
ĠÑĤ ÑĭÐ½
Òļ Ðŀ
ĠÐ¶ Ð°Ð¿
ĠÑĭÒĽ Ð¿Ð°Ð»
ÐĲ Ðľ
ĠÑĪÑĭÒĵ ÑĭÐ½
ĠÐ¼Ò¯ Ð»ÑĸÐº
Ð½ Ð°Ð¼Ð°
Ñħ Ð°Ð¼
ĠÐ¶Ñĸ Ð³ÑĸÑĤ
ÑĤÐ°Ð» ÑĭÐ¿
Ðľ Ð°ÒĽ
ĠÓ©ÑĤÐµ Ð´Ñĸ
ĠÐº ÓĻÑģÑĸÐ±Ð¸
ÐµÑĤ ÑĢ
ĠÒĽÐ°ÑĢÐ° ÑĪÐ°
ÑĢ ÐµÐº
ÑĸÑĢ ÐµÑģÐµ
ĠÑĪ ÑĭÒĵÑĭÐ¿
ÒĽ Ò±Ð»
Ġ2 3
ĠÐĸ Ð°Ñģ
ĠÐ±ÐµÑĢ ÑĸÐ¿
ÑĥÐ»ÑĮ ÑĤ
Òĵ Ñĥ
ĠÐ¶Ð°ÑĤ ÑĤÑĭ
% -
ĠÒĽÐ°Òĵ Ð¸Ð´
ĠÓĻ Ð»ÐµÑĥ
Ð¾Ð» Ð°
ĠÐºÐµÐ» ÐµÑĤÑĸÐ½
ĠÑĤÒ±Ð»Òĵ Ð°Ð»Ð°ÑĢ
ĠÒ±Ð» Ñĭ
ĠÑĤÓĻÑģ ÑĸÐ»
ÓĻ Ð¹
ĠÑħÐ°Ð±Ð°ÑĢ Ð»Ð°Ð¼
Ð« Ò¢
ĠÐ°Ñĥ ÑĭÐ·
ĠÐ¡Ð¾Ð½ Ð´Ð°Ð¹
Ð¨ Ð¡
ĠÐ°Ð» ÑĤÑĭÐ½
ĠÑģ Ð¾Ð¼
ĠÐº Ð°ÑĢ
ĠÑĭÐ½ ÑĤÑĭÐ¼Ð°ÒĽÑĤÐ°Ñģ
ĠÐļ ÐķÐ¡Ð¢
ĠÐ±Ð°ÒĵÑĭÑĤ ÑĤÐ°Ð»ÒĵÐ°Ð½
ĠÐ± iÑĢ
Ð´Ñĸ Ð¼
2 9
ĠÐļÐķÐ¡Ð¢ ÐķÐ¡ÐĨ
ĠÐŁ Ð°ÑĢ
ĠÐµÐ»ÑĸÐ¼ ÑĸÐ·
Ð¸Ð½ Ðµ
Ð´Ñĭ ÒĵÑĭÐ½Ð°
Ð¸Ð¼Ð¿ Ð¸
Ð¡ Ð°Ð¹ÑĤ
ÐµÒ£ Ð±ÐµÑĢ
Ð¸Ñģ ÑĤÑĸÐº
ĠÐ±Ð¾Ð» Ð°ÑĪÐ°ÒĽ
Ð°Ð½ Ð´ÑĭÑĢÑĥ
ti on
ĠÑĤÑĸÐ» ÑĸÐ½
ĠÐ¶Ð°Ò£ Ð°Ð»ÑĭÒĽ
ĠÐ±Ò± Ð¹ÑĢ
ĠÐ¿ÐµÐ´Ð°Ð³Ð¾Ð³ Ð¸ÐºÐ°Ð»ÑĭÒĽ
ĠÐ°Ð¹Ð½Ð°Ð» ÑĭÑģ
ĠÐ¼Ð¸Ð»Ð» Ð¸Ð¾Ð½
ĠÑĪ ÑĸÐ»Ð´Ðµ
ĠÐ¨ ÑĭÒĵÑĭÑģ
ĠÐ± Ð°Ð·
Ðĸ ÐµÑĢ
ÒĽ ÑĭÐ¼
ĠÑĩ ÐµÐ¼Ð¿Ð¸Ð¾Ð½
ĠÐ¶ ÓĻÑĢ
ĠÐ¼ ÓĻÑĢ
ÑĤÐµÑĢ ÑĸÐ½Ðµ
ĠÐ°ÑĤÒĽÐ°ÑĢ ÑĥÑĪÑĭ
ĠÐ¼Ò±Ð½ Ð´Ð°Ð¹
ĠÐ¿ Ð»
Ð¸Ðº Ð°ÑģÑĭ
ÐµÐ³ ÑĸÐ½Ð´Ðµ
ĠÒĽÐ°Ð» Ð´ÑĭÑĢ
iÐ½ Ðµ
ĠÐ¶Ò¯ÑĢÐ³ÑĸÐ· ÑĸÐ»Ð³ÐµÐ½
Ð»ÐµÑĢ Ð³Ðµ
ĠÑģ Ð°Ð±
Ġ201 3
ĠÐ°Ð´Ð°Ð¼ Ð´Ð°ÑĢÐ´ÑĭÒ£
ÑĨÐ¸Ñı ÑģÑĭ
ĠÒļÐ°Ð·Ð°ÒĽÑģÑĤÐ°Ð½ Ð´Ð°
ÑĮ Ð¼
Ñ ī
r i
ĠÐ¼ÐµÐºÐµÐ¼ ÐµÑģÑĸ
ĠÑĤÐ°Ð¼ Ð°ÒĽ
ĠÑĪÑĭÒĵÐ°ÑĢ Ð¼
ĠÑĤ ÑĢ
Ð» Ð´Ðµ
ĠÐ¼Ò¯ Ð´
Ð¾Ò£ ÒĵÑĭ
ÑĨÐ¸Ñı Ð»Ð°ÑĢ
ĠÑĤÐ°Ò£ Ð´Ð°Ñĥ
ĠÐ± ÓĻÑģ
ĠÒĽÒ±ÑĢÑĭÐ» ÑĭÑģÑĭ
ĠÐ°Ð½ Ð°
Ð°Ð¼ Ð±ÑĭÐ»
ĠÐºÐ» Ð°ÑģÑģ
Ðĳ Ò¯Ð³ÑĸÐ½
ĠÓ©Ð· ÑĸÐ½Ðµ
ĠÐºÓ©ÑĪ ÑĸÑĢ
ĠÐ¸ Ð³ÐµÑĢ
ĠÐ´Ðµ Ð¿Ñĥ
ĠÓĻÐ´Ñĸ Ñģ
ĠÐ´ ÐµÐ¹
ĠÐ¾ÒĽ ÑĭÐ¿
ĠÐĳ Ð¸
ĠÐĸ Ð¨Ð¡
ĠÑģÐ°Ð» Ð°ÑģÑĭÐ½Ð´Ð°
ĠÐ¸Ð´Ðµ Ñı
ĠÐ¶Ð°ÑĢÐ¸Ñı Ð»Ð°Ð½ÒĵÐ°Ð½
Ð½ ÐµÐ¼ÐµÑģÐµ
Ò° Ð»
ĠÒ¯Ð¹ Ð»ÐµÑģ
ĠÐ¾ÒĽÑĥÑĪÑĭÐ»Ð°ÑĢ Ð´ÑĭÒ£
Ð´ Ð¸
ĠÑĤÑĸÐº ÐµÐ»ÐµÐ¹
ĠÑĤ ÐµÐ·
ĠÓĻ ÐºÐµÐ»
ĠÐ°ÑĢ Ð°Ð»ÑĭÒĵÑĭÐ½Ð´Ð°
ĠÐ±ÑĸÑĢ ÐµÑĥ
Ð°ÒĽÑĭ ÑĤÑĭ
Ðĳ Ð°Ð»
Ð´Ð°Ð¹ ÑĤÑĭÐ½
ĠÑĪÐ°ÑĢ Ð°Ð»Ð°ÑĢ
ĠÐĲÐ» Ð°Ð¹Ð´Ð°
ÑĢ Ð´
ĠÐ¶Ò¯ÑĢ ÐµÐº
Ð½Ð¾Ð² Ð°ÑĨÐ¸ÑıÐ»ÑĭÒĽ
ĠÑģÐ°ÒĽ ÑĤÐ°Ð½Ð´ÑĭÑĢÑĥ
ĠÐ°ÑĤ Ð°Ð»ÒĵÐ°Ð½
ĠÒ±ÑĢ Ð¿Ð°ÒĽ
ĠÑĪ ÐµÒ£Ð±ÐµÑĢ
Ð¸ÑģÑĤ ÐµÑĢ
ĠÒĽÒ±ÑĢ Ð°Ð¹Ð´Ñĭ
ĠÑĤÓĻÑĢÑĤÑĸ Ð±Ñĸ
ĠÐ´ÓĻÐ» ÐµÐ»
ĠÒĽÐ°ÑĢ Ð°Ñĥ
ĠÐŀ Ð»Ð°ÑĢÐ´ÑĭÒ£
Ð´Ðµ Ð³ÐµÐ½
ĠÐ¡ Ð¾
ĠÒĽÒ± ÒĽ
ĠÐ±Ð¸ ÑĸÐº
ĠÐķÑĥÑĢ Ð¾Ð¿
Ġ2 8
ĠÑģÐ°Ð¹ ÑĤÑĭ
ĠÑħÐ°Ð»ÒĽ ÑĭÐ½ÑĭÒ£
Ð´Ñĭ ÒĵÑĭÐ½
ĠÐ°Ð¹ ÑĭÐ½Ð´Ð°
ĠÑĦ Ð¸Ð·
ĠÑĪÐµÐº ÑĤÐµÑĥ
ĠÓĻÐ¹ ÐµÐ»Ð´ÐµÑĢ
ĠÐ¢ ÓĻÑĥÐµÐ»
ĠÑĸÑģ Ñĸ
Ðķ Ò£
ĠÐľ ÑĭÑģÐ°Ð»Ñĭ
ĠÐµ Ð³ÐµÑĢ
ĠÐ¼Ò±Ð½ Ð°Ð¹
ĠÑģ Ò±
ÑĤ Ð¿
ĠÒ± ÒĵÑĭÐ¼
ĠÐĸ Ð°Ð»Ð¿Ñĭ
Ġ E
Ð°ÑĤÑĤÐ°ÑĢ ÒĵÐ°
ĠÐ¿ÑĢÐ¾ ÐºÑĥÑĢ
ĠÐ°Ð¹ ÑĭÐ¿
ĠÐºÐµÐ·Ð´ÐµÑģ Ñĥ
Ġ Ð°Ò£
ÑĤÐ°Ð½ Ñĭ
Ð» ÐµÐ¿
ĠÐºÓ©ÑĢ Ð³ÐµÐ½
ĠÐº ÑĥÑĢÑģ
) ;
/ /
ĠÐ±ÐµÐ»Ð³Ñĸ Ð»ÐµÐ½Ð³ÐµÐ½
ÐµÐ¹ ÑĤÑĥ
Ð°Ð¹ ÑĤÑĥ
ĠÐ¾ÒĽ Ð¸Òĵ
Ð´Ð°ÑĢ Ð¼ÐµÐ½
ÑĭÐ¼ÑĭÐ· Ð´Ñĭ
ĠÑĤ Ð°Ð¼ÑĭÐ·
ĠÐ¼Ð°ÒĽ Ñģ
Ð± ÐµÑģ
ĠÑĤ ÑĭÑĢ
ĠÐ¼Ð» ÑĢÐ´
ÐµÑĢÑĤ ÑĤÐµÑĥ
ÑģÑĤ Ðµ
Ð¶ Ð¾Ð»
ĠÐ¾ÑĤ Ð±Ð°ÑģÑĭ
ĠÒĽÐ°Ñĥ ÑĭÐ¼
Ġ2 7
ĠÒĽÐ°ÑĥÑĸÐ¿ ÑģÑĸÐ·Ð´ÑĸÐº
ĠÑĦÐ°Ðº ÑĤÐ¾ÑĢ
ĠÐ¡ ÐµÑĢ
ĠÐ¶Ð°ÑĥÐ°Ð¿ ÑĤÑĭ
ĠÐ°Ð¹ÑĤÑĥ ÑĭÐ½ÑĪÐ°
ÑĤÑĭ ÒĵÑĭ
Ð´Ð°ÑĢ Ð´Ð°
ĠÑĤÓĻÐ¶ÑĸÑĢÐ¸ Ð±Ðµ
ĠÐ¼ÐµÐ½ ÑĪÑĸÐº
ĠÐ¼Ð¸Ð½Ð¸ÑģÑĤÑĢ Ð»ÑĸÐ³Ñĸ
Ð¾ ÑĤÐ¾
ĠÓĻÑĢ ÑĤÒ¯ÑĢÐ»Ñĸ
ĠÐĲÒĽ ÑĤÓ©Ð±Ðµ
Ð°Ñģ ÑĭÐ¼ÐµÐ½
ĠÒ± Ð¹
Ð¿ Ð°Ð·
ĠÐ´ÑĸÐ½ Ð¸
ĠÒĽÑĭÑĢ ÐºÒ¯Ð¹ÐµÐº
ÐĿ ÐµÐ³ÑĸÐ·Ð³Ñĸ
ÐĲ ÐĻ
ĠÓĻÐ´ÐµÐ±Ð¸ ÐµÑĤÑĸ
ÐĨ ÐĿ
Ñĭ Ð¹ÑĭÐ¼
Ð¸ Ñĩ
Ð°Ð½ Ð´ÑĭÒĽ
ĠÑģÐ°Ð» ÑĭÑģÑĤÑĭÑĢ
Ðľ ÐµÐºÑĤÐµÐ¿
ĠÐ±Ð°Ñģ ÑĭÐ¼
ÑĪ Ð°ÒĽ
Ð¾Ð» Ð´Ð°Ð½
ÑĸÐº ÑĤÑĸ
ĠÑįÐ»ÐµÐºÑĤÑĢÐ¾Ð½ Ð´ÑĭÒĽ
ĠÐ±Ð¸ Ð»ÑĸÐº
Ġ201 2
Ðľ ÐµÐ¼Ð»ÐµÐºÐµÑĤ
ĠÐľ ÐµÐ¼Ð»ÐµÐºÐµÑĤ
ĠÒļÐ°ÑĢ Ð°ÒĵÐ°Ð½Ð´Ñĭ
ĠÐ´Ð°Òĵ Ð´Ñĭ
ĠÒĵ Ð¸Ð¼Ð°ÑĢ
ĠÓ¨ Ð¹ÑĤÐºÐµÐ½Ñĸ
ĠÒ¯Ð½ ÐµÐ¼
Ð°Òĵ Ð´Ð°ÑĢ
ĠÐ¼ÑĸÐ½Ð´ ÐµÑĤ
Ð±Ð» ÐµÐ¼
ĠÐŀ ÑĢÑĤÐ°Ð»ÑĭÒĽ
ĠÒĽÐ¾ Ñı
ĠÒļ ÑĭÐ·ÑĭÐ»Ð¾ÑĢÐ´Ð°
ĠÐµÑĤ ÐºÐµÐ½
ÑĥÑĢ Ð³
Ð´ÑĭÑĢ ÑĭÐ»ÒĵÐ°Ð½
ĠÐºÐµÐ¹ÑĸÐ½ Ð³Ñĸ
c e
ĠÐº Ð°Ð´
ĠÐľ Ð°ÑĢ
ĠÐ¾ÑĢÑĤ Ð°Ð»ÑĭÒĵ
Ð¶ Ð°ÒĽÑĤÑĭ
ÑĤÐ¸Ð² ÑĤÑĸ
ÐµÐ¼Ð°ÑĤ Ð¸ÐºÐ°
ĠÐ¶Ò¯Ð¹ ÐµÑģÑĸÐ½
Ð°Ð½ ÑĤ
ÒĽ Ò±ÑĢ
ĠÒĽÒ± ÑĤÑĤÑĭÒĽ
ĠÐŁ Ð°Ð²Ð»Ð¾Ð´Ð°ÑĢ
ĠÐ½ Ð°Ñĥ
Ñĭ Ðº
Ð· Ð°ÑĤ
Ð°Ð½ Ð´Ð°
ĠÐ¼ÑĸÐ½Ðµ Ð·
ĠÒĽÒ±ÑĢ Ð¼ÐµÑĤ
ĠÑĪÐµÑĪ Ñĥ
u r
6 0
ĠÐ±Ð°Ð¹ÒĽ Ð°Ñĥ
ĠÐ´Ð°Ð¹ÑĭÐ½ Ð´ÑĭÒĽ
ÑĮÑİ ÑĤÐµÑĢ
ÑĤ Ð°Ð±
ĠÑģÐ°Ñı ÑģÐ°ÑĤÑĭ
Ð¢ Ð°ÑĢ
ĠÐ±Ð°ÑĢ ÑĭÐ¿
ĠÐ±Ó© Ð»ÑĸÐ³Ñĸ
ĠÐµÑĤ ÑĤÑĸ
ÑĸÐ»Ð´Ñĸ ÑĢÑĥ
ĠÐ°Ð¹ÑĤ Ð°Ð´Ñĭ
ĠÐ±Ð°ÑĢ Ð»ÑĭÒĵÑĭ
Òĵ Ð°ÑĢ
ÒĽÑĭ ÑĪ
ĠÐºÒ¯ÑĢ Ð´ÐµÐ»Ñĸ
ÐµÐ¼ ÐµÐ¹
ĠÑħ Ð¸Ð¼
Ġ201 1
ĠÐ±Ó©Ð»ÑĸÑģ ÑĸÒ£ÑĸÐ·
ĠÐ°Ð» Ð°ÑģÑĭÐ·
Ð°Ð½Ñĭ ÑĪ
ĠÐºÓ©ÑĢÑģÐµÑĤ ÐµÐ´Ñĸ
ĠÑĦ Ð¾ÑĢ
ĠÐ´Ð° ÑıÑĢ
ĠÑĢÐµÑģ ÑĥÑĢÑģÑĤÐ°ÑĢ
ĠÐµÐ»ÑĸÐ¼ ÑĸÐ·Ð´ÑĸÒ£
Ð³ ÑĸÑĢ
ÑĢ Ð°ÒĽ
ÒĽ Ð°Ð·
ĠÒ± Ð¶ÑĭÐ¼
ÒĵÑĭÑģ ÑĤÐ°Ñĥ
ĠÐ¼ÓĻÑģÐµÐ» Ðµ
ÐĶ ÐĨ
ĠÐ±Ð°Ð» Ð°Ð½ÑĭÒ£
ĠÑĢ Ð°Ð´
ĠÑį ÑĤ
Ð°Ð³ ÐµÑĢ
ĠÐ¿Ð°Ð¹Ð´Ð°Ð»Ð°Ð½ ÑĥÒĵÐ°
ĠÐ¾ÒĽÑĥ ÑĪÑĭ
__ __
ĠÑģÐ°Ð¹Ð» Ð°Ñĥ
ĠÐ¼ Ð°Ð¹
ĠÐ¶ÐµÑĤÐºÑĸÐ· Ñĥ
ÒĵÐ°Ð½ Ñĭ
ĠÐ´Ð°Ð¼ ÑĥÑĭ
ĠÒ° Ð»Ñĭ
ÑĪÑĸÐ»ÐµÑĢ Ð´ÑĸÒ£
ĠÐ¥Ð°Ð»ÑĭÒĽ Ð°ÑĢÐ°Ð»ÑĭÒĽ
Ðĸ Ò±Ð¼ÑĭÑģ
ĠÐº ÑĢ
ĠÐ¼ Ð¾Ð¹
Ð´Ð°ÑĢ ÑĭÐ½Ð°Ð½
ĠÑģÐ¾ Ð·
ĠÓĻÐ´ÐµÐ±Ð¸ ÐµÑĤ
ĠÐĸÐ¾Ð» Ð´Ð°Ñĥ
ĠÐ¶Ò±Ð¼ÑĭÑģ Ñĭ
201 6
ĠÓ©Ð» ÑĪ
ĠÐĸ Ð°Ò£
ĠÑĤÓ©ÑĢÐ°Òĵ Ð°ÑģÑĭ
Ðŀ Ð»
Ġ K
ĠÐºÓ©ÑĢ Ð¼
ĠÐ´Ò¯Ð½Ð¸ Ðµ
e di
ĠÐ¶ÐµÑĤ ÑĸÐ»Ð´ÑĸÑĢÑĥ
ĠÑĤÒ¯ÑģÑĸÐ½ Ð´ÑĸÑĢ
Ð° Ð´ÐµÐ¼
ÐµÐ´ ÑĢ
ĠÐµÐ» Ð´Ñĸ
Ð¾Òĵ Ð°ÑĢÑĭ
ĠÑĦÑĥÐ½ ÐºÑĨÐ¸Ñı
ĠÐ´ Ð¸Ð¿Ð»Ð¾Ð¼
ĠÒļÐ°Ð· ÑĸÑĢÐ³Ñĸ
Ð»ÐµÐºÑĤÑĢ Ð¾Ð½
Ð» Ð°ÒĵÐ°Ð½
Ð° Ò»
ĠÑĤÒ±Ð» ÒĵÐ°
ÐĲ Ð´Ð°Ð¼
Ġ Ð°Ð¶
Ð´Ð° Ð´Ñĭ
Ñĸ Ð»ÑĸÑģ
ĠÐºÓ©ÑĢ ÑĸÐ¿
2 1
ĠÓ©ÐºÑĸÐ» Ð´ÐµÑĢÑĸ
ĠÐ¾Ð¹ Ð»Ð°Ñĥ
ĠÐ¡ Ð°Ð±Ð°ÒĽ
ĠÐ¿ÑĢÐ¾ÑĨ ÐµÑģ
ĠÐ¾Ð±Ð»ÑĭÑģ ÑĭÐ½Ð´Ð°
ĠÑĤÐ°Ð±Ð¸Òĵ Ð°ÑĤ
ĠÐ¿ÑĢÐ¾ ÑĦ
a m
ĠÑģÐ°Ð±Ð°ÒĽ ÑĤÐ°ÑĢ
ĠÐ¶Ð°Ñģ ÑĤÐ°ÒĵÑĭ
Ðµ Ð³ÑĸÐ½
Ð°Ò£ ÒĵÑĭÑģÑĤÐ°Ñĥ
ĠÐ¼ Ð¾
ÑĭÒĽ ÑĤÑĭÑĢÑĥ
ĠÐº Ð¾
ĠÑĥÑĩ Ð°Ñģ
ĠÒ¯Ð» ÐµÑģ
ĠÐ¼ÐµÐºÐµÐ¼ ÐµÐ»ÐµÑĢ
ÑģÑĭÐ» Ð¼Ð°Ð½
ĠÐ¶Ð°Ð½ ÑĥÐ°ÑĢ
ĠÑģÓĻ ÑĤ
ĠÐ¶Ò¯ÑĢ ÑĸÐ¿
Ð°ÑĢ ÑĤÑĥ
Ðĳ ÑĸÐ·Ð´ÑĸÒ£
ĠÐ «
ĠÐ¼ÓĻ ÑĤÑĸÐ½
ĠÐ±Ð°Ñģ ÑĤÐ°ÒĵÐ°Ð½
ĠÒĽÒ±ÒĽÑĭÒĽ ÑĤÐ°ÑĢÑĭ
ÑĪÐ°ÑĢ Ð°Ð»Ð°ÑĢ
ĠÐ¶Ñĥ ÑĭÒĽ
Ð°Ð» Ð°Ð¼
ĠÐ¿ ÐµÑĢ
Ò¯ Ðº
ĠÑįÐº Ñģ
ĠÒĽÐ°ÑĢ Ð°Ð¼
ĠÑģ ÐµÐ¼
ĠÐºÓ©Ð¼ÐµÐº ÑĤÐµÑģ
ĠÐ´Ð¸ÑĢÐµÐºÑĤÐ¾ÑĢ Ñĭ
ĠÑĤÒ±ÑĢ ÒĵÑĭ
ĠÒĽ ÑĭÑģÒĽÐ°
Ð³i Ð·
ĠÑĤ Ð¾Ð½
ĠÐ¾Ð»Ð°ÑĢ ÒĵÐ°
ĠÐ°Ðº Ð°Ð´ÐµÐ¼
ĠÐ´ÐµÐ½ Ðµ
ÐµÑĤÑĤÐµÑĢ Ð´Ñĸ
ĠÒĽÒ± Ð±ÑĭÐ»
ĠÐ±Ð°ÒĵÐ´Ð°ÑĢÐ»Ð°Ð¼ Ð°
Ġ4 0
ĠÐºÓ©ÑĢ ÐºÐµÐ¼
ÐµÑģ ÑĸÐ·
ÑĭÐ½ Ñĭ
ĠÐ°ÑĢ ÒĽ
ĠÐ°Ñĥ ÑĭÑģ
ĠÐ°Ð´Ð°Ð¼ ÒĵÐ°
ÓĻÐ´ÐµÐ½Ð¸ ÐµÑĤ
ĠÑģÐ°Ð» ÑĭÐ¿
5 7
ÑĤÐ¸ ÑĦ
ÑĸÑģ ÑĤÑĸ
ĠÐ½ÓĻÑĤÐ¸Ð¶ ÐµÑģÑĸÐ½Ð´Ðµ
Ð¡Ð¾Ð½ ÑĭÐ¼ÐµÐ½
ÓĻÑĢÐ±Ð¸ Ðµ
Òļ Ð°Ð¹
ĠÑĤ ÑĸÐ¿ÑĤÑĸ
Ðº Ð»
ĠÑģÐ¾Ð½ ÑĭÒ£
ÑĨ Ð¸
Ð´i Ò£
ĠÒ¯ Ð¼Ñĸ
Ðº ÐµÐ¹
ĠÐº Ð°ÑĢÑĤ
ĠÐ¼ÐµÐºÑĤÐµ Ð±
ĠÒ± Ð½
2 2
ĠÐ¾Ð¿ÐµÑĢ Ð°ÑĨÐ¸Ñı
Ðľ ÓĻ
Ð± Ð°Ð±
Ð± Ð°ÑģÑĭÐ½ÑĭÒ£
ĠÒĽÑĭÐ»Ð¼ÑĭÑģ ÑĤÑĭÒĽ
ĠÐ°ÒĽ Ð¿Ð°Ð½
ĠÓĻÐ»ÐµÐ¼ Ð´ÑĸÐº
ĠÐ¶ Ò±ÑĢÑĤ
Ð°Ð» Ñİ
ĠÒĽÑĭÐ·Ð¼ÐµÑĤ ÑĸÐ½ÑĸÒ£
ĠÑĢÐµÐ´Ð° ÐºÑĨÐ¸Ñı
ĠÑĢ ÓĻÑģ
Ð¼ Ð°Ð»Ñĭ
Ð´Ñĥ ÑģÑĤÑĢ
ĠÑĤÒ± ÑĤÑĭÐ½
Ð ¦
ĠÐ°ÑĢÑĤ ÑĤÑĭÑĢ
ĠÒĽÐ° Ð´Ð°Ð¼
ĠÐ°Ð¹ ÑĤÑĭÐ»
ĠÑģ Ð°Òĵ
ĠÑģÐµÐ½ ÑĸÐ¼
ĠÒĽÐ°ÑĢ Ð°ÒĵÐ°Ð½Ð´Ð°
Ñħ Ð¼ÐµÑĤ
ĠÐ¶ÐµÑĢ Ð³Ðµ
Ġ Ġ
tt p
ÐµÑģ ÐµÐº
ĠÐ°Ð» ÒĵÐ°ÑĪ
Ð»Ð°Ð¹ Ð½
h ttp
ĠÑĤ ÓĻÐ½
ĠÐ¼ÓĻÑĢ ÑĤÐµ
ÑĪ ÑĸÐ½ÑĸÒ£
Ġ2 6
ĠÐ¶Ð¾Ð± Ð°ÑģÑĭ
Ð°ÑĦ ÐµÐ´ÑĢ
ĠÑģ ÑĸÒ£
âĢ ľ
: //
Ð» Ñı
ÑĪÑĭÐ»Ð°ÑĢ Ð´ÑĭÒ£
ĠÐ´ÐµÐ¿Ñĥ ÑĤ
ĠÐ±Ò±ÑĢÑĭÐ½ ÒĵÑĭ
ĠÑģÐ°Ð» Ð°
ĠÐºÐ¾Ð½ ÑĦÐµÑĢÐµÐ½ÑĨÐ¸Ñı
ĠÐ¼ Ð°ÑĪ
ĠÐ°Òĵ ÑĭÐ»
ĠÐ´ Ð¾
ÐĿ Ð°Ð·Ð°ÑĢÐ±Ð°ÐµÐ²
8 0
ĠÐ¿ÑĢÐ¾ Ð±Ð»ÐµÐ¼
ĠÐºÐ¾Ð¼Ð¼ ÑĥÐ½Ð°Ð»Ð´ÑĭÒĽ
ÑĪÑĭÐ» ÑĭÒĵÑĭÐ½
ĠÒĽÐ°ÑĥÑĸÐ¿ ÑģÑĸÐ·
ĠÑĭÐ½ÑĤÑĭÐ¼Ð°ÒĽÑĤÐ°Ñģ ÑĤÑĭÒĽ
ĠÐ±Ò±Ð· ÑĥÑĪÑĭÐ»ÑĭÒĽ
ĠÒĽÐ°ÑĢÐ¶ ÑĭÐ»
ĠÑĤÐ°Ð»Ð´Ð°Ñĥ Ð´Ñĭ
ĠÐ¾Ð¹ Ð½
Ġ Ñĭ
ĠÐ¶ÐµÑĤ ÑĸÑģÑĤÑĸÐº
Ð°ÑĤ ÑĮ
ĠÑģÑĤÐ°Ð½Ð´Ð°ÑĢ ÑĤ
ĠÐ°Ð»Ð´Ñĭ Ð¼ÐµÐ½
ÑĭÑģ ÑĤÑĭÒ£
ĠÐĲ ÑģÑĤÐ°Ð½
ĠÐ±Ð°Ð»Ð°Ð»Ð°ÑĢ ÒĵÐ°
Ðķ Ð³ÐµÑĢ
19 9
ĠÐĸ Ò±Ð¼ÑĭÑģ
Ðº Ð¸
ÐµÐ¹ ÑĸÐº
ĠÓ© ÑĤÑĸÐ¿
Ð±ÑĬ ÐµÐº
ĠÑĤÐ°Ñģ ÑĭÐ¼Ð°Ð»
ĠÑģÐµÑĢ ÑĸÐº
Ð°Ð» Ð°Ð½
ĠÑģÒ¯ ÑĤ
ĠÐ¾ ÑĤÐ°Ð½
Ð³ ÑĢ
ÐµÐ´ Ð¸
ÐĲ Ð£
ĠÐµÐ¼ Ð´ÐµÑĥ
Ó© Ð¼ÑĸÑĢ
ĠÐ±Ð¾Ð» Ð°ÑĢ
ĠÒ± Ñı
ĠÐŀ Ò£ÑĤÒ¯ÑģÑĤÑĸÐº
Ð°Ðº ÑĤÐ¸ÐºÐ°Ð»ÑĭÒĽ
Ð»ÐµÑĢ Ð´Ðµ
ĠÐ¼Ò±ÒĵÐ°Ð» ÑĸÐ¼Ð´ÐµÑĢ
ÐµÐ± ÐµÐ±Ñĸ
Ð¼ Ð¾Ð»Ð°
ĠÐºÐµÐ· ÐµÐº
ĠÒĽÐ°Ñĥ Ð»
Ð»ÑĭÒĽ ÑĤÐ°ÑĢ
Ġ2 2
o l
ĠÑĢ ÐµÑģÐ¿ÑĥÐ±Ð»Ð¸Ðº
ĠÐĳ Ò¯Ð³ÑĸÐ½
ĠÐ°Ð´Ð°Ð¼ Ð´Ñĭ
ĠÐ¶Ð¾ ÒĵÐ°Ð»
ĠÑģÐµÐ± ÐµÐ±Ñĸ
ĠÒĽÐ°Ð» Ð¿
ÑģÑĤ Ð²
ĠÐ±ÑĭÐ» Ð°Ð¹
a k
ĠÐµÑĢ ÐºÑĸÐ½
Ġ D
ÑĸÐ» Ñĥ
ĠÒ± ÑģÑĤÐ°Ð½
ĠÐº ÐµÐ½
Ð¢ ÐĨ
ĠÐ± Ð°Ð¿
ĠÐ¼ÐµÐ¼Ð»ÐµÐºÐµÑĤ ÑĤiÐº
ĠÐ°Ð²ÑĤÐ¾Ð¼ Ð¾Ð±Ð¸Ð»ÑĮ
ĠÑģÐ°Ð» ÑĭÐ½
ĠÐºÐµÐ» ÑĤÑĸÑĢÑĥ
ĠÒĽÐ¾ÑĢ Ñĭ
ÐĲÑĥ ÑĭÐ»
ĠÐºÓ© Ð»
Ðŀ ÐĽ
7 0
ĠÐ´Ð°Ð¼Ñĥ ÑĭÐ½Ð°
ĠÑģÐµÐº ÑĸÐ»Ð´Ñĸ
ĠÑĤÑĸÐ· ÑĸÐ¼Ñĸ
Ð°Ðº ÑĤ
ĠÒĽÐ°ÑĢÐ¶ ÑĭÐ»ÑĭÒĽ
ĠÑĪ Ð¾
edi a
4 5
ĠÒĽÐ°Ð¹ ÑĤÐ°Ð»
Ð°ÑĢ Ð´
ĠÒĽÒ± ÒĽÑĭ
Ġ2 1
Ġ2 9
ĠÓĻÐºÑĸÐ¼ Ð´ÑĸÐ³ÑĸÐ½ÑĸÒ£
ĠÐº Ð°Ð¿
Ð°Ñħ Ð°Ð±
ÑĸÐ» ÑĥÑĸ
ĠÐ´ Ð°Ð¹ÑĭÐ½Ð´Ð°Ñĥ
ĠÓĻ Ðº
ÑģÐº Ð¸Ð¹
ĠÒĽÐ¾Ð½ Ð°ÒĽ
ĠÒĽÑĭÐ· ÑĭÒĵ
ĠÓĻÑĢÑĸÐ¿ ÑĤÐµÑģ
ĠÐļ Ó©ÑĢ
Ð´Ð°Ð» ÒĵÐ°Ð½
ĠÐ §
ĠÑĤ ÑĭÐ¹ÑĭÐ¼
ĠÐ´Ð¸ Ð°Ð³
ĠÐĳ ÑĸÐ·Ð´ÑĸÒ£
Ð¸Ñı ÑģÑĭÐ½
ĠÑĤÐ°Òĵ Ð°Ð¹ÑĭÐ½
ÑĮ ÐµÑĢ
Ð°Ð¼ Ð°Ð·
Ð°Ð¹ ÑĭÐ¿
ĠÑģ ÑĤÐ¸
ĠÐ¶ÑĭÐ» Ð´Ð°Ð¼
Óĺ ÑĢ
ĠÐ¶Ò±Ð¼ÑĭÑģ ÑĭÐ½
ĠÐ´Ò¯Ð½Ð¸ ÐµÐ³Ðµ
ĠÒļÐ¾ ÒĵÐ°Ð¼
ĠÐ°Ð¹ ÑĤÐ°
ĠÐ´ Ð¾Ñģ
ĠÐ¶Ò¯Ð¹ ÐµÑģÑĸÐ½ÑĸÒ£
ĠÐ¼Ò¯Ð¼ÐºÑĸÐ½ Ð´ÑĸÐ³Ñĸ
ĠÒļ ÑĭÑĢ
ĠÐºÒ¯Ð½ Ð³Ðµ
ĠÐ±Ð¸ ÑĭÐ»
ĠÐ¼ÑĭÐ½Ð° Ð´Ð°Ð¹
ĠÐ¶Ð°ÑģÐ°Ñĥ ÒĵÐ°
Ðķ Ðľ
ĠÑĤÐ°Ð» Ð´Ð°Ð¼
Ð³Ñĸ Ð»
Ð± Ð°Ð½
ĠÐ°ÒĽ Ð¿Ð°ÑĢ
ĠÒĽÐ°Ð¹ ÑĤÐ°ÑĢ
ÐºÑĸÐ» ÐµÑĤÑĤÑĸ
Ñģ ÑĭÒ£
ĠÐ¶ÑĭÐ» Ð´Ð°ÑĢÒĵÐ°
ĠÐ±Ð°Ð»Ð°Ð»Ð°ÑĢ Ð´ÑĭÒ£
ÑĢÐ¾ Ð¿
r e
ĠÐ¨ ÑĭÐ¼ÐºÐµÐ½ÑĤ
a s
i p
ĠÐµÑĢ ÑĤÐµ
Ð¸Ð½ Ð¸ÑģÑĤÑĢ
ĠÐ¼Ò±ÒĵÐ°Ð» ÑĸÐ¼
ĠÐºÓ©ÑĪ ÐµÑģÑĸ
ĠÐºÐ¾Ð½ ÑĨ
Ð´Ñĭ Ð¼
3 5
ĠÐ¶Ð°ÑĢÐ¸Ñı Ð»Ð°Ð½
ĠÑģÐ°Ð¿ Ð°ÑģÑĭÐ½
ĠÐ¿Ð¾ÑĢ ÑĤ
ĠÑĤ ÓĻ
ÑĭÐ»ÑĭÐ¼ Ð¸
Ð³ Ð°Ð»
âĢ ¢
ĠÒĽÐ¾Ð¹ ÒĵÐ°Ð½
ĠÐ´ÓĻÑģÑĤ Ò¯ÑĢ
ĠÐ´ ÑĭÐ±
ÑĥÑĤ Ð±Ð¾Ð»
ĠÐĲ Ð²
ĠÐ¼ ÐµÐ·
Ð¼ÐµÐ½ ÑĤ
ĠÑĢÐµÑĦ ÐµÑĢ
ĠÓ©Ñģ ÑĸÐ¼Ð´ÑĸÐº
ĠÐ¾ÑĢÑĤ Ð°ÒĽ
ĠÑĢ ÐµÐ¶
Ò±ÑĢ Ð°ÒĽ
ĠÐ¼ Ð°ÒĵÐ°Ð½
ĠÐ°Ð¹ÑĤÒĽÐ°Ð½ Ð´Ð°
ĠÐµÑģ ÑĸÐ¼
Ðŀ Ð±Ð»
ĠÐ¶Ð°Ð· ÑĭÐ¿
ĠÒĽÐ°ÑĤÑĭÑģ ÑĥÑĪÑĭÐ»Ð°ÑĢ
ÑĤ Ò±
ÑĤ Ð°Ò£
ĠÐºÓĻÑģÑĸÐ¿ ÐºÐµÑĢÐ»ÑĸÐº
Ð´ÐµÑĢ ÑĸÐ½Ðµ
ĠÐ±ÓĻÑģ ÐµÐº
ĠÑĥ Ð°ÒĽÑĭÑĤÑĭ
ĠÑģÑĥ Ð±ÑĬÐµÐºÑĤÑĸ
. -
ĠÓ©Ð·ÑĸÐ½ Ð´ÑĸÐº
ĠÐ± ÐµÑĤÑĸÐ½
ĠÑĪ Ð°Ð±
ÑĸÐ½ Ñĸ
ĠÐŁ ÑĢ
Òĵ ÑĭÑģÑĭ
ĠÑĤÒ¯ Ð½
ĠÐ¢ ÐµÐº
ĠÐ¶Ðµ Ð´ÐµÐ»
ĠÐº ÑĸÑģÑĸ
ĠÒ¯ÑĢ Ð´Ñĸ
ÒĽÐ°ÑĤ Ð°ÑĢ
Ð°Òĵ ÑĭÐ½Ð°
3 6
ĠÐ¶Ð°Ñģ ÒĽÐ°
ĠÐµ ÑĤÑĸÐ»
ĠÐ°ÒĽÐ¿Ð°ÑĢÐ°ÑĤ ÑĤÑĭ
ĠÒ±ÑģÑĭÐ½ ÑĭÑģ
ÑĭÐ¼ÑĭÐ· ÒĵÐ°
ĠÒ± ÒĽÑģ
Ð» ÐµÐ´Ð¶
ĠÑĤÑĸÑĢ ÐºÐµÐ»Ð³ÐµÐ½
ĠÐ¼ÐµÐ¼Ð»ÐµÐº ÐµÑĤÑĤÐµÑĢ
ĠÐ¶Ð°ÒĵÐ´Ð°Ð¹ Ñĭ
ĠÐ¶Ò±Ð¼ÑĭÑģ ÑĤÐ°ÑĢÑĭÐ½
ĠÐ¾ÐºÑĢÑĥ Ð³
ĠÐ¼ÐµÑĢÐ· ÑĸÐ¼Ð´Ñĸ
ÐĲÑĥ Ð´Ð°Ð½
Ð°ÑĤ Ð°
ĠÑį Ð»ÐµÐ¼
ĠÐļÐ¾Ð½ ÑģÑĤÐ¸ÑĤÑĥ
Ð¶ ÑĭÑĢÑĭÐ¼
ĠÒļÐ°ÑĢ Ð¶Ñĭ
ĠÐ¸Ð½ ÑĤÐµÑĢÐ½ÐµÑĤ
ĠÐ¼Ð¾Ð½ Ð¸ÑĤÐ¾ÑĢ
ĠÓĻ Ð´ÐµÑĤ
ĠÐ» Ð¸ÑĨ
ĠÓ©Ð· ÐµÐ½
ĠÐ¶Ð°Ñģ Ð°Ð¹Ð´Ñĭ
ÑĤÐ¸ÑĦ Ð¸Ðº
ÑĭÒ£ ÒĵÐ°Ð¹
ĠÓĺ Ð¹
d e
Ð°Ñģ Ñĥ
ĠÐ¢Ò¯ÑĢ ÐºÑĸÑģÑĤÐ°Ð½
ĠÐ¶Ð°ÒĽ ÑģÐ°ÑĢ
ĠÐ¶Ð¾ Ð±Ð°
ĠÐºÐ¾Ð¼Ð¼ ÑĥÐ½
Ð¥Ð°Ð»ÑĭÒĽ Ð°ÑĢÐ°Ð»ÑĭÒĽ
ĠÑĸÑģÑĤÐµÑĢ Ñĸ
Ðº Ñģ
Ñĥ Ñħ
Ðº Ð¾
ĠÒĽÒ±Ð¶ Ð°ÑĤÑĤÐ°ÑĢÐ´Ñĭ
Ð±ÐµÐº Ð¾Ð²
ĠÐ°Òĵ ÑĭÐ¼
ÐĶ Ð«
Ð¼ÑĭÑģ ÑĤÑĭÒĽ
u s
Ðł Ð¢
ÐµÑĤ ÑĸÐ½Ð´Ðµ
Ġ +
ÑĤÑĭ Ð¼
4 7
ÒļÐ°Ð· ÑĸÑĢÐ³Ñĸ
ĠÐķ Ð½Ð´Ñĸ
ĠÐ°Òĵ Ð°ÑĪ
ĠÑĤÒ±ÑĢ ÑĭÐ¿
Ð¾Ñģ Ð¾ÑĦ
ĠÐ± ÐµÐ·
ÒĽ Ð¾
Ñĥ ÑĪÑĸ
ĠÒĽÒ±ÑĢ ÑĭÐ»ÒĵÐ°Ð½
ĠÐ¼ÐµÑĤ ÑĢ
Ð°Ð¹ ÑĭÐ½Ð´Ð°
ĠÑĪÐµÑĤÐµÐ» Ð´ÑĸÐº
ĠÐ¼Ð¸Ð½ ÑĥÑĤ
ĠÐ°ÑģÑĭÑĢ ÑĭÐ»Ð°Ð´Ñĭ
ĠÐļÐµÒ£ ÐµÑģ
ĠÐ¢ ÑĸÐ»
Ġ ÑĸÐ»
ĠÐ´ÐµÐ³ÐµÐ½ ÑĸÐ¼ÑĸÐ·
Ð°ÑĤ ÑĭÐ½ÑĭÒ£
ÑĨ Ð¸Ð¿
Ð¸ ÑĤÐ°Ð»
w s
201 5
ĠÐ±Ð¾Ð» Ð¶
ĠÐºÒ¯Ð½ ÑĸÐ½Ðµ
Ò¯ ÑĪ
Ġ G
ĠÒĽÐ°Ð±ÑĸÐ» ÐµÑĤÑĤÑĸ
ĠÑģ ÑĭÐ·
ĠÐ·ÐµÐ¹Ð½ÐµÑĤ Ð°ÒĽÑĭ
ĠÐ¼ÓĻÑģ Ð»
? Â»
ĠÐºÓ©Ð· Ð´ÐµÐ»Ð³ÐµÐ½
ĠÑĢ Ð°Ñģ
ĠÐ¡ ÓĻ
ĠÐ°ÒĵÑĭÐ» ÑĪÑĭÐ½
ĠÒĽÐ°Ð·Ð°ÒĽ ÑĤÑĭÒ£
Ð¡ Ð¾Ð»
Ð°ÑĤ ÐµÑĢÐ¸Ð°Ð»
Ð°ÒĵÐ´Ð°ÑĢ Ð»Ð°Ð¼
ĠÐ¶ÐµÑĤ ÐºÐµÐ½
ĠÐ±Ð°Òĵ Ð°
ĠÐ¡ ÐµÐ½
ĠÐ¼ÐµÐ¼Ð»ÐµÐº ÐµÑĤÑĤÑĸÒ£
ĠÒĽÒ±ÒĽÑĭ ÒĵÑĭ
ĠÐºÐ¾Ð¼ Ð°Ð½Ð´
ĠÐĸ Ò±Ð¼
ĠÑĤÒ¯ÑģÑĸÐ½ Ð´ÑĸÑĢÑĥ
Ġ6 0
Ò¯ Ñģ
ĠÒ® Ð¹
ĠÐ±ÐµÑĢÑĥ Ð³Ðµ
Ñĥ Ð»Ñĭ
ĠÒ¯ÑĪÑĸÐ½ ÑĪÑĸ
ĠÐ¿ ÓĻ
Ñħ Ð°ÑĤ
ĠÐ± ÐµÐº
Ð¸ ÑĤÐ°ÑĢÐ»ÑĭÒĽ
ĠÓĻ ÐºÐµ
ÑĸÐ¼ ÑĸÐ·Ð´ÑĸÒ£
ÐµÑĥ Ñĸ
ĠÒĽÐ¾Ð»Ð´Ð°Ð½ ÑĭÐ»Ð°Ð´Ñĭ
Ð¸Ñı Ð´Ð°
ĠÐºÓ© Ð»ÑĸÐ³Ñĸ
Ð°Ð¿ Ð°ÑĤ
ĠÐ½Ò±Ñģ ÒĽ
ĠÒ±ÑĪ ÑĭÑĢ
ĠÒĽÐ¾ÑĢ ÒĵÐ°Ð½
ĠÐ´ÐµÐ¿Ð°ÑĢÑĤÐ°Ð¼ ÐµÐ½ÑĤ
ÐµÑģÑģ Ð¾ÑĢ
Ð¾Ñģ ÑĭÐ½
ĠÐ¼ ÑĭÑģ
ĠÐ¶Ð¾ÑģÐ¿Ð°ÑĢ Ð»Ð°Ñĥ
ĠÑĤÐµÒ£ ÑĸÐ·
Ò£ ÒĵÑĭÑĪ
Ð°Ñĥ Ð»Ñĭ
Ð°Ð» Ð»
ĠÒ¯Ð¼Ñĸ ÑĤ
Ðº ÑĨÐ¸Ð¾Ð½
ĠÐ±ÐµÑĢ ÑĸÐ»Ð´Ñĸ
ĠÐ¶Ð¾ Ñİ
ĠÐº Ð°ÑĦÐµÐ´ÑĢ
ĠÐ¼ÓĻ Ð¶
ĠÐ¾ÑĢÐ³Ð°Ð½ Ð´Ð°ÑĢ
ĠÐ¼ Ð°Ò£
Ðµ Ð´ÐµÑĢ
Ð¼ ÐµÐ¹ÑĤÑĸÐ½
Ð¿ ÐµÐº
ĠÒļ ÑĭÐ·
ĠÐ¡ ÐµÐ±ÐµÐ±Ñĸ
ĠÐ±ÑĸÑĢ Ð´ÐµÐ¹
Ð°Ð» Ð°Ð¿
ĠÐ¢ Ò±ÑĢ
ĠÐºÐµÐ·ÐµÒ£ Ñĸ
! Â»
ĠÑĤÐµ Ð°ÑĤÑĢ
ÑĪ ÐºÑĸ
ĠÑĤÐ°Ð»Ð´Ð°Ð¼ Ð°Ð»ÑĭÒĽ
Ñģ Ð°Ò£
K Z
Ð¾Ð³ÑĢÐ°ÑĦ Ð¸ÑıÐ»ÑĭÒĽ
Ð°Ð´Ð° ÒĵÐ°Ð»
ĠÐ°Ð»Ð¼ Ð°Ð¹Ð´Ñĭ
ÒĽÐ°Ð½ Ð´Ð°Ð¹
Ð°Ñı ÑģÐ¸
3 7
Ò£ ÑĸÑĢ
Â ©
ĠÐ´Ð°Ñĥ ÑĭÑģ
ĠÐĳ Ð°ÑĤÑĭÑģ
ĠÒļ Ð°Ð»
r o
ĠÐµÑģÐµÐ¿ ÐºÐµ
ÑģÑĤ Ð°Ð·
ĠÓ©Ð· ÐµÐºÑĤÑĸ
ĠÑĤÒ¯Ñģ ÑĸÐ¿
ĠÐ¼Ò¯ Ð»
ĠÐķÒ£ Ð±ÐµÐº
Ð± Ð°ÒĽ
Ð´ÐµÑĢ Ð´Ðµ
i Ñģ
ĠÐ¶Ð¾Ð± Ð°Ð»Ð°ÑĢ
ĠI n
Ð³ ÐµÐ¼ÐµÐ½
Ð´ Ð¸Ð½
ĠÐ¶Ò±Ð¼ÑĭÑģ ÒĽÐ°
ĠÒļ Ð°Ð½
ĠÒļÐ°Ð· ÑĸÑĢ
Ġ Ð°ÑĤÑĭÐ½
ĠÐ´ÐµÐ½ ÑģÐ°Ñĥ
ÒĽÐ°ÑĪ Ð°Ð½
Ð¿ ÑĢ
ÑģÑĭÐ½ ÑĭÐ¿
ĠÐ°ÑĪ Ñĥ
ĠÑħÐ°Ð» ÒĽÑĭ
ĠÐ´ ÓĻÑĥÑĸÑĢ
Ð»ÑĸÐº ÑĤÑĸÒ£
ĠÑĤÓĻÑĥÐµÐ» ÑģÑĸÐ·
ĠÐ±Ð°Ð»Ð°Ð»Ð°ÑĢ Ð´Ñĭ
ÒĵÐ°Ð½ ÑĭÒ£
ĠÐ¢ Ó©
ĠÐº Ð¸Ð½
ĠÐļ Ò¯Ð½
Ð±Ð°ÐµÐ² Ð°
Ġ X
Ð°Ñħ ÑģÐº
ÑĤÑĸ Ð³ÑĸÐ½
ÐµÑĤÐµÑĢ Ð¸Ð½Ð°ÑĢ
ĠÐ°Ñĥ Ð¼Ð°ÒĽ
ĠÑĪ Ð°Ð¹
ĠÐ³Ð°Ð· ÐµÑĤÑĸ
Ð¸ÑĦ ÑĢ
ÑĤÐµÑħÐ½ Ð¸ÐºÐ°Ð»ÑĭÒĽ
ÐµÐ¶ Ò¯Ð·
ÑĭÐ± Ñĭ
ÑĤÐ°ÑĤ Ð¸ÑģÑĤ
] .
Ð³ÐµÐ½ Ñĸ
ĠÑĪÑĭ ÒĵÐ°Ð´Ñĭ
ĠÐ± Ð°ÑĥÑĭÑĢ
ĠÐ¶ÑĭÐ» Ð´ÑĭÒĵÑĭÐ½Ð°
Ð´ÐµÐ¹ Ð´Ñĸ
ÑĤÐ°ÑĢ Ð´Ð°
ĠÐ¼Ò± ÑģÑĭÐ»Ð¼Ð°Ð½
ÐµÐ´ Ð¸ÑĤ
ĠÒĽ Ð°Ð´Ð°ÒĵÐ°Ð»
ĠÑĤÐµÐ¼ ÑĸÑĢ
Ð¾ Ñĩ
Ð½Ñĭ Ð¹
Ñĥ ÑħÐ°Ð½Ð¸
3 8
Ð¡ Ðł
ÐµÐº ÐµÐ½
Ð¢ Ò¯ÑĢ
ĠÑĤÐ°ÑĢÐ°Ð¿ ÑĭÐ½Ð°Ð½
Ðĺ Ð¯
ĠÐºÓ©Ð· Ñĸ
ĠÐ¶Ð°ÑĢÑĤÑĭÐ¶ÑĭÐ»Ð´Ñĭ ÒĵÑĭÐ½Ð°
ĠÐ¾ÑĢÐ½ ÑĭÐ½Ð°
ĠÑĤÒ¯Ñģ ÐµÐ´Ñĸ
ÒļÐ°Ð·Ð°ÒĽÑģÑĤÐ°Ð½ Ð½ÑĭÒ£
ĠÐ´ÐµÑĢÐµÐº ÑĤÐµÑĢ
ÑĤÑĸ Ð·
ĠÐ¼ÓĻÑģÐµÐ» ÐµÑģÑĸ
ĠÐµÑĪ ÐºÑĸÐ¼
ĠÒĵÐ°ÑģÑĭÑĢ Ð´ÑĭÒ£
Ð¿ Ð¸Ñı
Ð´Ðµ Ð´Ñĸ
ĠÑĢ ÐµÐ³
ĠÑģÐµÐ· ÑĸÐ¼
ĠÐ±Ð°Ñģ ÑĭÐ¿
ÐµÐ´ i
ÑĭÒ£ÑĭÐ· ÒĵÐ°
ĠÒĽÐ¾ÑĢÒĵÐ°Ð» ÒĵÐ°Ð½
ĠÐ¸Ð½ÑģÑĤÐ¸ÑĤÑĥ ÑĤ
ĠÐ± Ð°ÒĽÑĭÑĤ
Ð» Ðµ
ĠÐ¼ Ð°ÒĵÑĭÐ½
ĠÐ°Ñģ ÑĤ
3 9
ÒĴ Ð«
Òļ ÑĭÐ·
ĠÐ±Ð°Ñģ ÑĪÑĭÐ»
ĠÒļÐ°Ð·Ð°ÒĽÑģÑĤÐ°Ð½ Ð´Ð°ÒĵÑĭ
ĠÐ¶Ð°Ð½ ÑĭÐ½Ð´Ð°ÒĵÑĭ
ÑĸÑģ ÑĸÐ½
Ð½ Ð´ÑĸÑĢ
ĠÐºÓ© Ð¼Ðµ
Ðĸ ÑĭÐ»
ĠÐ±Ð°Òĵ Ð°ÑģÑĭ
Ð³Ðµ Ð´ÐµÐº
ĠÒĽÒ±ÒĽÑĭÒĽ ÑĤÐ°ÑĢ
ĠÐŀ Ð¹
ĠÐ¶Ð¸Ð½ Ð°ÒĵÑĭ
ÂŃ ÂŃ
ĠÑĤÓĻÑĢÑĤÑĸ Ð±
Ð¾Ðº Ñģ
i m
ĠÐ±Ð°Ñģ ÑĭÐ»ÑĭÐ¼
ĠÒĽÐ¾ÑĢ ÑĪÐ°ÒĵÐ°Ð½
Ð¾ÑĢ ÑĤ
ĠÐ± Ð¸Ð»
ĠÒĽÐ°Ð¹ ÑĢÐ°ÑĤ
ĠÐº Ð¼
ĠÐ¼Ð¸Ð½Ð¸ÑģÑĤÑĢ Ð»ÑĸÐ³ÑĸÐ½ÑĸÒ£
ĠÐ¼ÐµÐºÐµÐ¼ ÐµÑģÑĸÐ½ÑĸÒ£
ĠÐ¼Ð°ÑĤÐµÑĢÐ¸Ð°Ð» Ð´Ð°ÑĢ
ĠÑģÐµÑĢÑĸÐº ÑĤÐµÑģ
ĠÐ·Ð¸Ñı Ð½
Ġ7 0
ÑĤÑĭÑĢ ÑĭÐ¿
ĠÐľÒ±Ð½ Ð´Ð°Ð¹
ĠÐ² Ð¸Ð´ÐµÐ¾
Ð¸Ñı ÒĵÐ°
Ð°Ð» Ñĥ
Òļ Ð°Ð»
ĠÐľ ÓĻ
ÐµÑĤ Ð¸ÐºÐ°Ð»ÑĭÒĽ
ĠÐ±ÐµÑĢ Ðµ
Ð· Ð°
Ðĳ Ð¾Ð»
4 8
ĠÐķ ÐºÑĸ
ĠÐ°Ð» ÑĭÐ½
ĠÓĻÐ·ÑĸÑĢ Ð»ÐµÑĥ
Ð· Ñĭ
Ðĵ ÐĨ
ĠÑĤÒ± Ð¶ÑĭÑĢÑĭÐ¼
ĠÐ±ÑĸÐ· Ð³Ðµ
ĠÐ¿Ð¾ ÑĪ
ĠÐ½Ðµ Ð³Ðµ
ĠÐ¶Ð°Ð· Ð±Ð°
ĠÐ±Ð°Ð» Ð°Ð½Ñĭ
ĠÑĤ ÑĭÒĵ
ĠÐ¿Ð¾Ð» Ð¸ÑĨÐ¸Ñı
ĠÒĽÐ°Ð»ÑĭÐ¿ÑĤ Ð°ÑģÑĤÑĭÑĢ
ĠÒļÐ¾ ÑģÑĤÐ°Ð½Ð°Ð¹
ÑĭÐ¼ Ñĭ
ĠÐ±Ó©Ð» Ñĥ
ĠÐ¼ÐµÐºÑĤÐµ Ð±Ñĸ
ĠÑĤÐ¾Ð»ÑĭÒĽ ÑĤÑĭÑĢÑĥ
ĠÑĪ Ð°ÑĪ
Ð»ÑĸÐº ÐºÐµ
ĠÐ´ ÐµÐ»
ĠÑĦÐ°Ðº ÑĥÐ»ÑĮÑĤ
ÓĻ Ð´Ñĸ
ÒĵÐ°Ð¼ Ð±Ð°ÑĢ
ĠÐ°Ñĥ Ð°
ĠÐ± ÐµÐ½
ĠÐ´ Ð°ÑĢ
Ġ201 0
ĠÒĽÐ°Ð·Ð°ÒĽ ÑĪÐ°
ĠÓ©Ð½ÐµÑĢ ÐºÓĻÑģÑĸÐ¿
ĠÑįÐº Ð¾Ð»Ð¾Ð³Ð¸ÑıÐ»ÑĭÒĽ
ĠÑĤÒ±Ð»Òĵ Ð°Ð»Ð°ÑĢÐ´Ñĭ
ĠÐ±Ð¾Ð» Ð°ÑĪ
Ð¼ Ð°Ñĥ
ĠÐ½ ÑĭÒĵ
Ð»Ð°ÑĢ ÑĭÐ½Ð°
ĠÑĤ ÑĢÐ°Ð½
ÑĥÑĢ ÐµÑĤ
ĠÐŀ ÒĵÐ°Ð½
Ð¶ Ð°Ð¹Ñĭ
ĠÑĤÐ¸ Ð³ÑĸÐ·
ĠÐ½ Ó©Ð¼ÑĸÑĢ
e t
ĠÐ¶ Ð¾Ð¹
ÑĤÐµÑĢ Ð¼ÐµÐ½
Ð± Ò±
ĠÐ¼Ò±ÒĵÐ°Ð» ÑĸÐ¼Ñĸ
ÑĢ Ð°ÑĦ
ĠÐ¡ Ð°Ð¹ÑĤ
ĠÑģÐ°Ð» ÑĭÐ½ÒĵÐ°Ð½
ÑĤ ÐµÐ¹
ĠÑĤÐ¾ÒĽÑģÐ°Ð½ ÑĭÐ½Ð´Ð°
Ð¸Ð» ÑĮ
Ð¿ ÐµÐ¹
ĠÐ¶Ð¾Ð» Ð°ÑĥÑĪÑĭÐ»Ð°ÑĢ
ĠÑģÓ©Ð¹ Ð»
ÒĽÑĭÒĽ ÑĤÑĭÒĽ
ĠÐķÐ» Ð±Ð°ÑģÑĭ
Ñģ Ð°Ð»
ĠÐ¼ÓĻÐ½ Ñĸ
Ðļ Ð¾Ð½
Ð» ÑĭÒĵÑĭÐ½Ð°
ÒĽÑĭ ÑĤÑĥ
a tion
ĠÐºÑĸÑĢ ÑĸÑģ
! !
Ð± Ð°Ð»
Ñģ Ð°Ð½
ĠÐ°ÑĪÑĭÐ» Ð´Ñĭ
ÑĸÐ¼ÑĸÐ· Ð´Ñĸ
ĠÐ¶ Ò±Ð»Ð´ÑĭÐ·
ĠÐµÑģÐºÐµÑĢ ÑĤ
Ðº i
ĠÑĥÓĻ ÐºÑĸÐ»ÐµÑĤÑĤÑĸ
ĠÐ°Ð¶ ÑĭÑĢ
ĠÐºÓĻÑģÑĸÐ¿ ÐºÐµÑĢ
Ñĸ Ð»ÑĸÐº
ÒĽ Ð°Ð·Ð°ÒĽ
ĠÐ±Ñĸ ÑĤÑĸÑĢ
ĠÐ¼Ð°ÑĢ Ð°Ð¿Ð°ÑĤ
ĠÐ±Ó©Ð»ÑĸÐ¼ ÑĪ
Ð¿ ÑĸÐ½
ĠÐ°Ð·Ð°Ð¼ Ð°ÑĤ
ÑĤ ÓĻ
Ð°Ð± Ð¸Òĵ
Ġ Ð°Ð¼Ð°Ð½
ĠÒĽÐ°Ð»Ð¿ ÑĭÐ½Ð°
ĠÐºÐµÐ¿ ÑĸÐ»
Ð· ÑĭÑĢ
Ðĸ Ð°ÑĢ
ĠÐĳ Ð¾Ð»
ÐĶ ÐµÐ½
ĠÑģÐ°Ð¿ Ð°ÑĢ
ĠÓ©ÑĤ ÐµÑĤÑĸÐ½
ÓĻ ÑģÑĤ
ĠÐ±ÐµÑĢÑĥ ÑĪÑĸ
ĠÐ±Ó© Ð»ÐµÐº
ĠÐºÑĸÑĤÐ°Ð¿ ÑħÐ°Ð½
ĠÐ¼Ðµ ÑħÐ°Ð½
ĠÐ±ÑĸÐ»ÑĸÐ¼ Ð´Ñĸ
ĠÒļÒ±ÑĢ Ð¼Ð°Ð½ÒĵÐ°Ð·Ñĭ
Ðĳ Ð¸
ÑĢÐµÐ· ÐµÐ½
ĠÐ¾ÑĤÑĭÑĢ Ð°Ð´Ñĭ
ĠÐ· ÐµÑĢ
Ñĥ Ð¼ÐµÐ½
ĠÐ¿ÓĻÐ½ Ñĸ
4 6
ĠÒĽÐ°ÑĤÑĭÐ½Ð°Ñģ ÑĤÐ°ÑĢ
âĢĿ ,
ĠÐµÑģ ÐºÐµ
Ð±Ðµ Ð»ÑĸÐº
ĠÐľ ÓĻÐ´ÐµÐ½Ð¸ÐµÑĤ
ÑĤ ÒĽÐ°Ð½
ĠÓ© ÑĢÑĤ
Ðľ ÐµÐ½ÑĸÒ£
ĠÐ±ÑĸÑĢ Ð´ÐµÐ½
ĠÐĸ Ð°Ð¼Ð±ÑĭÐ»
ĠÐºÐ» ÑĥÐ±
ĠÑĤÒ±ÑĢÒĵÑĭÐ½ Ð´Ð°ÑĢÐ´Ñĭ
ĠÑĤÐ¾Ð± Ñĭ
Ð°Ñģ ÑĭÐ¿
Ð°Ñģ Ð¸ÑħÐ°ÑĤ
ÑĤÐµÐ½ ÑĪÐµ
ĠÒĽÐ¾Ð¹ Ð´Ñĭ
ĠÑįÐ»ÐµÐ¼ ÐµÐ½ÑĤ
u n
ĠÒĽÑĭÐ·Ð¼ÐµÑĤÐºÐµÑĢ Ð»ÐµÑĢÑĸ
Ð°ÑĪ Ð°ÑĢ
ÑĪ i
ĠÐ°Ñĥ Ð¼Ð°ÒĵÑĭÐ½Ð´Ð°
ĠÐ¸Ð½ Ð´ÑĥÑģÑĤÑĢ
ĠÐ¶Ð°Ñģ Ð°Ð´Ñĭ
ĠÐ¿ Ð°
ÒĽÑĭÐ· Ñĭ
Ġ H
ĠÑĪ Ð°ÒĵÑĭÐ¼
ĠÐ¶Ð°ÑĤÑĤÑĭ ÒĵÑĥ
ĠÑĪ ÑĭÑĢ
Ð°Ð½Ð´ Ð¸Ð´Ð°
ĠÐ±ÑĸÑĢ ÒĽÐ°ÑĤÐ°ÑĢ
Ñģ ÐµÐ¼
ĠÐºÐ¾Ð» Ð»ÐµÐ´Ð¶
ĠÑĦÐ¾ÑĢ ÑĥÐ¼
ÑĭÑģ ÑĤÐ°Ð½
Ñĸ ÑĤÐ°Ð¿
ĠÑĤ ÐµÑģÑĤ
ĠÐ±Ð¾Ð»Ð¼ Ð°ÑģÐ°
7 7
ÐµÐ»ÐµÑĢ Ð´ÑĸÒ£
ĠÐķÑĥÑĢÐ¾Ð¿ Ð°
ĠÐ¼Ò¯Ð´ Ð´Ðµ
ĠÐ°Ð»ÒĵÐ°Ð½ Ð´Ð°
ĠÐ°Ñĥ Ð´
ĠÐºÐ¾Ð¼Ð¿ ÑĮÑİÑĤÐµÑĢ
ĠÐ¸ Ð³Ñĸ
ĠÐµÑĤÑĥ Ð³Ðµ
ÑĸÐ· Ð´Ñĸ
ĠÑįÐ»ÐµÐºÑĤÑĢÐ¾Ð½ Ð´Ñĭ
ĠÐºÐ°Ð· Ð°ÑħÑģÐº
ĠÑĤÐ°Ñĥ ÑĭÐ¿
Ð°ÑĤ ÒĽÐ°Ð½
Ð» Ð°Ð´Ñĭ
ĠÐ´ Ð°Ð»
ĠÐ±Ó©Ð» ÑĸÐ½ÐµÐ´Ñĸ
Ð±Ñĸ ÑĤ
ÐµÐ¼ ÑĮÐµÑĢ
ĠÐ¯ ÒĵÐ½Ð¸
ĠÐ¿ÑĢÐµÐ·Ð¸Ð´ÐµÐ½ ÑĤ
Ð°Ð»Ð°ÑĢ ÑĭÐ½Ð´Ð°
ĠÓĻÐ´Ñĸ ÑģÑĸ
ĠÐ´ Ð¸Ñģ
ĠÓ©Ð½Ð´ÑĸÑĢ ÑĸÑģÑĤÑĸÐº
Ðĳ Ð°Ð»Ð°Ð»Ð°ÑĢ
ĠÐĶÐµÐ½ ÑģÐ°ÑĥÐ»ÑĭÒĽ
4 9
ĠÐ±Ð°Ñģ ÑĭÐ½Ð´Ð°
ĠÐļ Ð¾ÑĢ
Ó©Ð½ ÐµÑĢ
ĠÓĻÐ» Ð´Ðµ
ĠÒĽÐ¾Ð¹ ÑĭÐ¿
ĠÐĲ Ð·
ÑĭÐ¼ Ð°
ĠÐ¢ Ð°Ð»
ĠÐĸ Ð°ÒĽ
ĠÐ¿ÑĢÐ¾ÐºÑĥÑĢ Ð°ÑĤÑĥÑĢ
ĠÐĳ ÐµÑĢ
ÐºÐ¾Ð¼ Ð¼
ÐĲÒĽ ÑĤÓ©Ð±Ðµ
ĠÐ¶Ð°Ð· ÒĵÐ°Ð½
ÐĳÐ°Ñģ ÑĤÑĭ
Ó© ÑģÐ¿
ĠÑĤÐµÑĢ Ð¼Ð¸Ð½
Ðº Ð¸Ð½
ĠÐ°ÑĢ Ñħ
ÐµÐ» ÐµÐ³ÐµÐ½
ĠÐ¾ÑĢÐ³Ð°Ð½ Ð´Ð°ÑĢÐ´ÑĭÒ£
Ġ #
ĠÒĽÐ¾Ð» ÒĵÐ°
ĠÐ¿ Ðµ
ÐĶ Ðķ
ĠÐ½Ð°ÑĢ ÑĭÒĽ
ĠÑĤ Ð°Ð·Ð°
ĠÐļÓ© Ð¿
ÐºÐµÑĢ Ñĸ
ĠÐ¼ÐµÒ£Ð³ÐµÑĢ Ñĥ
ĠÑĤ Ð¾ÑĢ
ĠÐºÐ¾Ð¼Ð¼ ÐµÑĢ
ĠÐ¶Ð¾Òĵ Ð°ÑĢÒĵÑĭ
Ġ R
Ò±Ð» Ñĥ
ĠÑģÐ°Ð¿ Ð°Ð»Ñĭ
ÑĪÑĸ ÑĤ
ĠÐ°Ñģ ÑĤÐ°Ð½
Ð½Ð¾ ÑģÑĤ
ĠÒĽÐ°ÑĢ ÑĭÐ·
Ġ ÉĻ
ĠÑģÐ¾Ð½ Ð´ÑĭÒĽÑĤÐ°Ð½
Ðĸ Ð°Ò£
ĠÒĽÐ°Ð¹ ÑĭÑĢ
ĠÐ± Ð°ÒĽ
ĠÐ±Ð°Ñģ ÒĽ
ĠÐ»Ð¸ÑĨ ÐµÐ½
Ðĳ Ð°ÑĢÐ»ÑĭÒĽ
ĠÑĤÓ© Ð»
ÐĲ Ð²
ĠÐºÐ¾Ð¼Ð¸ÑĤ ÐµÑĤÑĸÐ½ÑĸÒ£
ĠÐ±Ð¾ ÑģÑĤÐ°Ð½
Ð°Ñħ Ð¼ÐµÑĤ
ÐµÐº ÑĨÐ¸Ñı
ĠÐĳ Ð°ÑĢ
ĠÑģÐµÐ½ ÑĸÐ¼Ð´Ñĸ
ĠÒĽÒ±ÑĢÐ°Ð¼ ÑĭÐ½Ð°
ĠÐ¶Ò¯Ð¹ Ðµ
ĠÐ±Ð°ÑĢ Ð°
ĠÐ¾ÑĢÑĭÐ½Ð±Ð°Ñģ Ð°ÑĢ
ĠÑĪÐµÒ£Ð±ÐµÑĢ ÑĸÐ½Ð´Ðµ
ĠÐ± Ð»
ĠÐ½Ð°Ñĥ ÒĽÐ°Ñģ
ĠÒĽÐ¾Ñģ Ñĥ
ÑĸÑģ ÑĸÐ½ÑĸÒ£
Ó©ÑģÐ¿ ÑĸÑĢ
ĠÐ°ÑĤ Ð°Ð»Ð°Ð´Ñĭ
Òļ Ð¾ÑĢ
ĠÐ¶ ÑĭÐ½
ĠÐºÒ¯Ð½ Ð½ÐµÐ½
Ð¼ Ð°Ð»
ĠÐŀ Ð½Ñĭ
ĠÒĽÐ°ÑĢÐ°Ð¿ Ð°Ð¹ÑĭÐ¼
Ð³ÐµÑĢ Ñĸ
ĠÐ· Ð°ÑĢ
ĠÑĤÒ¯ÑĢ ÑĸÐ½Ð´Ðµ
ĠÐ¿ÑĢÐµÐ·Ð¸Ð´ÐµÐ½ ÑĤÑĸ
i t
ÑĤ ÐµÐº
ĠÑĤÐ°Ð½ Ñĥ
6 5
ĠÐµ ÐºÐµÑĥ
ĠÐ¼ÐµÐºÑĤÐµÐ¿ ÐºÐµ
Ð´ Ð°ÑģÑĤÑĭÑĢÑĥ
ĠÑģÐ°Ð» ÑĤÐ°Ð½
Ð» Ð¸Ð½
ĠÐ´ÐµÒ£Ð³ÐµÐ¹ Ð´Ðµ
ÑģÑĭÐ»Ð°Ð¹ ÑĪÐ°
ĠÐ¡Ð¾Ð» ÑĤÒ¯ÑģÑĤÑĸÐº
ĠÐºÓ©ÑĢ ÑĸÐ½ÐµÐ´Ñĸ
ĠÐºÐ¸ ÑĸÐ¼
ĠÒĽÐ°Ð½ ÑĪÐ°
Ð°Ð± Ð¸
Ò£ ÑĭÐ·
ĠÐ¶Ó©Ð½ Ð´ÐµÑĥ
ĠÑĦ ÑĥÑĤÐ±Ð¾Ð»
ĠÐ¿Ð°Ð¹Ð´ Ð°Ð»Ñĭ
ÑĤ ÒĽÐ°ÑĢ
ÐĲÐ·Ð°Ð¼ Ð°ÑĤÑĤÐ°ÑĢÒĵÐ°
Ð³Ñĸ Ð¼ÐµÐ½
ĠÐ¶ÐµÑĤ ÐºÑĸ
ww w
ĠÐºÒ¯ Ð·
ĠÐŁÑĢÐµÐ·Ð¸Ð´ÐµÐ½ÑĤ ÑĸÐ½ÑĸÒ£
ĠÒ¯Ð¹ÑĢ ÐµÑĤÑĥ
Ð¶ÑĭÐ¼ Ð°Ð¹ÑĤÑĭÐ½
ĠÐºÐ°Ð·Ð°ÑħÑģÐº Ð¾Ð¼
ĠÐºÐµ Ð´ÐµÑĢ
3 1
ĠÐ±ÑĸÑĢ ÑĸÐº
ĠÓ©Ð·Ð³ÐµÑĢ ÑĤÑĥ
ma il
Ñģ Ñĥ
ĠÒĽÐ°Ð» Ð°ÑģÑĭÐ½Ð´Ð°ÒĵÑĭ
ĠÐ¡ ÐµÐ¼ÐµÐ¹
Ð°Ð»Ð°ÑĢ ÑĭÐ½Ð°
ĠÐ´Ð°Ð¼ÑĭÑĤÑĥ ÒĵÐ°
ĠÒĽÐ°Ð¼ ÑĤÐ¸
ĠÑįÑĤ Ð½
ÑĪÑĭÐ»Ð°ÑĢ Ñĭ
ĠÑĤÑĭÒĵ ÑĭÐ·
ĠÐ¶ÐµÒ£ ÑĸÐ¼
ĠÐ°Ð¹ ÑĤÑĭÐ»ÒĵÐ°Ð½
iÐ» iÐº
ĠÐºÓ©ÑĢ Ñģ
i c
ĠÐº ÐµÑĢÑĸ
ĠÐ±ÐµÐºÑĸ ÑĤÑĸÐ»Ð³ÐµÐ½
ÐĨ Ðľ
Ð°Ð¼ Ñĭ
Ð¶ Ð°Ñģ
ĠÑĥÐ½Ð¸Ð²ÐµÑĢÑģÐ¸ÑĤ ÐµÑĤÑĸ
ĠÐ°ÑĪ ÑĭÐ¿
Ð¶ Ð°ÑĤ
ĠÐ¶Ð°ÒĵÐ´Ð°Ð¹Ð»Ð°ÑĢ Ð´Ð°
ĠÑģÐµÐ¼ Ð¸Ð½Ð°ÑĢ
ĠÐº ÑĥÑĢ
Ð» Ð°ÑĤ
ĠÑģÐ°Ð» ÑĤ
ĠÐ¶Ð°Ò£ ÒĵÑĭÑĢ
Ð°Ð½ ÒĵÐ°Ð½
ĠÓĻÑģ ÑĸÑĢÐµÑģÐµ
ĠÐ°ÑģÑĭÑĢ Ð°ÑĤÑĭÐ½
ĠÐ¿Ð¾ÑĢÑĤ Ð°Ð»Ñĭ
ĠÐº Ð°Ð½Ð´Ð¸Ð´Ð°
ĠÒĽÒ±ÑĢÐ°Ð¼ Ñĭ
ĠÓ© Ð»ÑĸÐ¼
ĠÐļÓ© Ðº
ÑĢ ÐµÑģ
Ð¾Ð» Ñİ
Ð¼ Ð°Ð¹ÑĤÑĭÐ½
ÑĸÐ½ Ð³ÐµÐ½
Ð³Ñĸ ÑĪ
ĠÑĪÐµÐ± ÐµÑĢ
ĠÑĪÐ°ÑĢ ÑĤÑĭ
ĠÐ¢ Ó©ÑĢ
Ò°Ð» ÑĤÑĤÑĭÒĽ
Ð± Ñĥ
Ð¶ÐµÑĤ ÑĸÐ¼Ð´Ñĸ
ÑĤÑĸ Ð¼
ÓĻ ÐºÑĸÑĢ
ĠÓ©ÑĢ ÐºÐµÐ½
ĠÐ¾ÑĢ ÑĤÐ°Ð½Ñĭ
ÐµÑĤ ÑĸÐ½Ðµ
ĠÐ³ ÑĢÐ°Ð½
Ð¿Ð¾ÑĢ ÑĤÑĤÑĭÒĽ
Ñģ Ó©Ð·
ĠÓĻÐºÑĸÐ¼ Ð´ÑĸÐ³Ñĸ
ÐĲÐĹ ÐĲÒļ
ĠÒĽÒ± Ð·ÑĭÑĢ
Ð´Ð°Ð¼ Ð°
c om
ĠÒ¯Ð¹Ð»ÐµÑģ ÑĤÑĸÑĢÑĥ
Ð´Ðµ Ð±Ð¸
ĠÒĽ ÑĭÐ¼ÑĭÐ·
ĠÒļÐ°Ð·Ð°ÒĽ ÑĪÐ°
ĠÐ±Ð°Ñģ ÑĤÐ°Ð¼
Ð¶ ÐµÐ½
ĠÑĤÐµÑħÐ½Ð¾Ð»Ð¾Ð³Ð¸Ñı Ð»Ð°ÑĢ
ÑĸÒ£ÑĸÐ· Ð´Ñĸ
Ð´Ð°ÑĢ ÑĭÐ¼ÐµÐ½
ÐµÑĤ iÐ½
ĠÒĽÐ¾ÑĢÑĭÑĤÑĭÐ½Ð´Ñĭ Ð»Ð°ÑĢÑĭ
Ñĩ Ð°ÑĤÑĮ
Ð°Ð¼ Ð¼
8 9
0 5
ÑĪ Ð°Ð»ÑĭÒĽ
ĠÐ´ÐµÒ£Ð³ÐµÐ¹ Ñĸ
Ð»Ñĸ Ð³ÑĸÐ½Ð´Ðµ
ĠÐľÓĻÑģ ÐºÐµÑĥ
ĠÑĤÑĸÑĢ ÐºÐµÐ»
ĠÑĤÑĭÑĢ ÑĭÑģ
ĠÐ°ÑĢÒĽ Ð°ÑģÑĭÐ½Ð´Ð°
ĠÐºÒ¯Ð½ ÑĤÑĸÐ·
Ð¡ ÐŁ
Ð¡ Ð¾Ò£ÒĵÑĭ
Òĵ ÑĭÐ½Ð´Ð°
ĠÐľ ÐµÐ½ÑĸÒ£
Ó©Ò£ Ð³ÐµÐ»
ĠÐµÒ£ Ð±Ðµ
ĠÑĤÐ¾ÒĽÑģÐ°Ð½ ÑĭÐ½Ð°
ÑĢÐµÐ·ÐµÐ½ ÑĤÐ°ÑĨÐ¸Ñı
ÑĭÐ¼ ÑĪ
ĠÐ² Ð°Ð»Ñİ
Ð°Ð½ Ð¾Ð²
ĠÐ¶ ÐµÑĤÑĤÑĸ
ÒĵÑĭÐ» Ð°ÑĢ
Ñĥ Ð´ÑĸÒ£
ĠÑĦÐ¸Ð» ÑĮÐ¼
Ð°ÑĢÑĭ ÑĪ
Ñģ ÑĭÐ¼ÐµÐ½
Ðļ Ó©ÑĢ
ĠÐ±Ð¾Ð»Ð¼ Ð°ÒĵÐ°Ð½
ĠÓĺ Ð´Ñĸ
ĠÐº ÑĸÑĪ
ĠÑĤÐ°ÑĢ Ð¼Ð°ÒĽ
ĠÐ¶Ò±Ð¼ Ñģ
ĠÐļ ÓĻÑģÑĸÐ¿
Ñĥ Ð´Ñĸ
ĠÐ¾ÑĢÑĤÐ° ÑĪÐ°
ĠÑģÓ©Ð¹ Ð»ÐµÐ¼
ĠÐ°Ð» ÒĽ
Ð´ÑĭÒĽ ÒĽÐ°
ĠÐ½ÐµÑģ Ð¸Ðµ
Ð¢ Ð°ÒĽÑĭÑĢ
ĠÑĸÑģÑĤ ÐµÐ¹Ð´Ñĸ
ĠÐµÑģÐµÐ¿ ÑĤÐµÑĥ
ĠÐºÐµÐ·ÐµÒ£ Ð´Ðµ
ĠÑĤÐ°Ð½ ÑĭÐ¼Ð°Ð»
ÐĲÐĽ Ð«Òļ
ĠÒĽÐ¾Ð¹ ÑĭÐ»ÒĵÐ°Ð½
ĠÒĽÐ°Ð» Ð°Ð´Ñĭ
ĠÑģÓ©Ð· Ñĸ
Ð°Òĵ ÑĭÐ·
ĠÐ¾ÑĢÑĤ Ð°Ð»ÑĭÒĵÑĭÐ½Ð´Ð°
ÐµÑĢ Ð¼Ð°Ð½
ĠÐµÐ´Ñĸ Ð¼
ÑĸÑģ ÐºÐµ
ĠÒ¯ÑĪ iÐ½
ÑĤÐ¾ÑĢ Ñĭ
ĠÐºÒ¯Ð½ Ð´ÐµÑĢÑĸ
ĠÐ³ Ò¯Ð»
ĠÒĽÒ± Ð½Ñĭ
ĠÐ¶Ð°Ð» ÒĵÑĭÐ·
ĠÑĪÑĭÐ½ ÑĭÒĽÑĤÑĭÑĢÑĥ
ĠÐļ Ð°Ð·
Ð¾Ðº ÑĢÐ°ÑĤ
ÒļÒ±ÑĢ Ð¼Ð°Ð½ÒĵÐ°Ð·Ñĭ
ĠI I
Ð³ÐµÑĢ ÑĪÑĸÐ»ÑĸÐº
ĠÑĤÐ°Ð¼ ÑĭÑĢ
Ð¡Ð¢ ÐĲÐĿ
ĠÓ©ÑĤÐºÑĸÐ· ÑĸÐ»Ð´Ñĸ
ĠÑĪ Ò±
ĠÐºÒ¯ Ð¼
ĠÐ¾ Ð·
Ġ V
Ñĥ ÑĭÐ»
ÑĤ Ð°Ð¹ÑĤÑĭÐ½
ÐĳÐ°Ñģ ÒĽÐ°
ÐµÐ´ Ð¸ÑĨÐ¸Ð½
ĠÑħÐ°Ð»ÑĭÒĽ ÒĽÐ°
ĠÒĽÒ±ÑĢÑĭÐ»ÑĭÐ¼ Ñĭ
ĠÐĳ Ð°Ð»Ð°Ð»Ð°ÑĢ
ĠÐ¶ Ð°Ð¼Ð°Ð½
ĠÐ½ÐµÐ³ÑĸÐ· Ñĸ
ĠÒĽÐ°ÑĢÐ°Ð¼ Ð°ÑģÑĤÐ°Ð½
ĠÐ¼ Ð°Ð³
ÐºÐ° ÑĩÐ°ÑĤÑĮ
Ð¸Ðº Ð»
ÑĤÐ¾ÑĢ Ð»ÑĭÒĽ
ĠÐ´ Ð¾Ðº
ĠÐ°Ð½ÑĭÒĽ ÑĤÐ°Ð¼
ĠÐĲÑĥ ÑĭÐ»
ĠÐ½ ÐµÐ¼
ĠÑĤÐ°Òĵ Ð°Ð¹ÑĭÐ½Ð´Ð°Ñĥ
ÐºÑĸ Ð»Ñĸ
Ð°Ñı Ñĥ
Ð½Ñĭ Ðµ
ĠÐºÐ¾Ð´ ÐµÐºÑģ
ĠÑĦÐ¸Ð» Ð¾ÑģÐ¾ÑĦ
ĠÐĲ ÑħÐ¼ÐµÑĤ
Ð¢Ð°ÑĢ Ð¸Ñħ
Ð« ÐĹ
ĠÒ±ÑģÑĭÐ½ Ñĥ
Ð¸Ð¿ ÐµÐ´
ĠÐ´ÐµÒ£Ð³ÐµÐ¹ ÑĸÐ½
ĠÐļ ÐµÐ¹
Ðĳ Ò±
ĠÐ±ÑĸÐ»Ð´ÑĸÑĢ ÐµÐ´Ñĸ
ĠÑħÐ°Ð»ÒĽ ÑĭÐ½Ð°
ĠÐĿ Ð°ÑĥÑĢÑĭÐ·
ĠÐł ÐµÑģÐ¿ÑĥÐ±Ð»Ð¸ÐºÐ°Ð»ÑĭÒĽ
ÑĤ Ð¾Ð½
ĠÓĺ Ñģ
ĠÑĤÐ°ÑģÑĭÐ¼Ð°Ð» Ð´Ð°Ñĥ
Ð°ÑĢ Ð¼Ð°
Óĺ Ð»ÐµÑĥÐ¼ÐµÑĤÑĤÑĸÐº
ĠÑĤÑĸÐ» ÐµÐº
ĠÐŀÒĽ ÑĥÑĪÑĭÐ»Ð°ÑĢ
Ð°Ð¹Ð» Ð°Ð½ÑĭÑģ
ĠÐĲ Ð·Ð°Ð¼
ĠÑģÐ¾ ÒĽ
ĠÐ¼ÐµÐºÑĤÐµÐ¿ ÑĤÐµÑĢ
ĠÑĤ Ð°Ð¹
ĠÒ¯Ð½ÐµÐ¼ Ñĸ
ÑģÑĭÐ» ÑĭÒĽ
ĠÐĿÐ°Ð·Ð°ÑĢÐ±Ð°ÐµÐ² ÑĤÑĭÒ£
ĠÑĪÐ°ÑĢ ÑĤÑĤÐ°ÑĢ
8 6
ĠÑĢ Ó©Ð»
Ð»ÑĸÐº ÑĤÐµÑĢ
ĠÑĤÐ¾ÒĽ ÑĤ
Ð°Ñĥ ÑĭÑĤ
ĠÐ¶Ðµ Ð»ÑĸÑģ
ĠÐ³ Ð¸Ð¿
Ð´ÑĭÒ£ ÒĵÑĭ
ÐµÐ³Ðµ Ð¹
ĠÐ¾ÒĽ ÑĥÒĵÐ°
ÐºÐ¾Ð½Ð¾Ð¼ Ð¸ÐºÐ°
ĠÐ¼Ð¸Ð½Ð¸ÑģÑĤÑĢ Ñĸ
Ġ Ð°ÒĵÐ°
ĠâĢ ¢
ĠÑģÐ°Ð» Ð°ÑģÑĭ
ÑĤÐ°Ñĥ ÑĭÑĪ
ĠÐ¾Ð¹ Ð»Ð°Ð¹
e ws
ĠÑĤÐ°Ð¿ÑģÑĭÑĢ Ð¼Ð°
ĠÐ¾Ð½ Ð»Ð°Ð¹Ð½
ĠÒĽÑĭÐ·Ð¼ÐµÑĤ ÑĸÐ½Ðµ
ĠÐĺ ÑģÐ»Ð°Ð¼
ĠÐ±ÑİÐ´Ð¶ ÐµÑĤÑĤÑĸÐº
ĠÐ¸ ÐµÑģÑĸ
ĠÑĤÒ±ÑĢÒĵÑĭ Ð´Ð°Ð½
ÑĸÐ½ Ð´Ñĸ
Ð°ÑĨÐ¸Ñı ÑģÑĭ
Ð± Ò±Ð»
ĠÐ±ÑĸÐ» ÑĥÐ³Ðµ
ĠÐĸ Ð°Ð·
ĠÐ² ÐµÑĤÐµÑĢÐ¸Ð½Ð°ÑĢ
ĠÑģÓ©Ð¹ Ð»ÐµÑĥ
ÑĪ Ð°Ð¼Ð°
ĠÐ¼Ò¯ÑĪ ÐµÑģÑĸ
i s
Ð¿ÐµÑĢ Ð°ÑĤÑĥÑĢ
ĠÐ¿ÑĢ Ð¾Ð³ÑĢ
ĠÐ°Ð» ÒĵÑĭÑģ
ĠÑĤÐ¾Ð¿ ÒĽÐ°
Ð» Ð¸
ĠÐºÐµÐ´ÐµÑĢ Ð³Ñĸ
ÑĤÐ¾ Ð¿
ĠÐ¡ Ó©Ð¹
Ñ ŀ
Ð¢ Ò±ÑĢ
Ð°Ñĥ Ð¸
ĠÐ´Ð°Ð¼Ñĥ ÑĭÐ½ÑĭÒ£
ĠÐ¢Ò¯ÑĢ Ðº
ĠÐµ ÑĤÐµ
ĠÐ±Ð°Ð» Ð°ÑģÑĭ
3 3
Ð¸Ñģ Ñģ
ÑĪ ÑĸÐ»
Ð¾ ÑģÑĤ
ĠÑģÐ°Ð½ Ð°Ð»Ð°Ð´Ñĭ
ĠÐ¿ÑĢ Ð¸Ð½
Ð¸ ÐµÑĤ
ÑĭÑĢ Ð¼Ð°Ð½
http s
ĠÑĪ Ð°ÒĽ
ÑĭÑĢ Ð°Ñĥ
Ðł ÑĥÑħÐ°Ð½Ð¸
Ðľ ÐĶ
ĠÐºÐ¾Ð¼Ð¼ÐµÑĢ ÑĨÐ¸ÑıÐ»ÑĭÒĽ
ĠÒĽÒ± Ð¹
ĠÐ´ÐµÐ¿Ð°ÑĢÑĤÐ°Ð¼ ÐµÐ½ÑĤÑĸ
ĠÐĸ Ðŀ
ÐµÑģ ÑĸÐ½Ð´ÐµÐ³Ñĸ
ĠÒĽÐ¾Ð»Ð´Ð°Ð½ ÑĭÑģÒĽÐ°
Ġ200 9
e l
ĠÐ½ Ð°ÑģÐ¸ÑħÐ°ÑĤ
ÐµÐ¼ ÑĸÑĢ
ĠÒ±Ð¹ÑĭÐ¼ Ð´Ð°ÑĢ
ĠÐ¤ ÑĢÐ°Ð½
ĠÑģÐ°ÒĽ ÑĤÐ°Ð»
ĠÐ¶Ð°Ò£Ð°Ð»ÑĭÒĽ ÑĤÐ°ÑĢÑĭ
ĠÑĤÑĸÐ· ÑĸÐ¼
Ð¸Ð¼Ð¿Ð¸ Ð°Ð´Ð°
ĠÐĳ Ð°Ð½Ðº
ĠÐ¾ÒĽÐ¸ ÒĵÐ°
ĠÓĻÐ´Ñĸ ÑģÑĤÐµÐ¼ÐµÐ»ÑĸÐº
ĠÐ°ÑĢ Ð¼Ð°Ð½
ĠÐ¼Ò± ÒĽ
ÑĤÐµÐ» Ð³ÐµÐ½
ĠÑĤÐ°Ð±ÑĭÐ» Ð°ÑĤÑĭÐ½
ÐĲ Ð±Ð°Ð¹
ÐµÑĤ Ð¸ÐºÐ°
ĠÐ¶ÑĭÐ» Ð´Ð°
ĠÐ¿ÓĻÐ½ ÑĸÐ½ÐµÐ½
ĠÒĽÐ¾ÒĵÐ°Ð¼ Ð½ÑĭÒ£
Ð¼ Ð°Ñģ
Ġ3 1
ĠÑģ Ð¸Ð½
ÐĲ Ò¢
ĠÑĤÑĥÑĢ Ð¸Ð·Ð¼
ĠÒĽÒ±ÑĢ Ð°Ð´Ñĭ
ĠÐ¼ÐµÑĢÐ· ÑĸÐ¼Ñĸ
ĠÓ©Ð½ ÑĸÐ¼Ð´Ñĸ
ĠÑĤÐµÑĢ ÑĢ
Ð» Ð°Ñģ
ĠÐ¡ ÑĭÐ±Ð°Ð¹Ð»Ð°Ñģ
ĠÑģÓĻÑĥ Ð»ÐµÑĤ
ĠÐ¡Ð¾Ð½ Ð´Ð°
Ðĺ Ðļ
ÑĪÑĸÐ»ÐµÑĢ Ñĸ
ĠÒĽÐ¾Ð» Ð¶ÐµÑĤÑĸÐ¼Ð´Ñĸ
ĠÐ¾ÑĢÐ³Ð°Ð½ Ð´Ð°ÑĢÑĭ
Ñĥ ÐµÐ·
ĠÐ°ÑĤ Ð°ÑĥÑĭ
Ð¼ ÓĻ
Ð°ÑĤÑĤÐ°ÑĢ ÑĭÐ½ÑĭÒ£
ĠÐ°Ñĥ ÑĭÑģÑĤÑĭÑĢ
Ð´Ð°Ð½ Ð´ÑĭÑĢÑĥ
Ð¸Ñı Ð»Ð°ÑĢ
ĠÒĽ ÑĭÐ¼
ĠÐ± ÑĢ
ÑĨ ÐµÐ½
Ðµ ÑħÐ½
Ðº Ó©ÑĢ
ĠÑģÐµÑĢ ÑĤÐ¸ÑĦÐ¸Ðº
ĠÐĲÒĽ Ð¿Ð°ÑĢÐ°ÑĤ
ĠÐ¼Ð°Ð·Ð¼Ò± Ð½Ñĭ
ĠÐµÑģÐµÐ± ÑĸÐ½ÐµÐ½
ĠÒĽÐ°Ð¼ ÒĽÐ¾ÑĢ
ĠÓ©Ð· Ð´ÐµÑĢÑĸÐ½ÑĸÒ£
ÐŁ ÑĸÐºÑĸÑĢ
oo k
ĠÓ©ÐºÑĸÐ» Ð´ÐµÑĢÑĸÐ½
ÓĻÐ¼ ÐµÐ»
Ð¸ÐºÐ° ÑĨÐ¸Ñı
Ð½ Ð°Ð¹Ñĭ
ĠÒĽÒ±ÑĢÐ°Ð» Ð´Ð°ÑĢÑĭ
Ð°Ð» Ð¸
ĠÐºÓ©Ð·ÒĽÐ°ÑĢ Ð°Ñģ
ÐĲÐ» ÑĤÑĭÐ½
ĠÐ¶Ð°Ñģ Ð°Ð»
ĠÑĤÐµÐ» Ðµ
ĠÐ¼Ð°ÑĤÐµÑĢÐ¸Ð°Ð» Ð´ÑĭÒĽ
Òĵ Ð°ÒĽ
ÐŀÒĽ Ñĥ
ĠÐ´ÓĻÑģÑĤ Ò¯ÑĢÐ»Ñĸ
ĠÑģ ÐµÐºÑĤÐ¾ÑĢ
Ð¡ ÑĸÐ·
ĠÒ±ÑģÑĤÐ°Ð· Ð´Ð°ÑĢ
ĠÑĤ Ñĸ
ĠÐ· Ð°Ð»
ĠÐ±Ð°Ð» Ð°Ð±Ð°ÒĽ
Ð½ ÐµÐºÑĸ
ĠÐ¶ÓĻÑĢ Ð´ÐµÐ¼
Ð¿Ð°Ð½ Ð¸ÑıÑģÑĭ
en t
ĠÑĤÐ°Òĵ Ð°Ð¼
ĠÐ¼Ð°ÒĽ Ð°Ð»Ð°Ð»Ð°ÑĢ
ĠÑĤÐµÑĢ Ð³Ðµ
Ñģ ÑĸÒ£
ĠÐºÓ©ÑĢÑģÐµÑĤ ÐºÐµÐ½
ÑĤÐ°Ñĥ ÒĵÐ°
ĠÐ°Ð½ÑĭÒĽ ÑĤÐ°Ð¼Ð°ÑģÑĭ
ÐµÐ³ÐµÐ½ Ð¼ÐµÐ½
Ġ 000
Ò±ÑĢ ÑĭÐ»ÑĭÐ¼
3 4
ĠÐ¶Ð°ÒĽÑģÐ°ÑĢ ÑĤÑĥ
Ð¢ ÐĲÐł
ĠÐ¾ÑĢÐ³Ð°Ð½ Ð´Ð°ÑĢÑĭÐ½ÑĭÒ£
Ó©Ò£Ð³ÐµÐ» ÐµÐº
g r
Ò® Ð¹
ÑĤ Ð°Ð¶
Ð±ÐµÐº ÑģÑĤÐ°Ð½
ÐµÐ¼ ÐµÑĤ
ĠÐŀÒĽ Ñĥ
Ġ ?
Ð¸Ðº Ð°Ð½ÑĭÒ£
Ð± ÐµÐ¹
ĠÒ±ÑģÑĤ Ð°Ð¿
ĠÐĲÐ» Ð°ÑĪ
Ð»ÑĭÒĽ ÒĽÐ°
Ð´Ñĸ Ð³ÑĸÐ½Ðµ
c h
ĠÐ±Ð°Ñģ ÑĤÐ°Ð»Ð´Ñĭ
ĠÑĤ Ð°Ð½Ñĭ
ĠÐ¶Ò¯ÑĢÐ³ÑĸÐ· ÑĸÐ»ÐµÐ´Ñĸ
ÐľÒ± Ð½
ĠÐĲÐ» Ð»
ĠÑģÒ±ÑĢ Ð°Ð½ÑĭÑģ
ÐŁ Ð°Ð¹
Ðĸ ÐµÐºÐµ
Ð°ÑħÐ°Ð± Ð±Ð°ÑĤ
ĠÓ©ÑĤÐºÑĸÐ· Ð´Ñĸ
Ð°Ð» Ð´Ð°ÑĢ
Ð· Ð°ÒĽ
ĠÑĪ Ð°Ò£
ÑĭÐ½Ð´Ñĭ ÒĵÑĭ
ĠÐ°Ð¿Ð¿Ð°ÑĢÐ°ÑĤ ÑĭÐ½ÑĭÒ£
ĠÓĺ Ð»ÐµÐ¼
ĠÐ¿ÑĢÐ¾ÑĦ ÐµÑģÑģÐ¾ÑĢ
ĠÐľ Ð°Ò£ÒĵÑĭÑģÑĤÐ°Ñĥ
ĠÒĽÐ¾Ñģ Ð¿
ĠÐ± Ð°Ð±
ĠÑģÐ¾Ò£ ÑĭÐ½Ð´Ð°
ĠÐ¸Ð½Ð²ÐµÑģÑĤÐ¸ ÑĨÐ¸ÑıÐ»ÑĭÒĽ
ĠÐ±Ò± ÒĵÐ°Ð½
ÑĭÒ£ÑĭÐ· Ð´Ñĭ
ĠÑĤÐ°Ð¿ ÒĽÐ°Ð½
Ð« Ð¡
ĠÑĤÐ°ÒĵÐ°Ð¹ÑĭÐ½ Ð´Ð°Ð»
ĠÐĲ Ð±
ĠÐ´ ÐµÑģ
ĠÑħÐ°Ð±Ð°ÑĢÐ» Ð°Ð´Ñĭ
ĠÐ±Ò± Ð¹ÑĭÐ¼
ĠÐľ ÐµÐºÑĤÐµÐ¿
ÐļÓ© Ð¿
ĠÑĤÒ¯ Ð¿
0 7
ĠÐ°ÑĥÐ´Ð°Ð½ ÑĭÐ½Ð´Ð°
Ð¶ Ð°
ĠÐ¶Ð°ÑĤ Ð°ÑĤÑĭÐ½
ĠÓ© Ð¹ÑĤÐºÐµÐ½Ñĸ
ĠÑĤ Ð°Ð·
ĠÒļ Ð°Ñģ
ĠÐŀÑĢ Ð°Ð»
ĠÒļÐ°ÑĢ Ð°
ĠÐ¾ÑĢÑĤÐ°Ð»ÑĭÒĵ ÑĭÐ½ÑĭÒ£
ĠÒĽ Ð°ÒĽ
Ð¢ ÓĻÑĥÐµÐ»
Ò±ÑĢ ÑĭÐ½
Ñĥ Ð´
ĠÐµÐºÐµÐ½ Ð´ÑĸÐ³ÑĸÐ½
ĠÐ½ÓĻÑĢ ÑģÐµ
ĠÑĤÑĥ ÑĭÐ½
Ð»Ð°Ð¹ Ð´
ĠÐ¶ÐµÑĤ Ñĸ
ĠÒ±Ð¹ÑĭÐ¼ ÑĭÐ½ÑĭÒ£
ĠÐĲÐ» ÑĤÑĭÐ½
ĠÑĤÐ°Òĵ Ð´ÑĭÑĢ
ĠÐ°Ð· ÑĭÒĽ
6 9
ÒĽ ÑĭÐ¼Ð´Ñĭ
ÑĸÒ£ Ð´Ñĸ
ĠÐ°Ñģ ÑĭÐ»
ĠÐ°Ð» Ð´Ð°ÒĵÑĭ
ĠÑĪ Ð°Ð»
ĠÐ¼Ò¯ Ð³ÐµÐ´ÐµÐº
ÑĢÐ°ÒĽ Ò±ÑĢÑĭÐ»ÑĭÐ¼
ĠÐºÐµÑĤ ÐµÐ´Ñĸ
ĠÑĤÒ±ÑĢ Ð¼ÑĭÑģ
ĠÐ¼Ð°Ð¼Ð°Ð½ Ð´ÑĭÒĽ
ĠÐ½ÓĻÑĤÐ¸Ð¶ ÐµÑģÑĸ
ĠÑģ ÑĸÐ·Ð´ÑĸÒ£
ÐĲ Ð½
ĠÐ´Ð°Ð¼ ÑĭÒĵÐ°Ð½
ĠÐºÓĻÑģÑĸÐ¿ ÑĤÑĸÐº
ĠÐ°Ð» ÒĵÐ°
ĠÐ¼ Ð¸Ðº
ĠÐ±Ð°Òĵ Ñĭ
Ġ L
ĠÑģÑĸÐ» ÑĤÐµÐ¼
ĠÐ¼ÐµÐ½ Ñĸ
ĠÒĽÐ°Ð¹ ÑĤÑĭÑģ
Ðļ Ðŀ
ĠÐ¶Ð°Ñģ ÑĭÑĢ
ĠÐ±Ð°Ñģ ÑĭÐ½
ĠÐºÓĻÑģÑĸÐ¿ ÐºÐµÑĢÐ»ÐµÑĢ
ÓĻÑģÑĤ Ò¯ÑĢ
ĠÐ¾ÑĢÑĤ Ð°ÒĵÐ°
ĠÑģÐ°Ð±Ð°ÒĽ ÑĤÑĭÒ£
Ð»ÑĭÒĽ ÑĤÑĭ
ĠÐº Ð°Ð±
ĠÒļÒ± Ð´Ð°Ð¹
ĠÐ¡ Ð°Ñĥ
ĠÐºÐ°Ð¿ Ð¸ÑĤÐ°Ð»
Ñĥ ÒĵÐ°Ð½
ĠÑĤÓ©Ð¼ÐµÐ½ Ð³Ñĸ
ĠÐºÐµÐ·Ð´ÐµÑģ ÐµÐ´Ñĸ
ĠÐºÓ©ÑĢÑģÐµÑĤ ÑĸÐ¿
ĠÐĳ Ó©
Ð± ÐµÑģÑĸ
Ðŀ Ð¹
ĠÐ±ÐµÐ»Ð³Ñĸ Ð»ÐµÑĢÑĸ
ĠÐµÑģÐºÐµÑĢÑĤ ÐºÑĸÑĪ
5 9
r u
ĠÑĪÑĭÒĵ Ñĥ
Òĵ Ò±ÑĢ
ĠÑĤÐ¾Ð» Ð¼Ð°ÒĵÐ°Ð½
ĠÐļ Ðµ
ĠÑĥÑĩÐ°Ñģ Ðº
Ð´ Ð°Ð³ÐµÑĢ
Ð´i Ðº
ĠÐºÓ©ÑĢÑģ ÐµÑĤÑĤÑĸ
ÒĽÐ°ÑĢ Ð°Ð»ÑĭÒĽ
ĠÐ°Ð¿ ÑĤÐ°
Ðļ Ð¾Ð¼
ĠÐºÐ¾ÑĢÐ¿Ð¾ÑĢÐ°ÑĨÐ¸Ñı ÑģÑĭÐ½Ð´Ð°
ĠÐ¾ÒĽ Ñĭ
ĠÐºÐ°Ð´ ÑĢ
Ð°ÒĽ ÑĭÐ¼
ĠÑĪÐµÐºÑĤÐµÑĥ Ð»Ñĸ
Ð´Ð°Ð½ ÑĭÒ£
ĠÐ ®
ĠÐĲ Ð¼Ð°Ð½
ĠÒĽÐ°ÑĤÑĭÑģ ÒĽÐ°Ð½
ĠÐ· Ð°ÑĤ
ĠÑģ Ð°ÑĤÑĥ
ĠÓĻÒ£Ð³Ñĸ Ð¼Ðµ
Ð¼ Ð°ÑĢ
ĠÒĽÐ°ÑĢÐ¶ÑĭÐ» Ð°Ð½Ð´ÑĭÑĢÑĥ
ĠÐĨ ÑĪÐºÑĸ
ÐµÐ¶Ò¯Ð· ÑĸÐ»ÑĸÐº
ĠÑĭ Ð´Ñĭ
ĠÐ³ ÐµÐ½
ĠÒļÐ°Ð· ÐĲÒĽÐ¿Ð°ÑĢÐ°ÑĤ
ÑĪ Ð°ÑĢÑĤ
Ð´Ðµ ÑĥÐ³Ðµ
Ð¿ ÑĸÑĢ
ĠÐ°Ð¹ ÒĽ
ÒļÐ°Ð·Ð°ÒĽ ÑĪÐ°
ĠÐ¾Ò£ Ð°Ð¹
ĠÐ¸ ÐµÐ»ÐµÐ½
Ð½ Ð¸Ðº
ĠÒĽÒ±ÑĢ Ð°Ð»Ñĭ
Ð»Ð°Ð¼ ÐµÐ½ÑĤÑĸ
ÑģÐµÐ½ Ð±Ñĸ
ĠÐĳ Ò¯
Ðŀ Ðł
ĠÐ° Ð´Ð°Ð»
Ð¾ Ð±Ð°
ĠÐ¼ÑĥÐ· ÑĭÐº
ĠÐ¼Ò¯ÑĪ ÐµÐ»ÐµÑĢÑĸ
ĠÐ¼Ð¾Ð½Ð¸ÑĤÐ¾ÑĢ Ð¸Ð½Ð³
ĠÐ¶Ð¾Ð» ÑĭÐ½
ĠÐºÒ¯ Ð»
ĠÑĢÐµÐ¶ Ð¸Ð¼
6 7
Ð» ÑĭÐ¼
ĠÐ¼Ð°ÑĤÐµÑĢÐ¸Ð°Ð» Ð´Ð°ÑĢÐ´Ñĭ
ĠÒĽÐ°ÑĤÑĭÑģ ÑĭÐ¿
Ò£Ð³Ñĸ Ð»ÑĸÐº
ĠÐĶ Ð¶
Ðµ Ð´Ðµ
ĠÐ¸Ð½ ÑģÐ¿
Ġ8 0
ĠÒĽÐ¾Ð¹ ÑĭÐ»Ð°ÑĤÑĭÐ½
ĠÐ¶Ò¯ Ð»Ð´Ðµ
ĠÑĤÐµÐ¼ Ð¿ÐµÑĢÐ°ÑĤÑĥÑĢ
ĠÓ©Ð»ÑĪ ÐµÐ¼
ĠÐ½ÐµÑģ Ð¸
ĠÐ¼Ð¸Ð½Ð¸ÑģÑĤÑĢ ÑĸÐ½ÑĸÒ£
Ð» ÐºÐµÐ½
ĠÐ·ÐµÑĢÑĤÑĤÐµÑĥ Ð»ÐµÑĢ
ĠÂ ©
Ð¼ ÐµÑĤÑĤÑĸÒ£
ĠÐºÓ©ÑĢÑģÐµÑĤ ÐµÑĤÑĸÐ½
ĠÐµÐ½Ð³ÑĸÐ· ÑĸÐ»ÐµÐ´Ñĸ
ĠÓĻ Ð»ÑĸÐ¿
ÐµÑģ ÑĸÒ£
ĠÐ¼Ð°Ð¼Ð°Ð½ Ð´Ð°ÑĢ
Ð¼Ð°Òĵ ÑĭÐ½Ð°
ĠÓ© Ðº
ĠÐµÑĪ ÒĽÐ°Ð½Ð´Ð°Ð¹
ÑĤÐ°ÑĢ ÑĭÐ½Ð´Ð°
ĠÐ¼ÑĸÐ½Ð´ ÐµÑĤÑĤÐµÑĢÑĸ
ĠÐ¼ Ð¸
ĠÐ±Ð¾Ð» ÑĥÒĵÐ°
Ð°Ð½ Ñģ
Ñĸ Ð±ÐµÐº
Ð½ Ð°Ñı
ĠÐµ ÑģÑĤ
ĠÐļ Ð°ÑĢ
ĠÐ¼ÐµÐ´Ð¸ÑĨÐ¸Ð½ Ð°
ĠÐ¾ÑĢ Ð¼Ð°Ð½
ĠÐ¢ Ò±
ÐĳÐ¾Ð» Ð°ÑĪÐ°ÒĽ
ĠÐŀÑģÑĭ ÒĵÐ°Ð½
ĠÐ¸Ð½ Ð½Ð¾Ð²Ð°ÑĨÐ¸ÑıÐ»ÑĭÒĽ
ĠÒ¯Ð» ÐµÑģÑĸ
ÑĸÑĢ ÐµÐº
Ð³ Ñĥ
Óĺ Ð»ÐµÐ¼
ĠÐ´ÐµÑĢ Ð±ÐµÑģ
ĠÐ¶Ò±Ð¼ÑĭÑģ ÑĤÑĭÒ£
ĠÐ¶Ð°Ð¹ ÑĭÐ½Ð´Ð°
ĠÑģÐ°Ð½ Ð°ÑĤ
ÑĥÐµÐ· Ð¾Ð²
ĠÒĽÑĭÐ· ÑĭÐ»
ĠÐ°Ð» ÑĤÑĭ
ĠÐºÑĸ ÑĪÑĸ
ÐµÑģ ÑĤÐ¸Ð²
ÑĭÐ½Ð´Ð° ÒĵÐ°Ð½
Ð» Ð°Ð¹Ð´Ñĭ
o p
ĠÒĽÐ°ÑĥÑĸÐ¿ ÑĤÑĸ
ÐµÐ»ÐµÑĢ ÑĸÐ½Ðµ
Ð¹ÑĭÐ¼ Ð´Ð°ÑģÑĤÑĭÑĢÑĥ
ÑĤ ÑĥÑĢ
Ġ |
Ð°ÑĤÑĭÐ» ÒĵÐ°Ð½
ĠÐŀÐ½ Ð´Ð°
ÑĤÐµÐ» ÐµÐ´Ñĸ
ĠÒĽÐ¾Ñģ ÒĽÐ°Ð½
ĠÐ±ÐµÐ¹ ÑĸÐ¼
ĠÐ¿ÑĢÐ¸Ð½ ÑĨÐ¸Ð¿
ĠÑĤÑĸÑĢ ÑĪÑĸÐ»ÑĸÐº
ĠÑĪÑĭÒĵ ÑĭÑģ
ĠÐ½Ò±Ñģ ÒĽÐ°Ñĥ
ĠÒĽÐ¾ÑĢ Òĵ
ĠÐ¶Ð°Ð· Ð±
Ñĭ ÐºÐ°
ĠÐ¼Ó©Ð»ÑĪ ÐµÑĢÑĸ
ÑĤÐµÑĢ Ð»ÑĸÐº
ĠÐ¼Ð°ÑĪ Ð¸Ð½
ĠÐĲÒĽ ÑĤÓĻ
Ðļ ÐµÐ·
ĠÑį Ð½
ĠÐ°ÑģÑĭÑĢ ÑĥÒĵÐ°
Ð¾ÑĢ Ð¼Ð°
ĠÐµÑĢÐµÐºÑĪÐµÐ»ÑĸÐº ÑĤÐµÑĢÑĸ
Ð°Ñģ Ð¿
ÐºÐ¾Ð¼Ð¼ ÑĥÐ½Ð°Ð»Ð´ÑĭÒĽ
Ð¼ Ð¾
ĠÐ°ÑĥÑĭÐ» Ñĭ
ĠÐ¶ÐµÑĢ Ñĸ
ĠÐ°Ð» ÑĭÑģ
ĠÐºÐ¾Ð¼Ð¸ÑĤ ÐµÑĤÑĸ
ĠÒĽÐ°Ð´Ð°ÒĵÐ°Ð» Ð°Ñĥ
ĠÐ°Ð·Ð°Ð¼Ð°ÑĤÑĤÐ°ÑĢ Ð´ÑĭÒ£
ĠÐ± Ð¾ÐºÑģ
Ðº Ó©Ð»
ÑĪÑĸ Ð»ÑĸÐ³ÑĸÐ½ÑĸÒ£
ĠÑĥÐ°ÒĽÑĭÑĤ ÑĪÐ°
ĠÓ©Ð½ÑĸÐ¼ Ð´ÐµÑĢÑĸ
ĠÐ´Ð°ÑıÑĢ Ð»Ð°Ñĥ
ĠÒĽÑĥ Ð°Ð½ÑĭÑĪ
ĠÐ±Ð°Ñģ ÑĤÐ°Ð»Ð°Ð´Ñĭ
Ð¸Ð· Ð°
5 5
ÓĻÐ¼ÐµÐ» ÐµÑĤÐºÐµ
ĠÑĤÑĸÐ» ÑĪÑĸÑģÑĸ
ĠÓĻÐ´ÐµÐ±Ð¸ ÐµÑĤÑĤÐµÑĢ
ĠÐ½ÐµÐ³ÑĸÐ· Ð´ÐµÑĢÑĸ
Ð´Ð°Ñģ ÑĤÑĭÒĽ
ĠÑĤÑĥ ÑĭÐ½Ð´Ñĭ
ĠÑĤÐµÒ£Ð³Ðµ Ð³Ðµ
ĠÐ°ÑĥÑĢÑĥ ÑħÐ°Ð½
Ðŀ Ð½ÑĭÒ£
ĠÓ©Ð¼ÑĸÑĢ Ñĸ
ĠÑĪÐ°Ð± ÑĥÑĭÐ»
ĠÐĲ Ð¼ÐµÑĢ
ĠÐ°ÑģÑĭÑĢ Ð°Ð´Ñĭ
ĠÐºÐ¾Ð¼Ð¸ÑģÑģÐ¸Ñı ÑģÑĭÐ½ÑĭÒ£
Ð¶ Ñĸ
ĠÑĤÑĥÑĢ Ð°
Ð°ÑĤÑĤÐ°ÑĢ Ð´ÑĭÒ£
ĠÒĽÑĭÐ· ÑĭÒĽÑĤÑĭ
ÒĽ Ð¾Ñģ
ÑĭÒĵ ÑĭÐ½Ð´Ð°
ĠÑĸÐ· Ð´ÐµÐ½
ĠÐ¶Ð°Ñģ Ð°Ð¹
ĠÐ¾ÑĢÑĭÐ½ Ð´Ð°ÑĢÑĭ
ĠÐ¾ÒĽ ÑĭÑĢÐ¼Ð°Ð½
Ðķ ÐĽ
ÑĭÒ£ Ð´Ð°ÑĢ
ÐŀÒĽ ÑĥÑĪÑĭÐ»Ð°ÑĢ
ÑĮ Ñı
ĠÐ¶Ð°ÒĵÐ´Ð°Ð¹ ÑĭÐ½Ð´Ð°
d o
ĠÐ» Ð°ÑĤÑĭÐ½
ĠÐ±ÑĸÑĢ Ð°Ð·
Ð°Ñģ ÒĽÐ°Ð½
ĠÐ± ÑĥÑĭÐ½
8 7
ĠÒĽÐ°Ð±ÑĭÐ»Ð´Ð°Ð½ ÒĵÐ°Ð½
ÑĪ ÐµÐ»ÐµÐ½
ĠÐŀÑĢ ÑĤÐ°
ĠÐ¾ÑĢÐ³Ð°Ð½ Ð½ÑĭÒ£
ÑģÐ°Ð¼ Ð±Ð»
Ġ s
ĠÒĽÑĭÐ·Ð¼ÐµÑĤ ÑĤÐµÑĢÐ´Ñĸ
ĠÑģÒ± Ñħ
ÐºÓ© Ð»ÑĸÐº
Ð»ÐµÐºÑĤÑĢÐ¾Ð½ Ð´ÑĭÒĽ
ĠÑĤÐ¸ Ð¿
ĠÐ¾ÑĢÐ½Ð°Ð» Ð°ÑģÑĤÑĭÑĢÑĥ
Ð°Ð»Ð°ÑĢ Ð´Ð°
ÐŁ Ð¾
ĠÐµÑģ Ðµ
Ðľ Ðľ
ÒĽ Ñĥ
ĠÑģ ÑĤÐ°ÑĤÐ¸ÑģÑĤ
ĠÐµÑģÐµÐ¿ ÑĤÑĸ
ĠÐ¼Ð°ÑĤ ÐµÐ¼Ð°ÑĤ
ĠÐ¡ Ð°ÑĢ
ĠÐŁÐ°ÑĢ Ð»Ð°Ð¼ÐµÐ½ÑĤ
ÑĸÐ¼ Ðµ
ÐķÐ» Ð±Ð°ÑģÑĭ
ĠÑĢ ÐµÐ·
ĠÒ® ÑĪ
ÐĲÐ¡ Ð«
ÑĦ ÑĢ
ĠÐ±Ð°Ð» Ð°ÒĵÐ°
ĠÑĤÐ°ÒĽÑĭÑĢÑĭÐ± ÑĭÐ½Ð´Ð°
ĠÐ½ÐµÐ³ÑĸÐ· Ð´ÐµÐ»Ð³ÐµÐ½
ĠÐŁ Ð°Ð¹
ĠÐ¸Ð½ÑĦ ÑĢÐ°ÒĽÒ±ÑĢÑĭÐ»ÑĭÐ¼
Ð¸Ñı ÑĤ
Ð»Ð°Ð½ ÑĭÐ¿
ĠÐ½Ð¾ÑĢÐ¼ Ð°ÑĤÐ¸Ð²ÑĤÑĸÐº
ĠÐ±Ó© Ð»ÑĸÐ¿
ĠÑĦÐ¸Ð» Ð¸Ð°Ð»
ÑĤÑĸÐ½ ÑĪÑĸ
Òĵ ÑĭÐ½Ð°Ð½
ĠÐļ Ð¾Ð´
ÑĤÑĸÐ» Ð´Ñĸ
ĠÐ°Ð´Ð°Ð¼ Ð´Ð°ÑĢÒĵÐ°
ĠÐ±Ð¾Ð»ÒĵÐ°Ð½ Ð´ÑĭÒĽÑĤÐ°Ð½
ĠÐ±ÐµÑĢÑĥ Ð´ÑĸÒ£
Ð°Ð½ ÑĭÐ¿
Ð¿ ÑĭÐ½
ĠÒĽÐ¾Ð»Ð´Ð°Ð½ ÑĥÒĵÐ°
a ce
Ð¶ ÐµÐ»Ð³Ñĸ
ĠÑģÑĥ Ð±
ĠÒĽÑĭÐ· ÑĭÒĽ
Ð°Ð½ Ð°Ð»Ð°ÑĢ
ĠÐ¸Ð½Ð²ÐµÑģÑĤÐ¸ ÑĨÐ¸Ñı
Ò£ ÑĸÐ·
201 4
ĠÐĸ ÐµÑĤ
ÑĭÑĢ Òĵ
a y
ĠÐļ ÐµÐ·
ik ip
Ð°Ñģ ÑĤÑĢ
ÑĦ Ð¾ÑĢÐ¼
Ð¡Ð¾Ð½ Ð´Ð°Ð¹
ĠÒĽ Ò±Ð¼
ĠÐ±Ð°Ñģ ÑĭÐ½Ð°
ikip edia
ĠÐ¿ÑģÐ¸Ñħ Ð¾Ð»Ð¾Ð³Ð¸ÑıÐ»ÑĭÒĽ
ĠÑĤÒ±Ð» ÒĵÐ°Ð½ÑĭÒ£
ĠÐ¾ Ð±ÑĬÐµÐº
ĠÐ´Ð°Ð¼ÑĭÑĤÑĥ Ð´ÑĭÒ£
Ð¡ ÐµÑĢ
ĠÑĤÒ¯ÑĢ Ð»ÐµÑĢÑĸÐ½
ĠÑĤÐµÑħÐ½ Ð¾Ð»Ð¾Ð³Ð¸ÑıÐ»ÑĭÒĽ
ĠÐºÓ©Ð¼Ðµ Ð³ÑĸÐ¼ÐµÐ½
ĠÑĪÑĭÒĵÐ°ÑĢ ÑĭÐ¿
4 4
ĠÐ±Ð°ÑģÑĤÐ°Ñĥ ÑĭÑĪ
ĠÐ¼ÐµÐ´ Ð¸
ĠÐ±ÐµÑĢ ÑĸÐ»ÐµÑĤÑĸÐ½
ĠÐĳÑĸÑĢ ÑĸÐ½ÑĪÑĸ
Ð¶ Ð°ÑĥÐ°Ð¿
ĠÐ´ÐµÐ¼ Ð°Ð»ÑĭÑģ
ÒĽ Ð°Ð»
ĠÒĽÐ°Ð»ÑĭÐ¿ ÑĤÑĭ
Ð°Ð± Ð°ÐµÐ²
Óĺ ÐĿ
ÑĤÐ° ÐµÐ²
3 2
ÓĻ Ð»Ñĸ
ĠÒļ Ð¾Ñģ
Ðº Ð¾Ð²
ĠÑĥÐ½Ð¸Ð²ÐµÑĢÑģÐ¸ÑĤ ÐµÑĤÑĸÐ½ÑĸÒ£
ĠÑģÐ°Ð» Ð´Ð°ÑĢÑĭÐ½Ð°Ð½
ĠÐ» Ð¾Ð³
ÐµÐ» ÐµÑģÑĸ
ĠÐ¾ÑĢÐ½Ð°Ð» Ð°ÑģÑĤÑĭÑĢ
ÑĤÐ°Ð½ ÑĭÒ£
ÐµÑģ ÑĤÑĸ
ĠÐºÐµÐ·Ð´ÐµÑģ ÑĤÑĸ
Ð¼ ÐµÐ´
ĠÐ±Ð°ÑĢ ÑĭÑģÑĭ
Ð¸Ðº Ð¸Ð¿ÐµÐ´
ÐĶ ÐĲÐł
ÒĽ Ð¾Ð»
ĠÐ¾ÑĢÐ½ ÑĭÐ½
1 00
ÑĸÒ£ÑĸÐ· Ð³Ðµ
Ð¸ Ð°Ð»Ñĭ
ĠÐ¶Ð°Ð»Òĵ Ð°ÑģÑĤÑĭÑĢ
Ð¸ÑĢ ÐµÐº
? !
ÐµÑģ ÑĸÐ¼ÐµÐ½
Ñģ Ð°ÑıÑģÐ¸
ĠÑĤÐ°Ð»Ð°Ð¿ ÑĤÐ°ÑĢ
ĠÐ±Ð°ÑģÑĪÑĭÐ»Ð°ÑĢ ÑĭÐ½ÑĭÒ£
Ð´ ÓĻÑģÑĤÒ¯ÑĢ
ĠÑĸÑĢ ÑĸÐº
ÑĤ Ò±ÑĢ
ĠÑĤÐ¾Ð½ Ð½Ð°
ĠÐºÐµÒ£ ÐµÑģÑĸÐ½ÑĸÒ£
ĠÐ±Ð°Òĵ Ð°Ð»Ñĭ
Ð³Ñĸ Ð»Ñĸ
ĠÑĪ Ð¸Ðº
ĠÐ¿Ð°ÑĢ Ð°ÒĽ
or g
ĠÑĪÐµÑĪ ÑĸÐ¼Ð´ÐµÑĢ
ĠÐºÐ¾Ð¼ Ð¿Ð°Ð½Ð¸ÑıÑģÑĭ
ĠÑĤÐ°Ð¿ÑģÑĭÑĢ ÑĭÑģ
ĠÐĵ ÐµÑĢÐ¼Ð°Ð½
ĠÒ¯ Ð´ÐµÑĢ
ĠÐ°Òĵ Ð·
ĠÒ±Ð¹ÑĭÐ¼ Ð´Ð°ÑĢÐ´ÑĭÒ£
ĠÐ¿Ð¾ÑĢ Ð½Ð¾
ĠÑģ Ð°ÑĤ
in g
ĠÐ¿Ð°Ð¹ÑĭÐ· ÒĵÐ°
Ð´ÑĭÑĢ ÑĭÐ¿
Òļ ÑĭÐ·ÑĭÐ»
Ġ20 20
ĠÐ¶Ð°ÑĢ Ð°ÒĽ
ĠÐ¨ Ð°ÑĢ
ĠÑĸÑģÑĤ ÐµÐ¹ÑĤÑĸÐ½
ĠÐ±Ð°ÒĵÑĭ ÑĤÑĭ
ĠÐĵ Ò¯Ð»
Ð» i
ĠÐ¼Ðµ ÑĪÑĸÑĤ
Ġ U
ĠÑĸÑģÑĤ ÐµÐ¿
ÒĵÐ°Ð» Ð¸
Ð¼ ÑĭÑĪ
ĠÓĻÐ´Ðµ Ð¼Ñĸ
Ðĳ Ð¸Ð·Ð½ÐµÑģ
ÑĥÑħ Ð³Ð°Ð»
ĠÐ°Ðº ÑĤÐ¸Ð²
ĠÐ¶Ð°Ñģ Ó©ÑģÐ¿ÑĸÑĢ
ĠÒĽÐ°Ð· Ð°
ĠÐ±ÑĸÑĢ ÑĭÒ£ÒĵÐ°Ð¹
ÐºÑĢ Ð°Ð¸
ĠÐ½ÑĭÒĵ Ð°Ð¹ÑĤÑĥ
ĠÐĳÒ¯Ð³ÑĸÐ½ Ð³Ñĸ
ĠÐ°Ðº ÑĨÐ¸Ñı
Ò¯ÑĢ Ð³ÑĸÐ·
Ó© Ð¿
ĠÐŀ Ð±Ð»
ĠÐ± Ð°Ð»ÑĭÒĽ
Ġ3 5
ĠÐ¶ Ð°Ð¼
ĠÐľÓĻÑģ ÐµÐ»ÐµÐ½
Ð°Ð¼ Ð±ÐµÑĤ
ĠÑĤ ÐµÐ½
ÐĲ Ð½Ð°
Ð¶ ÓĻÐ½Ðµ
ĠÐºÓ©ÑĢÑĸÐ½ ÑĸÑģ
ĠÒĽÐ°ÑĤ Ð°Ò£
ĠÐļ ÐµÐ½
ĠÑĤÒ± ÑĤÐ°Ñģ
ĠÐĲÐ»Ð»Ð° Ò»
Ð¶ ÐµÐºÐµ
ĠÐºÓ©Ð¿ ÑĪÑĸÐ»ÑĸÐº
ĠÓĻÐ´ÑĸÑģÑĤÐµÑĢ Ñĸ
ĠÐ±ÑĸÑĢ Ð»ÑĸÐº
ĠÑĤÒ± ÒĽÑĭÐ¼
ĠÐºÓ©ÑĢÑģÐµÑĤ ÑĥÐ³Ðµ
ĠÑĢÐ°Ð´ Ð¸Ð¾
4 2
Ð°Ñĥ Ð»
ĠÒ¯ÑģÑĤ ÐµÐ»
ĠÐ½ Ð¾Ð¼
Ð°ÑĤ ÑĤÐ°Ð½
ĠÒĽÑĭÐ¼ Ð±Ð°ÑĤ
Ñģ ÑĤÑĸÐº
Ð» iÐº
v e
ĠÒĽÐ°ÒĵÐ¸Ð´ Ð°Ð»Ð°ÑĢÑĭÐ½
ĠÐĳ ÐĲÒļ
ĠÑĤÐ°Ð»ÒĽÑĭÐ» Ð°Ñĥ
ÑĢ Ð¾Ð¼
ĠÑįÐ½ÐµÑĢÐ³ Ð¸Ñı
ĠÐ±Ð°ÑģÑĤÐ°Ð¿ ÒĽÑĭ
ĠÑģÒ¯Ð¹ ÐµÐ½
Ð°Ñı ÒĽ
ĠÐ¿Ð¾ÑĢ ÑĤÐ°Ð»
ĠÐ¶ÐµÐº ÐµÐ»ÐµÐ³ÐµÐ½
Ġ9 0
ĠÐ°Ð¹Ð½Ð°Ð» ÑĭÐ¼
Ġ c
ÐµÐ´ Ð¾Ð¼
Ð¢ ÑĸÐ»
ĠÑĪÐ°ÑĢÑĥÐ° ÑĪÑĭÐ»
Ð°Ð· Ð¸Ñı
ĠÒĽÐ°ÑĢ Ñĥ
ĠÐºÐµÑĤ ÑĸÐ¿
Ð¿ ÐµÐ¹Ð´Ñĸ
ĠÒĽÒ±Ð½Ð´Ñĭ Ð»ÑĭÒĽ
ĠÒĽÐ°Ð»ÑĭÐ¿ÑĤÐ°Ñģ ÒĽÐ°Ð½
ĠÐ´ Ò¯
Ð°Ð¿ Ð°ÑĢ
ĠÐ±Ð°ÑĢ Ð°Ð´Ñĭ
ĠÐĲÒĽ Ð¼Ð¾Ð»Ð°
ĠÑı Ð·Ñĭ
ĠÐ°Ð´Ð°Ð¼ Ð´Ð°ÑĢÐ´Ñĭ
Ð¡ ÐµÐ½
ÐºÐµÐ½ ÑĤÐ°Ð¹
Ñģ Ð°Ò£ÑĭÐ·
ĠÐ¶Ð°Ñĥ ÑĭÐ½
8 5
ĠÐ¼ÑĸÐ½Ð´ ÐµÑĤÑĤÐµÑĢ
ĠÒ±ÑģÑĭÐ½ Ð°Ð´Ñĭ
Ò° Ð»Ñĭ
ÒļÐ°Ð·Ð°ÒĽÑģÑĤÐ°Ð½ Ð´Ð°
ĠÐĲ ÑĤÐ°
) )
ĠÑĤÐ¾Ð»ÑĭÒĽÑĤÑĭÑĢÑĥ Ð»Ð°ÑĢ
ĠÐ±Ó©Ð» ÑĪÐµÐº
ÐµÐº ÑĤÑĸÒ£
ĠÐ±ÐµÑĢ Ð¼
ĠÐ¡Ð¾ Ð´Ð°Ð½
ĠÑĤÐ°ÑĢ Ð°ÑĤÑĥ
ĠÐ°Ð»Ñĥ ÑĪÑĭ
ĠÓ©Ð· ÑĸÐ½Ð´Ðµ
Ðŀ ÑĢÑĤÐ°Ð»ÑĭÒĽ
Ð°ÑĤ ÒĽÐ°
ĠÑģÑĸÒ£ ÑĸÑĢ
ĠÐľÒ± ÑħÐ°Ð¼
ÑĪ ÐµÑĤ
ĠÑĤÒ¯ Ð±
ÐŃ Ðº
ĠÒĽ ÑĭÑĪ
Ðĸ Ð°Ð½
ĠÑĪÐ°ÑĢ Ð°
ĠÐ¿Ð¾ Ñį
Ð°ÑĢ Ð½
Ð± Ð°Òĵ
Ð» Ð°Ð²
Ð°ÑĢ Ð¸
ÑĢ ÑĭÒĽ
ĠÐ°Ð³ÐµÐ½ÑĤ ÑĤÑĸÐ³Ñĸ
Ð¸ ÐµÐ½ÑĤ
ĠÑĤÑĢÐ°Ð½ Ñģ
ĠÐ¢ÓĻÑĥÐµÐ» ÑģÑĸÐ·Ð´ÑĸÐº
ĠÑģÐ°Ð» ÒĵÐ°Ð½
Ð¾Ð½ ÑĭÒ£
ÐµÑģ ÑģÐ¸Ñı
ĠÐºÐµÒ£ ÐµÑģÑĸ
Ġ p
ĠÑĤÐ°Ð½ÑĭÑģ ÑĤÑĭÑĢ
ĠÐ¶Ð°ÑĥÐ°Ð¿ÐºÐµÑĢ ÑĪÑĸÐ»ÑĸÐº
b ook
ĠÑĪ Ð¾ÑĤ
ĠÐºÐµÐ» Ñĥ
Ð³Ñĸ Ð¿
ĠÐ±Ð°ÒĵÐ´Ð°ÑĢÐ»Ð°Ð¼ Ð°ÑģÑĭÐ½
ĠÐ¢ÓĻÑĥÐµÐ» ÑģÑĸÐ·
ĠÒĽÐ¾ Ò£
Ðļ ÓĻÑģÑĸÐ¿
ĠÐ¶Ð°ÑĢÐ¸Ñı Ð»Ð°Ñĥ
ĠÐ°Ð»Ð´ ÑĭÐ½Ð°
ĠÑĤÓ© Ð»ÐµÐ½
ĠÒĽÐ°Ð½ Ð°ÒĵÐ°ÑĤ
ĠÑĢÐµÑĦ Ð¾ÑĢÐ¼
ĠÐ°Ð»Ñĥ ÑĪÑĭÐ»Ð°ÑĢ
ĠÑĨ Ð¸ÑĦÑĢ
ÐĲ ÑģÑĤÐ°Ð½
ÑĸÐ¼ÑĸÐ· Ð³Ðµ
Ð¼ Ð°ÑģÑĭ
ĠÐºÓ©Ð± ÐµÐ¹
ĠÐ¿Ð°ÑĢÑĤ Ð¸Ñı
ĠÑģ Ò±Ð»Ñĥ
ĠÐ¼Ð¾ Ð´ÐµÐ»
ÐµÑĢ Ð¼ÐµÐ½
ÒĽÒ± ÒĽÑĭÒĽÑĤÑĭÒĽ
ĠÑħÐ°Ð»ÑĭÒĽ ÑĤÑĭ
ĠÐ°ÑĢÐ½ Ð°ÑĥÐ»Ñĭ
ĠÑĸÐ· Ð´ÐµÑĥ
Ð° Ð´Ð°Ð¼
ÑĦ Ð¸Ð»
ÑĢ Ð°
ÓĻ Ð·
Ð°Ð½ Ñĥ
ĠÑģÐ°Ñĥ Ð°Ð»
ĠÒĽÐ°Ð¼ÑĤÑĥ Ð´Ñĭ
ĠÐ¶Ð°Ò£ Ð°ÑĢ
ĠÐĶ ÐµÐ¼
ÑĭÑĪ ÑĤÑĭ
Ñģ ÑĤÑĸ
Òļ ÑĭÐ·ÑĭÐ»Ð¾ÑĢÐ´Ð°
ĠÐµÐ» Ð³Ðµ
ĠÐ°Ðº ÑĨÐ¸Ð¾Ð½
ĠÑĢÓĻÑģ ÑĸÐ¼
ÒļÐ¾ ÒĵÐ°Ð¼
Ġ200 7
ĠÐ±ÑĸÐ» Ð³ÐµÐ½
Ð°Ð½ Ð½ÑĭÒ£
ĠÐ±ÑĸÐ» ÐµÐ´Ñĸ
Ð°Ñĥ ÑĭÐ½
ÐĨ Ðł
ĠÓĻÐ»ÐµÐ¼ Ð´ÐµÐ³Ñĸ
ÓĻ Ðº
ĠÐºÐ°Ð· Ð°Ðº
ÐĲ ÒĴ
Ð´ÐµÑĢ ÑĸÐ½Ð´Ðµ
ĠÐ¶Ò¯Ð¹ ÐµÐ»Ñĸ
Ñĸ ÑĤ
ĠÓĻÐ´Ñĸ ÑģÑĤÐµÐ¼
ĠÐºÑĸÑĢ Ñĥ
ĠÒĽÐ°Ð» Ð°Ð½ÑĭÒ£
ĠÐ¾ÑĤÐ°Ð½ Ð´ÑĭÒĽ
ĠÒĽÐ¾Ð» Ð°Ð¹Ð»Ñĭ
ĠÒĽÒ±ÑĢÐ°Ð¼ ÑĭÐ½Ð´Ð°
ĠÐĸ ÐµÒ£
ÐķÒ£ Ð±ÐµÐº
ĠÐ¼Ò¯ ÑĪÐµ
Ð°ÑĢ Ð°Ð±Ð¸
ĠÐ±Ð°ÑĢ ÑĭÐ½ÑĪÐ°
ĠÐ¼ÓĻÑģÐµÐ»ÐµÐ»ÐµÑĢ Ð´Ñĸ
ĠÑģÐ°Ð¿ Ð°ÑģÑĭ
ĠÐ±Ð°ÑģÑĪÑĭÐ»Ð°ÑĢ Ñĭ
Ð»ÐµÐ¼ Ñĸ
ĠÒ±ÑģÑĭÐ½ ÑĭÑģÑĤÐ°ÑĢ
ĠÐ¾ÑĢÑĭÐ½ Ð´Ñĭ
ĠÒ±ÒĽÑģ Ð°Ñģ
ĠÐ¼ÓĻÑģÐ» Ð¸ÑħÐ°ÑĤ
ĠÐĳ ÐµÐ¹
6 6
ĠÓ©Ñģ ÑĸÐ¿
ĠÒĽÐ°Ð» Ð°Ð¼
ĠÐ±Ð¾Ð»ÒĵÐ°Ð½ Ñĭ
Ð´ ÑĭÐ½
ĠÐµÑģ ÑĤÑĸ
9 9
ĠÐ¶ÐµÑĤ Ñĥ
Ó¨ Ð½ÐµÑĢ
ĠÒ±Ð¼ ÑĭÑĤ
ĠÐ´ Ð°Ò£
ĠÑįÐºÑģ Ð¿Ð¾ÑĢÑĤ
ÒĽÒ± Ð¶Ð°ÑĤ
ĠÐºÒ¯Ð½ÑĤÑĸÐ· Ð±ÐµÐ»ÑĸÐº
ĠÒĽÒ±ÑĢ ÑĭÐ»Ð´Ñĭ
ĠÑģÐ¾ Ð´Ð°Ð½
ĠÑģ Ð¸
ĠÐ¶Ð°Ò£ÒĵÑĭÑĢ ÑĤÑĥ
ĠÐºÐµÒ£ ÑĸÐ½ÐµÐ½
Ðµ Ñħ
ÑģÑĤ Ð°
ĠÐº ÑĸÐ½
ĠÑĪ Ð°Ð¿
Ð¸Ñı ÑĢ
Ò±Ð» ÑĭÐ½ÑĭÒ£
8 8
ĠÒ¯ÑģÑĤ ÑĸÐ½Ðµ
ĠÓĺÑĢ Ð¸Ð½Ðµ
ĠÐ¼ ÐµÐ¼
Ð°ÑĤÐ¸Ð² ÑĤÑĸ
ÑģÑĤ Ð°ÑĢÑĭ
ĠÐ³Ð°Ð· ÐµÑĤ
ĠÑĤÐ°Ð± Ñĥ
ĠÑģÐ°Ð»ÑĭÑģÑĤÑĭÑĢ ÒĵÐ°Ð½Ð´Ð°
Ò° Ò°
ÐĶ ÐĹ
Ð°Òĵ Ð°Ð¹
ĠÐ¼ÐµÐ¹ ÑĢÐ°Ð¼
ĠÐ± Ð¾ÑĢ
ĠÐ´Ð¾Ð» Ð»Ð°ÑĢ
ĠÑģ Ð¼
Ð¾Òĵ Ð°ÑĢÒĵÑĭ
ĠÐ¡Ð¾Ð½ ÑĭÒ£
Ð¾Ð¼ ÐµÑĤÑĢ
ĠÐ±ÓĻÑĢ ÑĸÐ½
ÑĪÐ°Ð»ÑĭÒĽ ÑĤÑĭ
ĠÒĽÐ°ÑĤÑĭÑģÑĥ ÑĭÐ¼ÐµÐ½
ĠÐ¶Ð¾Ð± Ð°ÑģÑĭÐ½
ĠÒĽÑĭÑģ ÒĽÐ°ÑĢ
ĠÐ±Ð°Ñģ ÑĪÑĭÐ»ÑĭÒĽ
ÑĭÑģ ÑĭÐ¼ÐµÐ½
ĠÐ±Ð°Ñģ Ñĭ
ĠÓ©Ð· ÑĸÒ£
ĠÒĽ Ð°ÑĤÑĭÐ½
ĠÑĪ Ð¾Ð»
ĠÒĽÐ°ÑĤÐ°ÑĢ ÑĭÐ½Ð°
Ġ5 00
ĠÐ¡ÐµÑĢ ÑĸÐº
Ð±Ò± Ð´Ð°Ð½
Ð¡ Ò±ÑĢÐ°ÒĽ
Ðĳ Ð°Ð¹
ÒĽ Ð¾Ð¹
Ġ â
ĠÐ¶Ð°ÒĵÐ´Ð°Ð¹ ÑĭÐ½Ð°
Ð¢ Ð°Ñĥ
Ð¸Ñı Ð´Ð°ÒĵÑĭ
ÑĭÐ¼ Ð½ÑĭÒ£
ĠÐµÐºÐµÐ½ Ñĸ
ĠÑħÐ°Ð±Ð°ÑĢÐ»Ð°Ð¼ Ð°
ĠÑĪÑĭÐ½ Ð°Ð¹Ñĭ
ĠÓ©Ð½ÐµÑĢ Ñĸ
ĠÒļÑĭÑĢ ÒĵÑĭÐ·
Ð«ÐĿ Ð«Ò¢
ĠÒĽÐ°Ð¹ Ð´Ð°
ĠÒļ Ñĥ
ÑģÐº ÐµÐ¼ÐµÐ½
ÑĪÐ°ÑĢ ÑĥÐ°
ĠÐµÑģ ÐµÐ±Ñĸ
ĠÐ ¦
Ð¼ ÑĥÐ½
ĠÑģÐ°ÒĽ ÑĤÐ°Ð¿
ĠÐ´ÐµÒ£Ð³ÐµÐ¹ Ð´ÐµÐ³Ñĸ
Ð´ÑĭÒĽ ÑĤÑĭ
ÑĢÐµÐ·Ð¸Ð´ÐµÐ½ ÑĤ
ĠÐ±Ð¾Ð» ÑģÐ°ÒĽ
ÐµÑĢ Ð²
Ð°ÑĤ ÐµÐ¼Ð°ÑĤÐ¸ÐºÐ°
Ð¢ Ð«
ĠÐºÑĸÑĢ ÐµÐ´Ñĸ
ĠÑĤÑĥ ÒĵÑĭÐ·
ĠÑĸÑĪ ÑĸÐ½Ð´ÐµÐ³Ñĸ
ĠÐĶ ÐµÐ³ÐµÐ½Ð¼ÐµÐ½
ĠÐ£ ÐĶÐĹ
ĠÐ¶ÐµÒ£ÑĸÐ¼ Ð¿Ð°Ð·
ĠÒĵÐ°ÑģÑĭÑĢ Ð»Ð°ÑĢ
Ġ3 00
ĠÐ¸Ð½ ÑĤÐµÑĢ
h e
ĠÑħ Ð°Ð½Ð´Ñĭ
ĠÑĪÐµÐº Ð°ÑĢ
ace book
ĠÒĽÑĭÐ· Ð¼ÐµÑĤÑĤÑĸÒ£
ÑĭÒĽ ÑĤÑĭÒ£
ĠÑĤÑĸÐ» Ð´Ñĸ
ĠÐ² ÐµÐ±
ÑĤÑĸ Ð³ÑĸÐ½ÑĸÒ£
ĠÓĻÐ»ÑĸÐ¿ Ð±Ð¸
o v
ĠÐ¸Ð½ÑģÑĤÐ¸ÑĤÑĥ ÑĤÑĭ
ÓĻÑĢ ÑĸÐ¼
ð Ł
ÑĤ Ð°Ð»ÑĭÒĽ
p h
Ġ O
ĠÐ°Ð¹ÑĭÑĢ Ð¼Ð°
ÒĽÐ°Ð¹ Ñģ
ĠÑĤÒ± Ò£ÒĵÑĭÑĪ
ĠÑģÑĤÑĢÐ°ÑĤÐµÐ³ Ð¸ÑıÐ»ÑĭÒĽ
ĠÐĳ ÐµÐº
Ð½ Ð°ÑĢ
ĠÐ¼ Ð°Ñģ
Ðĳ Ð¢
ĠÐ¾ÒĽÑĥ Ð»ÑĭÒĽ
ĠÑĤÐ¾ÒĽÑģÐ°Ð½ ÑĭÐ½Ð´Ð°ÒĵÑĭ
st an
Ñĥ Ð½Ð¸
ÑĢÐ¸ ÑĤÐ°Ð½
ĠÐºÓ© Ð¼ÑĸÑĢ
Ð¶ Ðµ
Ð· ÐµÑĢÑĤÑĤÐµÑĥ
Ð°Ð¼ Ð´Ñĭ
ĠÐ·Ð°Ð¼Ð°Ð½ Ð°ÑĥÐ¸
ĠÑĪÐ°Ð¼ Ð°Ð¼ÐµÐ½
ĠÒĽ Ð°Ð¿
ÐµÐ´Ð¾Ð¼ ÑģÑĤÐ²
Ð¸Ð½ Ð³Ñĸ
ĠÑĢÑĥ Ñħ
ĠÒĵ Ð°ÑĢÑĭÑĪ
Ð´ÑĢ Ð¾Ð»ÑĭÒĽ
Ð¼Ð¸Ð½ Ð¸ÑģÑĤÑĢ
ĠÐ·Ð°ÑĢ Ð´Ð°Ð¿
ĠÐ¶ ÉĻ
ÑĭÐ¿ ÑĤÑĭ
ĠÐ°ÑĤÒĽÐ°ÑĢ ÑĭÐ»ÒĵÐ°Ð½
ĠÐ¤ÑĢÐ°Ð½ ÑĨÐ¸Ñı
ĠÐ½ÐµÐ³ÑĸÐ· ÑĸÐ½ÐµÐ½
ĠÐ¿ÓĻ ÑĤÐµÑĢ
Ð°ÑĤÑĭÐ½ ÑĭÐ½
ĠÐ¼ ÑĭÐ½
Ð°Ð¼ Ð°Ð»
Ġ a
Ġ b
ĠÐ¶ÑĭÐ» ÑĭÐ½Ð°
ĠÐľ ÑĸÐ½Ðµ
ĠÒ±ÑĢ Ð¿
ĠÐºÑĥÑĢÑģ ÑĤÑĭÒĽ
ĠÐºÐµÑĤ Ñĥ
ĠÐ¶Ò±Ð¼ÑĭÑģ ÑĤÑĭ
ĠÑĢÐµÑĦÐµÑĢ Ð°ÑĤÑĤÐ°ÑĢ
ĠÓĻÐ»ÐµÑĥ Ð¼ÐµÑĤ
ĠÒĽÑĭÐ·Ð¼ÐµÑĤ ÐºÐµ
Ð°ÑĤÐµÐ³ Ð¾ÑĢ
Ð´Ñĸ Ð»ÑĸÐº
ÑĤÑĭÒ£ ÑĭÐ·
ĠÒĽÒ± Ð¿Ð¸Ñı
Ð¸ ÑĢÑĥ
ĠÓ¨Ð· Ð±ÐµÐºÑģÑĤÐ°Ð½
ĠÐ¶Ð¾Ð» Ð¼ÐµÐ½
ĠÑģÐ°Ð»ÑĭÐ½ Ð°Ð´Ñĭ
ÑĭÑĢÑĤ ÒĽÑĭ
ĠÑĤÐµÑħÐ½ Ð¸Ðº
u t
ĠÒĽÒ±ÒĽÑĭÒĽ ÑĤÐ°ÑĢÑĭÐ½
ĠÒĽÒ±ÑĢÐ°Ð» Ð´Ð°ÑĢ
Ð±ÑĸÑĢ ÑĸÐ½Ðµ
ĠÐ±ÐµÑĢ ÐµÐ¼ÑĸÐ·
ĠÐºÐµÐ¿ÑĸÐ» Ð´ÑĸÐº
ĠÑģÐ°Ð½ Ð°ÑĤÑĭ
7 5
Ġ200 8
ÒĽ ÑĭÐ½Ð´Ñĭ
ĠÐ±Ð°Ñģ ÑĤÐ°Ð¹Ð´Ñĭ
ĠÐºÒ¯ ÑĪÑĸ
Ð¢ Ó©
ĠÐ´ Ó©Ò£Ð³ÐµÐ»ÐµÐº
ĠÑĤÐ°ÑĢ ÑĤÑĭÐ¿
ÐµÐ» ÑĤÐ¾ÒĽÑģÐ°Ð½
ĠÐºÐ°Ð± Ð¸Ð½
Ð± Ò¯ÑĢ
ĠÑĤ ÑĸÐ»ÑĸÐ¼
ĠÐ¼ÑĭÒ£ Ð½Ð°Ð½
ĠÑĤÑĭÒ£ Ð´Ð°Ñĥ
ĠÐºÒ¯Ð½Ð´Ðµ Ð»ÑĸÐºÑĤÑĸ
ÑĢÐ¸ Ð¾
ÑĭÒ£ Ð´Ñĭ
" .
ÐĲÐ» ÒĵÐ°ÑĪÒĽÑĭ
ĠÐĶ Ò¯Ð½Ð¸
ĠÐ±Ð°Ñģ ÑĭÐ½Ð°Ð½
ĠÑĢÐµÐ´Ð° Ðº
ĠÒĽÐ°ÑĢÐ°Ð¶ Ð°ÑĤ
ĠÑıÐ·Ñĭ ÐºÐµ
ÐľÓĻ ÑĤÑĸÐ½
ĠÐºÐµÐ»Ð³ÐµÐ½ Ð´Ðµ
ĠÒ¯Ð¹ Ð³Ðµ
Ð¾ ÑĪ
ĠÐ°Ñģ ÑĤÑĭ
ĠÒĽÐ°Ð± ÑĸÐ»ÐµÑĤÑĸÐ½
ÓĻÑĢÐµÐº ÐµÑĤ
Ðŀ Ò£ÑĤÒ¯ÑģÑĤÑĸÐº
ĠÓ©Ð·Ð³ÐµÑĢ ÑĸÑģ
ÑĨ Ð¸Ð°Ð»
ĠÐ¼ÑĸÐ½Ð´ ÐµÑĤÑĸ
ĠÒĽÐ°Ð±ÑĭÐ»Ð´Ð°Ñĥ ÑĭÐ½Ð°
Ð¶ Ð°Ð·
ĠÑĢÐµÑĤ ÑĤÐµ
ĠÐĲ ÑĤ
ĠÐ±ÐµÑĢÑĥ Ð´Ñĸ
ĠÑĤÐ¾Ð» ÒĵÐ°Ð½
Ò¯ Ð¼ÐºÑĸÐ½
ĠÑģÐµÐ±ÐµÐ¿ ÑĤÑĸ
ĠÐ¼ÐµÑħÐ°Ð½ Ð¸Ð·Ð¼
ĠÐ±Ó©Ð»ÑĸÐ½ Ð³ÐµÐ½
ĠÐ°Ð»Ñĥ Ð´Ñĭ
ĠÐ°ÒĵÑĭÐ¼ Ð´Ð°ÒĵÑĭ
ĠÐĨ ÐĨÐĨ
4 1
ĠÓ¨ Ð¼ÑĸÑĢ
ÑĸÐ½ ÐµÑģÐµ
Ð»ÐµÐº Ñģ
ĠÒ¯ÑģÑĤ ÑĸÐ½Ð´Ðµ
ĠÐ¼ÓĻÐ´ÐµÐ½Ð¸ ÐµÑĤÑĸ
ĠÒĽÐ°ÑĢ Ð°ÑģÑĤÑĭ
ĠÑĤÒ±ÑĢ ÒĵÑĭÑģ
Ð°Òĵ Ð°ÑĪ
ĠÐ¾ Ð¿
ĠÐ¸ ÑģÐ»Ð°Ð¼
ĠÐļÐ¾Ð½ÑģÑĤÐ¸ÑĤÑĥ ÑĨÐ¸Ñı
ĠÐµÑĢ ÐµÑģÐµÐº
ÑĤÐ° Ðº
ĠÑģÑĸÐ· Ð³Ðµ
ÐµÑĢ Ð»ÐµÑĢ
ĠÐ±Ð» Ð¾Ð³
Ðľ Ð¸Ð½Ð¸ÑģÑĤÑĢ
ĠÐ±ÐµÐ¹ Ð±ÑĸÑĤ
Ð½Ð¸ ÑĢ
Ò° Ðł
ĠÂ ·
Ð· Ð´ÑĸÐº
ĠÐµÐ½Ð³ÑĸÐ· ÑĸÐ»Ð³ÐµÐ½
ĠÐ¾ÑĤÑĭÑĢ ÑĭÑģÑĭ
ĠÐĺ Ñģ
Ð´Ð°ÑĢ Ð´Ð°Ð½
ĠÐºÐ°ÑĢÑĤ Ð°ÑģÑĭ
ĠÒĽÐ¾Ð»Ð´Ð°Ð½ ÑĭÐ»Ð°ÑĤÑĭÐ½
ĠÑģÓ©Ð· Ð´Ñĸ
ĠÐ¡ ÑĭÑĢ
ĠÑħÐ°ÑĤ ÑĪÑĭÑģÑĭ
ĠÑģÓĻ ÑĤÑĤÑĸ
ÐµÐ´Ð°Ð³Ð¾Ð³ Ð¸ÐºÐ°Ð»ÑĭÒĽ
ĠÑģÐ°Ð» Ð´Ñĭ
ĠÒĽÐ¾Ñģ ÑĭÐ¿
ĠÐºÓ©ÑĪÑĸÑĢ Ð¼
ÐµÐ³ ÑĸÐ½Ðµ
ĠÐķ ÐºÑĸÐ½ÑĪÑĸ
ĠÑĤÑĸÐ» ÑĸÐ½ÑĸÒ£
ĠÐºÐµÒ£ ÐµÐ¹
ĠÐ±ÑĸÑĢÐ»ÐµÑģ ÑĤÑĸÐº
e d
ÐºÐµÑĤ Ð¸Ð½Ð³
Ð°Ð´Ñĭ Ð¼
Ðł ÐµÑģÐµÐ¹
ÑģÐ°Ð¼Ð±Ð» ÐµÑı
Ġ( Â«
ĠÐºÐµÒ£ ÐµÐ¹ÑĤÑĥ
ĠÐºÓ©ÑĢÑģÐµÑĤ ÑĸÐ»ÐµÐ´Ñĸ
ĠÐ¼ ÑĭÒĽÑĤÑĭ
ĠÐ³Ðµ Ð¾Ð³ÑĢÐ°ÑĦÐ¸Ñı
Ð°ÑĤ Ð¸ÐºÐ°
ÒĴ ÑĭÐ»ÑĭÐ¼Ð¸
Ð¶ ÐµÐº
ĠÒĽÐ°ÑĤÑĭÑģ ÑĥÒĵÐ°
ĠÐ¼ÐµÐºÑĤÐµÐ± ÑĸÐ½ÑĸÒ£
ĠÐ±Ò± ÒĽÐ°ÑĢÐ°Ð»ÑĭÒĽ
ĠÑĤÐµÐ¾ÑĢ Ð¸ÑıÐ»ÑĭÒĽ
Ñģ ÑĭÐ½Ð´Ð°ÒĵÑĭ
ĠÐ¢ Ð°Ð±Ð¸Òĵ
ĠÐľÒ±Ð½ Ð´Ð°
ĠÐ¼Ð¸Ð»Ð» Ð¸
Ð³ÐµÑĢ Ð»ÑĸÐº
ĠÑĤÒ±ÑĢÒĵÑĭÐ½ Ð´Ð°ÑĢÑĭ
ÒĵÑĭ Ð¿
Ð´ÑĭÑĢ Ð°ÑĤÑĭÐ½
ĠÐºÐµÑĪÐµÐ½ Ð´Ñĸ
ĠÐĲÑģÑĤÐ°Ð½ Ð°Ð´Ð°
ĠÒ¯Ð¹ÑĢ ÐµÑĤ
ĠÐ°Ð¹Ð½Ð°Ð» Ð´Ñĭ
Ð¿ Ð°Ð»Ñĭ
Ð¼ Ð¾Ð½
ÑĢ Ð¾Ñģ
ĠÐ¼Ð°Ð·Ð¼Ò±Ð½ ÑĭÐ½
ÐµÐ»ÐµÑĢ Ð³Ðµ
Ð°Ð¶ Ð°Ð¹
ĠÐ¶Ð°Ð· Ð°Ð´Ñĭ
ĠÐ¶ÉĻ Ð½Ðµ
ĠÒĽÐ°ÑĤÑĭÐ½Ð°Ñģ ÑĤÐ°ÑĢÑĭ
ĠÐ³ ÑĢÐ°ÑĦ
ĠÐ¼Ð°ÒĽ ÑĤÐ°Ð½
ĠÐ½ Ð°ÑĪÐ°ÑĢ
ĠÓĻÐ»ÐµÐ¼ Ð½ÑĸÒ£
Ð¸ÑĤ ÑĭÐ½
ĠÑħÐ¸Ð¼ Ð¸ÑıÐ»ÑĭÒĽ
ĠÐ¿Ð°Ð¹ÑĭÐ· Ñĭ
ÐµÐ» ÐµÐ¿
ĠÐ°Ð¼ Ð°Ð»
ĠÐµÒ£Ð±Ðµ Ð³Ñĸ
ĠÐļ Ð¢
Ð°Ð¿ Ð¾Ð½
Ðĸ Ð°ÑĥÐ°Ð¿
ĠÐ· Ð°ÑĥÑĭÑĤ
ÑĤi Ò£
ĠÐ°Ñĥ Ð¼Ð°ÒĵÑĭ
ĠÐ± iÐ»
Ð² Ð¸Ð´ÐµÐ¾
ĠÐ¡ Ñĥ
Ð»ÐµÑĢ ÑĸÐ½Ð´Ðµ
ĠÐ±Ð¾Ð¹ ÑĭÐ½Ð´Ð°
ĠÒĽÐ°Ð±ÑĭÐ» Ð´Ð°Ð´Ñĭ
ĠÐ¸Ð½ Ð¶ÐµÐ½
Ð» Ñİ
ĠÑĪÐ¸Ðº ÑĸÐ·
ĠÐ¾Ò£ ÑĤÒ¯ÑģÑĤÑĸÐº
ĠÐ±ÐµÐ»Ð³Ñĸ Ð»
Ðº Ó©Ð·
ĠÐºÐ¾Ð½ Ñģ
ĠÑģÐ°Ð» Ð¼Ð°ÒĽ
ĠÐ±ÑĸÐ» ÐµÑĤÑĸÐ½
ĠÐµ Ðº
ĠÐ¶ÑĭÐ» Ñĥ
ĠÐµÐ»ÑĸÐ¼ÑĸÐ· Ð´Ðµ
Ð¾Ð½ Ñĭ
ĠÐ¶ÐµÐ¼ÒĽÐ¾ÑĢÐ»ÑĭÒĽ ÑĤÑĭÒ£
ĠÑģ Ð°
Ð³ iÐ½
Ð°Ð¼Ð° ÑĪÐ°
7 9
Ð¸ ÑĤÐ°ÑĢ
Ñĥ Ð¼Ð°Ð½
ĠÐºÒ¯Ð½ ÑĸÐ½ÐµÐ½
ĠÐ¶Ð°ÒĵÐ´Ð°Ð¹ ÑĭÐ½
p p
Ð°Ñĥ ÑĪÑĭ
Ð°ÑĤ Ð°ÑĢ
ĠÑĤÐ°Ð½ÑĭÑģ ÑĤÑĭÑĢÑĥ
ĠÐ¾Ð¹ÑĭÐ½ Ð´Ð°ÑĢ
ÐļÓ© Ðº
ĠÐ¿ Ð°Ð»
ĠÐµÑĢÐµÐºÑĪÐµ Ð»ÑĸÐ³Ñĸ
ĠÒĵÐ°Ð»ÑĭÐ¼ Ð´Ð°ÑĢ
ĠÐ´Ð¸Ð°Ð³ Ð½Ð¾ÑģÑĤ
ÓĻ Ð¼ÑĸÐ·
Ð¾ÑĢ ÒĵÐ°Ð½
Ð¿ Ð°Ð¹Ð´Ñĭ
ĠÐ¶ÐµÑĢ Ð´ÐµÐ½
ĠÒĽÒ±Ð±ÑĭÐ» ÑĭÑģ
ĠÒĽÐ¾Ñģ ÑĭÐ»
ĠÑħÐ°Ð±Ð°ÑĢ Ð»Ð°Ð½Ð´ÑĭÑĢÑĥ
4 3
ĠÑĤÓĻÑĥÐµÐ» ÑģÑĸÐ·Ð´ÑĸÐº
0 9
ĠÐ¶Ð°ÑĢ ÑĭÑģ
ĠÐºÓ© ÑĤÐµÑĢÑĸ
ĠÑĤÐµÑĢ ÑĸÑģ
ĠÑĪ ÓĻÐºÑĸÑĢ
ĠÐĸÐ°Ò£ Ð°Ð»ÑĭÒĽÑĤÐ°ÑĢ
ĠÐ±ÐµÑĢÑĥ ÑĪÑĸÐ½ÑĸÒ£
ÓĻÑģ ÑĸÐ»
Ð´ÑĸÒ£ ÑĸÐ·
ĠÐ±Ð°ÒĵÐ´Ð°ÑĢÐ»Ð°Ð¼ Ð°ÑģÑĭÐ½ÑĭÒ£
ÐµÐ² Ð°
- -
ĠÐļ Ð¡Ðł
ĠÑģ ÑĤ
ĠÐĲÑĥ Ð´Ð°Ð½
ĠÒĽÐ¾Ñı Ð´Ñĭ
ÑĭÐ¼Ð´Ñĭ Ð»ÑĭÒĽ
0 6
Ðķ ÐºÑĸ
ĠÑģÒ±Ñħ Ð±Ð°ÑĤ
ÑģÑĤ ÑĢÑĥ
ĠÑģÑĭÐ½ÑĭÐ¿ ÑĤÑĭÒ£
ĠÑĤÑĸÐ» Ð´ÐµÑĢÐ´Ñĸ
Ðĸ Ð°Ð·
ÑĤÒ¯ Ð»ÑĸÐº
ÑĤ ÐµÐ¹Ð´Ñĸ
Ġ ÑĭÑģÑĤÑĭÒĽ
ĠÐ¿Ð°Ð¹Ð´Ð°Ð»Ð°Ð½ Ð°
ĠÐ¶Ð¾Òĵ Ð°ÑĢ
ĠÐ¿ ÑĸÑĪ
ĠÐ±Ð¾Ð» ÑĥÑĭÐ½Ð°
ĠÓĻÐ´Ñĸ Ð»
ĠÒĽÑĭÐ·Ð¼ÐµÑĤ ÑĪÑĸÐ»ÐµÑĢ
ĠÒ®ÐºÑĸÐ¼ ÐµÑĤÑĸÐ½ÑĸÒ£
ĠÐķÐ» Ð±Ð°ÑģÑĭÐ½ÑĭÒ£
ĠÐ½ÐµÐ³ÑĸÐ· ÑĸÐ½
ĠÐ±Ð¾Ð»Ð°ÑĪ Ð°ÒĵÑĭ
ĠÑģÑĤÑĥÐ´ÐµÐ½ÑĤ ÑĤÐµÑĢ
Ò± ÒĽÑģ
Ò® ÑĪ
ĠÐ¶ÑĥÑĢÐ½Ð°Ð» Ð¸ÑģÑĤ
Ð» ÑĭÒĵÑĭÐ½ÑĭÒ£
ĠÐ±ÐµÑĢ ÑĸÐ»
o f
ĠÐ¼ÐµÐ½ ÐµÐ´Ð¶
Ġ )
ĠÑĤÒ¯ Ð»ÐµÐº
ĠÐºÐµÑĤ ÐµÐ¹ÑĸÐº
ĠÐ°Ð»Ð´ ÑĭÐ½Ð´Ð°ÒĵÑĭ
ĠÐĸ Ð¾ÒĵÐ°ÑĢÑĭ
ÐŃ ÐºÐ¾Ð½Ð¾Ð¼Ð¸ÐºÐ°Ð»ÑĭÒĽ
Ð¸Ð½ Ð°Ð»
ĠÑĤÐµ Ð³Ñĸ
ĠÐ»Ð°ÑĥÐ°Ð· ÑĭÐ¼Ð´Ñĭ
ĠÐ´ Ð°Ð½
ÑĢ Ð¾Ð½
ĠÐ¡ Ð°ÑĢÑĭ
ĠÑģÓ©Ð· ÑĸÐ½
ĠÑĤÐ°Ð¿ÑģÑĭÑĢÐ¼ Ð°Ð»Ð°ÑĢ
ĠÑģ Ð°ÑĤÑĭ
ĠÐºÐ¾ÑĢ Ð¿Ñĥ
ÑĭÐ» Ð¼ÑĭÑģÑĤÑĭÒĽ
ÓĻÐ´Ñĸ ÑģÑĤÐµÐ¼ÐµÐ»ÑĸÐº
ÒĵÐ°Ð» ÑĸÐ¼
Ðļ Ò¯Ð½
ĠÐĸ Ð°Ð»
ĠÐ° Ñħ
Ġi Ñģ
ĠÐ¡Ð°Ð±Ð°ÒĽ ÑĤÑĭÒ£
Ð¢ÓĻÑĥÐµÐ» ÑģÑĸÐ·Ð´ÑĸÐº
ĠÒ¯Ð¹ Ð´Ðµ
ĠÐ±ÑĸÐ»ÑĸÐ¼ Ð´ÐµÑĢÑĸÐ½
ĠÐ±Ð°Ñģ ÑĤÐ°Ð»ÒĵÐ°Ð½
ĠÐ¶Ð¾Ð» Ð´Ð°Ñĥ
Ð´ÐµÑĢ ÑĸÐ¼ÐµÐ½
ĠÐ´Ð°Ð¹ÑĭÐ½ Ð´Ð°Ð»
ĠÐ¶Ò±Ð¼ÑĭÑģ ÑĤÐ°ÑĢÐ´Ñĭ
Ð¿ Ò±Ð»
ĠÐ¶Ò¯ÑĢ ÐµÑĤÑĸÐ½
ĠÐ¼ÐµÐºÑĤÐµÐ¿ ÑĤÑĸÒ£
Ñħ Ð¸
ĠÐºÐµÐ¹ ÑĸÐ¿
ĠÐºÐµÑĢ ÐµÐ¼ÐµÑĤ
ĠÑĪÐ°ÑĢ Ð°Ð»Ð°ÑĢÑĭ
ĠÑĤÐ°ÑĢ ÑĤÑĭÐ»
Ð°Ñĥ Ð´Ð°Ð½
ĠÐ¶Ò¯ÑĢ ÐµÐ´Ñĸ
Ð¿ Ð»Ð°ÑĤ
Ð´ÑĸÐº ÑĤÑĸ
ĠÐ±Ð°Ñģ ÑĤÐ°Ð»
ĠÐ¼Ð¸Ðº ÑĢÐ¾
ÐµÐ´Ð¸ÑĨÐ¸Ð½ Ð°Ð»ÑĭÒĽ
ĠÒ¯Ð» Ð³ÐµÑĢ
ĠÐºÐµÐ¹ Ð´Ðµ
ĠÓĻÑĢÐµÐº ÐµÑĤÑĤÐµÑĢ
ĠÒĽÐ°ÑĢ Ð°Ò£ÑĭÐ·
Ð¿ ÑĢÐ¾
ĠÑĤÐ°Ð½ ÑĭÐ¼Ð´ÑĭÒĽ
ĠÐºÐµ Ð´ÐµÐ½
ĠÐ±ÑĸÑĢÐ»ÐµÑģ ÐºÐµÐ½
ĠÓ© ÐºÑĸÐ»Ñĸ
ĠÐ±ÑĸÐ»Ð´ÑĸÑĢ Ð´Ñĸ
ĠÓ¨ Ð½Ð´ÑĸÑĢ
ĠÐ°Ð½ÑĭÒĽ ÑĤÐ°Ð»Ð´Ñĭ
Ð¸Ð½ Ð½ÑĸÒ£
Ð¡ ÓĻ
ÐĳÒ¯Ð³ÑĸÐ½ Ð³Ñĸ
Ð´ÑĭÑĢ Ð°Ð´Ñĭ
ĠÐµ ÑģÑĤÐµ
ĠÓ©Ð· Ð´ÐµÑĢÑĸ
ÐµÑĤ ÐµÐ»
ĠÐ¼ÓĻÐ¶ Ð±Ò¯ÑĢ
ĠÐµ Ð»Ñĸ
Ð°Ð¹ Ð¼ÑĭÐ·
ĠÒĽ Ð¸Ñı
ĠÐ¼Ð°Ð¼Ð°Ð½ Ð´Ð°Ð½
Ð»ÑĸÐ¼ ÑĸÐ·
ĠÐ¶ÐµÑĤÐµÐº ÑĪÑĸÑģÑĸ
Ð· Ð°Ð»
ĠÐ½ Ð°Ð¼Ð°Ð·
Ġ %
ĠÒĽÐ¾Ñģ ÑĭÐ»ÒĵÐ°Ð½
iÐ½Ð´Ðµ Ð³i
ĠÐ°Ð¹ÑĤÑĥ ÒĵÐ°
Ð¼Ð°Òĵ ÑĭÐ½ÑĭÒ£
Ð¸ Ð´Ñĭ
ÑĢ Ð°Ð´
ĠÐ¼ Ð°Òĵ
ÐµÑĢ Ð»Ñĸ
ĠÐµÑģÐºÐµÑĢ Ðµ
ĠÑģÒ±ÑĢÐ°ÒĽ ÑĤÐ°ÑĢÑĭ
Ġ m
ĠÐ¿ÑĢ Ðµ
Ð½ ÐµÐº
Ð¸ÑĢ ÑĥÑĢÐ³
ÓĻÑĥ Ð»ÐµÑĤ
ĠS t
ÑĪ Ð°ÑĢÐ°
Ðł Ð£
ĠÐ±ÑĸÑĢ ÑĸÐ½
ĠÐ¼ÐµÑĤ Ð°Ð»Ð»
Ð°ÑĤÐµÑĢÐ¸Ð°Ð» Ð´Ð°ÑĢÐ´Ñĭ
ĠÐ¼Ð°ÒĽ Ð°Ð»Ð°
ĠÐ¶Ò±Ð¼ÑĭÑģ ÑĭÐ½Ð°
ĠÐ¶Ð°Ð¿ Ð¿Ð°Ð¹
ĠÐ°ÑĢÐ°Ð» Ð°Ñģ
ÐķÐ¢ Ð¢ÐĨ
ĠÐ´ Ð¾Ð¼
ĠÐĳÐ°Ñģ ÒĽÐ°
ĠÐ¼ Ð°ÑħÐ°Ð±Ð±Ð°ÑĤ
ĠÒĽÐ¾ ÑĪ
Ð¸Ð¼ Ð½
ĠÑģ Ð¾ÑĢ
ÐŁ Ð°Ð²Ð»Ð¾Ð´Ð°ÑĢ
0 3
Ð°ÑĤ ÑĭÐ½Ð´Ð°
ĠÐ°ÒĽÐ¿Ð°ÑĢ Ð°ÑĤÑĤÐ°ÑĢ
ĠÐ¼Ð°Ð³ Ð¸ÑģÑĤÑĢ
ÓĺÐĿ Ðķ
ÑħÐ°Ð½ Ð¾Ð²
ÑĭÐ¼ÑĭÐ· Ð´Ð°
ĠÐ¶Ð°Ð·Ð±Ð° ÑĪÐ°
Ðĸ ÐµÑĤ
Óĺ Ð¹
Ð»Ð°ÑĢ ÑĭÐ½Ð´Ð°
Ðº ÑĤ
Ñħ ÑĤÐ°ÑĢ
Ð¶Ð°Ð½ Ð¾Ð²
ÐĸÐ°Ò£ Ð°Ð»ÑĭÒĽÑĤÐ°ÑĢ
Ð°Ð¼ Ð°Ð½Ñĭ
ĠÐĳÒ± ÒĵÐ°Ð½
ĠÐ± Ñĥ
ĠÐŁÑĢ ÐµÐ¼ÑĮÐµÑĢ
ĠÑĤÑĸÐ» ÑĸÐ½Ð´ÐµÐ³Ñĸ
ÑĤÑĭ ÒĵÑĭÐ½
ÒļÐ°ÑĢ Ð°ÒĵÐ°Ð½Ð´Ñĭ
ÑĪÐµ Ð³Ñĸ
Ñģ Ð¾Ð½
ĠÐ¿Ð¾ÑĪ ÑĤÐ°
Ð¸Ñı Ð½Ñĭ
Ġ >
7 8
ĠÐ¿Ð» Ð°Ð½Ñĭ
ĠÐ· Ð°ÒĽÑĭÐ¼
ĠÒĽÐ¾Ð»Ð´Ð°Ð½ Ð°
ĠÑĢ ÐµÐ²
ĠÑĤÑĸÐ» Ð´Ðµ
ĠÐºÐµÐ·ÐµÒ£ ÑĸÐ½Ð´Ðµ
ÑĥÑĢ Ð¾Ñĩ
ĠÒĽÑĭÐ· Ð´Ð°ÑĢ
ĠÑĤÒ±ÑĢÒĵÑĭÐ½ Ð´Ð°ÑĢÑĭÐ½ÑĭÒ£
ĠÐ¼Ð°ÑĤÐµÑĢÐ¸Ð°Ð» Ð´Ð°ÑĢÑĭÐ½
Ð°Ðº ÑĤÐ¸Ð²ÑĤÑĸ
ĠÐ± Ð¾Ð¿
ĠÐŀ ÑģÑĭÐ½Ð´Ð°Ð¹
Ð¸ ÒĵÐ°
ĠÐ¶Ò¯Ð· ÑĸÐ½Ð´Ðµ
ĠÐ¾ÑĢÑĭÐ½Ð±Ð°ÑģÐ°ÑĢ Ð»Ð°ÑĢÑĭÐ½ÑĭÒ£
ĠÓ© ÑĤÐµÑĥ
ĠÐľ ÓĻÐ¶
ĠÑĤÐ°Ð»Ð°Ð¿ ÑĤÐ°ÑĢÑĭÐ½Ð°
ĠÐ¢ Ó©Ð»
ÐĲ ÑĤÐ°
ĠÑģÒ¯ÑĢ Ñĥ
ĠÒĽÐ°Ð» ÑĭÒ£
ĠÐĸ ÓĺÐĿÐķ
ĠÐ½Ðµ ÑĪÐµ
ĠÑĦÐ°Ðº ÑĤÑĸ
Ð¸Ð¼Ð¿Ð¸ Ð°Ð´
Ð±Ð°ÐµÐ² ÑĤÑĭÒ£
ĠÐ¶ÐµÑĤÐºÑĸ Ð»ÑĸÐºÑĤÑĸ
ĠÐ¶ Ð¾ÑĢ
ĠÐŀ Ð´Ð°Ð½
ÐºÐµ Ð·
ĠÐ¶Ð¸Ð½ Ð°Ñĥ
Ð¶ Ð°Ð±
Ð± Ó©
ĠÐ¼ÐµÐ¹ ÑĸÑĢ
ĠÐ¢Ð°ÑĢ Ð¸Ñħ
Ð° Ð´Ð°Ð½
6 8
ĠÐ¶ Ð°Ò»
ĠÐ±ÑĸÐ»ÑĸÐ¼ Ñĸ
Ġ200 6
ĠÐºÓ©ÑĤÐµÑĢ Ñĥ
ÑĸÑģ ÑĸÐ½Ðµ
ĠÐºÓ©ÑĤÐµÑĢ ÑĸÐ¿
ÐµÐ½ Ð´Ñĸ
ĠÐ½ Ò¯Ðº
ĠÒĽÐ° Ð´ÑĸÑĢ
ĠÐ±Ó©Ð» Ð¼
ĠÐ°ÑĤÒĽÐ°ÑĢ Ð°Ð´Ñĭ
ĠÐ°ÑģÐ¿ Ð°Ð¿
Ð¤ Ð°ÑĢÐ°Ð±Ð¸
ĠÐĶ Ð¾Ñģ
ĠÐłÐµÑģÐ¿ÑĥÐ±Ð»Ð¸Ðº Ð°ÑģÑĭÐ½Ð´Ð°ÒĵÑĭ
ĠÐºÓ©ÑĢ Ñĥ
ĠÐ¥Ð°Ð»ÑĭÒĽ ÒĽÐ°
Ñį Ð½
ĠÐ¶Ò±Ð¼ÑĭÑģ ÑĭÐ½ÑĭÒ£
Ð°Ð² Ð»
ĠÐ¼Ð°ÑĤ ÐµÐ¼Ð°ÑĤÐ¸ÐºÐ°
ĠÐºÑĸ ÑĤÐ°Ð±
Ð¾Ñģ ÑĦÐµÑĢ
ĠÐ¢ ÑĸÐ¿ÑĤÑĸ
ĠÒ¯Ð¹ Ð´ÑĸÒ£
ĠÐĸ ÐµÐºÐµ
ĠÒĽÑĭÐ·ÑĭÒĵ Ñĥ
ĠÐ´ÐµÐ¿Ð°ÑĢÑĤÐ°Ð¼ÐµÐ½ÑĤ ÑĸÐ½ÑĸÒ£
ÐĲ Ðĳ
ĠÑģ ÑĭÐ½Ð´Ñĭ
ĠÐ¶ÐµÑĤ ÑĸÑģ
ĠÐłÐµÑģÐ¿ÑĥÐ±Ð»Ð¸Ðº Ð°ÑģÑĭÐ½Ð´Ð°
ĠÐºÐ°Ð·Ð°Ðº ÑĪÐ°
ĠÐ¾ÑĢÐ½ Ð°ÑĤÑĥ
ĠÒĽÑĭÐ· Ñĭ
Ð¢ Ð£
Ð± ÑĭÐ·
ÒļÒ±ÑĢ Ð¼ÐµÑĤÑĤÑĸ
ĠÒĽÐ°Ð¼ÑĤÐ¸ Ð´Ñĭ
ÑĥÑĢÐ¾Ñĩ Ð½ÑĭÐµ
Ð´Ð°Ð½ Ñĥ
ĠÑĤÐ°Ð» Ð°Ð¹
ÑĭÑģ ÑĤÐ°ÒĵÑĭ
ĠÐ¡ ÑĸÐ·Ð´ÑĸÒ£
ĠÑĢ ÓĻÐ¼ÑĸÐ·
ĠÐºÐµÐ» ÑģÐµ
ĠÐ² ÐµÐ´Ð¾Ð¼ÑģÑĤÐ²
Ð°Òĵ ÑĭÐ½Ð´Ð°
ĠÐº ÐµÐ½ÑĤ
ĠÐĳ ÐµÐ»
Ðĸ Ð¾Ð»
ĠÐ¢Ð°ÑĢ Ð°Ð·
ĠÐ°ÑĤÑĭÐ½ Ð°Ð½
ĠÐ°ÑĢ Ð´Ð°Ð³ÐµÑĢ
ĠÐ°Ð» Ð´ÑĭÒ£ÒĵÑĭ
ĠÑĤÒ¯ÑĢ ÐºÑĸ
ĠÐĳ Ð°Ð»Ð°
ĠÐº ÑĸÐ»
ĠÑĪÐ°ÒĽÑĭÑĢ ÑĭÐ¼
ĠÐ°ÑĤ Ð°Ð»Ð°ÑĤÑĭÐ½
Ð´ÑĸÐ³ÑĸÐ½ ÐµÐ½
ĠÐ°Ð´Ð°Ð¼ Ð³ÐµÑĢÑĪÑĸÐ»ÑĸÐº
Ð¿Ð»Ð°ÑĤ Ð½Ð¾
Ð¿ ÐµÐ¹ÑĤÑĸÐ½
ĠÐ°Ð¹Ð½Ð°Ð» ÑĭÐ¿
ÑĪ Ð°ÑģÑĭ
ĠÐ¼Ð¸Ð»Ð»Ð¸ Ð°ÑĢÐ´
ĠÐ½ÓĻÑĢ Ñģ
ĠÑģ ÐµÐ»
Ð¸ÐºÐ¸Ð¿ÐµÐ´ Ð¸Ñı
ÑĪ ÑĸÑĢ
ĠÐ±ÐµÑĤÑĸÐ½ ÐµÐ½
ĠÐºÐµÐ·Ð´Ðµ Ð³Ñĸ
Ð³ÐµÐ½ Ð´Ðµ
ĠÐĲ Ñı
ĠÑĤÑĭÐ½ ÑĭÑģ
ĠÐ¶ÐµÑĤÐºÑĸÐ· Ð´Ñĸ
ÐĲÐĹÐĲÒļ Ð¡Ð¢ÐĲÐĿ
Ð°Ð¼ÑĭÐ· Ð´ÑĭÒ£
ĠÒĽÒ± ÑĤÒĽÐ°ÑĢ
0 2
ĠÐµÐ» Ð´Ðµ
Ð´Ð° ÒĵÑĭÐ½ÑĭÒ£
Ð³ Ð°Ð·
ĠÐļ ÐµÐ¹ÑĸÐ½
ĠÐºÓ©Ð»ÐµÐ¼ ÑĸÐ½Ð´Ðµ
ĠÑĦ ÐµÑģÑĤÐ¸Ð²
Ñĥ Ð°Ð½
Ð¾Ð¿ ÐµÐ´
ï »
ĠÐ¶Ò¯ÑĢÐ³ÑĸÐ· ÑĸÐ»
Ġ200 5
ÐºÐµÑĢ ÑĤÑĥ
ĠÑĤÑĸÐ» ÑĸÐ½ÐµÐ½
ĠÐ±ÐµÐ»Ð³Ñĸ Ð»ÐµÐ½
Ð¾ÑĢ Ð´
0 4
Ð¨ ÑĭÒĵÑĭÑģ
a q
ĠÒĽÒ± Ñģ
Ð´ÐµÑĤ Ñĥ
ĠÐ°Ð» Ð°Ð¼ÑĭÐ·
ĠÓ©Ð¼ÑĸÑĢ Ð³Ðµ
ĠÐ±ÐµÑģ Ð¿Ð»Ð°ÑĤÐ½Ð¾
ĠÐ¶Ð°ÑĢ Ð½Ð°Ð¼Ð°
ĠÐ¶Ð¾Ð» ÑĭÐ½Ð´Ð°
ĠÐ¢ ÐµÐ¼ÑĸÑĢ
ÐŁ ÑĢÐµÐ·Ð¸Ð´ÐµÐ½ÑĤ
ÑĤÑĸ Ð»ÑĸÐº
ĠÐ´ÑĭÐ± ÑĭÑģ
ĠÐ±ÐµÐ»Ð³Ñĸ ÑģÑĸ
ÑĢ Ðµ
Ñģ Ð¸Ð´
ĠÐ± ÐµÑĤÑĤÐµÑĢ
ĠÐ¶Ð°Ò£ Ð°ÑĢÑĤÑĥ
ĠÒļ Ð¾Ð»
Ġ4 5
ï» ¿
ĠÐ±ÓĻÑģÐµÐº ÐµÐ³Ðµ
ĠÐ¾ÒĽÑĭÑĤÑĥ Ð´ÑĭÒ£
Ð°ÑĤ ÑĤÐ°Ñĥ
Ð¿ Ñĸ
Òļ Ð¾Ñģ
ĠÐºÐ» Ð¸Ð½
ÑĤÐ°ÑĢÐ»ÑĭÒĽ ÑĤÐ°Ð¹
ĠÑĤÒ± ÑĤ
ĠÒ¯ÑĢÐ´Ñĸ Ñģ
ĠÑħÐ¸Ð¼ Ð¸Ñı
Ðº ÐµÒ£
ÐĲ Ñģ
ĠÑĢÐµÑģ ÑĸÐ¼
II I
ĠÒĽÐ°ÑģÐ¸ ÐµÑĤÑĤÑĸ
ĠÐµ Ð»ÐµÑĥ
Ð¿ ÐµÑĥ
ĠÐºÐµÐ» ÑĸÐ½
ĠÐ¡ Ð°Ð½
Ðĸ Ð¾ÒĵÐ°ÑĢÑĭ
Ġ k
ĠÐ°Ñģ ÑĭÐ¿
Ð¶ Ð°ÒĽ
ĠI V
ĠÐºÐµÐ· ÑĸÐ½Ð´ÐµÐ³Ñĸ
ÐĨ ÐĹ
ĠÐ¶ÐµÐ»ÑĤÐ¾ÒĽÑģÐ°Ð½ Ð´Ð°ÒĵÑĭ
Ð´ÑĭÑĢ ÒĵÐ°Ð½
ĠÒ®ÐºÑĸÐ¼ ÐµÑĤ
ĠÑĤÐµÐ»Ðµ Ð°ÑĢÐ½
ĠÒļ Ò±Ð»
ĠÐ¸ Ð¼Ð°Ð½
ÐĨ ÐĽÐĨ
ĠÒļÐ°Ð·Ð°ÒĽÑģÑĤÐ°Ð½ ÒĵÐ°
Ð¾Ð· Ð¸ÑĨÐ¸Ñı
ĠÑĪÒ± ÒĵÑĭÐ»
ĠÓ©Ò£ÑĸÑĢ Ð»ÑĸÐº
ĠÐ¼ÑĥÐ· ÐµÐ¹
ĠÐ°Ð¹ Ð½Ð°Ð»ÒĵÐ°Ð½
Ð»Ð°ÑĢ Ð¼ÐµÐ½
ĠÐ°Ð¹ Ð»ÑĭÒĽ
ĠÒĽÒ± Ð±ÑĭÑĢ
ĠÐ¡ Ð°Ð»
Ð¾ Ð¶
ĠÒļ ÑĭÐ·ÑĭÐ»
ĠÒ±Ð¼ ÑĤÑĭÐ»
ĠÐ¼ iÐ½
ĠÑĤÐ°Ð½ ÑĭÑĤ
ÐµÐ½ Ð´
ĠÐĳ Ð°ÒĽÑĭÑĤ
ĠÐ±Ð°ÑģÑĪÑĭÐ» ÑĭÒĵÑĭÐ½ÑĭÒ£
ĠÐ´ Ð°Ð¹ÑĭÐ½Ð´Ð°
Ð¡ÐŁ Ðŀ
ĠÑĤ ÐµÑģÑĤÑĸ
ĠÒĽÐ°Ð» Ð´ÑĭÒĽ
ÐĲÑĢ Ð½Ð°Ð¹Ñĭ
ĠÑĤÐ°Ð¿ ÑĤÑĭ
Ð° Ð´Ð°ÒĵÑĭ
ĠÐºÓ©ÑĪ Ð±Ð°Ñģ
ĠÐ´ ÐµÐº
Ð¶ Ó©Ð½
ĠÑĤÑĥÑĢ Ð½Ð¸ÑĢ
ĠÐ±Ó© Ð»ÑĸÐº
ĠÐ°Ð¹ ÑĭÐ½ÑĭÒ£
ĠÑģÒ±ÑĢ Ð°Ð¿
ÑĪÐµÑĤ Ð°Ñĥ
ÐºÑĸ ÑĪÑĸ
ĠÐµÐ½Ð³ÑĸÐ· ÑĸÐ»Ð´Ñĸ
ĠÐĳÐ°Ñģ ÒĽÐ°ÑĢ
ĠÑĢ Ð¾Ð¼
Ñĸ ÑĪÑĸ
Ð°Ñģ ÑĭÒ£
ÒĽ Ð°ÑĤÑĭÐ½
ÑĭÑĢ Ð¼Ð°
ĠÑĥÐ½Ð¸Ð²ÐµÑĢÑģÐ¸ÑĤ ÐµÑĤ
ÑĤÑĭÐ¼ Ð´Ñĭ
ÑĪÑĸÐ»ÐµÑĢ Ð³Ðµ
ÑĨ Ð¸ÐºÐ»
ĠÐºÓ©Ðº ÑĤÐµÐ¼
ĠÑį Ð¿
ÐĿÒ±ÑĢ ÑģÒ±Ð»ÑĤÐ°Ð½
ĠÓ©Ð» ÑĤÑĸÑĢ
ĠÐ´ÐµÐ¼ Ð¾ÐºÑĢÐ°ÑĤ
ĠÑģÓ©Ð¹ Ð»ÐµÑģ
Ð°ÑĤ Ð°Ñĥ
ĠÐ±ÑĸÑĢÐ»ÐµÑģ ÑĸÐ¿
ĠÑĤ ÑĭÐ¼
Ð°Ð± Ð°Ð¹
ĠÑĤÒ¯Ð· ÐµÑĤÑĥ
ĠÐ¼ÓĻÑģÐµÐ» ÐµÐ½Ñĸ
ĠÐ¢ Ð°Òĵ
Ġ *
ĠÓ©Ð½ÑĸÐ¼Ð´ÐµÑĢ ÑĸÐ½
ĠÐ¿ÑģÐ¸Ñħ Ð¾Ð»Ð¾Ð³Ð¸Ñı
ĠÐºÑĢ ÐµÐ´Ð¸ÑĤ
ĠÐµÑĢ ÑĤÐµÐ³Ñĸ
ĠÑĤÐµÑħÐ½ Ð¸ÐºÐ°
ĠÐ¶Ò¯ÑĢ ÐµÐ³Ñĸ
ĠÐ±Ð¾Ð» Ð¼Ð°ÒĽ
ĠÑĤÒ¯Ñģ ÐµÑĤÑĸÐ½
ĠÐ¶ ÑĸÐº
Ð¨ ÑĭÐ¼ÐºÐµÐ½ÑĤ
Ð£ Ðł
ĠÐľ Ð¸Ð½Ð¸ÑģÑĤÑĢ
ĠÐ·Ð°Ò£ ÑģÑĭÐ·
Ð´ Ð¾Ð½
ĠÑĢ Ò±ÒĽÑģ
ĠÒĽÑĭÐ·ÑĭÒĵ ÑĥÑĪÑĭÐ»ÑĭÒĽ
ĠÐ¤ ÐµÐ´ÐµÑĢ
ĠÒĽÐ°Ð± ÑĭÑĢÒĵ
Ð¸Ð¼Ð¿ ÑĤÐ¾Ð¼
ĠÐ±Ð°Ð¹ÒĽ Ð°Ð»Ð°Ð´Ñĭ
Ð´ÐµÑģ Ñĥ
ĠÐ±Ò¯ Ð³ÑĸÐ½Ð´Ðµ
ÒļÐ°Ð» Ð°Ð»ÑĭÒĽ
Ðĺ ÐĿ
ĠÒ° ÑģÑĤÐ°Ð·
ĠÒĵÑĭÐ»ÑĭÐ¼ Ð´Ð°ÑĢÑĭÐ½ÑĭÒ£
ĠÑĤÓĻÑĢÑĤÑĸÐ± ÑĸÐ½
ĠÐ¶Ð°ÑĤ ÒĽÑĭÐ·
5 8
ÒĽÐ°ÑĢ Ð°
ĠÑĤÐ°Ð±ÑĭÑģ ÑĤÑĭ
ĠÑģÐ°Òĵ Ð°ÑĤÑĭ
k k
ĠÓĺ ÐºÑĸÐ¼
ĠÒĽÐ°Ð· ÑĭÐ½
ĠÑĤÐ¾Ð» Ñĭ
ĠÐ¼ÑĸÐ½Ð´ÐµÑĤ ÑĤÐµÐ¼
ĠÐ±Ð°ÑĢ ÒĵÐ°Ð½
____ ____
ĠÑĤÐµÑħÐ½Ð¾Ð»Ð¾Ð³Ð¸Ñı Ð»Ð°ÑĢÐ´Ñĭ
ĠÑĤÑĸÑĢ Ñĸ
ĠÑĤ Ð°Ð¼Ð°ÑĪÐ°
ĠÐµÐ» Ð´ÐµÑĢÐ´ÑĸÒ£
ĠÐºÒ¯ ÑĤÑĸÐ¿
ĠÑĤÐ¸ ÐµÑģÑĸ
ÑĭÐ¼ ÑģÑĭÐ·
Ðļ Ð¡ÐŁÐŀ
Ðĸ Ð°ÒĽ
ĠÒĽÐ°ÑĤÑĭÑģ Ð°Ð´Ñĭ
Ġ www
ĠÐ½ Ð°Ð½
ĠÐºÒ¯ÑĪ ÑĤÑĸ
Óĺ Ð´Ñĸ
ĠÐ£ Ð½Ð¸Ð²ÐµÑĢÑģÐ¸ÑĤ
Ðº Ò¯Ð½
ĠÑĪÐ¾Ð» Ñĥ
Ð¼ Ð°Ð´Ñĭ
ĠÑĤÒ¯Ñģ Ñĥ
ÑĤÐµÑĢ Ð´Ðµ
ĠÐ±ÑĸÑĢ Ð´Ðµ
ĠÒĵ Ð°Ð»Ð°Ð¼
ĠÑĭÐ´Ñĭ Ñģ
ĠÐ¶Ð°Ð±Ð´ÑĭÒĽ ÑĤÐ°Ñĥ
ĠÐ¶Ð°ÑĤÒĽÐ°Ð½ ÑĭÐ½
ĠÐ¶ÐµÐº Ð¿Ðµ
Ð± ÑĸÐ»ÑĸÐ¼
ĠÐ¾ÒĽ ÑĭÒĵÐ°Ð½
ĠÐ¾Ð¹ Ð»Ð°Ð¿
ĠÐ¶Ð°ÑĢÐ¸ÑıÐ»Ð°Ð½ Ð´Ñĭ
ĠÐ½ÓĻÑĤÐ¸Ð¶ Ðµ
ĠÐ¿ÑĢ Ð°ÐºÑĤ
ÐºÑĸÐ½ ÑĸÑĪ
ĠÐ°Ñĥ ÒĽÑĭÐ¼Ð´Ñĭ
ĠÐĸ Ð¾ÒĵÐ°ÑĢÒĵÑĭ
ĠÐ±Ð°ÑģÒĽÐ°ÑĢ Ð¼Ð°
5 6
ĠÑĤÐµÑĢ ÐµÐ·
l o
ĠÐŃ ÐºÐ¾Ð½Ð¾Ð¼Ð¸ÐºÐ°
ĠÐ¶Ð°Ñģ Ð°ÒĽ
Ðĳ Ð°ÑĢ
Ð³ÐµÑĢ Ð»ÐµÑĢ
ÐµÐ¹ÑĤ Ð¾Ð¹
ĠÐºÓ©Ð· Ð³Ðµ
Ð°Ð± ÑĭÐ½
ĠÑģÐ¾ ÒĵÐ°Ð½
ĠÑĤÓĻÑĢ ÑĸÐ·Ð´Ñĸ
ĠÐ±Ð°Òĵ ÑĭÐ½
Ðļ Ð¢
ĠÐ³ ÑĢÐ°Ð¼
ĠÑĤÐµÑĢÐ³Ðµ Ñĥ
ĠÐ¶Ò¯ÑĢÐ³ÑĸÐ· ÑĥÐ³Ðµ
ĠÐ°Ð¹ ÑĤÐ°ÑĢÐ»ÑĭÒĽÑĤÐ°Ð¹
ĠÐµÑģÐºÐµÑĢ ÑĤÑĥ
ĠÑħÐ°Ð±Ð°ÑĢ Ð»Ð°Ñĥ
ĠÐ°Ð·Ð°Ð¼ Ð°ÑĤÑĭ
ĠÑģÐ¾Ð» ÑĤÒ¯ÑģÑĤÑĸÐº
ÑĤ Ð°ÒĽ
ÑĭÐ¼ Ð´Ð°ÑĢ
a g
Ðº ÐµÐº
ĠÐ¥ Ð°Ð»
ĠÐ¶Ð¾Ð» Ð´Ð°ÑĢÑĭÐ½
ĠÐ°ÑĤ Ð°Ð¹Ð´Ñĭ
ĠÐ¾ÑĢÑĤ Ð°Ð»ÑĭÒĽÑĤÐ°ÑĢ
Ð± Ð°Ð»Ñĭ
ĠÐ¾ÒĽÑĥÑĪÑĭÐ»Ð°ÑĢ Ñĭ
ĠÑģÐ¾Ð½ Ð´Ð°
Ð³ Ð°
ĠÑĪ Ðµ
h t
ĠÐ¼Ð°Ð¼Ð°Ð½ Ð´ÑĭÒĵÑĭ
Ð°Ð¹ÑĤ Ò±ÑĢ
ÑĭÒĽ ÑĤÐ°ÑĢ
Ð½ Ð¾Ð·
ĠÒĽÐ°ÑĪ Ð°Ð½
ĠÑĤÒ±ÑĢÒĵÑĭÑģ ÑĭÐ½Ð°Ð½
Ò±ÑĢ Ð°ÑĤ
Ð¶ Ð°Ð»
ĠÒĽÐ¾Ñģ ÑĭÐ¼ÑĪ
ĠÐ°Ð½ÑĭÒĽ ÑĤÐ°Ð»Ð°Ð´Ñĭ
Ð´ Ð°Ð»Ñĭ
ĠÐ¶ÐµÑĤÐµÐº ÑĪÑĸ
ĠÐºÐ» Ð¸ÐµÐ½ÑĤ
ĠÐ±ÑĸÐ»ÑĸÐºÑĤÑĸ Ð»ÑĸÐ³ÑĸÐ½
ĠÒĽÐ¾Ð¹ Ð¼Ð°Ð¹
Ð°Ð¼ ÐµÑĤÑĢ
ĠÑįÐº ÑģÐ¿
ĠÒļÐ¾ÒĵÐ°Ð¼ Ð´ÑĭÒĽ
Ð°Ñģ ÑĤÐ°ÑĢ
ÑĤÐ¸ ÑħÐ°Ð½
u m
ĠÑģÑĥÑĢ ÐµÑĤÑĤÐµÑĢ
ĠÐ¶Ð°Ñģ Ð°Ð»Ð°Ð´Ñĭ
ĠÐ¶ Ò±ÒĽ
ĠÐ¼ÐµÐºÑĤÐµÐ¿ ÑĤÐµ
Ðĳ ÐĽ
ĠÐ¶Ð°ÑģÓ©ÑģÐ¿ÑĸÑĢ ÑĸÐ¼Ð´ÐµÑĢ
ĠÐºÐ°Ð´ Ð°ÑģÑĤÑĢ
ĠÒ±ÑģÑĭÐ½ ÑĭÐ»ÒĵÐ°Ð½
ĠÐ¼Ò±Ð½ Ð´Ð°
ÐºÐµÑĢ Ð¸
ÒĽ Ð°ÒĽ
ĠÐ¢ Ð°ÒĽÑĭÑĢ
ĠÐ»Ð¸ÑĨÐµÐ½ Ð·Ð¸Ñı
Ð°Ð½ ÐºÑĸ
ĠÐ¶Ð°Ð» ÒĵÐ°Ð½
ĠÐŀ ÑĤ
ĠÐ°Ð· Ð°Ð¹ÑĤÑĥ
ĠÐ´Ð¸Ð¿Ð»Ð¾Ð¼ Ð´ÑĭÒĽ
Ð°Ð¹ÑĤÒ±ÑĢ ÑģÑĭÐ½
ĠÐ¶Ð°Ñģ Ð°Ð¹ÑĤÑĭÐ½
ĠÒĽ Ð°ÑĤÑĭ
ĠÑģÐ°Ð» Ð°ÑģÑĭÐ½ÑĭÒ£
ĠÐ¶Ð¸Ð½Ð°ÒĽ ÑĤÐ°Ñĥ
ÐĲ Ð·
ĠÑģÑĭÐ¹ Ð»ÑĭÒĽ
ĠÑģÓ©Ð· Ð´ÐµÑĢÐ´Ñĸ
ĠÐ°Ñħ Ñĥ
ĠÐ±Ð¾Ð»ÒĵÐ°Ð½ Ð´Ð°
ÑĪÑĭÐ»Ð°ÑĢ ÒĵÐ°
ÑĸÐ½ ÑĸÐ¿
ÑĥÑħÐ³Ð°Ð» ÑĤÐµÑĢÐ»ÑĸÐº
ÑĤ ÐµÐ¹ÑĤÑĸÐ½
5 3
Ðŀ ÐĴ
ĠÐ°Ð½ÑĭÒĽ ÑĤÐ°Ð»ÒĵÐ°Ð½
ĠÐ°ÒĽÑĪ Ð°Ð»Ð°Ð¹
Ð³ Ò¯Ð»
ĠÐ´Ð°Òĵ Ð´Ð°ÑĢ
ĠÓ©Ñģ Ñĥ
ĠÑĭÐ½ ÑĤÐ°Ð»
ĠÐ¾ÑĢÑĭÐ½ Ð´Ð°ÑĢ
ĠÑĤÐ¾Ð» ÑĤÑĭÑĢ
ĠÑĤÓ©Ð¼ÐµÐ½ Ð´ÐµÐ³Ñĸ
ÐŁÐ¾ ÑĥÑĢÐ¾ÑĩÐ½ÑĭÐµ
ĠÑĤÐ¸ÑĸÐ¼Ð´Ñĸ Ð»ÑĸÐ³ÑĸÐ½
ĠÐĶ ÑĸÐ½
ĠÒĽÐ°Ð» Ð´ÑĭÑĢÑĥ
ĠÓĻÑģÐµÑĢ Ñĸ
Ġ &
Ð± ÐµÑģÑĸÐ½
ÐĳÑĸÑĢ Ð°ÒĽ
ĠÐ±ÐµÐ»Ð³Ñĸ Ð»ÐµÑĥ
ĠÐ¢ Ð¾ÑĢ
ÐĳÑĸÑĢ ÑĸÐ½ÑĪÑĸ
ĠÒĽ Ð¸Ð¼ÑĭÐ»
ÐĨÐĨ ÐĨ
Ð± Ð´ÐµÐ½
ÑĸÑģ ÑĸÐ½ÑĪÐµ
ĠÐ°Ð» ÑĭÐ½Ð´Ñĭ
ÑĤÑĭÐ» Ð°Ð¹
ĠÐ±Ð°ÒĵÑĭÑĤ ÑĤÐ°
ĠÐ¶Ð°Òĵ Ð°Ð»Ð°Ñĥ
ĠÑĤÐ¾Ð± ÑĭÐ½ÑĭÒ£
ĠÐ°ÐºÑĤÑĸ Ð»ÐµÑĢÑĸÐ½
Ð¼ Ð°Ð½Ñĭ
ĠÐ¼ÓĻÐ»ÑĸÐ¼ Ð´ÐµÐ´Ñĸ
ĠÐ¾ÑĤÑĭÑĢ Ð¼ÑĭÐ·
Ð´ Ð¾
Ð¼ ÐµÑģ
ĠÒĽÑĭÐ·Ð¼ÐµÑĤ ÑĤÐµÑĢÐ´ÑĸÒ£
ĠÑĤÐ¾ÒĽ ÑĤÐ°ÑĤ
ĠÐĳ Ò°Ò°
ĠÑģÐ°Ñı ÑħÐ°ÑĤ
ĠÐºÐ¾Ð½ÑĨ ÐµÑĢÑĤ
ĠÒĽÐ°Ð±ÑĭÐ» Ð´Ð°ÒĵÐ°Ð½
ÑĭÐ¼ Ð´Ð°
Ð¼ Ð±
ĠÐ± Ò¯Ð¹
ĠÐºÓ© ÑĪÐµ
Ð²ÐµÑģ ÑĤÐ¾ÑĢ
ĠÐ´Ð¾ ÑģÑĤÐ°ÑĢ
ĠÐ¡ Ð¾Ò£ÒĵÑĭ
ĠÐ¸ ÑĤ
ĠÑĤÐ°Ð± Ð°
Ð³Ðµ Ð±ÑĢ
Ð°ÑĤÑĭÐ» ÑĭÑģ
ĠÓ©Ñģ ÑĸÑĢ
ĠÐº ÓĻ
ĠÐ¾ ÑģÑĭÐ»Ð°Ð¹
Ñĩ ÐµÐ½
ĠÐ±ÑİÐ´Ð¶ÐµÑĤ ÑĤÐµÐ½
ÐĲÐĽ Ð«
ĠÑĤÓĻÑĢÑĤÑĸÐ¿ Ð¿ÐµÐ½
ĠÐ¾ÒĽÑĥ ÑĪÑĭÐ½ÑĭÒ£
ĠÑģÐ°ÒĽ ÑĤÐ°Ð»ÒĵÐ°Ð½
ĠÐ°Ð»Ð¼ Ð°Ð¹ÑĤÑĭÐ½
ĠÐ¢ Ð¾Ð¿
ĠÐ±ÑĸÑĤÑĸÑĢ Ð³ÐµÐ½
ĠÑĦÐ¸Ð» Ð¸Ð°Ð»Ñĭ
Ð¢ Ð°Ð»
ÒĴ ÐĲ
Ð»ÐµÐºÑĤÑĢÐ¾Ð½ Ð´Ñĭ
ĠÑĪÐ°ÑĢ Ñĥ
ĠÐļÐ°Ð· Ð°Ñħ
ĠÑĦÐ¸Ð· Ð¸ÐºÐ°Ð»ÑĭÒĽ
Ð¶ Ð°Òĵ
ĠÐĲÐ· Ð°ÑĤÑĤÑĭÒĽ
ĠÐŀÒĽ ÑĥÑĪÑĭÐ»Ð°ÑĢÐ´ÑĭÒ£
ĠÒĽÒ±ÒĽ ÑĭÒĵÑĭÐ½
ĠÐ¶ÐµÑĤ ÑĸÐ¿
I V
ĠÐºÐµÒ£ ÑĸÑģÑĤÑĸÐº
ĠÑĦÐ¸Ð· Ð¸ÐºÐ°
Ð¢Ð°ÑĢÐ¸Ñħ Ð¸
ĠÒĽÐ°ÑĪ ÑĭÒĽÑĤÑĭÒĽ
ĠÑĤÐµÑĢÑĢ Ð¾ÑĢ
Òļ Ð°Ð½
ĠÐķ Ð½
ĠÐ±Ð¾Ð»ÒĵÐ°Ð½ ÑĭÐ½
ĠÒ±ÑģÑĤ Ð°Ñĥ
ĠÐļ ÑĸÑĤÐ°Ð¿
20 20
ĠÒĽÒ±ÑĢ Ð¼ÐµÑĤÑĤÑĸ
w i
ĠÓĻÐº iÐ¼
ĠÐºÓ©ÑĪ ÑĸÑĢÑĥ
ĠÑģÐ¾Ð» Ð°Ð¹
Ðŀ Ð½
ĠÐ¿ ÐµÑĢÑģ
ĠÑĤÐ¾Ð»ÑĭÒĽ ÑĤÑĭÑĢ
ÑĤ Ò¯ÑĢ
ĠÒĽÐ¾Ð»Ð´Ð°Ð½ ÑĭÐ»ÑĥÑĭ
ĠÐ´Ò¯ ÐºÐµÐ½
ĠÐ¾ Ð´Ð°ÒĽ
ĠÐ°Ñĥ Ð»
ĠÑĸÑĢÑĸÐº ÑĤÐµÑĥ
ĠÐ°ÑĤ Ð°Ð»
ĠÐ¿ ÑĸÑģ
ÐĲÐĿ ÐĲ
ĠÐĸ ÓĻÐ½Ðµ
ĠÐ¿ ÑĢÐµÐ·ÐµÐ½ÑĤÐ°ÑĨÐ¸Ñı
Òļ Ð¾Ð»Ð´Ð°Ð½
ĠÐ½ÑĭÑģ Ð°Ð½Ñĭ
ĠÐ³ ÐµÐº
ĠÐĲÐ»Ð¼Ð°ÑĤÑĭ Ð´Ð°
Ðº Ð°ÑģÑĭ
ĠÐ´ÐµÐ³ÐµÐ½ Ð´Ðµ
ĠÐ°ÑĥÐ¼Ð°ÒĽ ÑĤÑĭÒĽ
Ð±ÑĸÑĢ ÐµÐº
ĠÑģÑĤÐ°Ð½Ð´Ð°ÑĢ ÑĤÑĤÐ°ÑĢ
ÑĢÑĤ Ð°ÒĽ
ĠÐ¶Ð°Ñģ ÑĤÐ°ÑĢÐ´ÑĭÒ£
ĠÐ± Ð°ÑĤÑĭÑģ
ĠÐ¶Ð°Ð½ÑĥÐ°ÑĢ Ð»Ð°ÑĢ
) :
ĠÐºÐµÐ· ÐµÐºÑĤÑĸ
U R
Ð°Ð»Ñĭ ÒĵÑĭÐ½
ĠÓ©Ð»ÐµÒ£ Ð´ÐµÑĢ
ĠÐĲÑĢ Ð°Ð»
Ð¸Ð½ Ð½Ð¾Ð²Ð°ÑĨÐ¸ÑıÐ»ÑĭÒĽ
Ð°ÑĤÑĤÐ°ÑĢ ÑĭÐ½
ĠÑĪ ÑĭÒ£
201 3
ĠÒĽÑĭÐ·Ð¼ÐµÑĤÐºÐµÑĢÐ»ÐµÑĢ ÑĸÐ½ÑĸÒ£
az ak
ĠÐĺ ÑĢÐ°Ð½
ĠIn c
ĠÐºÐµÑĪ ÑĸÑĢ
ĠÐļ ÑĢ
ĠÑĤÐµÒ£ Ð³ÐµÐ½Ñĸ
Ð°Ð´Ñĭ ÑĢ
ÑĦ Ð¾ÑĤÐ¾
ĠÑĸÑģÑĤ ÐµÐ³ÐµÐ½
ĠÐºÑĸÑĪ ÐºÐµÐ½ÑĤÐ°Ð¹
ĠÐĳÐ¸ ÑĭÐ»
ÐĲÒĽ Ð¼Ð¾Ð»Ð°
ĠÐĸÑĭÐ» Ð¶ÑĭÐ¼Ð°Ð¹ÑĤÑĭÐ½
Ðº ÑĥÐ»
ÒĵÑĭÐ» ÑĪÑĭÐ½
ĠÓĻ Ð·
ÐŀÑĢ ÑĤÐ°
ĠÓ©Ð½ÐµÑĢ Ðº
ĠÑģ ÐµÐ¿
ÐµÑĥ Ð³Ðµ
ĠÐ°ÑĢ ÑĭÐ·
ĠÑģ Ð¿Ð¾ÑĢÑĤÑĤÑĭÒĽ
ĠÐŀ ÑģÑĭÐ»Ð°Ð¹ÑĪÐ°
ĠÐ±Ó© Ð»ÑĸÐ³ÑĸÐ½
ÑĭÒĵ Ð°ÑĢÐ¼Ð°
ĠÑĤÐµÑĢ Ñĸ
8 3
ĠÐ¡ Ò±Ð»ÑĤÐ°Ð½
Ð± ÐµÐ»
ÐŀÐ±Ð» ÑĭÑģ
ĠÑĸÑģÑĤ ÐµÐ¹
ĠÐ¿ÓĻÐ½ ÑĸÐ½ÑĸÒ£
ĠÐ°ÑĥÑĭÐ» ÑĭÐ½Ð´Ð°
ĠÑĤÒ±ÑĢ Ð°ÒĽ
ĠÑĤÐ¸ÐµÑģÑĸ Ð»Ñĸ
ÐµÑĪ ÐµÐº
ĠÑĤÒ¯ÑĢ ÑĸÐº
ĠÐ¿Ð°Ð¹Ð´Ð°Ð»Ð°Ð½Ñĥ Ð´Ñĭ
ĠÐ¾ÑĢÑĭÐ½ ÒĵÐ°
ĠÑģ Ð»Ð°Ð¹Ð´
ĠÐ±Ð°Ð½Ðº ÑĤÐµÑĢ
ĠÐ¶Ð°Ð· ÑĥÑĪÑĭ
Ð±ÐµÐº Ð¾Ð²Ð°
ĠÐ¡ Ó©Ð·
ÑĤ ÐµÑģÑĤ
ĠÓ©Ð· ÑĸÐ¼
ĠÑģÐ°Ð»ÑĤÐ°Ð½ Ð°ÑĤÑĤÑĭ
Ð¿ ÐµÐ»Ñĸ
ĠÑĤ Ó©Ð·
ĠÒ¯ ÑģÑĤÐµÐ¼
ĠÐ±ÐµÑĢ Ð¼ÐµÐ¹Ð´Ñĸ
ĠÑħÐ°Ð±Ð°ÑĢ Ð´Ð°ÑĢ
ĠĠ ĠĠ
ĠÐĳÒ± Ð´Ð°Ð½
ĠÐ¶ÐµÑĤ ÐµÐ´Ñĸ
Ġ200 0
Ð¿ Ð°ÒĵÐ°Ð½
Ð¼ ÓĻÐ´ÐµÐ½Ð¸
ĠÑģÓ©Ð· Ð´ÑĸÐº
ĠÐµÑģ ÐºÑĸ
ÑģÑĤ ÐµÐ½
ĠÐº Ð²
ĠÐ°ÑĤÒĽÐ°ÑĢ Ñĥ
ĠÐŁ ÑĢÐ¾
ĠÐ°ÑĢ Ð°Ð±
ĠÐ¶Ò¯Ð¹ ÐµÐ»ÐµÑĢ
ĠÐº Ð°ÑĤÐµÐ³Ð¾ÑĢ
ĠÑģÐ°Ð» ÑĥÒĵÐ°
ĠÒ¯Ð¹ Ñĸ
ÑĤÐµÑĢ ÑĸÐ¼ÐµÐ½
ĠÒļÐ¾ÑĢ ÑĪÐ°ÒĵÐ°Ð½
ĠÐºÐ¸Ð½ Ð¾
ÑĦ Ð¸ÑĢ
Ðļ ÐµÒ£
ĠÐ¢Ò¯ÑĢÐº Ð¸Ñı
ĠÒĽÐ¾Ð¹ Ð½
ÑĸÑģ Ð¿ÐµÐ½
ÐµÑģÑĸ Ðº
Ð½ Ò±Ñģ
ĠÐ°Ð¹ÑĭÐ¿ Ð¿Ò±Ð»
ĠÐ¢ ÐµÑĢ
Ð¢ ÓĻÑĢÐ±Ð¸Ðµ
ĠÐ°Ð» ÑĥÑĭ
ĠÐ°Ð¹ Ð½
ĠÐ°ÑĥÐ´Ð°ÑĢ Ñĥ
ĠÑģÐ°Ð½ ÑĭÐ½
ĠÑģÒ±ÑĢ Ð°Ñĥ
ĠÐ±Ð¾Ð¹ ÑĭÐ½Ð°
ĠÐµ Ð´ÑĸÐº
ÒĽÒ±ÑĢ ÑĭÐ»ÑĭÑģ
Ð §
ÑĢÑĭÒĽ ÑĪÐ°
ĠÐ¶Ð°Ð· Ð°
tt er
ĠÐ¼ ÑĭÑģÐ°Ð»Ñĭ
Ðľ Ð£
ÐĶ Ð°Ð¼
Ð»Ñı ÑĨÐ¸Ñı
Ð¾Ð½ ÐµÐ½ÑĤ
Ð´ ÓĻÑĢ
ĠÑģ ÓĻÐ½
Ð¡ Ð°Ð½
ĠÒ±Ð¹ÑĭÐ¼ Ñĭ
ÑĪ Ð°ÒĵÐ°
ĠÐ±ÓĻÑģÐµÐº ÐµÐ»ÐµÑģ
ĠÐ¾ÑĤÐ±Ð°Ñģ ÑĭÐ»Ð°ÑĢ
ĠÐºÒ¯ÑĪ ÐµÐ¹
Ð¸Ðº Ð¸
ĠÓ©Ñģ ÑĥÑĸ
7 6
Ð°Ð»ÑĮ Ð´Ñĭ
ĠÐ¼Ò¯Ð¼ÐºÑĸÐ½Ð´ÑĸÐº ÑĤÐµÑĢÑĸ
Ðº iÐ½
ĠÐµ ÐºÑĸÐ½
ĠÐ°ÑĥÑĢÑĥ Ð´ÑĭÒ£
Ñģ Ð¾
a d
ĠÒĽÒ±ÑĢ Ð°ÑģÑĤÑĭÑĢ
ĠÐ¶Ð¾ÑģÐ¿Ð°ÑĢ ÑĭÐ½
ĠÐ¼ÑĭÑģ Ð°Ð»
ĠÑĤ Ð¾Ð¼
ĠÐ¥ Ð¥
ĠÒļÑĭÑĢÒĵÑĭÐ· ÑģÑĤÐ°Ð½
ĠÐºÐµÑģ ÑĤÐµ
ĠÑĤÐ°Ð½ ÑĭÐ¼
Ð±ÐµÑĢ Ð³ÐµÐ½
Ð´ÐµÐ» Ñĥ
Ðĸ Ò±Ð¼
ĠÐ°Ð²ÑĤÐ¾ ÐºÓ©Ð»ÑĸÐº
Ð¾Ð¿ ÐµÑĢ
Ðº ÐµÑģÑĸ
Ðļ ÐµÑĢÑĸ
9 0
ĠÐ½ Ð°ÒĵÑĭÐ·
ĠÐ±Ð¾ Ñı
ÓĻ Ð»ÐµÑĥÐ¼ÐµÑĤÑĤÑĸÐº
Ð±ÑĭÐ» Ð°Ð¹
ÑĤÒ± Ð·
Ñħ Ð¸Ð¼
ĠÐĲÐ»Ð» Ð°Ð½ÑĭÒ£
Ð°ÑĤ Ð°ÐµÐ²
ĠÐ°ÒĽ ÑĭÑĢ
Ð´Ð° ÑĤ
ĠÑĪÐ°Ð¼ Ð°ÑģÑĭÐ½Ð´Ð°
ĠÑĦÑĥÐ½ ÐºÑĨÐ¸Ð¾Ð½
ÑĤÐ°Ð¼ ÑĭÐ·
Ð¡ ÑĭÑĢ
Ñĸ Ð³Ñĸ
ĠÐ±Ò± Ð´Ð°Ð½
ĠÑĤÒ¯ÑĢ ÑĸÐ½
ĠÑĦ Ð°Ð¹Ð»
ĠÐ·ÐµÑĢÑĤ ÑħÐ°Ð½
ĠÑģÒ±ÑĢÐ°ÒĽÑĤÐ°ÑĢ ÒĵÐ°
ĠÐ°Ñģ ÒĽÐ°Ð½
ĠÐ°ÑĢ Ð°Ð´Ð°
ĠÐµÑĤÑĸÐ» ÐµÐ´Ñĸ
ĠÐ½ Ð¾
Ñİ Ð´Ð¶
ÑĪ Ð°Ð¼
ĠÒĽÐ°ÑĢ ÑģÑĭÐ»
ÑĸÐ¼ Ð´Ðµ
ĠÐ¶Ò¯ Ð³ÑĸÐ½
ĠÐºÓ©ÑĢ Ð´Ñĸ
ĠÐĳ Ð°Òĵ
ĠÓĺÑģ ÑĸÑĢÐµÑģÐµ
ĠÒĽÐ°ÑĥÑĸÐ¿ÑģÑĸÐ· Ð´ÑĸÐ³Ñĸ
ĠÐ°ÑĢ Ð½Ð°Ð»
ĠÒĽÐ°Ð¹ÑĢÐ°ÑĤ ÐºÐµÑĢÑĸ
A R
ĠÑģÐ¾ÑĤ ÒĽÐ°
ĠÒļ Ð°Ñĥ
ÑģÑĭÐ½ Ð°Ð½
ĠÐ°ÑĤÒĽÐ°ÑĢ ÒĵÐ°Ð½
Ð°ÑĤÑĤÐ°ÑĢ ÑĭÐ½Ð°
ÑĪÑĸ Ð»ÑĸÐ³ÑĸÐ½
ĠÑĤÓĻÐ¶ÑĸÑĢÐ¸Ð± ÐµÑģÑĸ
ĠÐ°ÑĤ Ð°Ð½Ð´Ñĭ
ĠÐĲÒĽÑĤÓĻ ÑĤÐµ
ĠÐ¶Ð°Ñģ Ð°ÑĢ
Ð± Ð½
Ð¶ ÐµÑĢ
ĠÐ±Ð°Ñģ Ð¿Ð°Ð½
ĠÐ¡Ó©Ð¹ ÑĤÑĸÐ¿
Ó¨ Ð¼ÑĸÑĢ
ĠÐºÓ© Ð½Ðµ
Ðĸ Ð¾Ð±Ð°
ĠÐ°Ñģ Ð¿Ð°Ð½
Ð´ÑĭÒĽ ÑĤÑĭÒ£
Ð»Ð°ÑĢ Ð´Ð°
Ġ200 3
ĠÑĤÐ°ÑĢÐ¸Ñħ ÑĭÐ½
ĠÐµÐºÐµÐ½ Ð´ÑĸÐ³Ñĸ
ĠÐĸ ÐĲÒ¢
ÐµÐ½ Ð¸Ð½Ð³
ĠÑģÐ°ÒĽÑĤÐ°Ñĥ ÒĵÐ°
Ð´ÑĸÐº ÑĤÐµÐ½
Ð¸Ð² ÑĤÑĸ
ÒĵÐ°Ð» Ð¸ÐµÐ²
Ð¢ ÑĸÑĢ
Ð³ Ð¾ÑĢ
ĠÐ¿Ð°ÑĢÑĤ Ð¸ÑıÑģÑĭ
ĠÐ¼ÐµÑĢ ÐµÐ¹ÑĤÐ¾Ð¹
ĠÐ¼Ò¯ÑĪ ÐµÐ»ÐµÑĢÑĸÐ½ÑĸÒ£
ÐĲ ÑĪÑĭÒĽ
ĠÐ±Ó© Ð»ÑĸÐ³ÑĸÐ½Ð´Ðµ
ÑĭÒ£ÑĭÐ· Ð´Ð°ÑĢ
ĠÐŃ Ðº
ĠÐĿ ÐµÐ³ÑĸÐ·Ð³Ñĸ
âĢ¦ ]
ĠÒĽ ÑĭÑĤÐ°Ð¹
Ð¸ÑĨ ÐµÐ¹
Ð¾ Ð³ÐµÐ½
ĠÑģ Ð¸Ð¼Ð¿ÑĤÐ¾Ð¼
ĠÐºÐ¾Ð½ ÐºÑĥÑĢ
ÒĵÒ±ÑĢ Ð»ÑĭÐ¼
ĠÐ¼ÓĻÐ»ÑĸÐ¼ÐµÑĤÑĤÐµÑĢ Ð´Ñĸ
ĠÐŁÐ°Ð¹ ÒĵÐ°Ð¼Ð±Ð°ÑĢ
Ð± Ð¸Ð½
ĠÐ½Ò±Ñģ ÒĽÐ°
ĠÑĤÐ¾ ÒĵÑĭÐ·
Ó©Ð½ÐµÑĢ ÐºÓĻÑģÑĸÐ¿
ĠÐ¼ Ð°Ð¼Ð°Ð½Ñĭ
ĠÒĽÐ¾ÑģÐ¿ Ð°ÒĵÐ°Ð½Ð´Ð°
ĠÐ¼ÐµÐ´Ð¸ Ð°
ĠÑĪÓĻÐºÑĸÑĢ ÑĤ
Ð°ÑĤ Ð°Ð»
ĠÒĽÒ± ÒĽÑĭÐ»Ñĭ
ĠÐŁ Ð¾ÑĢ
ĠÒĽÐ°ÑģÐ¸ ÐµÑĤÑĤÐµÑĢ
ĠÐ°ÑĢÐ½ Ð°Ð¿
ĠÐ¶Ò¯Ð¹ ÐµÑģÑĸÐ½Ðµ
ĠÑĤ iÑĢ
ĠÑĤÑĸÐ» ÐµÐ¹
Ġ200 4
Ð´ÐµÐ±Ð¸ ÐµÑĤ
ĠÐļ ÐľÐľ
Ò¯ÑĢÐ³ÑĸÐ· ÑĥÑĪÑĸ
ĠÑĤ ÐµÐ¿
ĠÑģÑĭÐ½ Ð°ÒĽ
ĠÐ°Ð½ÑĭÒĽÑĤÐ°Ñĥ ÒĵÐ°
ĠÐ¼Ð¾Ð¹ ÑĭÐ½
ĠÑģ Ó©Ð½
ĠÒ±ÑģÑĭÐ½ ÒĵÐ°Ð½
ĠÐºÓ©ÑĪ Ñĥ
ĠÐ±ÑĸÑĢÑĸÐº ÑĤÑĸÑĢ
Ð» Ð¾Ð²
ĠÑĢÐµÐ² Ð¾Ð»Ñİ
ĠÑĢ ÐµÐº
Ó¨Ð· ÑĸÐ½
Ġ Ð°Ò£ÑĭÐ·
ĠÐµÐ» ÑĸÐ½ÑĸÒ£
ĠÐ¾Ð¹Ð»Ð°Ð¹ Ð¼ÑĭÐ½
Ð¸ÑĢ Ð°
ĠÐ½ Ð¸ÐµÑĤ
Ð±ÑĸÑĢ ÑĸÐ¼ÐµÐ½
ÐĲÐ¡ Ð¢
Ġ[ âĢ¦]
ÐĹ Ð°Ò£
ĠÐ¶Ð¾Ð± Ð°Ð»Ð°ÑĢÐ´Ñĭ
ÐµÑĤ ÑĢÐ¾Ð¿
ĠÑĤÑĭÐ½ ÑĭÑĪ
ÒĽÑĭÐ· Ð¼ÐµÑĤ
ĠÐ¼ÓĻ Ð¼
ĠÑĤÒ¯ÑģÑĸÐ½ Ñĥ
ĠÐĨ Ñģ
ÐĨ Ò¢
ĠÒĽÐ°Ð¶ÐµÑĤÑĤÑĸ Ð»ÑĸÐº
ĠÐ» Ð°Ð¹
Ð¾Ñģ Ðº
Ġ- >
ĠÓĻÑĢÑĸÐ¿ÑĤÐµÑģ ÑĤÑĸÐº
ĠÐ¶Ð¸Ð½ Ð°Ð»
ĠÐ¿Ð°Ð¹Ð´Ð°Ð»Ð°Ð½ ÑĭÐ¿
ĠÐ±Ò¯ Ð»
Ó© Ð»Ñĸ
Ð« Ðľ
es s
ĠÑģÐ°Ñĥ Ð°ÑĤÑĤÑĭ
ĠÐľ ÐłÐ¢
Ñħ Ð¸ÑĤ
ÒĽ Ò±Ð¼
ĠÐ¼Ò±ÑĢ Ð°Òĵ
ĠÐµÐ»ÐµÑĥ Ð»Ñĸ
Ð· Ð°Ð½
ĠÓ©Ñģ ÐºÐµÐ½
ĠÐºÓ©Ð»ÐµÐ¼ ÑĸÐ½
ÐĲÒļ Ð¨
ĠÑĤ Ð°Ðº
Ð°Ð¼ Ð°Ð¹
ĠÑĤÐ°Ñģ ÑĤÐ°Ð¿
ĠÐºÓ©ÑĢÑģÐµÑĤ Ðµ
ĠÑģ Ð°ÒĵÐ°Ð½
ĠÐ¿ÑĢ Ð°ÐºÑĤÐ¸ÐºÐ°Ð»ÑĭÒĽ
ĠÐ°Ð¹Ð¼Ð°ÒĽ ÑĤÑĭÒĽ
ĠÐŃ Ð½ÐµÑĢÐ³
ĠÑĪÐµÑĪ ÑĸÐ¼Ñĸ
ĠÐļ ÐµÑĢ
Ðľ Ð°Ò£ÒĵÑĭÑģÑĤÐ°Ñĥ
ĠÐ±ÑĸÐ»ÑĸÐºÑĤÑĸ Ð»ÑĸÐº
ĠÐ¸Ð½Ð´ÑĥÑģÑĤÑĢ Ð¸ÑıÐ»ÑĭÒĽ
ĠÐ¼ÐµÑĢÐµÐº Ðµ
ĠÐ¶Ð°Ñģ Ð°Ð»Ð´Ñĭ
ĠÐ¶Ð°Ð· Ð´Ñĭ
ĠÑģ ÐµÐ³ÑĸÐ·
Ð°Ð» ÒĵÐ°ÑĪÒĽÑĭ
Ð°Ð¼ ÐµÑĢ
ĠÐºÓ©ÑĢ ÐµÑĢÐ¼ÐµÐ½
ĠÑģÑĥÐ± ÑģÐ¸Ð´
g ht
ĠÒĽÐ¾ÑĢ ÑĭÐ½ÑĭÒ£
ĠÒĽÐ°ÑĢ ÒĽÑĭÐ½Ð´Ñĭ
Ð¶ Ð¸
Ð¼ Ð°Ð»Ð°ÑĢ
ĠÑĪÑĭ ÒĵÐ°
ĠÑģÐµÑĢ Ð²
Ð¸Ð°Ð» Ð¾Ð³
ĠÐºÓ©Ð± ÑĸÐ½ÐµÑģÐµ
ĠÐľ ÐµÑĢ
ĠÒĽÒ±Ð» Ð°ÒĽ
ĠÐ¶ÐµÑĢ ÑĸÐ½Ð´Ðµ
ĠÓ©ÑĤÐºÑĸÐ· ÑĸÐ»Ð³ÐµÐ½
ĠÑĢÐµ Ð°Ðº
t er
Ð¢ Ð¾Ð¿
ĠÐ¶ÑĸÐ±ÐµÑĢ Ñĥ
ĠÐ´ Ð¾Ð¿
ĠÐºÑĸÑĤÐ°Ð¿ ÑħÐ°Ð½Ð°
ĠÐ¶Ò±Ð¼ ÑģÐ°ÒĽ
Ð°Ð· Ð¸ÑıÐ»ÑĭÒĽ
ĠÐ¼ÓĻÑģÐµÐ»ÐµÐ»ÐµÑĢ ÑĸÐ½
ĠâĢ ¦
Ðļ Ðµ
ĠÑĤÓ© ÑĤÐµÐ½ÑĪÐµ
ĠÑĪÑĭÒĵ Ð°ÑĤÑĭÐ½
ĠÐ¶Ð°ÒĵÐ´Ð°Ð¹ Ð´Ñĭ
ĠÐ°Ð½ Ð°Ð»
Ñģ iÐ·
ĠÐ°ÑĥÑĭÑģ ÑĤÑĭÑĢÑĥ
ÑĸÑģ ÑĤÑĸÒ£
ÑĪÐ°ÑĢÑĥÐ° ÑĪÑĭÐ»ÑĭÒĽ
ĠÐ°Ð¹ ÑĢÑĭÒĽÑĪÐ°
ĠÐ¶ Ð°Ð±ÑĭÐ»
ĠÐ¾ÒĽÐ¸Òĵ Ð°Ð»Ð°ÑĢ
ĠÒļ Ð¾Ð»Ð´Ð°Ð½
ĠÐ¡ Ð°Ð¹
Òĵ Ð¾Ð»
Ð°ÑĤ Ð°Ð´Ñĭ
Ðĳ Ó©
ĠÐ´ÐµÐ³ÐµÐ½ Ð´Ñĸ
ĠÐ¼ÐµÒ£Ð³ÐµÑĢÑĥ ÑĪÑĸÑģÑĸ
ĠÐ¼ÓĻÑģÐµÐ» ÐµÑģÑĸÐ½
ĠÐ¶Ð¾Ð» ÒĵÐ°
Ñģ Ð°Ð¹
ĠÓĻÐ´Ðµ Ð¿
Ġ ÑĭÒ£
ĠÓĻ Ð±Ð´ÐµÐ½
ĠÐ½ÐµÐ³ÑĸÐ· Ð´Ðµ
ĠÑĪÐ°ÑĢÑĤ ÑĤÐ°ÑĢÑĭ
Ð°ÑĢ Ð´Ñĭ
Ġ n
ĠÐĲÒĽ ÑĤÐ°Ñĥ
ĠÐ´ Ð¸Ð·
ĠÐ±Ð¾Ð» Ð´ÑĭÑĢ
ĠÐ´ÐµÐ¼ Ð°Ð»
ĠÑĤÓĻÑĢÐ±Ð¸ ÐµÐ»ÐµÐ½
ĠÐºÐµÐ· ÐµÐ³ÑĸÐ½Ð´Ðµ
ĠÒĽÑĭÐ·Ð¼ÐµÑĤÐºÐµÑĢ Ñĸ
.... ....
ĠÐ¾ Ð¹ÑĭÐ¼
ĠÑģÓĻ Ð±Ð¸
ÐķÑģ ÐºÐµÑĢÑĤÑĥ
Ġ 01
ĠÐ°ÑĥÑĢÑĥ Ð»Ð°ÑĢ
ĠÐ¶Ð°ÒĵÐ´Ð°Ð¹ ÒĵÐ°
ĠÐ¼ Ð°Ðº
ÒĵÑĭÐ» Ñĭ
ĠÐµÑģ ÐµÐ³Ðµ
ÒļÐ¾ ÑģÑĤÐ°Ð½Ð°Ð¹
ĠÑĪ Ñĥ
ÐŁ Ð°ÑĢ
o t
ÑĤÑĥ ÒĵÐ°
17 2
ĠÐ¶Ò¯ Ð³ÑĸÑĢ
Ð´ÐµÐ¹ ÑĤÑĸÐ½
ÑĤ Ð°Ò£ÑĭÐ·
ĠÐ¼ÐµÐ· Ð³ÑĸÐ»
Ð¸ÑģÑģ Ð¸ÑıÑģÑĭ
Ð´ Ð°ÑģÑĭ
ĠÐºÐµÒ£ÐµÑģ ÑĤÐµÑĢ
ĠÐ½ Ò±ÑĢ
ĠÐ¼ Ð°ÑģÑģ
ĠÐ¾ÑĢÑĭÐ½Ð´Ð° ÑĥÒĵÐ°
ĠÐĴ Ð¸Ð´ÐµÐ¾
ĠÐ°ÑĢ Ð°Ð»ÑĭÒĽ
ĠÐ°Ñĥ Ð·
ĠÐłÐµÑģÐµÐ¹ Ð´ÑĸÒ£
ĠÐľÓĻÐ¶ ÑĸÐ»ÑĸÑģ
ĠÒĽÐ¾ Ð¶
ÐĲ ÐŁ
ĠÐ°ÑģÑĤ ÑĭÐ½Ð´Ð°
ĠÓĻÐ½ ÑĪÑĸ
ĠÐł ÐµÑģ
ÑĭÐ» ÑģÑĭÐ½
iÐ» i
Ð¢ Ðŀ
Ð°ÑģÐ¿ Ð¸Ð¹
ĠÐ±ÑĸÐ»ÑĸÐ¼ ÑĸÐ½
ĠÐ¿Ð°ÑĤ ÑĢÐ¸Ð¾
8 4
ĠÒĽÐ°Òĵ Ð¸Ð´Ð°
Ó©Ò£ Ð´ÐµÑĥ
ĠÐ´Ð°Ð¼ Ñĭ
ÑĭÐ» Ð°
ĠÐ¾ÒĽÑĥÑĪÑĭÐ»Ð°ÑĢ ÒĵÐ°
Ðķ ÐºÑĸÐ½ÑĪÑĸ
ĠÐ± Ð°Ðº
ĠÒ±Ð» ÒĵÐ°Ð¹
ĠÐ¾ÐºÑĢÑĥ Ð³ÑĸÐ½ÑĸÒ£
ÐĽ ÐķÐļ
ĠÐ¿ÑĢÐ¾ÐºÑĥÑĢ Ð¾ÑĢ
ĠI II
ĠÐ°ÑıÒĽ ÑĤÐ°Ð»ÒĵÐ°Ð½
ÐµÑĤÑĢÐ¾Ð¿ Ð°Ð²Ð»
ĠÐ¾ÑĢÑĭÐ½ Ð´Ð°ÑĢÑĭÐ½ÑĭÒ£
Ð¼ Ð°ÒĵÑĭÐ½
Ðľ ÐµÐºÐµÐ½
ti t
Ð± Ð¾ÑĢ
Ð°ÑĥÑĭÑĢ Ð¶Ð°Ð½
ĠÐºÐ¾Ð´ ÐµÐº
ÐķÐł ÐĨ
ĠÐ±ÑĸÐ» Ð¼ÐµÐ¹
ĠÒĽÒ±ÑĢÐ°Ð» Ð´Ð°ÑĢÑĭÐ½
ĠÐ±Ð¸ÑĭÐ» ÒĵÑĭ
Ð» ÐµÒ£
Ðĸ Ð°Ð¼Ð±ÑĭÐ»
Ð¢ ÑĥÒĵÐ°Ð½
ĠÑĤÐµÑħÐ½Ð¾Ð»Ð¾Ð³Ð¸Ñı ÑģÑĭ
ĠÐ¡ Ð¾ÑĤ
ÒĽÑĭÐ½ Ñĭ
ĠÐ¾ÑĢÐ³Ð°Ð½ Ð¸Ð·Ð¼
wi tter
ĠÒĽÒ±Ð¶Ð°ÑĤÑĤÐ°ÑĢ Ð´ÑĭÒ£
Ð´Ð°Ð¹ ÑĭÐ¼
ĠÐ£ ÐºÑĢÐ°Ð¸
ĠÑĤÐ°ÒĵÐ°Ð¹ÑĭÐ½Ð´Ð°Ð» Ð´Ñĭ
ĠÑı Ð´ÑĢÐ¾Ð»ÑĭÒĽ
ĠÐ¨ ÑĭÐ½
Ð°ÑĤ ÑĤÐ°
Ð°ÑĤ ÑĭÐ½Ð°
ĠÐ´Ð°ÑĢ ÑĭÐ½Ð´Ñĭ
ĠÐ· Ð°ÑĤÑĤÐ°ÑĢÐ´Ñĭ
ĠÑģÐ° ÑħÐ½
ĠÒ±ÑģÑĭÐ½ Ð´Ñĭ
ÐĲÐ¹ ÑĤÐ°
ĠÐ½Ðµ Ð³iÐ·
ĠÑĤÐ¾Ð» ÑĭÒĵÑĭÐ¼ÐµÐ½
ĠÐº ÑĸÑģ
ÑĪÑĸ Ð»ÑĸÐºÑĤÑĸ
Ð± Ð°ÑģÑĭÐ½
ĠÐ±Ð¾Ð»Ð¶ Ð°Ð¼
ĠÑģ Ð¸ÑĢÐµÐº
Ðĳ Ð°ÑĤÑĭÑģ
ĠÐ¾Ð· ÑĭÒĽ
ĠÓ¨ ÑģÐºÐµÐ¼ÐµÐ½
ĠÐºÑĸÑĢ ÑĸÐ¿
ĠÐ´Ð¾Ðº ÑĤÐ¾ÑĢÑĭ
ĠÐ¶Ð°Ð» Ð°ÒĽ
ĠÐ°ÑĥÐ´Ð°ÑĢ Ð¼Ð°
ĠÐ¼Ò¯Ð¼ÐºÑĸÐ½ Ð´ÑĸÐ³ÑĸÐ½
Ð¾ÑĤ ÐµÐº
Òļ Ð°Ð»Ð°
Ð¹ ÑĭÒĽ
ÐĿÐ°Ð·Ð°ÑĢÐ±Ð°ÐµÐ² ÑĤÑĭÒ£
ĠÐ¾ ÑģÑĭÐ½
ĠÐĲÑģ ÑģÐ°Ð¼Ð±Ð»ÐµÑı
Ð¸Ñģ ÑģÐµÑĢ
Ð¸ÑĨ Ðµ
de x
ĠÐ°Ð²ÑĤÐ¾ÑĢ Ñĭ
Ġ ÑĭÐ»
ĠÐ¶Ð¸Ð½ Ð°Ð¿
ĠÐºÓ©Ð¼ÐµÐºÑĤÐµÑģ ÐµÐ´Ñĸ
ĠÓĻÑĥ Ðµ
ÑĪ Ð°Ñĥ
Ð¾Ð» Ð¾Ð²
ĠÐ°Ð»Ð¼ Ð°ÒĵÐ°Ð½
ĠÐ¶Ð°ÑĢ Ð½
Ó¨ ÑĢ
ĠÐ³Ð°Ð· ÐµÑĤÑĸÐ½ÑĸÒ£
ĠÓĻ Ð¶
ĠÐĳ Ð°ÒĵÐ´Ð°ÑĢÐ»Ð°Ð¼
ĠÐ°ÑĪÑĭÐ» ÒĵÐ°Ð½
Ð°ÑĤ ÑĥÒĵÐ°
ĠÑģ Ð°ÑĤÑĭÐ»
ĠÑĭÒĽ ÑĤÐ¸
ĠÒļÐ°Ñģ ÑĭÐ¼
ÐĶÐµÐ½ ÑģÐ°ÑĥÐ»ÑĭÒĽ
ĠÑģÐ°Ð» Ð°Ð´Ñĭ
ÐºÐµÑģ ÑĸÐ½ÑĸÒ£
ĠÑĤÐ¾Ð¿ ÑĭÑĢÐ°ÒĽ
ĠÑĤÒ±Ð»Òĵ Ð°Ð»Ð°ÑĢÒĵÐ°
ĠÓĻÑĢ Ð¸Ð½Ðµ
ĠÑĸÐ· Ð´ÐµÐ¿
ĠÑĩÐµÐ¼Ð¿Ð¸Ð¾Ð½ Ñĭ
ÑĤ ÑĸÐ½Ð´Ðµ
ĠÐ±Ð°Ñģ ÑĪÑĭ
ĠÒ® Ð»ÐºÐµÐ½
ĠÒļÐ°Ð· Ð°Ð½
ĠÐ¶Ò¯ÑĢ Ð³iÐ·
ĠÓ¨ ÑĤÐºÐµÐ½
Ñģ Ð¾ÒĽ
ÐľÐ°ÒĽ ÑģÐ°ÑĤÑĭ
ĠÒ± Ð¿Ð°Ð¹
ĠÐ´ Ò±
ĠÐ¶Ð°Ð» ÒĵÐ°
ĠÑģÐ¾Ò£ ÑĭÐ½Ð°
ar d
ÑĸÐ» Ð´ÑĸÑĢ
ĠÑģÐ°Ð½ Ð´ÑĭÒĽ
ÒĴ ÐĲÐĿ
Ð´Ðµ ÑĪÐµ
ĠÐ±ÐµÐ»Ð³Ñĸ ÑģÑĸÐ·
ĠÐ±Ð°ÒĵÑĭÑĤ ÑĤÐ°ÒĵÑĭ
ĠÐļÐ¾ÑĢ ÐµÑı
ĠÐ°Ð»Ñĥ ÑĪÑĭÐ½ÑĭÒ£
ÑĤi Ð»ÐµÑĢ
Ð´ÐµÑĢ Ð´ÐµÐ½
Ð¢ ÐĲÐľ
ĠÐºÐµÐ·Ð´ÐµÑģ ÐµÑĤÑĸÐ½
Ġ15 0
a v
ĠÐ´ÐµÐ¿ÑĥÑĤ Ð°ÑĤÑĭ
ÒĽ Ð°Ð±
ĠÑĤÒ±ÑĢÒĵÑĭÐ½ Ñĭ
ĠÐ·Ð°Ð¼Ð°Ð½ ÒĵÑĭ
ĠÐ°Ð»Ð¼ Ð°Ñģ
ĠÐºÓ©ÑĢÐ¼ ÐµÑģÑĸ
Ġ3 6
ĠÐº Ð°Ð½
ĠÐºÑĸÑĢ ÑĸÑģÑĤÐµÑĢ
ĠÒĽÐ°ÑĢÐ°ÑģÑĤÑĭÑĢ ÑĭÐ»ÒĵÐ°Ð½
ĠÐ°ÑĥÐ´ Ð¸ÑĤ
Ð±Ð°Ñģ ÑĤÒ±Ð·
ĠÒĽÐ°Ð½ ÑĪÐ°Ð»ÑĭÒĽÑĤÑĭ
ĠÐ¶Ò¯Ð¹ ÐµÑģÑĸÐ½Ð´Ðµ
Ð» Ð°Ð´
ĠÐļ Ó¨
e m
ĠÐºÓĻÑģÑĸÐ¿ Ð¾ÑĢ
ÑĸÐ» Ðµ
Ð¸Ð· Ð°ÑĨÐ¸Ñı
ĠÐĵ Ðµ
ĠÑĤÒ±ÑĢ Ñĥ
Ð°Ð» ÒĽÑĭ
Ðķ Ð£
Ð» Ð¸Ñı
ÒļÐ°Ð·Ð°ÒĽÑģÑĤÐ°Ð½ Ð´ÑĭÒĽ
ĠÐ°ÑģÑĭÑĢ Ð°Ð¿
ĠÓĻÐ´ÐµÑĤ ÑĤÐµ
ĠÐµÐ½ Ð³ÐµÐ½
ĠÐĸ Ð°Ð¿Ð¾Ð½
Ð¿ ÐµÐ³ÐµÐ½
ÐµÑģ Ðº
ĠÐºÓ© Ð±ÑĸÑĢÐµÐº
ĠÐĲÐ·Ð°Ð¼ Ð°ÑĤÑĤÑĭÒĽ
ĠÓ©ÑĤÐºÑĸÐ· ÑĸÐ¿
ĠÑĤÐ°Ð¿ÑģÑĭÑĢÐ¼ Ð°ÑģÑĭÐ½
Ð±Ð°Ð± ÑĭÐ½ÑĭÒ£
ĠÐ´Ð°Ð¼ ÑĭÐ¿
ĠÐ°Ð¿ Ð°ÑĢ
ĠÐºÒ¯Ð½ Ð´Ñĸ
Ñħ Ð°Ð»ÑĭÒĽ
Ð¸ ÐµÐ½
ĠÓ© ÐºÑĸÐ¼
ÑĤ ÐµÐ»Ð´ÐµÑĢ
ĠÒĽÐ°Ð» Ð°Ð»Ð°ÑĢ
ĠÐ¼ÐµÑĢÐµÐº ÐµÐ»ÑĸÐº
ĠÐ¼Ð°Ð¼Ð°Ð½Ð´Ð°Ð½ Ð´ÑĭÑĢÑĭÐ»ÒĵÐ°Ð½
ÑĤ ÓĻÑģÑĸÐ»
ĠÒļÐ°Ð¹ ÑĢÐ°ÑĤ
Ðļ ÑĸÑĤÐ°Ð¿
ÐķÐ¢Ð¢ÐĨ Ðļ
Ð»Ð°Ñĥ ÒĵÐ°
201 2
ĠÒĽÐ°Ð±ÑĸÐ» ÐµÑĤÑĤÐµÑĢÑĸÐ½
ĠÑĪÐ°ÑĢ Ð°Ð»Ð°ÑĢÑĭÐ½
ĠÑĤÒ±ÑĢ Ð°
ĠÐĳ Ð°ÑıÐ½
ÑĭÑģ ÑĤÐ°
ĠÐ°Ð½ Ð°ÑģÑĭ
ĠÐ±ÐµÐ» Ð³i
ĠÐ±Ð¾Ð»Ð¼ Ð°ÑĥÑĭ
Ð¡ ÑĸÐ·Ð´ÑĸÒ£
ĠÒĽÐ°Ð±ÑĭÐ»Ð´Ð°Ð½ Ð´Ñĭ
ĠÐ°ÑĢÑħ Ð¸Ð²
Ð¼ Ð°Ð½ÑĭÒ£
ĠÒĽÐ°Ð¼ ÑĤÑĭÐ»ÒĵÐ°Ð½
ĠÑģÑĤÐ¸ ÑħÐ¸
ĠÒĽÑĭÐ·Ð¼ÐµÑĤÐºÐµÑĢÐ»ÐµÑĢ Ð´ÑĸÒ£
Ñģ Ð°ÑĤÑĭÐ½
ÑĢ Ñĸ
ĠÐ±Ð°Òĵ Ð°Ð»
ĠÐ±Ó©Ð»ÑĸÐ½ ÑĸÐ¿
Ð¿ ÐµÑģ
ĠÑĢÐ°Ð´ Ð¸
ÑĤ Ð°ÑģÑĭ
ĠÑĪÐ°ÑĢ ÑĪÑĭ
ÑĤÐ°Ð¹ Ð¼ÑĭÐ·
ĠÐĳÒ¯ Ð³ÑĸÐ½Ð´Ðµ
ĠÓĻÑģÐµÑĢ ÑĸÐ½
ÑĢ Ð°Ð·
ÐĳÐ¸ ÑĭÐ»
ĠÐĿ Ðµ
Ð´ÐµÑĥ Ñĸ
ĠÑĤÑĸÐ» ÑĸÐ½Ðµ
ĠÑĸÑģ ÑĸÐ½
Ð¿ Ð¸ÑıÐ»ÑĭÒĽ
ĠÐ¡ ÐµÐ¹
ÒĽÐ¾ ÒĵÐ°
ÒĽÐ°Ð½ Ñĭ
Ðĺ Ð¢
, -
Ð¡ Ð¾
ĠÑĤÐ°ÑĢÐ¼Ð°ÒĽ ÑĪ
9 7
ĠÐ¼Ò±ÒĽ ÑĤÐ°Ð¶
ĠÐ½ Ð°Ð¼
ĠÐµÑĪ ÑĤÐµÒ£
ĠÐ°Ð¿Ð¿Ð°ÑĢÐ°ÑĤ ÑĭÐ½Ð´Ð°
Ðĳ Ð°Òĵ
ÐºÐ° Ð´ÐµÐ¼
ÑĪ iÐ»iÐº
0 8
ĠÑĤÐµÑģÑĤÑĸ Ð»ÐµÑĥ
a c
ÑĨÐ¸ÐºÐ» Ð¾Ð¿ÐµÐ´
Ð½ ÐµÐºÑĤÑĸ
ĠÐ¶Ò¯ÑĢ Ñĥ
ĠÑĦ Ð¾ÑĤÐ¾
ĠÒļÐ°Ð·Ð°ÒĽÑģÑĤÐ°Ð½ Ð´ÑĭÒĽ
iÐ» Ð³ÐµÐ½
u b
ĠÐ¶Ð¾ÒĵÐ°ÑĢ ÑĭÐ»
ÑģÐ°ÑĤ Ð°Ð¹
ĠÐ¶ÐµÑĢ Ð»ÐµÑĢÐ´Ðµ
ĠÐ¼ÑĭÒ£ ÒĵÐ°
5 4
ĠÑĪ Ó©Ð¿
ĠÒ±ÑģÑĤÐ°Ð½ ÑĭÐ¼
Ð· Ð¸ÑıÑģÑĭ
Ð£ ÐĶ
ĠÐ¶Ò¯ÑĢÐ³ÑĸÐ· ÐµÐ´Ñĸ
Ñĥ Ðº
Ò¯Ñģ ÑĸÐ¿
ÐĹ ÐµÑĢÑĤÑĤÐµÑĥ
ĠÐº ÓĻÑģ
ĠÐ´ ÐµÑģÐµ
ĠÑģÐ°ÑĢÐ°Ð¿ ÑĤÐ°Ð¼Ð°
ĠÐµ ÑĤÑĸ
Ó¨Ð½ÐµÑĢ ÐºÓĻÑģÑĸÐ¿
ĠÐ¡ ÑĭÑĢÑĤÒĽÑĭ
ÐµÒ£ ÐºÐµ
ĠÐ¼ÐµÐºÐµÐ¼ Ðµ
ĠÐľ Ð°Ñħ
ĠÐ°Ð´Ð°Ð¼ Ð·Ð°ÑĤ
ĠÑĤÓĻÑĢÐ±Ð¸ ÐµÑģÑĸ
ĠÐ°ÑĢÑĤÑĤÑĭÑĢ ÑĥÒĵÐ°
ÐµÑĦ ÐµÑĢ
Ð» ÑĭÒĵ
ĠÐ¶Ð°ÑĢ ÒĽÑĭÐ½
ĠÐĲ ÒĽÑģ
. Â»
ĠÒĽÐ¾ÑĢÒĵÐ°Ð½ ÑĭÑģ
ÐĳÐ°Ñģ ÑĤÐ°ÑĥÑĭÑĪ
ĠÐ´Ð°ÒĵÐ´Ñĭ Ð»Ð°ÑĢÑĭÐ½
ĠÑĤ ÑĸÐ½
ĠÒĽÐ°Ð±ÑĭÐ»Ð´Ð°Ñĥ Ð´ÑĭÒ£
Ð«ÐĿ ÐĶÐĲ
ĠÐ¸Ð½ Ð²ÐµÑģÑĤÐ¾ÑĢ
ĠÓĺ Ð»ÐµÑĥÐ¼ÐµÑĤÑĤÑĸÐº
ĠÑĢ ÐµÐ¹ÑĤ
ĠÐ¶Ð°ÑĢÐ¸Ñı Ð»Ð°ÒĵÐ°Ð½
Ð¼Ð°Òĵ ÑĭÐ½Ð´Ð°ÒĵÑĭ
ĠÐ¼Ó©Ð»ÑĪÐµÑĢ Ð´Ðµ
ĠÐ½Ð°ÑģÐ¸ÑħÐ°ÑĤ ÑĤÐ°Ñĥ
ĠÐ°Ð»Ð´Ñĭ Ð¼
ĠÐµ Ð³ÐµÐ¼ÐµÐ½
ĠÓ©Ð·Ð³Ðµ ÑĪÐµ
ÒĽ Ð°ÑģÑĭ
ĠÐ¶Ð°ÑĥÐ°Ð¿ÐºÐµÑĢ ÑĪÑĸÐ»ÑĸÐ³Ñĸ
ĠÑĭÒ£ Òĵ
Ð¸ ÐµÑĤÑĤÑĸ
ĠÐºÐµÑĪ ÐµÐ½Ñĸ
ĠÐ¼ÑĥÐ·ÑĭÐº Ð°Ð»ÑĭÒĽ
ĠÑĤÒ± Ð·
ĠÐºÐ¾Ð¼Ð¿Ð°Ð½Ð¸Ñı ÑģÑĭÐ½ÑĭÒ£
ĠÑĪÐµÑĪÑĸÐ¼ ÑĸÐ½
ÑĤÐµ Ð·
ĠÒĽÒ±ÑĢÑĭÐ»ÑĭÐ¼ Ð´ÑĭÒĽ
ĠÐ¾ÑĢÐ½Ð°Ð»Ð°Ñģ ÑĥÒĵÐ°
ĠÐ¼Ò¯Ð» Ð´ÐµÐ¼
ĠÐ´Ð¸Ð°Ð³ Ð½Ð¾Ð·
ĠÐ´ Ð°Ð»Ð°
ĠÐµÐ¼ ÑĤÐ¸ÑħÐ°Ð½
ĠÐ¼Ð°ÑĤÐµÑĢÐ¸Ð°Ð» Ð´Ñĭ
Ð¾Ð»Ð¾Ð³Ð¸Ñı ÑģÑĭ
ĠÐ¼ Ð¾ÑĢ
ĠÐ±ÐµÐ¹ Ð½Ðµ
ĠÐ¢ Ð°Ñĥ
ÑĥÑĢ Ð¾Ð¿
ĠÐ±Ð¾Ð»Ð°ÑĤÑĭÐ½ ÑĭÐ½
ÐµÐ¹ Ð¼ÐµÐ½
Ð´ Ð¸Ñı
ĠÐºÓ© Ð¼
ĠÒĽÐ°ÑģÐ¸ ÐµÑĤÑĤÐµÑĢÑĸ
ĠÐĲ Ð½Ð°
ph p
ÒĽ Ð¾Ð½
ĠÑĪÑĭÒĵÐ°ÑĢ ÒĵÐ°Ð½
ĠÐ°Ð½ÑĭÒĽ ÑĤÐ°Ð¹Ð´Ñĭ
ĠÑĦ Ð¸ÑĢ
ĠÐ¶ÑĭÐ» ÒĽÑĭ
ĠÑĤÒ±Ð¶ÑĭÑĢÑĭÐ¼ Ð´Ð°Ð¼
ĠÐ¸Ð½ ÑĤÐµÐ»
an d
ĠÒĽÑĭÑĪ ÒĽÑĭÐ»
ĠÐ¼ÑĸÐ½Ð´ ÐµÑĤÑĤÐµÑĢÐ´Ñĸ
Ð°Ð¿ ÑģÑĭÑĢ
ĠÐ¿ÑĢÐ¾Ð³ÑĢ Ð°Ð¼Ð¼
ĠÐºÒ¯Ð½ Ð½ÑĸÒ£
ÑĸÑģ Ñĥ
ĠÓ¨Ð½Ð´ÑĸÑĢ ÑĸÑģ
ĠÐ¾ ÑĤÑĭÐ½
ÐµÑĤÑĸÐ½ ÐµÐ½
w ikipedia
azak h
ÓĻÐ¶ ÑĸÐº
Ġ Z
ĠÒĽÐ°ÑĤÑĭÑģ ÑĥÑĪÑĭ
ĠÑĥÐ°ÒĽÑĭÑĤ ÒĽÐ°
ÐŁ Ð£
ĠÐŀÐ¹ ÑĭÐ½
ĠÓ©Ð½ÐµÑĢÐº ÓĻÑģÑĸ
ĠÐļ Ðķ
ĠÐ¾ÑĢÑĤ Ð°ÑģÑĭÐ½Ð´Ð°
ÐŁ ÓĻÐ½
ĠÐ¸Ð½ÑģÑĤÐ¸ÑĤÑĥÑĤ ÑĭÐ½ÑĭÒ£
in dex
ĠÒļ ÑĭÐ»Ð¼ÑĭÑģÑĤÑĭÒĽ
ÐºÐµÑĢÐ»ÐµÑĢ Ð´ÑĸÒ£
ĠÐ°Ð¹ÒĽ ÑĭÐ½Ð´Ð°Ñĥ
ÑĪÑĭÐ½ Ñĭ
ĠÓ©Ð½ÐµÑĢÐºÓĻÑģÑĸÐ¿ ÑĤÑĸÐº
ĠÐ¾ÑĢ Ð°Ð¹Ð´Ð°
ĠÐĲ ÑĤÐ°Ð»ÒĵÐ°Ð½
ĠÐ¼ÓĻÑģÐ» Ð¸Ñħ
ĠÐ·Ð°ÑĤÑĤÐ°ÑĢ Ð´ÑĭÒ£
ĠÑĪ ÐµÐ³
ĠÐ¾ÑĤÑĭÑĢ Ð´Ñĭ
ĠÐ°Ð¹ÑĭÑĢ Ð±Ð°Ñģ
ĠÑĤ Ð°ÑĤÑĥ
ĠÒĽÐ¾ÑĢ ÑĭÐ½
ĠÓĻÒ£Ð³ÑĸÐ¼ ÐµÐ»ÐµÑģ
ĠÑģÑĸÐ· Ð´ÐµÑĢÐ³Ðµ
Ð¢Ð°ÒĽÑĭÑĢ ÑĭÐ¿
ĠÐ±ÑĸÑĢ Ð»ÑĸÐ³Ñĸ
ĠÒĽÑĥ Ð°ÑĤ
Ò° ÐĽ
ĠÐĿ ÓĻÑĤÐ¸Ð¶
Ġi ÑĪ
. âĢĶ
ĠÐ¼ÐµÐ´ Ð°Ð»ÑĮ
ĠÐ¶ÐµÑĢ Ð´Ñĸ
ĠÑįÐº ÑģÑĤÑĢ
ĠÒĴ ÑĭÐ»ÑĭÐ¼
ĠÒĽÐ°Ð±ÑĸÐ» ÐµÑĤÑĸ
ĠÑĪÐµÑĪ ÑĥÐ³Ðµ
Ð¾Ð¿ Ð¾Ð»
ĠÓĻÐºÑĸÐ¼ ÑĪÑĸÐ»ÑĸÐ³Ñĸ
ĠÑĸÑģÑĤÐµÑĥ Ð³Ðµ
ĠÐĸ Ò¯ÑĢ
ĠÑĪÐ°ÑĢ Ð°Ð¿
ĠÑħ Ð°Ð´
Ð¾Ð² ÐºÐ°
ĠÓĻÐ» Ð³Ñĸ
Ð¾Ð² ÑĤÑĸÒ£
Ġ20 50
Ð°Ð¹Ð» Ð°Ñĥ
ĠÐ¿ÑĢÐ¾ÑĨ ÐµÑģÑģ
Ð¾Ò£ ÑĭÑĢ
ĠÐ±Ðµ Ð´ÐµÐ»
ĠÐļÐ¡Ðł Ðŀ
Ð¸Ðº Ðµ
ĠÐ°Ð»Ñĥ Ð°Ð½
ĠÒĽÒ±ÑĢ Ð°Ð¹ÑĤÑĭÐ½
ĠÐĲ ÐĽ
di d
ĠÐ¼ÑĥÐ· ÑĭÐºÐ°
Ñģ ÐµÐ»
ĠÑįÐºÐ¾Ð½Ð¾Ð¼Ð¸Ðº Ð°Ð½ÑĭÒ£
ĠÐĸÐ¾Ð»Ð´Ð°Ñĥ Ñĭ
ĠÐ¢ Ò¯
ÐŃÐº Ð¾Ð»Ð¾Ð³Ð¸Ñı
Ð°ÑĤÑĭÐ½ Ñĭ
Ð´ÐµÑĢ Ð¼ÐµÐ½
ĠÓĺ ÑĥÐµÐ·Ð¾Ð²
ĠÓĻ ÑĥÐ»
Ð± Ð°Ð»Ð°ÑĢ
Ð°ÑĨÐ¸Ñı ÑģÑĭÐ½ÑĭÒ£
Ð»ÑĭÒĽ ÑĤÑĭÒ£
ĠÒĽÒ±ÑĤÑĤÑĭÒĽ ÑĤÐ°Ñĥ
ĠÐļÐ¾Ð´ ÐµÐºÑģ
ĠÐ²ÐµÑĤÐµÑĢÐ¸Ð½Ð°ÑĢ Ð¸Ñı
ÐŀÐ±Ð» ÑĭÑģÑĤÑĭÒĽ
Ð´Ñĭ ÒĵÑĭÐ½Ð°Ð½
ĠÐĲ Ðº
ĠÑĸÑĪ ÑĸÐ½ÐµÐ½
ÒĽ ÑĭÑģ
Ð¢ Ó©ÑĢ
ĠÑĤÓĻÑĥÐµÐ» Ð´Ñĸ
ĠÐ¶Ò± Ð¿
ĠÐ±Ñĸ Ð»ÑĸÐ¿
ĠÐĲ Ð»ÐµÐºÑģ
ĠÑģÑĥ Ð¼ÐµÐ½
ĠÐĲÐ¹ ÑĤ
A l
ĠÐ±Ð°ÒĽÑĭÑĤ ÑĤÑĭ
Ð°Ñı ÑģÐ°ÑĤ
ĠÐ¶ÑĭÐ» Ð´ÑĭÒĵÑĭ
ĠÐµÑĢÐµÐ¶ ÐµÐ»ÐµÑĢ
ĠÐ¿ÑĢÐ¾ÑĨ ÐµÑģÑĸ
ÑĦ Ð¸ÑĨ
ĠÐ· ÑĥÐ±
ĠÐ°ÐºÑĨÐ¸Ð¾Ð½ ÐµÑĢÐ»ÑĸÐº
ĠÐ¶Ð°Ò» Ð°Ð½Ð´ÑĭÒĽ
ĠÑĢ Ó©Ð»Ñĸ
Ð°ÑĤÑĭÐ»ÑĭÑģ ÑĤÐ°Ð½Ñĥ
Ð¢Ð°ÒĽÑĭÑĢ ÑĭÐ±Ñĭ
ĠÒĽÑĭÑģ ÑĭÐ¼
ÐĿÒ±ÑĢ Ð»Ñĭ
ĠÐºÐ°ÑĦÐµÐ´ÑĢ Ð°ÑģÑĭ
Òĵ ÑĭÐ¼ÐµÐ½
Ðŀ ÑĤ
ĠÒĽÐ¾Ð¹ ÑĭÐ»Ð´Ñĭ
ĠÐ¢ Ð°Ò£
ÑĤÐ¸ Ð·
ĠÐ´Ð°Ð¼Ñĥ Ð´ÑĭÒ£
Ð¿ Ð»Ð°Ð½
a b
ÐµÑĤÑĤÐµÑĢ Ð´ÑĸÒ£
ĠÑĤÐ¾Ð»ÑĭÒĽ ÑĤÐ°Ð¹
Ðĵ Ð°Ð·
ĠÒ¯Ð¹ ÑĸÐ½Ðµ
ĠÐ¡ Ð¿Ð¾ÑĢÑĤ
ĠÐµ ÑĤÑĸÐ»Ð³ÐµÐ½
ĠÐ¶ Ð°ÒĽÑĤÑĭ
ÓĻ ÐºÑĸÐ¼
ÑģÑĭÐ· Ð´ÑĭÒĽ
ĠÐ°ÑĢ ÑĤÑĭÐ¿
Ð»ÐµÑĢ ÑĸÐ¼ÐµÐ½
6 3
ĠÒĽÒ±ÑĢ Ð°ÑģÑĤÑĭÑĢÑĥ
ĠÐ¶Ð°ÑĢ ÑĤÑĭÐ»Ð°Ð¹
ĠÓ©Ð¼ÑĸÑĢ Ð´Ðµ
ĠÓĺ Ð½
Ð°Ð¹ Ð¼ÑĭÐ½
6 4
Ð± ÑĥÑģ
ÐµÑģ i
ĠÑģÐµÑĢÑĸÐºÑĤÐµÑģ ÑĤÑĸÐº
ĠÐĲ ÑĪÑĭÒĽ
ĠÒĽÐ°Ð± ÑĭÐ½
ĠÐ¼Ò±ÑĢ Ð°
ĠÐ¶Ð¾Ð± Ð°Ð»Ð°Ñĥ
ĠÑĢÐµÐ³ Ð»Ð°Ð¼ÐµÐ½ÑĤÑĸ
ĠÐ¿Ð°Ð» Ð°ÑĤ
Â ²
ĠÐ±Ó©Ð»ÑĸÐ¼ ÑĸÐ½Ð´Ðµ
ĠÐ°ÑıÒĽ ÑĤÐ°Ð»
ÐµÐ¶ ÑĸÑĢ
Ð°Ð´ ÑĢ
Ñ ľ
5 2
ÑĥÑĢÑģ ÑĤÑĭÒĽ
ĠÐ¶ Ò±ÑĢ
ĠÐ¼Ð°ÑĤÐµÑĢÐ¸Ð°Ð» Ð´Ð°ÑĢÑĭ
ĠÐ¢ ÓĻÑĢÐ±Ð¸Ðµ
Ðŀ ÑĢÑĤÐ°ÒĽ
ĠÐĸÒ±Ð¼ÑĭÑģ Ð¿ÐµÐ½
Ó©Ð· ÐµÐ½
ĠÒĽÐ¾Ð½ Ð°ÒĽÑĤÐ°ÑĢ
ĠÐºÐµÐ» Ð¼ÐµÐ¹Ð´Ñĸ
ĠÐ°ÑĢ Ð°Ð»ÑĭÒĵ
Ð»ÐµÑĢ Ð¼ÐµÐ½
iÐ½ ÐµÐ½
ĠÐ¶Ð¾ÒĵÐ°ÑĢÑĭ Ð´Ð°
ĠÐºÐ¾Ð½ÐºÑĥÑĢÑģ ÑĤÑĭÒĽ
tit le
ĠÐºÓ©ÑĢ ÐµÑĤÑĸÐ½
ĠÑĸÑģ ÑĸÐº
ĠÑĤÒ±ÑĢÒĵÑĭÐ½ Ð´Ð°ÑĢ
ÑĸÐ¼ÑĸÐ· Ð´Ðµ
Ð¸Ðº ÑĤÐµÑĢ
ĠÐĸÐŀ Ðŀ
Ð¡Ð¾Ð½ Ð´ÑĭÒĽÑĤÐ°Ð½
Ð°Ñĥ ÑĭÐ»
ÑĭÑĢ Ð·
ĠÑĤ Ð°Ð·Ð°ÑĢ
ĠÐŀÑĢ ÑĭÐ½
ĠÑĪÑĭÒĵÐ°ÑĢ Ð°Ð´Ñĭ
Ð¼ ÐµÐ¼Ð»ÐµÐºÐµÑĤÑĤÑĸÐº
ĠÐ´ ÓĻÐ½
ĠÐ»Ð°Ð¹ ÑĭÒĽÑĤÑĭ
ĠÓĺÑĢ Ð±ÑĸÑĢ
ĠÐ¶Ð¸ÑĭÐ½ ÑĤÑĭÒĵÑĭ
ĠÑģÐ¾Ð¼ Ð°ÑģÑĭ
ĠÐ¾ÑĤÑĭÑĢ ÑĭÑģÑĭÐ½Ð´Ð°
ÑĸÐ¿ ÑģÑĸÐ·Ð´ÑĸÐº
ĠÐ´ÐµÐ¹ iÐ½
ĠÐ°Ð± ÑĭÑĢ
Ð°Ð»Ð´ÑĭÒĽ Ð¾ÑĢÒĵÐ°Ð½
ĠÐ°Ð»Ð¼ Ð°ÑģÑĥ
ĠÐ¾Ð¿ÐµÑĢ Ð°ÑĤÐ¾ÑĢ
ĠÐºÐ¾Ð¼Ð¼ÑĥÐ½ Ð¸ÐºÐ°
ĠÐľÒ± Ð½ÑĭÒ£
Ðľ Ð°ÑĢ
Ò° ÑģÑĤÐ°Ð·
ĠÐĲÐ» ÒĵÐ°ÑĪÒĽÑĭ
ĠÐ°ÑĤÒĽÐ°ÑĢ Ð°ÑĤÑĭÐ½
ĠÐŀÐ» Ð¸Ð¼Ð¿Ð¸Ð°Ð´Ð°
Ðķ ÐĴ
ÐĶ Ò¯Ð½Ð¸
ĠÐ¶ Ð°ÑĤÑĭÐ¿
ĠÑģ Ð¸Ð¼
ĠÐ°ÑĤ ÑĤÐ°Ð½
7 2
ÑĤÐ°Ñģ ÑĭÐ½Ð°
ĠÐ¶Ð¸Ð½ Ð°Ð»ÒĵÐ°Ð½
ÐĨ Ñģ
ĠÒļÒ± Ð½Ð°Ð½
ĠÐ¾Ð¹ÑĭÐ½ Ñĭ
ĠÑĤÒ±ÑĢ Ð´Ñĭ
ĠÐ·Ð¸ÑıÐ½ Ð´Ñĭ
Ð¸ ÒĽÐ°ÑĤ
ĠÐµ Ð¶ÐµÐ»Ð³Ñĸ
ĠÐ±Ð°Ñģ Ð¿
Ðŀ ÑĤÐ°Ð½
ĠÐ¼Ð¾Ð´ÐµÐ» ÑĮ
Ðĳ Ò¯
ÑĭÐ» Ð¼Ð°Ð»Ñĭ
ĠÐľÒ± ÑħÑĤÐ°ÑĢ
ĠÐļÐµÐ¹ Ð±ÑĸÑĢ
ĠÐ½ÓĻÑĢ ÑģÐµÐ½
ĠÐĺ Ð¼
ĠÐ±ÑĸÐ· Ð´Ñĸ
ÐµÑħÐ½ Ð¸ÐºÐ°Ð»ÑĭÒĽ
Ð½Ð¾Ð² Ð°ÑĨÐ¸Ñı
ÑĸÐ¼Ð´ÐµÑĢ ÑĸÐ½
ĠÐ¾ Ñı
ĠÓĻÑĢ ÒĽÐ°Ð¹Ñģ
Ðº iÐ·
ĠÓĺÐ´Ñĸ Ð»ÐµÑĤ
ĠÐ¼Ò±ÑĢ Ð°ÒĵÐ°ÑĤ
ĠÐ¶Ð°Ò£Ð° Ð´Ð°Ð½
ĠÐ±ÑĸÑĢ ÐµÐ³ÐµÐ¹
Ð¾ ÑģÑĭ
ĠÑĦ ÐµÑĢ
ĠÒĽÐ°ÒĵÐ°Ð· Ð´Ð°ÑĢ
Ðľ ÓĻÑģ
ÑĭÑĢ Ð»Ñĭ
ĠÑĤÐ°ÑĥÐ°ÑĢ Ð»Ð°ÑĢ
ĠÐºÓ©ÑĢ ÑĥÐ³Ðµ
a ti
ĠÑĪÑĸÐ»Ð´Ðµ Ð´ÐµÐ³Ñĸ
Ġ20 01
ĠÐ¾ÑģÑĭ ÒĵÐ°Ð½
Òļ Ðļ
ĠÒ¯Ð¹ Ð»ÐµÑĢ
7 172
ĠÒ±Ð¹ÑĭÐ¼ Ð´Ð°ÑĢÑĭÐ½ÑĭÒ£
Ñĥ ÑĭÐ½ÑĭÒ£
ĠÑģÐ¾Ð½ Ñĭ
Ðĳ Ðĺ
un d
ĠÐ° Ð´
ĠÐ»Ð°ÑĥÐ°Ð·ÑĭÐ¼ ÑĭÐ½Ð°
ÑĤÐµÑĢ ÐµÐº
h at
ol did
ĠÐ¶ÐµÒ£ÑĸÐ» Ð´ÑĸÐº
ĠÒĽÐ°ÑĢ ÑģÐ°Ò£
ĠÑĤÐ°Ð± ÑĥÒĵÐ°
ĠÐºÐµÑĤ ÐµÑĤÑĸÐ½
ĠÐ¡ Ð°ÒĵÑĭÐ½
Ð°Ð¹ Ð½
ĠÐĳ ÐĲ
ĠÐ¶Ò¯Ðº ÑĤÐµÑĥ
ÐŁ ÑĢ
ÑĭÒĵÑĭ ÑĢÐ°ÒĽ
ÑĤÐµÑĢ Ð´ÐµÐ½
ĠÐľÐ°ÒĽ Ð°Ð»
Ð°Ð´ Ð¸Ð¾
ÑĤÑĭ Ð·
ĠÑĤÐ°ÒĽ ÑĤÐ°
ÑĪ ÑĸÐ¼
Ð¢Ò¯ÑĢ ÐºÑĸÑģÑĤÐ°Ð½
Ð´ÐµÑģ ÑĤÑĸÑĢÑĥ
ĠÐ¶ÐµÒ£ ÑĸÑģÐºÐµ
ĠÑĢÐµÑģ ÑĥÑĢ
Ð± Ò±ÑĢ
ĠÐ¼Ò¯ Ð¼
ĠÐµÑĪ ÒĽÐ°ÑĪÐ°Ð½
ĠÐ¶Ð°Ð± Ð´ÑĭÒĽÑĤÐ°ÑĢ
Ð¢ ÐµÑĢ
g le
Ð°Òĵ ÑĭÐ½ÑĭÒ£
ĠÐ±Ð°ÒĵÐ´Ð°ÑĢÐ»Ð°Ð¼ Ð°Ð»Ð°ÑĢÑĭ
ĠÐ±Ð°ÑģÑĤÑĭ ÒĵÑĭ
Ġ =
ĠÑĦ Ð¾ÑĤ
ĠÑĤÒ¯ Ð³ÐµÐ»
ĠÐ¶ Ð°ÑģÑĭ
8 2
ÐĲÑģÑĤÐ°Ð½ Ð°Ð´Ð°
Ñĥ Ñĩ
ÐĶ Ð¾Ñģ
Ð°Ð» Ð¸ÐµÐ²
ĠÐ³ ÑĥÐ¼Ð°Ð½
ĠÑģÐ°Ñı ÑģÐ°ÑĤÑĭÐ½
ĠÐ¶Ò¯ÑĢÐ³ÑĸÐ·Ñĥ ÑĪÑĸ
ÒĽÐ°Ð· Ð°Ð½
ĠÐ¾Ð½ Ð´Ð°Ð¹
ĠÐ¶Ò¯ÑĢÐ³ÑĸÐ· ÑĸÐ¿
h ar
ĠÐ¶ÐµÒ£ ÑĸÐ¿
ĠÐ¾ÒĽÑĥÑĪÑĭÐ»Ð°ÑĢ Ð´Ñĭ
ĠÐ°Ð»Ð¼ Ð°Ð´Ñĭ
ÑĸÐ¼Ð´ÐµÑĢ Ð´Ñĸ
ĠÐ±Ð°ÒĵÑĭÑĤ ÑĤÐ°ÑĢÑĭ
ĠÑģ Ð°ÑĢÑĭ
ĠÒĽÐ°ÑģÐ¸ ÐµÑĤÑĸ
ĠÐ±Ð°Ð»Ð°Ð±Ð°ÒĽ ÑĪÐ°
ĠÐ¼Ò± Ð·
ĠÑĤÑĥÑĢ Ð¸ÑģÑĤÑĸÐº
ÑģÐº Ð°Ñı
ĠÒĽÐ¾Ð½ ÑĭÑģ
ĠÑĤÐ°ÑĢ ÑĤÒĽÐ°Ð½
ĠÐ¤ Ð¸Ð»
Ð´Ðµ Ð¼Ð°ÒĽ
ĠÑĪÐµÐº ÐºÐµÐ½
ĠÐ·Ð°Ò£Ð½Ð°Ð¼ Ð°Ð»ÑĭÒĽ
ĠÐĵÐµÑĢÐ¼Ð°Ð½ Ð¸Ñı
Ð¶ ÑĭÐ½
Ð¼ Ð°ÑģÑĭÐ½
Ð³Ñĸ Ð¼
ÑĸÑģ ÑĸÐ½Ð´Ðµ
ĠÐ¶Ð°Ð½ Ð°ÑĢ
Ð± Ð°ÒĵÐ°Ð½
ĠÒ±Ð· ÑĭÐ½Ð´ÑĭÒĵÑĭ
ĠÓ©Ñģ ÑĸÑĢÑĥ
Ġ J
ĠÐ¡ Ð¾ÑģÑĭÐ½
ĠÐ¶Ó©Ð½ iÐ½Ð´ÐµÐ³i
ĠÑģÐ°Ð¹ ÑĤÑĤÑĭ
Ð¢ Ð°ÒĵÑĭ
ĠÐºÐµÐ·ÐµÐº ÑĤÐµ
Ð« Ðł
o s
Ð¸ÑĤÐ°ÑĢ Ð¸ÑıÐ»ÑĭÒĽ
ÑĥÑĢ Ð°
ĠÐ°Ð³ ÑĢÐ¾
Ð°ÑĢ Ð¸Ð¹
ÑĤÐ¾Ð¼ Ð°ÑĤ
Ð°Ñģ Ð°Ð½
Ð¡Ð¾Ð» ÑĤÒ¯ÑģÑĤÑĸÐº
ĠÒļÒ±ÑĢ Ð°Ð½
ĠÐºÓ©ÑĢ Ð½ÐµÐºÑĸ
ÐµÐ»Ð³Ñĸ Ð»Ñĸ
Ð´Ð°Ð½ ÒĵÐ°Ð½
ÑĸÑĢ ÑĤ
7 3
ĠÑģÐ°Ñĥ Ð°ÑĤ
ĠÐ²ÐµÑĤÐµÑĢÐ¸Ð½Ð°ÑĢ Ð¸ÑıÐ»ÑĭÒĽ
ĠÒĽÐ°ÑĢ Ð°ÑĪ
ĠÑĦ ÐµÐ´ÐµÑĢ
ĠÑģÐµÐ· ÑĸÐ½
oo gle
Ð°Ð½ ÑĭÑģÑĭ
ĠC om
ĠÐ±Ð°ÑģÑĤÑĭ ÑģÑĭ
ĠÑį ÑģÑĤ
Ð¾Ð¹ ÑĭÐ½
ĠÐºÑĥÓĻ Ð»Ð°Ð½
ÒļÐ°Ð· ÑĸÑĢ
ĠÐĺÐ½ ÑĤÐµÑĢÐ½ÐµÑĤ
ÑĤÐµ Ð³ÑĢ
ĠÒĽÐ°Ð¼ ÑĤÑĭÐ»
ĠÑĤÑĥ ÑĭÑģ
ÑĨ ÑĥÐ·
!! !
Ð¾ Ð´Ð°ÒĽ
ĠÒĽ Ð°Ò£
ÑĸÐ» ÑĤÐµÐ¼Ðµ
Ðķ Ð³ÐµÐ¼ÐµÐ½
Ð¶ ÐµÐ¹
ĠÑģÐ°Ð±Ð°ÒĽ ÒĽÐ°
ÑĢ Ð°Ðº
ĠÑģÓ©Ð· Ð´ÑĸÒ£
ÒļÐ¾ÒĵÐ°Ð¼ Ð´ÑĭÒĽ
ĠÐ¶Ð°Ð½ ÑĢ
ĠÓ©Ð¼ÑĸÑĢ Ð´ÑĸÒ£
ĠÑģÒ¯Ð¹ ÑĸÐºÑĤÑĸ
ĠÑĤÓĻÑĢ ÑĤi
ÐµÐ»ÐµÐ½ Ð³ÐµÐ½
Ð¶ Ò±Ð¼ÑĭÑģ
ĠÐ¶ÐµÑĢ Ð´ÑĸÒ£
ĠÐ´ÐµÐ» ÑĸÐ½Ð³ÐµÐ½
ÐµÐº ÑĤÐµÐ½
ĠÑģÐ°Ð» Ð¼Ð°ÒĵÑĭ
Ð± Ð°Ð¹Ð´Ñĭ
ĠÒĽÒ±Ð½ ÑĭÐ½
ĠÑģ ÑĥÒĵÐ°
ĠÐ±Ð°ÒĵÐ´Ð°ÑĢÐ»Ð°Ð¼ Ð°Ð»ÑĭÒĽ
ÑĭÐ» ÑĥÐ´Ð°
ĠÐ¶Ò¯ÑĢÐ³ÑĸÐ· ÑĸÐ»ÑĸÐ¿
Ð¸ÑģÑĤ Ð¸ÐºÐ°Ð»ÑĭÒĽ
ĠÐµÑģ ÑĸÐº
Ð°Ð¶ Ð°Ð¹ÑĭÐ¿
ÑģÑĭÐ· Ð´Ð°Ð½Ð´ÑĭÑĢÑĥ
a ÒĽ
ĠÐ¶Ð¾ÑģÐ¿Ð°ÑĢ Ð»Ð°Ð½ÒĵÐ°Ð½
ĠÒĽÐ°ÑĤÐ°ÑĢ ÑĭÐ½Ð´Ð°
Ð¸ÑĤ ÑĤÑĸÐº
ĠÐķÑĢ ÐµÐ¶
ĠÐµÑĢ ÑĤÐµÒ£
ĠÑĤÐ°Ð±ÑĭÐ» ÒĵÐ°Ð½
ĠÐĶÐµÐ¼ ÐµÐº
ĠÒļÒ±ÑĢ Ð¼ÐµÑĤÑĤÑĸ
ĠÐ¾Ð±Ð»ÑĭÑģ ÑĤÑĭÒ£
ÑĭÒĵ ÑĭÐ½Ð´Ð°ÒĵÑĭ
ĠÐ¶Ò¯ÑĢÐ³ÑĸÐ· ÑĸÐ»Ð´Ñĸ
ĠÐºÒ¯Ð¼ ÑĸÑģ
Ñĭ Ð¾Ð¹
7 4
ĠÐ¿Ð°Ð¹ ÒĵÐ°Ð¼Ð±Ð°ÑĢ
ÑĥÐ» Ð°ÑĤ
ĠÐĲ ÐĿ
ĠÐºÓ©ÑĪÑĸÑĢ ÑĸÐ¿
al y
ĠÑģÐ°Ð¹ÑĭÐ½ ÒĵÑĭ
ĠÓ¨ Ð½ÐµÑĢ
ÑĭÒĽ ÒĽÐ°
Ð¸ Ð¾Ð»Ð¾Ð³Ð¸ÑıÐ»ÑĭÒĽ
ĠÓ©Ð½ÑĸÐ¼ Ð½ÑĸÒ£
ĠÒĽÐ°Ð¹ÑĤÐ° Ð´Ð°Ð½
ÐķÐľ ÐĽÐķÐļ
Ðĺ ÑģÐ»Ð°Ð¼
ĠÑģÐ°Ð» ÑĭÐ½Ð´Ñĭ
Ġ3 2
Ò±Ð¼ ÑĭÑĢ
ĠÒĽÐ¸ÑĭÐ½ Ð´ÑĭÒĽ
ĠÐ½Ò±ÑģÒĽ Ð°ÑģÑĭ
ĠÐºÓ©ÑĢ ÐµÐ´Ñĸ
Ð± ÑĢÐ¸ÑĤÐ°Ð½
ĠÐ¸Ð¼ Ð¿ÐµÑĢ
ĠÑĤÐµÑĢ Ð°Ð¿
ĠÑĤÓ©ÑĢ ÑĤÑĸÐ½ÑĪÑĸ
ĠÐ°ÑĤ Ð°ÒĽÑĤÑĭ
Ð¸ ÑĭÐ½
ĠÑĢ Ð°ÑħÐ¼ÐµÑĤ
ÐĲÐĽ ÐĲÐł
ĠÐ½Ð°ÑĢ ÑĭÒĽÑĤÑĭÒĽ
ĠÐĲÐ¼ÐµÑĢ Ð¸ÐºÐ°
ĠÒĽÐ°Ð±ÑĭÐ» Ð´Ð°Ð¹Ð´Ñĭ
ĠÐ¢ Ð¾Ð»
ĠÒ±Ð¹ÑĭÐ¼Ð´Ð°ÑģÑĤÑĭÑĢ ÑĭÐ»ÒĵÐ°Ð½
ĠÑĢ Ð°ÑģÑĤ
ĠÐµÐ» Ð´ÐµÑĢÑĸ
ĠÐ´ Ò¯ÑĢ
ĠÐĶ Ð°Ð¼
ĠÐ¶Ð°Òĵ Ñĭ
Ð¸Ñı Ð½
Óĺ Ð»
ĠÓĻÐ»ÐµÐ¼ Ñĸ
ĠÐ¶ÑĥÑĢÐ½Ð°Ð» Ð¸ÑģÑĤÐµÑĢ
ĠÑģÑĸÒ£ÑĸÑĢ Ð³ÐµÐ½
ĠÑģÐ°Ð» Ð°ÑģÑĭÐ½
ĠÑĤÐµÒ£Ð³Ðµ Ð´ÐµÐ½
Ð±Ð¾Ð» Ð°ÑĤ
ĠÑģÓĻÑĥ Ð»
ĠÐ¶ÐµÑĤ Ðµ
ĠÑĤÐ°ÑĢ Ð¸ÑĦ
ÑĤ Ð°Ð±Ñĭ
Ð°Ð± ÑĭÐ½Ð°
ÐµÑģ ÑĤÐµ
ĠÒĽÐ¾Ð» ÑĭÐ½Ð°
Ġ e
ĠÐºÐ¾Ð¼ Ð°Ð½Ð´Ð°
ÐķÐ¢ ÐĨ
Ð¾Ð³ Ð¾
ĠÑĪ ÑĸÑĢ
ĠÑĢÐµÑģÐ¿ÑĥÐ±Ð»Ð¸Ðº Ð°
ĠÐ´ÓĻ Ð¼
ÐµÑģ ÑĸÐ½ÐµÐ½
ĠÒĽÑĭÐ·Ð¼ÐµÑĤ ÑĤÐµÑĢÑĸ
Ð±ÐµÑĤ Ð¾Ð²
ĠÒļÐ°ÑĢÐ° ÑĪÐ°
ĠÐľ ÑĥÐ·
ĠÐºÐ» Ð°Ñģ
Ð¸Ð½ Ð¾
ĠÑģÑĥÐ±ÑģÐ¸Ð´ Ð¸Ñı
Ðļ Ð°Ð·
Ð°Ð½ Ð°ÑģÑĭÐ½ÑĭÒ£
ĠÓ©ÑĤÐºÑĸÐ· ÑĥÐ³Ðµ
ÒĽÐ°Ð¹ ÑĤÐ°
ĠÐºÓ©ÑĢÑĸÐ½ ÑĸÑģÑĤÐµÑĢ
ĠÐ´Ð¾Ñģ ÑĤÑĭÒĽ
ĠÐ±Ð°Ð¹ÒĽ Ð°ÑĥÑĭ
Ò± Ñı
ĠÐµÑģÐµÐ¿ ÑĤÐµÐ»ÐµÐ´Ñĸ
ĠÓ©ÑĤÐºÑĸÐ· ÑĸÐ»ÐµÑĤÑĸÐ½
6 2
ĠÐ´ ÐµÐ¹ÑĤÑĸÐ½
ÐŃ Ð»ÐµÐºÑĤÑĢÐ¾Ð½Ð´ÑĭÒĽ
ÑĢ ÐµÑĤ
ĠÑĸÐ· Ð³Ñĸ
ĠÐº Ð³
ĠÐ¿ÑĢÐµ Ð¿Ð°ÑĢ
ÑĤ ÑĸÐ½ÑĸÒ£
Ð°ÒĽÑĭÐ» Ð°Ñĥ
ĠÑĪÐ°ÑĢ Ð°Ð»Ð°ÑĢÐ´Ñĭ
ĠÐĶ Ð°Ð½
Òĵ Ð°ÑĤ
Ð± ÐµÐ¹Ð´Ñĸ
ÒļÑĭÐ·ÑĭÐ» ÒĽÐ¾ÒĵÐ°
Ð³ ÑĸÐ½Ð´ÐµÐ³Ñĸ
Ð°Ð½ ÑĤÑĤÑĭ
Ðĵ Ðķ
ĠÐ± Ð¸ÑĢ
ĠÐº ÓĻÐ¼ÐµÐ»ÐµÑĤÐºÐµ
Ð¸Ð· Ð¸ÐºÐ°
ĠÐ¶Ð°ÒĽ ÑģÑĭÐ»ÑĭÒĽ
ĠÒ¯Ð¹ ÑĸÑĢ
ÐºÐµÐ» Ñĥ
ĠÑĤÒ¯ Ðº
ĠÑģÑĤÐ°Ð½Ð´Ð°ÑĢÑĤ ÑĤÐ°ÑĢÑĭÐ½
Ð¢ ÐµÐº
Ðŀ ÒĽÑĭÑĤÑĥ
ĠÑģÐ¸Ð¿ Ð°ÑĤÑĭ
Ġ f
Ðĳ ÐĲ
ĠÑĤÐ°Ò£ Ð´Ð°Ð¿
ĠÒĽÐ°ÑĥÑĭÐ¼ Ð´Ð°Ñģ
Ðľ Ðļ
ĠÒ¯Ð»Ð³Ñĸ Ð»ÐµÑĢÑĸ
ĠÐµÑĢÐµÐº ÑĪÐµÐ»ÐµÐ½
ĠÐµÑģÐµÐ¿ ÑĤÐµÑĢ
ÑĭÐ» ÑĥÑĭÐ½Ð°
ĠÐ¼Ð°Ð¼Ð°Ð½ Ð´Ð°ÑĢÑĭ
ĠÑĪÑĭÒĵÐ°ÑĢ Ð´Ñĭ
ĠÐĸÐ°Ñģ ÑĤÐ°ÑĢ
on s
ĠÐ¶Ð¸ ÑĭÑĢÐ¼Ð°
ĠÐľ Ð°Ð¹
ĠÐµÑĢ ÑĸÐºÑĤÑĸ
or t
ÑĪ ÐµÐ²
ĠÑĸ Ð»ÑĸÐ¼
ĠÐ°ÑĤ ÑĤÐµÑģÑĤ
ĠÐ´Ð¾Ð» Ð»Ð°ÑĢÒĵÐ°
ÐŁÐ°Ð¹ Ð´Ð°Ð»Ñĭ
ĠÓĻÐºÑĸÐ¼ Ð´ÑĸÐº
ĠÐ°Ð¹ ÑĤÐ°ÑĢ
ĠÓĺÐ± ÑĸÐ»
ĠÒ±Ð¹ÑĭÐ¼ Ð´Ð°ÑĢÑĭÐ½Ð°
ĠÒĽÒ±ÑĢ ÑĥÒĵÐ°
ĠÑĭÐ½ÑĤÐ°Ð» Ð°Ð½Ð´ÑĭÑĢÑĥ
ĠÒ±ÑģÑĭÐ½ Ð°Ð¼ÑĭÐ·
ĠÐ±Ñĸ ÑĤÐºÐµÐ½
ĠÐ´ Ð°Ð½Ð°
Ðķ Ð½Ð´Ñĸ
ĠÐºÓĻÑģÑĸÐ¿Ð¾ÑĢÑĭÐ½ Ð´Ð°ÑĢ
ÐºÑĸÐ¼ ÐµÐ½
Ñĥ Ð´ÐµÐ½
ĠÐ¾Ð¹ Ð»
ĠÐ¶Ò¯Ðº ÑĤÐµÐ¿
ĠÒĽÑĭÑģÒĽÐ° ÑĪÐ°
Ó¨ ÑĤÐºÐµÐ½
ĠÐ±Ð°Òĵ Ð°Ð¼Ñĭ
ÐµÐ³ ÑĸÐ½ÑĸÒ£
ĠÑĤÐ°Ð»Ð´Ð°Ñĥ ÑĭÐ½ÑĭÒ£
ÐĲÐ»Ð¼Ð°ÑĤÑĭ Ð´Ð°
ĠÐ¶ÑĭÐ½ ÑĭÑģÑĤÑĭÒĽ
Ðķ ÑĤ
ĠÑĤÐ°Ð¼ Ð°ÑĪ
ĠÓĻÐ¹ Ð³ÑĸÐ»Ñĸ
ĠÐ² Ð¸ÑĢÑĥ
Ð°Ð½ ÑĭÐ¼
Ð· Ð°Ò£
ÐĶ ÑĸÐ½
ĠÑĪÐ¾ ÒĵÑĭÑĢ
ĠÐ² Ð¸ÑĨÐµ
ĠÐµÐ½ ÐµÐ´Ñĸ
ĠÒĵÐ°ÑģÑĭÑĢ Ð´Ð°
Ð» Ò±Ð¼
ÐĲÐ» Ð»Ð°
ĠÓ©Ð¼ÑĸÑĢ ÑĸÐ½
ĠÐ¶ÓĻÑĢ Ð´ÐµÐ¼Ð°ÒĽ
Óĺ ÐºÑĸÐ¼
ĠÐ± Ð°ÑĥÐ»
ĠÑģÐ°Ð» Ð°Ñĥ
ĠÑģÓ©Ð· ÑģÑĸÐ·
Ð°ÒĽ ÒĽÐ°
ĠÐ±Ð°Ñģ ÑĤÐ°Ð¼Ð°ÑģÑĭ
ĠÐĲÑĢ Ð°Ð±
ĠÓĻÐº ÐµÑģÑĸ
ĠÑĢÐµÑģÑĸÐ¼ Ð´ÐµÑĥ
7 1
ĠÐ¶ÐµÒ£ÑĸÐ» Ð´ÐµÑĤ
ĠÒĽÐ°Ð»ÑĭÐ¿ÑĤÐ°Ñģ ÑĥÑĭ
ĠÒĽÒ±Ð¶Ð°ÑĤ ÑĤÐ°Ð¼Ð°
ĠÐºÓĻÑģÑĸÐ¿Ð¾ÑĢÑĭÐ½ Ð½ÑĭÒ£
Ð¼ Ð¾ÑģÑĦÐµÑĢ
ĠÐ¡ Ð°Ð»ÑĭÒĽ
ĠÒ° ÐĳÐ¢
ĠÑĤÐµÐ¾ÑĢ Ð¸ÑıÑģÑĭ
ĠÓ©ÑģÑĸÐ¼Ð´ÑĸÐº ÑĤÐµÑĢ
ĠÑĤ Ò±Ð¼
ĠÐ±Ð¾Ð¹ ÑĭÐ½Ð´Ð°ÒĵÑĭ
ĠÐºÐµÐ»ÑĸÑģ ÑģÓ©Ð·
ÑģÐ°ÑĢ Ð¸Ð½
Ð°Ð½Ð´ ÑĢ
ĠÒ±Ð¹ÑĭÐ¼ Ð´Ð°ÑĢÑĭ
ĠÑģÑĥ Ð±ÑĬÐµÐº
ĠÐµÑĢ Ñĸ
ĠÑģÐ°Ð½ Ð°
Ð¸ÑĤ ÑĢ
Ð´Ðµ Ð¼Ðµ
ĠÐ¼ ÑĸÐ½
ĠÑĪÐµÐ± ÐµÑĢÐ»ÑĸÐº
ĠÑĢÐµÑģ ÐµÐ¹
ĠÒĽÐ¾Ð»Ð´Ð°Ð½ ÑĭÐ¿
ĠÓĻÐ»ÐµÑĥÐ¼ÐµÑĤ ÑĤiÐº
ÑĤÑĥ Ð°Ð»Ð´Ñĭ
ĠÒ¯Ð¹ ÑĸÐ½Ð´Ðµ
ĠÒĽÐ¾Ð» ÑĭÐ½Ð°Ð½
ĠÒĽÐ°ÑĢ Ð°ÑģÑĤÑĭÑĢÑĥ
Ð°Ð± ÐµÐº
Ð°Ð² Ðº
ĠÓĻÐ»ÐµÐ¼ Ð³Ðµ
201 1
ÑĤÐµÑĢ ÑĸÐ½Ð´Ðµ
ĠÐ±ÐµÑĢ ÑĸÐº
ĠÐ¼Ò± Ð½Ñĭ
ÒĽ Ð°Òĵ
ĠÑĪ ÐµÐ¶ÑĸÑĢ
Ð¡ Ó©Ð·
ĠÐ¾Ò£ ÑĤ
st az
ĠÑĤÓ©ÑĢÐ°Òĵ Ð°ÑģÑĭÐ½ÑĭÒ£
ĠN UR
Òļ ÑĭÑĤÐ°Ð¹
ĠÐŃÐ½ÐµÑĢÐ³ ÐµÑĤÐ¸ÐºÐ°
ĠÐ¶Ð°Ñģ ÑĭÐ»
ÐĲÑĥÐ´Ð°Ð½ Ð´ÑĭÒĽ
ĠÐ¼Ð°ÑĢÐ°Ð¿Ð°ÑĤ ÑĤÐ°Ð»Ð´Ñĭ
ĠÐºÐ¾Ð¼Ð¸ÑģÑģÐ¸Ñı Ð½ÑĭÒ£
ÐĳÐ¾Ð»Ð°ÑĪÐ°ÒĽ ÒĽÐ°
ĠÐ°ÑĪ ÒĽÐ°Ð½
Ð¸ÑĢ Ð¾Ð²
ÒĽ Ð°Ð»ÑĭÒĽ
Ðĳ Ð°ÒĵÐ´Ð°ÑĢÐ»Ð°Ð¼
ĠÐµÒ£ Ð±
ĠÐ¢ Ð¾
ĠÐ±Ð°Ð» Ð°Ð¼
ĠÐ°Ð²ÑĤÐ¾ÑĢ Ð»ÑĭÒĽ
ÑĭÐ» ÑĥÑĭÐ½
Ð¼ ÑĭÑĢÑĤ
ĠÒĽÐ°ÑĢÑģÐ°Ò£ ÑĭÐ½Ð´Ð°
ĠÑĢÐµÐ· ÐµÑĢÐ²
ĠÒ±Ð¹ÑĭÐ¼Ð´Ð°ÑģÑĤÑĭÑĢÑĥ ÑĭÐ¼ÐµÐ½
ĠÐ±Ð°ÑģÑĪÑĭÐ» ÑĭÒĵÑĭÐ¼ÐµÐ½
ĠÐ°ÑĢÑĤ Ð°Ð´Ñĭ
Ð¼Ò± ÑħÐ°Ð¼
ĠÐµ Ð³
ĠÐ¼ÓĻÐ´ÐµÐ½Ð¸ ÐµÑĤÑĸÐ½
ĠÑģÓĻÑĥÑĸÑĢ Ð´ÐµÐ³Ñĸ
ĠÒĽÐ¾Ð·ÒĵÐ°Ð» ÑĭÑģ
ĠÐŀ Ò£
Ð¼Ð°Ð½ Ð¾Ð²
6 1
ĠÑģÐ¾ ÒĵÑĭÑģÑĭ
ĠÐºÓ©ÑĢ Ð¼Ðµ
ĠÐ¼ÓĻÐ¶ ÑĸÐ»ÑĸÑģ
ĠÑĤÐ°Ð¹ Ð¿
ĠÒĽÐ°ÑĤ ÐµÑĢÐ»Ñĸ
ĠÒ±Ð¹ÑĭÐ¼ Ð½ÑĭÒ£
ĠÐ¶Ð¾Ð± Ð°Ð½Ñĭ
ĠÐļÓĻÑģÑĸÐ¿ ÐºÐµÑĢÐ»ÑĸÐº
ĠÐ¶ Ð°Ð¹ÑĤ
ĠÑĤÒ±ÑĢÒĵÑĭ Ð´Ð°
ÐµÐ½ ÑĤÑĢ
ĠÐ¾ÑĢÐ½ ÑĭÐ½Ð´Ð°
Ð»Ð°Ð½ Ð´Ñĭ
ĠÓĻÐ·ÑĸÑĢ Ð»
ĠÑĤÓĻÑĥÐµÐº ÐµÐ»
ĠÑĪÐ°ÑĢ ÑĤÑĤÑĭ
ÐŀÑĢÑĤÐ°ÒĽ ÒĽÐ¾ÑĢ
ĠÒĽÐ¾Ð»Ð´Ð°Ð½ ÑĭÑģÑĤÐ°ÒĵÑĭ
8 1
ĠÐł Ð°Ñħ
ĠÐºÓ©ÑĢ Ðµ
ĠÐºÐ°Ð½Ð´Ð¸Ð´Ð° ÑĤ
ĠÐ¿ÑĢÐ¾ÐºÑĥÑĢÐ°ÑĤÑĥÑĢ Ð°ÑģÑĭ
ĠÐĺ ÓĻ
Òļ ÐĲ
ÑģÐ¸Ñħ Ð¾Ð»Ð¾Ð³Ð¸ÑıÐ»ÑĭÒĽ
ĠÒĽÑĭÐ·ÑĭÒĵÑĥ ÑĪÑĭÐ»ÑĭÒĵÑĭÐ½
ÑĪÑĭÐ»Ð°ÑĢ ÑĭÐ½ÑĭÒ£
ĠÑĸÑģ ÐºÐµÑĢÐ»ÑĸÐº
ĠÑģÐ°Ð¹ÑĤ ÑĭÐ½Ð´Ð°
ĠÑĪ ÐµÑĢ
er s
Ð¡ Ð°Ð»
ĠÐ¼ÐµÑĢÐµÐº ÐµÑģÑĸ
ĠÑģ ÑĤÐ°
ĠÐ±ÑĸÑĢ ÑĸÐ½Ðµ
Ð¸Ðº Ð°Ð½Ñĭ
ĠÒĽÐ°ÑĤÑĭ ÑģÑĭ
ĠÑģÒ¯Ð¹ ÑĸÑģÐ¿ÐµÐ½
ĠÐ¶Ð°Òĵ ÑĭÐ½Ð´Ð°
Ò± Ð½
ÑĤÐ°ÑĢ Ð¼ÐµÐ½
ÐľÐµÐºÑĤÐµÐ¿ ÐºÐµ
ĠÒ± ÒĽ
ĠÒ¯Ð·Ð´ÑĸÐº ÑģÑĸÐ·
Ð»ÑĸÐ¼ ÑĸÐ·Ð´ÑĸÒ£
ĠÐ¨ ÑĭÒ£
ÐĳÐ¸Ð·Ð½ÐµÑģ ÑĤÑĸ
Ð ®
Ð¿ ÑĮÑİÑĤÐµÑĢ
u l
ĠÐ´ Ð°ÒĽÑĭÐ»
ĠÒ±Ð¹ÑĭÐ¼Ð´Ð°ÑģÑĤÑĭÑĢ ÑĭÐ»Ð´Ñĭ
ĠÑģÐ°Ð±Ð°ÒĽ ÑĤÑĭ
ĠÒĽÐ°ÑĢÐ°Ð¶ Ð°ÑĤÑĤÐ°ÑĢÑĭÐ½ÑĭÒ£
Ðĳ ÐµÑĢ
ĠÐ°Ð¼ ÐµÑĢ
ÑĥÐ» Ð»Ð¸Ð½
ĠÐ¶ Ð¶
ĠÐ°ÒĽ Ñĭ
ĠÐ·Ð°Ò£Ð½Ð°Ð¼ Ð°ÑģÑĭÐ½Ð°
V I
ĠÒĽÐ¾ÒĵÐ°Ð¼ Ñĭ
Ð¸Ð½ Ð°Ð¼
Â», -
ĠÐ¿ ÑĭÑģ
ĠÑĤÓĻ Ð»ÑĸÐ¼
ĠÐ¶Ò±Ð¼ÑĭÑģÑĤÐ°ÑĢ ÑĭÐ½ÑĭÒ£
Ġ199 8
ÑĤÐ°ÑĢ ÑĭÐ¼ÐµÐ½
ĠÐĸ ÓĻÐ½
Ð¸Ñħ Ð°Ð½
ĠÑĤÑĥ ÑĭÐ½Ð´Ð°ÒĵÐ°Ð½
ĠÐ±Ò±Ð¹ÑĢ ÑĭÒĵÑĭÐ½Ð°
ĠÐ¼Ò±ÑĢ Ð°Ð¶Ð°Ð¹
ĠÒĽÐ°Ð¹ÑĭÑĢ ÑĭÐ¼Ð´ÑĭÐ»ÑĭÒĽ
ÑĭÒ£ Ð´Ð°
ĠÐ°Ð» ÑĭÐ½ÑĭÐ¿
ĠÐ·Ð°Ò£Ð´Ñĭ Ð»ÑĭÒĽ
Òļ ÑĭÑĢ
ĠÐºÐ»Ð¸Ð½ Ð¸ÐºÐ°Ð»ÑĭÒĽ
ĠÑĪÑĭÒĵÐ°ÑĢ ÑĥÒĵÐ°
â Ĩ
ĠÒĴ ÑĭÐ»ÑĭÐ¼Ð¸
ĠÐºÓ©ÑĢÑĸÐ½ ÑĸÑģÑĸ
Ð°Òĵ ÑĭÐ»
Ò® Ðł
Òĵ Ð°Ð»Ñĭ
ĠÐ´Ð¾Ð¼ Ð±ÑĭÑĢ
ĠÐµÑĢÐµÐ¶ ÐµÐ»ÐµÑĢÑĸ
ĠÑģÑĸÐ»ÑĤÐµÐ¼ ÐµÐ»ÐµÑĢ
ĠÒĽÐ°Ð±ÑĭÐ»Ð´Ð°Ñĥ ÒĵÐ°
ĠÐ°Ð»Ñĥ Ð´ÑĭÒ£
ĠÐ¶ÑĸÐ±ÐµÑĢ Ð³ÐµÐ½
Ð» ÑĭÒĵÑĭÐ¼ÐµÐ½
ĠÐ±ÑĸÐ» Ð´ÑĸÑĢÑĥ
ĠÐ¼Ð°Òĵ Ð»Ò±Ð¼
ĠÑĪÑĭÒĵÐ°ÑĢ ÑĭÐ»ÒĵÐ°Ð½
ĠÑħ Ð¸ÑĢÑĥÑĢÐ³
Ð°Ð»Ð°ÑĢ Ð¼ÐµÐ½
ÑĭÒĽ ÑĤÐ°Ñĥ
ĠÐĨ V
Ð¸ ÐµÐ»Ñĸ
ĠÐ°Ñģ Ð°Ð´Ñĭ
Ð±ÑĸÑĢ Ñĸ
ĠA l
ĠÐ°ÒĽÑĭÐ» Ñĭ
Ðŀ Ð»Ð°ÑĢ
ÑĭÒĵÐ°ÑĢÐ¼Ð° ÑĪÑĭÐ»ÑĭÒĽ
ĠÐļ Ó©Ð·
ÑĤ ÓĻÐ¶ÑĸÑĢÐ¸
ĠÑĤÓ©Ð»ÐµÐ¼ Ð´ÐµÑĢ
ĠÒĽÐ¾Ò£ ÑĭÑĢÐ°Ñĥ
ĠÑģÐµÐ½ ÑĸÒ£
ĠÒ±Ð¼ Ñĭ
ÑĸÐ½Ð´ ÐµÑĤÑĤÑĸ
Ð¡ Ð°Ñĥ
ĠÐ¢ ÓĻ
ÑĤÑĸÐ½ Ð´Ñĸ
ĠÑĤÐ°Ð»Ð°Ð¿ ÑĤÐ°ÑĢÑĭÐ½
ĠÐ¼ÑĸÐ½Ð´ ÐµÑĤÑĸÐ½
ĠÑģÐ°Ð» ÑĭÑģ
ĠÐ°ÑıÒĽ ÑĤÐ°Ð»Ð´Ñĭ
ĠÐ±Ò±ÑĢ ÑĭÑĪ
ĠÐ¾Ð» ÐµÐ½
ĠÐ°ÑĤÐ°Ð» Ð¼ÑĭÑĪ
ÒĽÒ±Ð» Ð¾Ð²
ÑĦ Ð¾ÑĢÐ¼Ð°
ĠÒĽÐ°ÑĤ Ðµ
ĠÐ¾ÑģÑĭ Ð´Ð°Ð½
Ð¶ÑĭÐ» Ð´ÑĭÒĽ
ĠÐ¾ÒĽ Ð¸ÑĤÑĭÐ½
Ð³ÐµÐ½ ÑĸÒ£
ÑĤÒ± ÑĤÐ°Ñģ
ĠÑįÐ½ ÑĨÐ¸ÐºÐ»Ð¾Ð¿ÐµÐ´
ĠÐ±iÐ» iÐ¼
ĠÐ¼ÑĸÐ½Ð´ ÐµÑĤÑĤÐµÑĢÑĸÐ½
ĠÐ¶ ÓĻ
ÑĤÑĭÐ» ÑĭÒĵÑĭÐ½
ĠÑģÐ°Ð½ ÑĭÐ½ÑĭÒ£
ĠÐµÑĤÑĥ Ñĸ
ÐĽ Ð«Òļ
ĠÐ¿ ÑĥÐ½
ÐĲ ÑĤÐ°Ð¼
ĠÐºÓ©Ð¿ ÑĪÑĸÐ»ÑĸÐ³Ñĸ
ĠÐĸ ÐµÐ»ÑĤÐ¾ÒĽÑģÐ°Ð½
ĠÑĤÑĸÑĢ ÐºÐµÑģ
Ðĳ Ð°Ð»Ð°
ĠÐ¶ÐµÐ»Ñĸ Ð»ÐµÑĢ
ÐºÑĢ ÐµÐ´Ð¸ÑĤ
ĠÐ¾Ð¹ Ð»Ð°Ð½
Ð· ÐµÑĢ
ĠÐºÐµÐ¼ ÑĪÑĸÐ»ÑĸÐº
ĠÐ¢Ð°Ð» Ð´Ð°Ñĥ
ĠÑĤÐ°ÑĢ Ð°ÒĵÐ°Ð½
Ò° Ð£
Ð½Ðµ Ð³ÑĸÐ·
ĠÐ¾ÑĢÑĭÐ½Ð´Ð°Ð» ÑĥÑĭ
Ð· Ð¸Ð½
ÒļÐ°Ð·Ð°ÒĽÑģÑĤÐ°Ð½ Ð´Ð°ÒĵÑĭ
Ð¼ Ð°ÑģÐ°
ĠÑĦÐµÑģÑĤÐ¸Ð² Ð°Ð»
iÐ» ÐµÑĤ
Ðļ ÐµÐ¹
ÑĨÐµÐ½ Ð°ÑĢÐ¸Ð¹
Ð¸Ð» Ð¸
Ð¢Ò±ÑĢ ÒĵÑĭÐ½
Ġ https
Ð¼ Ð°ÒĽÑĤÑĭ
ĠÐ°Ð½ÑĭÒĽ ÑĤÐ°Ð¿
ĠÒ±ÑģÑĭÐ½ ÑĭÐ»Ð°Ð´Ñĭ
ĠÑĥÐ°ÒĽÑĭÑĤ ÑĭÐ½Ð´Ð°
Ð± ÑĥÑĢÐ³
ĠÒĽÐ¾Ð·ÒĵÐ°Ð» ÑĭÑģÑĭ
Ò» Ð°ÑĢ
ĠÒ±Ð¹ÑĭÐ¼ Ð´Ð°ÑĢÑĭÐ½Ð´Ð°
ĠÒĽÒ±ÑĢÐ°Ð» Ð´Ð°ÑĢÑĭÐ½ÑĭÒ£
ĠÒĽÐ¾Ð½ Ð´ÑĭÑĢ
ĠÐ¶Ò¯Ðº ÑĤÑĸ
ĠÑĢÐ¾Ð¼ Ð°Ð½
Ð»ÑĸÐº ÑĤÐµÐ½
ĠÐ¶ Ð°
ÐĺÐ½ Ð´ÐµÑĢ
ÐĲÐ» Ð°ÑĪ
ĠÐ¸Ð½ Ð´
9 5
ĠÒĽÒ±Ð¶Ð°ÑĤ ÑĤÐ°Ð¼
ĠÐ°ÑĥÑĢÑĥ Ñĭ
ĠÐµÑĪÑĤÐµÒ£ Ðµ
ĠÐ¾ÒĽÑĥ ÑĪÑĭÑģÑĭ
ĠÐĳ Ò±ÑĢÑĭÐ½
gr am
ĠÑĢÐµÑĦÐµÑĢ Ð°ÑĤ
ĠÓĻÑĢ Ð´Ð°Ð¹ÑĭÐ¼
ĠÐºÐµÑĢÐµÐº ÑĤÑĸÐ³ÑĸÐ½
ÑĤÒ¯Ñģ ÑĤÑĸ
Ñģ ÑĸÐ½Ðµ
ĠÓ©ÑĤÐºÑĸÐ· ÐµÐ´Ñĸ
ĠÑĤÐ°ÑĢ Ð°Ñĥ
ĠÐ¶Ð¾ÑģÐ¿Ð°ÑĢ Ð»Ð°ÑĢÑĭ
ĠÐ¶Ð¾Ð» ÑĭÐ¼ÐµÐ½
ĠÐ¿ÑĢÐ¾ÑĦ Ð¸Ð»
Ñı Ð´
ĠÑĪÐ°ÑĢÑĥÐ° ÑĪÑĭÐ»ÑĭÒĵÑĭÐ½
ĠÑģÑĥ ÑĭÒĽ
ĠÐºÓ©ÑĤÐµÑĢÑĸ Ð»ÑĸÑģ
Ð¾Ð² Ð°Ð½ÑĭÒ£
ĠÐ±ÑİÐ´Ð¶ ÐµÑĤÑĸ
Ð´ÑĢ Ð¾Ð¼
ĠÐĲ Ð±ÑĭÐ»Ð°Ð¹
Ðĳ Ð¾Ñģ
Ð¡ Ð°ÑĢ
ĠÐ¶Ð°Ð»Òĵ Ð°Ñģ
ĠÐ°Ð½ ÑĤÐ¸
ĠÐ±ÑĸÐ» ÐµÐ¼ÑĸÐ·
ĠÐºÓĻÑģÑĸÐ¿ÐºÐµÑĢ Ð»ÑĸÐºÑĤÑĸ
i r
Â ®
ĠÑĦÐ¾ÑĢÑĥÐ¼ Ñĭ
ĠÐ½Ðµ ÒĵÒ±ÑĢÐ»ÑĭÐ¼
ĠÐ¼Ð°ÒĽÑģÐ°ÑĤ ÒĽÐ°
ĠÐĶ Ð¸
iÐ»iÐº ÑĤi
ĠÐµÐ» Ð´ÐµÑĢÑĸÐ½ÑĸÒ£
ĠÓĻÐ´ÑĸÑģÑĤÐµÑĢ ÑĸÐ½
ĠÒĽÐ°Ð» Ñĥ
ĠÐ°ÑĢÐ°Ð»ÑĭÒĵ ÑĭÐ½Ð´Ð°ÒĵÑĭ
ĠÒĽÐ¾Ñģ Ð°Ð»ÒĽÑĭ
ĠÒĽÒ±ÑĢ Ð±Ð°Ð½
Ġ ÑĥÑĢ
ĠÐĳÓ© ÐºÐµÐ¹
ÐµÑĤ ÑĤÐµÐ½
ĠÐºÓ©ÑĪ ÑĸÐ¿
ĠÐ¢ ÑĥÑĢ
ĠÑģÐ°ÒĽ ÑĤÐ°Ð»Ð°Ð´Ñĭ
ĠÐĺ ÑĤÐ°Ð»
ĠÐ¶Ð°Ñģ ÑĭÐ½Ð°
ĠÑĢ Ð¸Ð·Ð°
Ð¢ Ð°Ð±Ð¸Òĵ
ĠÓ©ÐºÑĸÐ» Ð´ÐµÑĢÑĸÐ½ÑĸÒ£
ĠÐ±Ð¾Ð»Ð¼ Ð°Ð¹
ĠÒļÑĭÐ· Ð¼ÐµÑĤ
ĠÐ¼Ð°ÒĽÑģ Ð°ÑĤÑĤÐ°ÑĢÑĭ
ĠÑĢÐµÐ³ Ð»Ð°Ð¼ÐµÐ½ÑĤ
ĠÐ¿Ð°Ð¹Ð´Ð°Ð»Ð°Ð½ ÒĵÐ°Ð½
Ð¾Ð» Ð°ÑĢ
ĠÑħÐ°Ð½ Ð½ÑĭÒ£
ĠÐŁ ÐµÑĢ
ĠÐºÒ¯Ð¹ ÐµÑĥ
ĠÑĪ Ò¯
Ð´Ð°ÑĢ Ð¸Ñı
Ò® Ð·Ð´ÑĸÐº
ÑĭÒ£ Ð°
ĠÓĻÐºÐµÐ» ÐµÐ´Ñĸ
ĠÑģÐµÐ½ Ñĸ
âĢ¦ âĢ¦
ĠÒĽÐ¾Ð¹ ÑĭÐ»Ð°Ð´Ñĭ
Ð´Ð°Ð» Ð°Ð´Ñĭ
ĠÐ¿ÑĸÐºÑĸÑĢ Ð»ÐµÑĢ
Ð² Ð°Ð½
ĠÓ©ÑĤÐºÑĸÐ· ÑĸÐ»ÐµÐ´Ñĸ
Ġ4 00
Ñģ ÑĥÑĢÐµÑĤ
ÒĽ Ð¾Ò£ÑĭÑĢ
ĠÐ¼ÓĻÐ½ ÑĸÐ½
ÐĨÐĽÐĨ Ðľ
Ò±Ð» ÑĤÑĤÑĭÒĽ
ĠÒĽÐ¾Ñģ ÑĭÐ»Ð´Ñĭ
Ðł ÐµÑģ
ÑĭÐ½Ð°Ð½ Ñĭ
Ð¼Ò± Ð½
ĠÐļÓ©Ðº ÑĪÐµÑĤÐ°Ñĥ
Ġ9 5
Ð°Ò£ÑĭÐ· Ð´Ñĭ
ĠÐĶ ÓĻÐ»
ÒĽ Ð°Ð¹Ð´Ð°
ĠÐ±Ó©Ð» Ð¼Ðµ
ĠÐ°ÑĥÐ´Ð°Ð½ ÑĭÐ½Ð´Ð°ÒĵÑĭ
Ð¶ ÑĭÐ»ÑĭÒĽ
Ðļ ÐµÐ»ÐµÑģÑĸ
ĠÐ´ÐµÐ½ÑģÐ°Ñĥ Ð»ÑĭÒĵÑĭÐ½Ð°
ĠÐ¶Ð¾Ð± Ð°ÑģÑĭÐ½ÑĭÒ£
ĠÐ´Ð°Ð¼Ñĥ ÑĭÐ½
ĠÓĻÐ»ÐµÐ¼ Ð´Ðµ
ĠÑģÐ°Ð» ÑĭÐ¼
ĠÐ¾Ð±Ð»ÑĭÑģ ÑĭÐ½Ð´Ð°ÒĵÑĭ
ÒĽ Ð°Ð¼
ĠÐºÐ¾Ð¼ Ð¸ÑģÑģÐ¸ÑıÑģÑĭ
ĠÑĦÑĥÐ½ÐºÑĨÐ¸Ð¾Ð½ Ð°Ð»Ð´ÑĭÒĽ
Ð» ÐµÑģÐµ
Ðĸ Ð°Ð»
ÐĲÒĽÐ¿Ð°ÑĢÐ°ÑĤ ÑĤÑĭÒĽ
Ðľ Ð°ÑĤÐµÐ¼Ð°ÑĤÐ¸ÐºÐ°
ĠÐŁ Ð¾Ð»
Ñģ ÑĭÒĽ
Ð°ÒĽÑĤÑĭ ÒĵÑĭ
ĠÒ¯Ð»Ð³Ñĸ ÑģÑĸ
ĠÐ±ÐµÑĢ ÑĸÐ»ÑĸÐ¿
ĠÐĳ Ð°ÑĥÑĭÑĢÐ¶Ð°Ð½
ĠÒļ Ð¾Ð½
Ð¿ Ð¾ÑĤÐµÐº
ĠÒĽÐ¾ÒĵÐ°Ð¼ Ð´Ð°
Ðµ Ð´Ð°
ĠÐĲÐ» ÑĮ
ÑĭÐ½ ÑĪÑĭ
Ð¢ ÐķÐł
Ñģ ÑĸÑĢ
ĠÒĽÐ°Ð·Ð°ÒĽ ÑĤÐ°ÑĢ
ÑĦÐ¾ÑĢÐ¼ Ð°ÑĤÐ¸ÐºÐ°
ĠÐ°ÑħÑĥ Ð°Ð»
ĠÑģÐ¸Ð¿Ð°ÑĤ ÑĤÐ°Ð¼Ð°ÑģÑĭ
ĠÐ±Ð¾Ð» ÑĥÑĭÐ½
ĠÐĿ Ð°ÑĢ
ĠÒĽÒ±ÑĢÑĭÐ» ÒĵÑĭÐ»Ð°ÑĢ
ĠÐ¢ ÐľÐĶ
ĠÐ±ÐµÑĤ ÑĸÐ½Ð´Ðµ
ÑĭÒĵ Ð°ÑĢ
ĠÑĪ ÑĤÐ°ÑĤ
ĠÑĢ Ð¾Ð»
Òļ Ð°Ñģ
ĠÒĽÐ°Ð¹ Ð´Ð°Ð½
ÑĢÐ¸ ÑĤÐµÑĢ
ĠÒĽÐ°ÑĢ Ð°Ð¼Ð°
Ñģ ÐµÒ£ÑĸÐ·
ÐĲ Ñı
ĠÐ°Ð³ ÑĢ
Ð¸ÑĤ ÐµÑĤ
ĠÐ±ÑİÐ´Ð¶ ÐµÑĤÐºÐµ
ĠÐ°Ð½ Ð°Ð½ÑĭÒ£
ÑĤ ÓĻÑĢÐ±Ð¸Ðµ
ĠÐ´ Ð¸Ð°Ð»Ð¾Ð³
ĠÐļÐ¾Ð¼ Ð¿Ð°Ð½Ð¸Ñı
ÐµÑĢÑģ ÑĸÐ»ÑĤÐµÐ¼Ðµ
ĠÐ¿Ð°ÑĢÑĤ Ð¸ÑıÑģÑĭÐ½ÑĭÒ£
ĠÐ¿Ð°Ð¹Ð´ Ð°ÑģÑĭ
ĠÐ±ÑĸÐ· Ð´Ðµ
Ð¼ÓĻ ÑĤÐµÐ»Ð´ÐµÑĢ
Ðŀ Ðľ
ĠÐ¾ÑĢ Ð°Ð»
ĠÐ±Ð¸ Ð¾Ð»Ð¾Ð³Ð¸Ñı
ĠÐºÐ¾Ð¼Ð¿Ð°Ð½Ð¸Ñı Ð»Ð°ÑĢ
A pp
Ð± ÐµÑĥ
Ð¼ÐµÐ½ ÑĸÒ£
Ð¹ ÑĭÑĢ
ĠÐ±ÐµÑĤ ÑĸÐ½Ðµ
ĠÐºÐµÐ»ÑĤÑĸÑĢ ÑĸÐ»Ð³ÐµÐ½
Ð¾ Ð´Ð°
ÑĬ ÐµÐ·
Ð´ÐµÑĢ ÑĸÐ½ÐµÐ½
. ).
ÒĽÐ°Ð½ Ð´Ñĭ
ĠÑĤÒ¯Ñģ ÑĸÑĢÑĥ
ĠÒĽÑĥ Ð°ÑĤÑĤÑĭ
ĠÑĸÑģ ÑĤÑĸ
ĠÐ¶ÐµÑĤ ÑĸÐ¼
ĠÒ° Ð¹ÑĭÐ¼Ð´Ð°ÑģÑĤÑĭÑĢÑĥ
ĠÐ¶Ð°ÑĢ Ð½Ð°Ð¼
ĠÐ°Ð¹ Ð´Ð°
ĠÐ¼ÐµÐºÐµÐ¼ ÐµÑģÑĸÐ½Ð´Ðµ
ĠÑģ ÐµÐºÑģ
ĠÓ©Ð· Ð´ÑĸÐ³ÑĸÐ½ÐµÐ½
ĠÑĤÓ© Ò£ÑĸÑĢ
ĠÐ°ÑĤ Ð°Ð¼
ĠÑĤÓĻ ÑĤÑĤÑĸ
ĠÐļ ÐµÐ»
ÑĤÑĸ Ñģ
ĠÐµÐºÐµÑĥ Ñĸ
ĠÑģÑĤÑĥÐ´ÐµÐ½ÑĤ ÑĤÐµÑĢÑĸ
ÑģÑĤÑĢÑĥ ÐºÑĨÐ¸Ñı
ĠÐºÐ¾Ð½ ÑģÑĤÐ¸ÑĤÑĥ
ÑĪ ÑĸÐ½
ĠÑģÓĻÑĤ ÑĤÐµ
ĠÐ°ÑĤ Ð»ÐµÑĤ
ĠÐľ ÐµÐ¹
ĠÐ¼ Ð¼
ĠÑĦ ÑĢÐ°Ð½
ĠÐļ Ò¯
ĠÑĤÑĸÑĢ ÐºÐµ
ĠÑĤÐ°ÑĢÐ¸Ñħ ÑĭÐ½Ð´Ð°
ÐĶ Ð«Òļ
ĠÒ±Ð»ÑĤ ÑĤÑĭÒ£
ĠÐ±Ð¾Ð»Ð´ÑĭÑĢ Ð¼Ð°Ñĥ
Ð¼ÐµÐ½ ÑĤÐ°ÑĢ
ĠÐ¶Ð¾Ð± Ð°Ð»Ð°ÑĢÑĭÐ½
ĠÐ¼Ð°ÒĽÑģÐ°ÑĤ ÑĤÑĭ
ÐŀÒĽ ÑĥÑĪÑĭÐ»Ð°ÑĢÐ´ÑĭÒ£
ĠÐĺÐ½ Ð²ÐµÑģÑĤÐ¸
ĠÑĢÐµÐ²Ð¾Ð»Ñİ ÑĨÐ¸Ñı
ĠÐºÐµ Ð»Ñĸ
ÐĿ Ð°ÑĢ
ĠÒļ Ð°ÑĪ
ĠÐ¼ÐµÑĢÐ· iÐ¼
ĠÒ±Ð· ÑĭÐ½
ĠÐ±Ð°ÑĢ Ð´Ñĭ
Ò¯Ð» ÐµÐ¹Ð¼ÐµÐ½
ĠÐŁ ÐµÑĤÑĢÐ¾Ð¿Ð°Ð²Ð»
ĠÐ¿Ð°ÑĢÐ°ÒĽ ÑĪ
Ñį Ðº
Ġ200 2
ÐºÒ¯Ð¹ Ñĸ
ĠÐĹÐ°Ò£ Ñĭ
Ġ3 4
ĠÐ±Ð°ÒĽÑĭÐ»Ð°Ñĥ Ð´Ñĭ
ĠÑĤÒ± ÒĵÑĭÑĢ
ĠÐ°ÑĢ Ð°
ĠÐ¿Ð°ÑĢ ÑĭÐ·
Ð¾ÑĢÐ¼ Ð°ÑĤÐ¸Ð²ÑĤÑĸÐº
ĠÐ°Ð¹ Ñĭ
ĠÐ¥ Ð°Ð½
ĠÓĻÑĢ ÒĽÐ°ÑĪÐ°Ð½
ĠÐ¼Ð°ÑĢ ÐºÐµÑĤÐ¸Ð½Ð³
ĠÑģ ÐºÐ°ÑĩÐ°ÑĤÑĮ
ĠÐ°Ð³ÐµÐ½ÑĤ ÑĤÑĸÐ³ÑĸÐ½ÑĸÒ£
ĠÐ¸Ð½ ÑĤÐµÐ³ÑĢ
ĠÒ° Ð¹ÑĭÐ¼
ĠÐ¶Ò±Ð¼ÑĭÑģÑĤÐ°ÑĢ ÑĭÐ½Ð°
Ð¿ Ð°Ð¹ÑĤÑĭÐ½
ĠÐ´ÐµÐ¼Ð¾ÐºÑĢÐ°ÑĤ Ð¸ÑıÐ»ÑĭÒĽ
ĠÐ¥ Ð°Ð±Ð°ÑĢ
ĠÐ¶Ð°Ñģ Ð°Ð¼
ĠÐ²Ð°Ð»Ñİ ÑĤÐ°
ĠÐ¶Ð°Ñģ Ð°Ð»Ð°ÑĤÑĭÐ½
ĠÐºÒ¯ÑĪ ÑĸÐ½Ðµ
ĠÓĻÐ·ÑĸÑĢ Ð»ÐµÐ½
Ð»ÑĸÐº ÑģÑĸÐ·
ĠÐµÑģ ÑĸÐ¼Ñĸ
ĠÐ¶Ð¸ÑĭÐ½ ÑĤÑĭÒĽ
ÑĥÑĤ Ð¸Ð½
Ñİ ÑĢ
ĠÐ±Ð°Ð»Ð°Ð»Ð°ÑĢ Ñĭ
ĠÐºÐµÐ» ÐµÑĢ
ÐĳÑĸÐ· Ð±ÐµÐ½
Ñģ ÐµÒ£
ÐºÐµÑĢ Ð´ÑĸÒ£
ÑģÐµÑĢ Ð²
ĠÑģÐ°Ð» Ð°ÑģÑĭÐ½Ð°
Ġ3 3
ĠÑģ Ð°Ð¼
Ð¸Ð¼ Ð¸ÑĢ
ĠÐ°Ð¹ Ð´Ð°Ð½
ĠÑĤÑĸÐ· ÑĸÐ»ÑĸÐ¼
Ð¿ Ð°ÒĽÑĤÐ°ÑĢ
Ð» Ð¾ÑĢ
Ð°ÑĤÑĤÑĭ ÒĵÑĥ
ĠÐ°ÑĥÑĭÐ· ÑĪÐ°
ÑĤÑĭ Ð¼ÑĭÐ·
ĠÐµÑĢÐµÐºÑĪÐµÐ»ÑĸÐº ÑĤÐµÑĢÑĸÐ½
ĠÐ¢Ð°Ð±Ð¸Òĵ Ð¸
ĠÐ°Ð» Ð³ÐµÐ±ÑĢ
ĠÐ±ÑĸÐ»Ð´ÑĸÑĢ ÑĸÐ¿
ĠÐ»Ð¸ÑĨÐµÐ½ Ð·Ð¸ÑıÑģÑĭ
re ati
ĠÐĿÒ±ÑĢ Ð»Ð°Ð½
ĠÐ¶ ÑĥÑĢ
hat s
ĠÐĸÐ°ÒĽ ÑģÑĭ
ÒļÐ°Ð·Ð°ÒĽ ÑĤÑĭÒ£
Ð¸ Ð°Ð½
Ð± ÑĸÐ·
ĠÐ·Ð°Ò£ Ñĭ
ÐŀÐ¹ ÑĭÐ½
ĠÐ¼Ò¯Ð¼ ÐºiÐ½
ĠÐºÐµ Ð´ÐµÐ¹
ĠÑģ Ð¿
Ð¨ Ð°ÑĢ
Ó©ÑĢ Ñĸ
ĠÐºÓ©Ð·ÒĽÐ°ÑĢ Ð°ÑģÑĭ
ÐºÓ©ÑĢ ÑģÐµÑĤ
ĠÓ©ÑĤÐºÑĸÐ· Ð³ÐµÐ½
ĠÑĤÐµÐ¾ÑĢ Ð¸Ñı
ar t
ĠÐ±Ð°Ð» Ð»
Ð¸ÑĤ ÑĤÐµÑĢ
Ð±Ð°Ð¹ Ð¶Ð°Ð½
ĠÐ¾ÑĢÑĭÐ½ Ð´Ð°ÑĢÑĭÐ½Ð´Ð°
ĠÑħ Ð¾Ð»
ÑĭÑģ Ñĥ
ĠÐ°Ð½ ÑĤ
ĠÐ» Ð¸Ð¼
ĠÑĭÒ£Òĵ Ð°Ð¹Ð»Ñĭ
ĠÑĪ ÐµÐ½
ĠÒĽÑĭÐ·Ð¼ÐµÑĤ ÑĤÐµÑĢÑĸÐ½
ĠÐ±Ð°ÑģÒĽÐ°ÑĢÑĥ Ð´ÑĭÒ£
Ġ of
ĠÐ¶Ð°ÑĢ ÑĭÐ¼
ĠÑĪÑĭÒĵÐ°ÑĢÐ¼ Ð°Ð»Ð°ÑĢ
ĠÓĺ Ñĥ
ÐĿ Ð°ÑĥÑĢÑĭÐ·
ĠÐ¾ÒĽ ÑĭÐ»ÒĵÐ°Ð½
Ð¡ ÑĭÐ½ÑĭÐ¿
ĠÒĽÐ°ÑĢ Ð°Ð»Ð´Ñĭ
Ð°ÑĤÑĭÐ» Ð´Ñĭ
ĠÐ±Ò±Ð· Ñĥ
ĠÐ¶Ð°Ñģ ÑĤÐ°ÑĢÒĵÐ°
Ð°Ñģ ÒĽÐ°
ĠÐ°ÑĪÑĭÐ» Ñĥ
ĠÑģÓ©Ð· Ð´ÐµÑĢÑĸ
Ð´Ð° ÒĽÑĤÑĭ
ĠÑĪÐ°ÒĽÑĭÑĢ Ñĥ
ĠÐ°ÑĢ ÑĤÑĥ
ĠÓĻÐºÐµ Ð¿
ĠÒ°Ð» ÑĤ
ÐºÐµÑĢ Ð»ÐµÑĢÑĸ
ĠÐł ÐķÐ¡
ĠÐ¢ Ð°ÒĵÑĭ
ÑģÑĤ iÐº
ÑĤ ÑĤÑĸÐº
ĠÐ¸Ð³ÐµÑĢ Ñĥ
ĠÐ°Ð¹ ÑĤÑĭÑģ
ĠÐ¾ÑĢÑĭÐ½ Ð´Ð°ÑĢÑĭÐ½
ĠÒĽÐ°ÑĢ Ð°ÒĵÐ°Ð½
ÒĽ Ð°Ð»ÑĭÐ¿
ĠÐºÓ©ÑĢ Ð½ÐµÐºÑĤÑĸ
ĠÑĤÓĻÑģÑĸÐ» Ð´ÐµÑĢÑĸ
ĠÐ± Ð°Ð·Ð°ÑĢ
ĠÐ°Ð» Ð°Ð¹Ð´Ð°
ĠÐ´Ò¯Ð½Ð¸ ÐµÐ¶Ò¯Ð·ÑĸÐ»ÑĸÐº
ĠÐ°Ð¹ ÑĭÐ½Ð°
ÑĢÐ¾ ÑĦ
ĠÐ¼iÐ½ Ð´ÐµÑĤ
ĠÐ¼Ò± Ð½ÑĭÒ£
ĠÐ¶ÐµÑĢ ÑĸÐ½
ĠÒĽÒ±Ð½Ð´Ñĭ Ð»ÑĭÒĽÑĤÐ°ÑĢ
ÒĽÐ°Ð½ Ð´Ð°
ĠÐµÑģÐµÐ¿ ÑĤÑĸÐº
ĠÐĲ ÑĥÑĢ
in f
ĠÐ¼ÐµÑĢÐ·ÑĸÐ¼ Ð³Ðµ
ĠÑģÐ°Ð¹ ÑĭÑģ
Ñģ Ð¿Ð°Ð½
Ð¸Ð°Ð» Ð´Ñĭ
ri ght
ĠÐºÐ°ÑĦÐµÐ´ÑĢ Ð°ÑģÑĭÐ½ÑĭÒ£
Òļ Ð¾Ð»
Ðŀ ÐĿ
ĠÐ±Ð¾Ð»Ð´Ñĭ Ð¼
Ð± Ð°Ð±Ñĭ
ĠÐºÓ©Ð± ÐµÐ¹ÑĤÑĥ
ĠÐ°ÑĥÐ´ Ð¸ÑĤÐ¾ÑĢ
ÐµÑĤ ÑĤÐµ
ÐµÑĤÑĸÐ½ ÑĸÐ½
ĠÐºÐµÑĢ ÑĸÑģÑĸÐ½ÑĪÐµ
ÑĤÑĭÐ» ÑĭÐ¿
ĠÐ·Ð°Ð¼Ð°Ð½ Ð´Ð°
ĠÑģÐ°Ð¹ÑĤ ÑĭÐ½Ð°
ĠÒĽÐ¾ÑĢÒĵÐ°Ñĥ ÒĵÐ°
Ð¾ Ð±Ð»
ĠÐ±ÐµÑĤÑĸÐ½ ÑĪÐµ
ÑĦÑĢ Ð¸ÐºÐ°
ĠÐ¼Ò¯ Ð»ÑĸÐºÑĤÑĸ
ĠÑģÐµÐ± ÐµÐ±
ĠÐķÑģ ÐµÐ¿
Ð³ ÑĢÐ¾
ĠÐľ Ð¾Ð½
ĠCom m
Ġ7 5
ÑĸÐ¼Ð´Ñĸ Ð»ÑĸÐº
ĠÐ°ÐºÐ°Ð´ÐµÐ¼ Ð¸ÑıÐ»ÑĭÒĽ
Òļ Ð°ÑĢÐ°
ÑĤÐ°ÑĢ Ð¼Ð°ÒĽ
ĠÐ¾ Ð±
ĠÑĤÒ¯ÑģÑĸÑĢ ÑĸÐ¿
ĠÐ¸Ð½ÑĤÐµÐ» Ð»ÐµÐº
o und
ĠÒ® Ð½Ð´Ñĸ
ĠÐ¶ÐµÑĢ Ð»ÐµÑĢ
ĠÑĤÒ±ÑĤÑĭÐ½ Ñĥ
F acebook
Ð°ÑĤÑĭÐ½ Ð°Ð½
ĠÐ´ÐµÑĢÐµÐº ÑĤÐµÑĢÐ´Ñĸ
i a
ĠÐ¶Ð°Ñģ ÑĤÐ°Ð½
ĠÓĻÐºÑĸÐ¼ Ð´ÐµÑĢÑĸÐ½ÑĸÒ£
ĠÐ¼Ð°Ð¹ Ð´Ð°Ð½
ĠÐ¼ Ð¾Ð´
ĠÐ±Ð¾ÑĢ ÑĭÑĪ
Ð¾Ð»Ð¾Ð² ÐºÐ¸Ð½
ĠÐ½Ð¾Ð¼ Ð¸Ð½
Ð² Ð¾Ð»
ĠÐ¶Ð°ÑĢÐ¸Ñı Ð»Ð°Ð´Ñĭ
Ð°Ð»ÑĮ Ð´ÑĭÒĽ
ĠÐ°Ð»ÑĭÐ½ Ð°Ð´Ñĭ
ĠÐ¶Ò¯ Ð»
Ð°ÑĤÑĭÐ» Ð°Ð´Ñĭ
ĠÓ©Ñģ ÐµÐ´Ñĸ
Ð¸ Ð±
ĠÐ¿ÑĸÐºÑĸÑĢ Ñĸ
Ð´ÐµÐ» ÐµÐ´Ñĸ
ĠÑħÐ°ÑĤ ÑĤÐ°Ð¼
ĠÐ¶Ð°Ð»Òĵ Ð°ÑģÑĤÑĭÑĢÑĥ
ĠÒ± ÑģÐ°ÒĽ
ĠÐ¿ Ð°Ð½
ĠÐľ Ð°Òĵ
ÒĽ ÑĭÑĤ
Ġ3 9
ĠÐ±Ð¾Ð»Ð°ÑĪÐ°ÒĽ ÑĤÐ°
ĠÑĪÐ¸ÐºÑĸÐ· Ð°ÑĤ
Ð°Ð¿ ÑĤÑĭ
Ñģ Ò¯Ð¹
ĠÐ³ÑĢÐ°Ð½ ÑĤ
ĠP l
Â» -
ĠÐµÐ»Ð´ÐµÑĢ Ð´Ðµ
ĠÓĻÑĢÐµÐº ÐµÑĤÑĸ
Ð´ÓĻÑĢ Ð¼ÐµÐº
ĠÐ±Ð°ÒĵÐ´Ð°ÑĢÐ»Ð°Ð¼ Ð°Ð»Ð°ÑĢÑĭÐ½
Ñģ ÑĸÐ½ÑĸÒ£
ĠÑĤÑĸÑĢÐºÐµÐ» Ñĥ
ĠÐ¶ÐµÑĤ ÑĸÐ»Ð´ÑĸÑĢ
ĠÐºÐ°Ð´Ð°ÑģÑĤÑĢ Ñĸ
ĠÓĻÐºÐµ Ð»ÑĸÐ¿
ĠÒĽÐ°Ð¶ÐµÑĤÑĤÑĸ Ð»ÑĸÐ³Ñĸ
ĠÒĽÒ± ÑĪ
ĠÐ¡ Ð¸ÑĢ
ĠÒĽÐ°Ð½Ð°ÒĵÐ°ÑĤ ÑĤÐ°Ð½
ĠÒĽ Ð°ÒĽÑĤÑĭ
ĠÑģÓ©Ð· Ð±ÐµÐ½
Ð¸Ñı Ð»Ñĭ
ĠÐ¶Ð°Ñģ ÑĥÑĪ
ĠÐ±Ð°Ð· Ð°ÑģÑĭÐ½Ð´Ð°
ÑģÑĤ i
ĠÐ±Ð°Òĵ Ð°Ð»Ð°Ð½
ĠÒ¯Ð¹ Ð»ÐµÐ½
ĠÒĽÐ°ÑģÐ¸ ÐµÑĤ
ÐµÑĢ Ð»ÐµÐ¿
ĠÐ¶Ð°ÒĽ ÑĭÐ½Ð´Ð°
ĠÐĲ ÑĤÐ°Ð¿
ÐĽÐĨ Ðļ
ĠÐĲÐ±Ð°Ð¹ Ð´ÑĭÒ£
ĠÑģÑĤÑĢÐ°ÑĤÐµÐ³ Ð¸ÑıÑģÑĭ
ĠÐ¨ Ð°Ð»
ĠÐĴ Ð»Ð°Ð´
ĠÐ¶ÐµÑĤÐºÑĸÐ· Ð³ÐµÐ½
ÑĪÑĭÐ» Ð´ÑĭÒĽ
ĠÑįÐºÑģÑĤÑĢ ÐµÐ¼
Ð¾ÑĢ Ð»ÑĭÒĽ
ĠÐ±ÑĸÐ»ÑĸÐ¼ Ð½ÑĸÒ£
ĠÐºÓ©Ð¿ ÑĸÑĢ
ĠÐ±Ð°Ñģ Ð¿Ð°
Ð¥ Ð°Ð±Ð°ÑĢ
ĠÒĽÐ°Ð» Ð°ÑģÑĭÐ½Ð°
ĠÐºÐ¾Ð´ÐµÐº ÑģÑĸ
ĠÐ¼Ò¯ Ð»Ð´Ðµ
ĠÐ¾ÑĢ Ð³
ĠÐ¾ÑĢÐ½ ÑĭÐ½Ð°Ð½
ÐµÐ» ÐµÐº
ĠÐĳ Ð°Ð¹ÑĤÒ±ÑĢÑģÑĭÐ½
Ġ http
ĠÐºÒ¯ÑĪ ÑĸÐ½
ĠÑĤÑĸÐ» Ð´ÐµÑĢÐ´Ðµ
Ðĳ ÐµÐ¹
ÑĭÐ» Ð¼Ð°ÒĵÐ°Ð½
ĠÓĺÐ± ÑĸÑĪ
Ð¸Ñħ Ð°Ð½Ð¾Ð²
ĠÒļ Ð°Ð±
ĠÐłÐµÑģÐ¿ÑĥÐ±Ð»Ð¸Ðº Ð°
ĠÐĲÐĿ Ð«Òļ
ĠÑĤÑĸÐ» Ð´ÑĸÐº
ĠÐ´ÐµÒ£Ð³ÐµÐ¹ ÑĸÐ½Ðµ
ĠÑģÑĤÐ°Ð½ ÑĨÐ¸Ñı
ÓĻÐ¶ÑĸÐº ÑģÑĤÐ°Ð½
Ð±Ð°Ð¹ Ò±Ð»Ñĭ
ĠÐºÐµÐ¼ ÑĸÐ½Ð´Ðµ
Ð¢ Ð«Òļ
ĠÐ°Òĵ Ð°ÑĢÑĤÑĥ
ĠÐµ Ð³ÑĸÐ½
ÑĸÒ£ Ðµ
ĠÐ¢ÑĸÐ» Ð´ÐµÑĢÐ´Ñĸ
ĠÐ¶Ð¾ÑģÐ¿Ð°ÑĢ ÑĭÐ½ÑĭÒ£
ĠÑĤÐ°Ð¿ÑģÑĭÑĢÐ¼ Ð°ÑģÑĭ
ĠÐ°Ð¹Ð½Ð°Ð»ÑĭÑģ Ð°ÑĤÑĭÐ½
ĠÐ±Ð°Ñģ ÑĭÒ£ÑĭÐ·
ĠÑĤÐ°ÒĽÑĭÑĢÑĭÐ¿ ÑĤÑĭ
Ñĸ Ð³ÑĸÐ½
Ġ199 9
ĠÑģÓ©Ð¹Ð» ÐµÐ³ÐµÐ½
Ð² Ð°ÑĢ
ÐĨ ÐĽ
ĠÐ±Ð°Ñģ Ð°
ĠÐºÐ»Ð°ÑģÑģ ÐŁÐ¾ÑĥÑĢÐ¾ÑĩÐ½ÑĭÐµ
ĠÑģÐ¸Ð¿Ð°ÑĤ ÑĤÐ°Ð¼
ĠÐ±ÑĸÐ» Ð´Ñĸ
ĠÐºÑĸ ÑĤÐ°Ð±Ñĭ
ÐķÐľÐĽÐķÐļ ÐķÐ¢Ð¢ÐĨÐļ
ĠÐ¾ÑĤÑĭÑĢ Ñĥ
ĠÐ°Ð·Ð°Ð¼ Ð°ÑĤÑĤÑĭ
Ð°ÑĢ ÑĥÑģ
ĠÑĢ Ð°Ð¹Ñĭ
ĠÐ½ÓĻÑĤÐ¸Ð¶ ÐµÐ»ÐµÑĢ
Ð°Ð± ÑĢ
Ð¸ÑģÑĤ Ð¸ÐºÐ°
ÒĽ Ð°Ð»Ð°
ĠÐ°Ð¹Ð½Ð°Ð» Ð°Ð´Ñĭ
ĠÓ©Ð¼ÑĸÑĢ ÑĸÐ½Ðµ
ĠÐµÐ»ÑĸÐ¼ÑĸÐ· Ð´ÐµÐ³Ñĸ
Ð¿ÑĢ Ð°ÐºÑĤÐ¸ÐºÐ°Ð»ÑĭÒĽ
ĠÐºÐµÐ»ÑĸÑģ ÑĸÐ¼Ñĸ
ĠÐ½ÐµÐ¼ ÐµÑĢ
ĠÐ±Ð°ÑĢ ÑĪÐ°
Ð°Ð¹ ÑģÑĭÐ·
ĠÐºÐ¾ÑĢÐ¿Ñĥ ÑģÑĭÐ½ÑĭÒ£
ĠÐ¾Ð½ ÑĭÐ¼ÐµÐ½
ÑĤÐ°ÑĢ Ð´Ð°Ð½
ĠÐ¢Ó©ÑĢ Ð°Òĵ
ĠÐµÑĢÐµÐ¶ ÐµÑģÑĸ
Ðĳ Ð°Ð½Ðº
ĠÐ¼ÐµÐºÐµÐ½ Ð¶Ð°Ð¹
ÐĳÒ± Ð´Ð°Ð½
ÑĪ Ð°Ð½ÑĭÒ£
ĠÒļ Ð°Ð¶
ĠÐĹÐ°Ò£ ÑĭÐ¼ÐµÐ½
ĠÐ¶ Ð°Ð½Ñĭ
ĠÐ±Ð°ÑĢ Ð»ÑĭÒĵÑĭÐ½
ĠÐ» Ð°Ð¹ÑĭÒĽ
ĠÐ¼Ð°ÑĪ Ð¸Ð½Ð°
ĠÑĤÐ°Ð± Ð°Ð´Ñĭ
i d
ĠÑĦÐ°ÐºÑĤÐ¾ÑĢ Ð»Ð°ÑĢ
ĠÒĽÒ± Ð´Ð°Ð¹
Ðĺ ÑģÐ°ÑĤÐ°Ð¹
ĠÐ¶Ð¸Ð½ Ð°Ð»ÑĭÑģ
ĠÑģ Ð°Ð·
st a
ĠÐºÐµÐ¹ iÐ½
ĠÑħÐ°Ð±Ð°ÑĢÐ» Ð°ÒĵÐ°Ð½
ĠÐ±Ð°Ð½Ðº ÑĤÑĸÒ£
ĠÑĭÒĽÑĤÐ¸ Ð¼Ð°Ð»
Ð± ÑĥÐ»
ĠÑĢÐµÐ´Ð°Ðº ÑĤÐ¾ÑĢ
ĠÐ´ÐµÐ½ÑģÐ°Ñĥ Ð»ÑĭÒĵÑĭ
in e
Ð´ Ð¸ÐµÐ²
ĠÐ´ÓĻ Ð¹
ÐĸÐ°Ñģ ÑĤÐ°ÑĢ
ĠÐ¸Ð¼ Ð°Ð¼
ĠÒĽÐ°Ð¼ÒĽÐ¾ÑĢ Ð»ÑĭÒĵÑĭÐ½
Ò£ ÑĸÐ»
ĠÑĢ ÐµÐ¿
ĠÐ¶Ò±Ð¼ÑĭÑģ ÑĤÐ°ÑĢÐ´ÑĭÒ£
ĠÐ±Ð°Ñģ ÑĭÐ¼Ð´ÑĭÒĽ
Ð¿ Ð°ÑĤ
ĠÒļÐ¾ÑĢ ÒĵÐ°Ð½
ĠÐ°Ð·Ð°Ð¼Ð°ÑĤÑĤÐ°ÑĢ Ñĭ
ĠÐ¼Ð°ÑĥÑģÑĭÐ¼ Ð´Ð°
5 1
ĠÐ±ÓĻÑģÐµÐºÐµÐ»ÐµÑģ ÑĤÑĸÐº
Ðķ ÐĻ
ĠÒĽÑĭÐ· Ð¼ÐµÑĤÑĤÑĸÐº
ĠÐ¢ ÑĸÑĢ
ĠÒĽÐ¾Ð» Ð°
ĠÐ±Ó©Ð»ÑĸÐ½ Ð´Ñĸ
ĠÐľ ÑĭÑģ
ĠÐĲÐ» ÑĤÐ°Ð¹
ĠÑģ ÐµÑģÑģÐ¸Ñı
ĠÒĽÐ°Ð½ ÑĤ
ĠÐ¶ÑĸÐ±ÐµÑĢ Ð´Ñĸ
ÑĭÑĢ Ð·Ð°
Ð¾ÑĢ Ð³Ð°Ð½
201 9
ĠÑģÐµÐ±ÐµÐ¿ ÑĤÐµÑĢÑĸ
ÑĨÐ¸ ÐµÐ½ÑĤ
ÒĽ Ð¾Ð»Ð´Ð°Ð½
ĠÐ°ÐºÑĤÑĸ Ð»ÐµÑĢ
Ð¡ Ð°Ð»ÑĭÒĽ
Ð¦ ÐĺÐ¯
ĠÒĽÐ°Ð»ÑĭÐ¿ÑĤÐ°ÑģÑĤÑĭÑĢ ÑĥÒĵÐ°
Ð´i ÑĢ
ĠÒļ Ð°Òĵ
ĠÒ±ÑĢÐ¿Ð°ÒĽ ÒĽÐ°
Ð¼Ð°ÒĽ ÑĤÑĭÒĽ
ĠÐ°ÑĢ Ñĭ
ÑĸÐº ÐºÐµÐ½
ĠÑģÑĥ ÑģÑĭÐ½
ĠÐ±Ð°ÒĵÐ´Ð°ÑĢÐ»Ð°Ð¼ Ð°ÑģÑĭÐ½Ð°
Ð½ Ð°ÑĤ
ÑĤÑĭÒĽ ÑĤÑĭ
ĠÐ°Ð» Ð¿
ĠÐ¶Ò¯Ð¹ ÐµÐ½ÑĸÒ£
ĠÐ¼Ò±ÒĽ Ð¸ÑıÑĤ
ik e
ÑĤÐ°Ð¿ ÒĽÑĭ
ĠÐ¶ÐµÑĤÐºÑĸ Ð»ÑĸÐºÑģÑĸÐ·
ĠÓ©Ð¼ÑĸÑĢ ÑĸÐ½ÑĸÒ£
ĠÐºÐ¾Ð¼Ð¼ÑĥÐ½Ð¸ÐºÐ° ÑĨÐ¸ÑıÐ»Ð°ÑĢ
ĠÒĽÒ±ÑĢ ÑĭÐ¿
ĠÑĦÐ°ÐºÑĥÐ»ÑĮÑĤ ÐµÑĤÑĸ
or d
ĠÓĻÐ» ÑģÑĸÐ·
Ð°ÒĽ Ð°Ð½
ĠÑģÑĥ Ð´
ÐµÐºÑĤÐ¾ÑĢ Ñĭ
Ð¾Ò£ ÒĵÐ¾Ð»
ĠÑĤÐ°Ð»ÒĽÑĭÐ» Ð°Ð½Ð´Ñĭ
ĠÐ°ÑĢÑħ Ðµ
ĠÐ´ Ð°Ð¹
Ð¡ Ó©Ð¹
iÐ½ ÑĪi
ĠÐµÒ£Ð±ÐµÐº ÐºÐµ
Ð³ Ð¸Ñı
ĠÑĤÐ°ÑĢÑĤÑĥ ÒĵÐ°
ĠÑĤÒ±ÑĢ Ð¼ÑĭÑģÑĤÑĭÒĽ
ÐµÑĤ ÑģÑĸÐ·
Ð¨ ÐµÑĤÐµÐ»
Ð² Ð¾Ðº
ĠÐ¾ÒĽÑĥÑĪÑĭÐ»Ð°ÑĢ ÑĭÐ½ÑĭÒ£
op y
ÑĤÑĸÐ» ÐµÑĤÑĸÐ½
ĠÐ¸Ð³Ñĸ Ð»ÑĸÐ³Ñĸ
ĠÐ°ÑĢ Ð·Ð°Ð½
Ð¼ ÐµÐ´Ñĸ
ĠÐľ Ð°Ð»
ĠÐ±Ð°Ð¹Ð» Ð°Ð½ÑĭÑģÑĭ
har e
ĠÐ¢Ò± Ò£ÒĵÑĭÑĪ
ĠÐŃ ÐļÐ¡ÐŁÐŀ
ĠÑĤÐ°Ð½ ÑĭÐ¿
ÐµÐ· ÒĽÐ°Ð·
ĠÒ¯Ð¹ÑĢÐµÐ½ Ñĥ
ĠÓ©Ð· Ð´ÐµÑĢÑĸÐ½Ðµ
ĠÐĸ ÑĸÐ±ÐµÐº
ÑĤÑĸ Ð»Ñĸ
ĠÒĵ Ò±Ð¼ÑĭÑĢ
ĠÑĤÒ¯ÑĢ ÑĸÐ½Ðµ
Óĺ ÑĥÐµÐ·Ð¾Ð²
Ð¡ Ð°Ð¼
ĠÑģÑĥ Ð´Ñĭ
ĠÐ½Ó©Ð¼ÑĸÑĢ Ñĸ
Ð´Ð°Ñģ ÑĤÐ°ÑĢ
ĠÒĽÐ¾Ð» ÑĭÐ½Ð´Ð°
Ð°Ð¼Ð°Ð· Ð°Ð½
ĠÐ¼ÓĻÐ½ ÑĸÐ½Ð´Ðµ
ĠÐºÓ©ÑĢÑģÐµÑĤ ÐºÑĸÑĪÑĸ
ÑĭÐ» Ð¼Ð°Ð¹Ð´Ñĭ
ĠÐĳ Ð°ÑĤÑĭÑĢ
Ð¼Ð°ÑĤ Ð¸ÐºÐ°Ð»ÑĭÒĽ
ĠÐº ÑĥÑĢÑģÑĤÐ°ÑĢ
ĠÐ¶Ð°Ñģ Ð°Ð»ÑĭÐ¿
ĠÐ¾ÑĤÐ±Ð°Ñģ ÑĭÐ»ÑĭÒĽ
ĠÐ¶Ð°Ñģ ÑĭÐ½Ð´Ð°
ĠÑĤÐ°Ð» Ð°Ð±Ñĭ
ĠÒ ³
ĠÐ±Ò± Ð¹ÑĭÑĢ
ÑĤ Ð°ÑģÑĤÑĭÑĢ
ĠÑĤÐ°Ð±ÑĭÐ» Ð´Ñĭ
Ð¾ ÑĤÐ°
ĠÑĤÐ¸ÑĸÐ¼Ð´Ñĸ Ð»ÑĸÐ³Ñĸ
ĠÐºÐµÐ» Ð´ÑĸÒ£ÑĸÐ·
b u
i g
hats App
ĠÐ½Ð°ÑĢ Ð°Ð·
ĠÐ¶Ò¯ÑĢÐ³ÑĸÐ· Ð³ÐµÐ½
Ð¢ Ò±
ĠÐŀÑģÑĭ Ð´Ð°Ð½
ÑĤÐµÐ½ ÑĸÒ£
Ð¼ ÐµÑģÐµ
Ð» Ð¸Ðº
ĠÑĪ Ð¸
ÐĽ ÐĲÐł
ĠÐ±ÑĸÐ» ÑĥÑĸ
ĠÑģÐ¸Ð½ Ð´ÑĢÐ¾Ð¼
ĠÑĤÓ©Ð¼ÐµÐ½ Ð´ÐµÑĤ
ĠÐ±Ò±Ð» ÑĪÑĭÒĽ
ÑĤÑĸÐ» ÐµÐ´Ñĸ
ĠÒļÐ°Ð½ Ð´Ð°Ð¹
ĠÒĽÐ¾ÑĢ ÑĭÒĽ
ĠÐµÐ» Ð´ÐµÐ³Ñĸ
ĠÐ´ÐµÐ» ÐµÐ³
ĠÐºÒ¯ÑĪ ÐµÐ¹ÑĤÑĥ
ĠÑĪ ÑĸÐ»
ĠÐ¿Ð°ÑĢ Ð°Ð¼ÐµÑĤÑĢ
ĠÐµ Ð³Ñĸ
Ñģ ÑĸÐ¼Ð´ÑĸÐº
ĠÐ¡ Ð°Ð¼
ÐŀÑĢ Ð°Ð»
ĠÒĽÐ°ÑĥÐ» ÑĭÑģÑĭÐ½Ð°
Ð¿ ÑĸÐ·
ĠÑĢÐ°ÑģÑĤ Ð°Ð¹ÑĤÑĭÐ½
ĠÑĤÐ°Ñģ ÑĤÐ°Ñĥ
ĠÒĽÐ°ÑĢ Ð°Ð¹Ð´Ñĭ
ĠÒĽÐ°ÑģÐ¸ ÐµÑĤÑĤÐµÑĢÑĸÐ½
ĠÐ»Ð¾Ð³ Ð¸ÐºÐ°Ð»ÑĭÒĽ
ÑĦ Ð¾Ð½
ĠÒĽÐ°Ð¹ ÑĤÑĭÐ¿
ĠÒĽÐ°Ð¹ÑĤÐ°Ð» Ð°Ñĥ
ĠÑģÒ±ÑĢÐ°ÒĽ ÒĽÐ°
ÒļÐ°Ð¹ ÑĢÐ°ÑĤ
ĠÐ°Ò£ ÒĵÐ°ÑĢ
ĠÐ¶ÑĭÑĢ Ð°Ñĥ
ĠÐ¶Ð°ÑĤ ÑģÐ°
ĠÑĤÐ¾ÒĽÑĤ Ð°ÑĤÑĥ
ĠÐ´ÓĻÑĢÐµÐ¶ ÐµÐ´Ðµ
ĠÑĤÒ±ÑĢ ÒĵÑĭÐ·
Óĺ Ð½
ÑĤ Ð¾Ð»
âĢ Ļ
ĠÐĹÐ°Ò£ ÑĭÐ½ÑĭÒ£
Ð¡ Ñĥ
Ð°Ð»Ð°ÑĢ Ð´Ð°Ð½
ĠÐ¼ÐµÐ¼Ð»ÐµÐºÐµÑĤÑĤÐµÑĢ Ð´ÑĸÒ£
ÐĲ Ð¨
ĠÑĤÑĸÐ» Ð´ÑĸÒ£
Ð½ Ð´
Ð¼ÐµÐ½ÑĤÐ°ÑĢ Ð¸Ð¹
Ð¿ Ð¸
ĠÐ¶Ð°Ð» Ð°ÒĽÑĭ
ĠÐºÐµ ÑĪÑĸÐº
ĠÑĤÐ°ÑĢ Ð°Ð»ÒĵÐ°Ð½
ĠÐ±Ð°Òĵ Ð°Ð¼
ĠÐµÐ½ Ð³iÐ·
ĠÐľÒ± Ð½Ñĭ
ĠÐļ Ð°ÑģÐ¿Ð¸Ð¹
ĠÐľÒ±ÑħÐ°Ð¼ Ð¼ÐµÐ´
ĠÒļÐ°Ð·Ð°ÒĽ ÑĤÑĭÒ£
Ð½Ð¾ Ðµ
ĠÐ¶Ð°ÒĵÐ´Ð°Ð¹ Ð»Ð°ÑĢÐ´Ñĭ
Ġ199 2
Ð³Ðµ Ð»Ñĸ
ĠÑĤÐ¾Ð¿ ÑĤÑĭÒ£
ÐľÒ±Ð½ Ð°Ð¹
ĠÒļ Ð°Ð»Ð°
do c
ĠÐ±Ð°Ð¹ÒĽÐ°Ñĥ ÑĭÐ½ÑĭÒ£
ĠÓ©Ð¼ÑĸÑĢ Ð»ÑĸÐº
ĠÑĪÑĭÒĵÐ°ÑĢ Ð°ÑĤÑĭÐ½
ĠÐĳÐ°Ñģ ÑĤÑĭ
ĠÐ³ Ð¸Ð´
ĠÑĤÐ°ÒĽÑĭÑĢÑĭÐ± ÑĭÐ½Ð°
ĠÐ°Òĵ Ð°Ð¹ÑĭÐ½
ĠÐ·Ð°Ò£Ð½Ð°Ð¼ Ð°ÑģÑĭÐ½Ð´Ð°
ĠÐ¶Ð°ÒĽ ÒĽÐ°
ĠÐ¶Ò¯Ð¹ ÐµÑģÑĸÐ½Ð´ÐµÐ³Ñĸ
ĠÐ¶ÐµÑĤÐºÑĸÐ· Ðµ
ĠÐļ ÐµÐ»ÐµÑģÑĸ
ĠÐļÐ°Ð·Ð°Ñħ ÑģÑĤÐ°Ð½
ĠÑĦÐ¸Ð»Ð¸Ð°Ð» ÑĭÐ½ÑĭÒ£
ĠÒĽÐ°Ò£ÑĤÐ°ÑĢ Ð´Ð°ÒĵÑĭ
ĠÐ¼Ó©Ð»ÑĪÐµÑĢ ÑĸÐ½
Ð³ Ð¸
Ð¾Ð· Ð°
ĠÐ´ ÑĢ
a p
ĠÓĻÐ´ÐµÐ±Ð¸ ÐµÑĤÑĸÐ½ÑĸÒ£
ĠÐ± Ò¯ÑĢ
ĠÐ¶ÐµÐ»ÑĤÐ¾ÒĽÑģÐ°Ð½ Ð´Ð°
Ð±Ðµ Ð³ÐµÐ½
ĠÐ» Ð°ÒĽ
ĠÐ¼Ð°ÒĽ Ò±Ð»
ĠÐ» Ð¸Ð³
ĠÐºÐµÐ»ÑĸÑģ ÐµÑģÑĸÐ·
ĠÒ±Ð¹ ÑĭÒĽ
ĠÐ°Ð±ÑĭÑĢ Ð¾Ð¹
ĠÐŀ Òļ
Ðĸ Ò¯ÑĢ
ĠÓĻÑģ ÐµÐ¼
ĠÐ± Ð°ÑĤ
ÒĽ ÑĭÑģÑĭ
ĠÓ©Ð»ÑĪ ÐµÑĥ
ĠÐºÐµ ÑĥÐ´Ðµ
ĠÐ´ ÐµÑģÐµÐº
ĠÐ¾ÑĢÐ³ Ð°Ð½Ñĭ
ÐµÐ» Ðµ
Ð¢ ÐĲ
ÑĤ Ð¸Ð½
ĠÐ°ÑĪ ÑĤÑĭ
Ġ7 57
ĠÑģÓĻ Ð»
ĠÑģÐ°Ð½ Ð°Ð»Ñĭ
ĠÑĪÑĭÒĵÐ°ÑĢÐ¼Ð° ÑĪÑĭÐ»
ĠÐ±Ð¾Ð»Ð¼ Ð°Ð¹ÑĤÑĭÐ½
Ð¿ ÑĸÐºÑĸÑĢ
ĠÑĤÒ¯ÑģÑĸÐ½ÑĸÐº ÑĤÑĸ
ĠÐ¸Ð³ÐµÑĢ ÑĸÐ»Ñĥ
ĠÒ¯ ÑģÑĤÑĸ
Æ ı
ĠÐ±ÑĸÑĢ Ð»ÐµÑģÐµ
ÑĭÐ¼ Ð½Ð°Ð½
ĠÐŃ ÐºÐ¾Ð½Ð¾Ð¼Ð¸ÐºÐ°Ð»ÑĭÒĽ
Ð½ Ð°Ð»Ñĭ
ĠÐŀÑĢ Ð°Ð·
ĠÐľ Ò¯Ð¼ÐºÑĸÐ½
ĠÐ¾Ð» Ð¸Ð¼Ð¿Ð¸Ð°Ð´
ĠÐ³Ð¸Ð¿ ÐµÑĢÑģÑĸÐ»ÑĤÐµÐ¼Ðµ
ĠÒĽÒ± Ð¿
Ð¡ ÑĤÑĥÐ´ÐµÐ½ÑĤ
ÐļÓ© Ð»ÐµÐ¼Ñĸ
ĠÐ¶Ð°Òĵ ÑĭÐ¼ÑģÑĭÐ·
ĠÒļÐ¾Ð»Ð´Ð°Ð½ Ñĥ
ĠÐ¿ÐµÐ´Ð°Ð³Ð¾Ð³ Ð¸ÐºÐ°
Ðľ Ð°ÑĤÐµÑĢÐ¸Ð°Ð»Ð´Ð°ÑĢÐ´Ñĭ
ĠÐĲÑģ ÒĽÐ°ÑĢ
ĠÐ¶Ò¯ÑĢÐ³ÑĸÐ·ÑĸÐ» ÑĥÐ´Ðµ
ĠÒ±ÑĪ ÑĭÐ¿
ĠÐ¾ÑĤÑĭÑĢ ÒĵÑĭÐ·
ĠÐºÐµÐ»ÑĸÑģÑĸÐ¼ ÑĪÐ°ÑĢÑĤ
Ðº Ð°ÑĢ
ĠÐ¼Ð°ÒĵÑĭÐ½ Ð°ÑģÑĭ
Ðľ Ò¯
ÐµÐ½ Ð½
ĠÓ©Ñģ ÑĸÐ¼
Ðµ Ð´ÐµÐ»
ĠÐĿÓĻÑĤÐ¸Ð¶ ÐµÑģÑĸÐ½Ð´Ðµ
ĠÐĲÐĿÐ«Òļ Ð¢ÐĲÐľ
ĠÐºÒ¯ ÑĤÑĥ
ÐĲÐ» Ð°Ð¹Ð´Ð°
ĠÐºÐ¾Ð¼Ð¿ÑĮÑİÑĤÐµÑĢ Ð»ÑĸÐº
Ñģ Ð¼
ÑĤÐµÐ½ Ð´ÑĸÑĢÑĥ
ĠÐĸ ÓĻ
ĠÓĺÐ± Ð´Ñĸ
ĠÐ±Ð°Ð¹Ð»Ð°Ð½ÑĭÑģ ÑĤÑĭÑĢ
ĠÐ¼Ó©Ð»ÑĪÐµÑĢ Ð»ÐµÐ¼
ĠSt an
ĠÑģÐ°Ð» Ð°Ð´Ð°
ĠÐ±ÐµÑĢ Ð¼ÐµÐ¹
ĠÓĺ Ð·ÑĸÑĢ
. [
ĠÐ¶Ó©Ð½ ÐµÐ»
ĠÐł ÐµÑĦÐµÑĢ
ĠÑģ ÑĤÑĢ
ĠÐ¶Ð°ÑĤÑĭÑĢ Ð¼ÑĭÐ·
ĠÒ®ÐºÑĸÐ¼ ÐµÑĤÑĸ
ĠÒĽÐ°Ð¼ÒĽÐ¾ÑĢÐ»ÑĭÒĵÑĭÐ½ ÑģÑĭÐ·
ĠÑĦ Ð¸Ð½Ð°Ð»
ĠÐ¼ÐµÐ¼ Ð¾ÑĢ
ÐµÐ·ÒĽÐ°Ð· ÒĵÐ°Ð½
ÐŃ Ð»ÐµÐºÑĤÑĢÐ¾Ð½Ð´Ñĭ
Ò¯ ÑĤ
ĠÐ±ÐµÐ¹Ð½ ÐµÐ»ÐµÑĥ
ĠÐ³ÑĥÐ¼Ð°Ð½ Ð¸ÑĤÐ°ÑĢÐ»ÑĭÒĽ
Ġ ÑĸÐ½
ĠÐ¶ Ð°Ð´
ĠÐľ ÐķÐĿ
ĠÐºÐµÐ» ÑĥÑĸ
opy right
% ,
ĠÐŀ Ð»Ð°ÑĢÐ´Ñĭ
ĠÑĤÐ¾Ð¿ ÑĤÑĭÒĽ
ĠÒ±Ñı Ð»Ñĭ
ĠÑĤÒ± ÑģÐ°Ñĥ
Ġ1 20
ĠÐ±ÑĸÐ»Ð´ÑĸÑĢ Ð³ÐµÐ½
ĠÐ¿Ð¾Ñį Ð·Ð¸Ñı
ĠÐŀÐ» Ð°Ð¹
ĠÑģÐ°ÑıÑģÐ°ÑĤ ÑĭÐ½ÑĭÒ£
ĠÑģÐ¾Ð· ÑĭÐ»Ð¼Ð°Ð»Ñĭ
ĠÓ©ÐºÑĸÐ» ÐµÑĤÑĤÑĸ
ĠÒļ ÐĲÐĽ
ĠÐ¾ÒĽÐ¸ Ð´Ñĭ
g i
ĠÐ¿Ð°Ð¹Ð´Ð°Ð»Ð°Ð½ Ð°Ð´Ñĭ
ĠÐ°Ð¹ Ð¼Ð°ÒĵÑĭ
ĠÐ³ Ð¸Ð¼Ð½
ĠÑį Ð¼
Ġ Y
ĠÐĲÐ» ÑĭÐ¿
ĠÒĽÐ°Ð¼ÑĤÐ¸ ÑĤÑĭÐ½
ĠÑģÓĻ Ð»ÐµÐ¼
ĠÐ¾ÑĢÑĭÐ½Ð´Ð°Ð» ÑĥÑĭÐ½
ĠÐ±Ð°Ð¹ Ð»ÑĭÒĽ
ĠÐ¼ Ð°ÒĵÑĭÐ½Ð°
ĠÐ°Ð²ÑĤÐ¾ Ð±ÑĥÑģ
201 0
ĠÐ±Ð¾ÑģÑĤÐ°Ð½ Ð´ÑĭÒĵÑĭÐ½Ð°Ð½
ĠÐ¢Ò±ÑĢ ÒĵÑĭÐ½
Ñģ ÑģÐµ
ĠÒĽÐ°Ð¶ ÐµÑĤÑĸ
Ġ199 5
ĠÑģÐ°ÑıÑģÐ°ÑĤÑĭ Ð¼ÐµÐ½
ĠÐ±Ð¸ Ð¾Ð»Ð¾Ð³Ð¸ÑıÐ»ÑĭÒĽ
ĠÐ¼Ð°ÑĢ ÐºÐ°ÑģÑĭ
ĠÐºÒ¯Ð¼ ÓĻÐ½
Ð¸ÑĤ ÑĮ
ĠÐķÐºÑĸ Ð±Ð°ÑģÑĤÒ±Ð·
Ð¸Ñı ÑģÑĭÐ½Ð´Ð°
ĠÐ±Ò±Ð¹ÑĢ ÑĭÒĵÑĭÐ¼ÐµÐ½
ĠÓ©Ñģ ÑĤÑĸ
ĠÑĪÐµÐº ÑģÑĸÐ·
ĠÐ¶Ð¾Ð» Ð´Ð°
ĠÐ±Ð°Ñģ ÑĤÐ°Ð½
Ð´ÑĭÒ£ ÑĭÐ·
ĠÐ¾ÑĤÑĭÑĢ Ð°ÑĤÑĭÐ½
Ð»Ð°ÑĢ Ð´Ð°Ð½
ĠÑĢÐ°Ð´Ð¸Ð¾ ÑģÑĭ
ound ation
Ð»Ð°ÑĢ ÑĭÐ¼ÐµÐ½
Ðĸ ÐµÒ£
ĠÒĽÒ± ÑģÑĤÐ°ÑĢ
ĠÐŀÑĢ ÑĭÑģ
Ð¾Ð² Ð¾
ĠÒĽÐ¾Ð»Ð´Ð°Ð½ Ð°Ð´Ñĭ
S hare
ĠÑģÑĥÐ´ ÑĮÑı
ĠÒĽÒ±ÑĢÑĭÐ»ÑĭÑģ ÑĭÐ½
ĠÐ¶Ò¯ÑĢ Ðµ
ĠÐ±Ð°Ñģ Ñĥ
ĠÐ±ÑĸÑĢ ÑĪÐ°Ð¼Ð°
Ġ201 9
ÐºÑĸÐ½ÑĸÑĪ ÐºÐµ
ĠÐ¥Ð°Ð» ÒĽ
ÐĳÐĽ ÐĺÐļ
ĠÐ±Ð°ÒĵÑĭÑĤ ÑĭÐ½Ð´Ð°
iÐ½ i
ÑĤ Ð°ÒĵÐ°
ĠÐĹ ÐµÑĢÑĤÑĤÐµÑĥ
Ð¶ ÐµÐ»
in ews
ÐµÑĢ Ð°Ð»
ÐµÐº ÑĨÐ¸ÑıÑģÑĭ
w ard
ĠÑĤÓĻÑĢÐ±Ð¸ÐµÐ»ÐµÐ½ Ñĥ
ĠÐľ Ð¾Ð»
ĠÑģÓ©Ð½ Ð´ÑĸÑĢÑĥ
ĠÐºÐ¾ Ð¾Ð¿ÐµÑĢ
ĠÐ¶Ð°Òĵ ÑĭÐ¼Ð´Ñĭ
ĠÑģÒ¯ÑĢ Ð³ÐµÐ½
Ð±Ð°Ñģ ÑĭÐ½Ð°
ĠÒļÑĭÑĢ ÐºÒ¯Ð¹ÐµÐº
ĠÐ¶ÐµÑĢ ÑĸÐ½Ðµ
ĠÐķ Ð²
ĠÐºÓ©ÑĢ ÑĪÑĸ
Ð¸Ð³ Ð¸ÐµÐ½
ĠÐ¶ÑĭÐ» Ð¶ÑĭÐ¼Ð°Ð¹ÑĤÑĭÐ½
ĠÐĳ ÐµÑģ
ĠÐ¸Ðµ Ð³ÐµÑĢÑĸ
Ð°Ñı ÒĵÑĭ
ÐŁÐ£ ÐĳÐĽÐĺÐļ
ĠÐĲÐ² ÑĤÐ¾ÑĢ
ĠÐ¿ Ð°Ñģ
ĠÐµÑĢ ÑĸÐº
ĠÑģÒ¯Ð¹ ÐµÐº
i Ð¼ÐµÐ½
ÒĽÐ°Ð½ ÑĭÒ£
c o
ĠÐ£ ÓĻÐ»
ĠÒĽÒ±Ð·ÑĭÑĢ ÐµÑĤÑĤÑĸ
ĠÑģÑĤÐ°ÑĤÐ¸ÑģÑĤ Ð¸ÐºÐ°Ð»ÑĭÒĽ
ĠÐ´Ò¯Ð½Ð¸ ÐµÑĤ
ĠÑĤÐ°ÑĥÐ°ÑĢ Ð»Ð°ÑĢÐ´Ñĭ
Ð´ÐµÑĤ ÑĤÐµ
ĠÑĦÐ¾ÑĢÐ¼ Ð°ÑģÑĭ
ĠÐĲÐ»ÐµÐºÑģ Ð°Ð½Ð´ÑĢ
ĠÐ¢Ó©ÑĢ Ðµ
ĠÒļ Ð«ÐĹ
ĠÐ¶ÑĸÐ±ÐµÑĢ ÐµÐ´Ñĸ
ÑĪÑĭ ÒĵÐ°
ĠÑĤÓĻÑĥ Ð»ÑĸÐº
ĠÑģÐ°ÑıÑģÐ°ÑĤ ÑĤÑĭ
ĠÐ°ÑĥÑĭÐ» ÑĭÐ½ÑĭÒ£
ÐĳÐ°Ñģ Ð¿Ð°ÑģÓ©Ð·
ĠÐļÓ© ÑĪ
Ðļ Ð¾ÑĢ
ĠÐºÐµÒ£ Ñģ
ĠÐ°ÒĽÑĭÐ½ Ð½ÑĭÒ£
ĠÒĽÐ°ÑĢÐ°ÑĪÐ° Ð´Ð°
ĠÓĺ Ð¼ÑĸÑĢ
Ġ Ð°ÑģÑĭ
9 8
ĠÓĻÑĥ ÐµÐ¶
Ñģ ÓĻ
g ov
ÑĭÐ¼ ÑĭÑĢ
ĠÑĤÐµÑĢÑĢÐ¾ÑĢ Ð¸Ð·Ð¼
ĠÐ¿ Ð»Ð°Ð½
ĠÐ¶Ð°ÑĤ ÑĤÑĭÒĽ
ĠÒĽÐ°Ð±ÑĭÐ» Ð´Ð°Ð¿
ÓĻÑĢÐµÐº ÐµÑĤÑĸ
ĠÐºÐ¾Ð¼Ð°Ð½Ð´ Ð°ÑģÑĭ
ĠÐĲÐ½ ÑĭÒĽ
ĠÑĤ ÐµÑĤ
ĠÐ±Ò¯Ð¹ ÑĢÐµÐº
ĠÑĤÐ°Ð»Ð°Ð¿ ÑĤÐ°ÑĢÑĭ
ÐľÐ°ÒĽ Ð°Ð»
ÐłÐµÑģ Ð¼Ð¸
ĠÐ¼ÓĻ Ð·ÑĸÑĢ
ĠÒĽÑĥ ÑĭÑģÑĭÐ½ÑĭÒ£
ĠÐļ Ñĥ
ĠÐºÑĸÑĢ ÐµÑĤÑĸÐ½
Óĺ Ð±
ĠÐ´Ðµ ÑĥÐ³Ðµ
ĠÐ°Ð»ÑĭÐ½ Ð°ÑĤÑĭÐ½
ÑĥÑĪÑĭÐ»Ð°ÑĢ Ñĭ
ĠÐµÑģ ÑĸÐ¼Ð´Ñĸ
Ð°ÑĤÑĭ Ð¼ÐµÐ½
Ðľ ÑĭÑģÐ°Ð»Ñĭ
ĠÐºÓ©Ð· Ð´ÐµÑĢÑĸ
ĠÓ©Ð·ÐµÐ½ ÑĸÐ½ÑĸÒ£
ĠÐ°Ð¹ Ð¼Ð°ÒĵÑĭÐ½Ð°
ÑĤÑĸÑĢ ÑĸÐº
ĠÒĽÑĭÐ·Ð¼ÐµÑĤ ÑĸÐ½Ð´Ðµ
ĠÐ¼Ð¾Ð½ Ð¾Ð¿Ð¾Ð»
ĠÐ¶ÐµÐ»ÑĸÑģ Ñĸ
ĠÐ¶ÐµÑĤÐºÑĸÐ· ÑĥÐ³Ðµ
Ð°ÑĥÑĢ Ðµ
ĠÐºÐ¸ ÐµÐ»Ñĸ
ĠÑĦÐ¾ÑĢÐ¼ ÑĥÐ»
ĠÓĻÐ´ÑĸÑģÑĤÐµÐ¼ ÐµÑģÑĸ
Òļ Ð°Ñĥ
ĠÑģÒ±ÑĢ Ð°Ð´Ñĭ
ĠÑĤÐ¾Ð» ÒĽÑĭÐ½
Ġ100 0
ĠÐ±Ð°ÑıÐ½ Ð´Ð°Ð¼
Ð¶ Ò±Ð¼
Ðļ Ò¯
en gr
ĠÐ¸Ð½ Ð½Ð¾Ð²Ð°ÑĨÐ¸Ñı
ĠÐ¶ÐµÒ£ ÑĸÑģ
Ð½ ÐµÐ¼
ĠÑĤÐµÑĢÑĢ Ð¸ÑĤÐ¾ÑĢ
ĠÓĻÐ»ÐµÑĥ ÐµÑĤÑĤÑĸ
ĠÐ¡ ÑĤÑĥÐ´ÐµÐ½ÑĤ
ĠÐ°Ð¹ÑĤÑĭÐ» Ð°Ð´Ñĭ
ĠÒĽÐ°Ð¼ ÒĽÐ¾ÑĢÐ»ÑĭÒĽ
ĠÐ¢ Ð°Ñģ
ĠÐ´ Ð°ÑĢÐ°
ĠÑħÐ°Ð±Ð°ÑĢÐ» Ð°Ñģ
ĠÐ¾Ð» Ð¸Ð¼Ð¿Ð¸Ð°Ð´Ð°
Ð¿ÐµÑĢ Ð¸
ĠÐ°Ñĥ ÑĭÑĤ
ĠÓ©Ð½Ð´ÑĸÑĢ ÑĸÑģÑĸ
engr inews
ĠÑĪÐ°ÒĽÑĭÑĢ ÑĭÐ¿
ĠÑĤÐ°ÒĽ Ð¿Ð°ÒĽ
ĠÐ¿Ð°ÑĢ Ð»Ð°Ð¼ÐµÐ½ÑĤ
ĠÐ°ÑĪÑĭÐ» Ð°Ð´Ñĭ
ĠÑĤÐ°Ð¿ÑģÑĭÑĢ Ð´Ñĭ
ĠÐ°Ñĥ ÒĽÑĭÐ¼
ĠÐºÓ©Ð»ÐµÐ¼ ÑĸÐ½ÑĸÒ£
ĠÒ°Ð»Ñĭ Ð±ÑĢÐ¸ÑĤÐ°Ð½
ĠÒļÒ± ÒĽÑĭÒĽ
Ġ ÑĭÑĢ
ĠÑģÐ°Ð½Ð°ÑĤ ÑĤÐ°ÒĵÑĭ
Ġ3 7
ÑĪÐµ Ð»ÑĸÐº
ĠÐ¢ ÑĥÒĵÐ°Ð½
Ñı Ð´Ñĭ
Ð¼Ð¸Ð½Ð¸ÑģÑĤÑĢ Ñĸ
ĠÐ¿Ð°Ð¹Ð´Ð°Ð»Ð°Ð½ ÑĭÐ»Ð°Ð´Ñĭ
ĠÒ¯ÐºÑĸÐ¼ ÐµÑĤÑĸ
ĠÒĴ Ð°Ð»ÑĭÐ¼
ĠÑĸÑĪ ÐµÐº
ĠÐķ ÑĪ
ĠÐ°ÑĥÐ´Ð°ÑĢ ÑĭÐ¿
ĠÑĤÓĻÑģ ÑĸÐ»Ñĸ
ĠÐļ Ð¾Ð»
Ð± Ñĭ
Ð¡ ÐµÐ¼ÐµÐ¹
ĠÒĽÑĭÑĢ ÒĵÑĭÐ·
ÑĤÐ°ÑĢ Ð¼Ð°ÒĵÑĭÐ½Ð´Ð°
Ġ199 3
ĠÑĤÐ°Ð» Ð°Ð±ÑĭÐ½Ð°
Ð¸ Ð¶
ĠÐ¡ Ò¯Ð¹
ÑĤÐ°Ð» Ð°ÑĤÑĭÐ½
ĠÒĽÒ±ÑĢÑĭÐ» ÑĤÐ°Ð¹
ĠÑĸÑĢ Ð³
reati ve
ĠÐ°Ð»ÒĽ Ð°Ð¿
ĠÐ¶Ð°Ñģ Ð°Ð½Ð´Ñĭ
ÑĤÐ°Ð¼ Ð°Ð»ÑĭÒĽ
Ð± iÑĢ
ĠÑģÑĥ Ð´ÑĭÒ£
ĠÐ¢ Ð¾ÒĽ
ĠÑĤÐ°Ð¿ÑģÑĭÑĢ Ñĥ
ÑĭÒĵ ÑĭÐ½Ð°Ð½
ĠÐ´ Ñĥ
al l
ÓĻ Ð¿
ĠÐ¶Ð°Ð½ Ð°Ð¼Ð°
ÑĤÑĸÒ£ ÑĸÐ·
ÒļÑĭÐ· Ð¼ÐµÑĤ
ĠÐ´Ð¸Ð¿Ð»Ð¾Ð¼ Ð°ÑĤ
ĠÐ±ÐµÑĢÑĥ ÑĪÑĸÐ»ÐµÑĢ
Ð±ÑĢ Ð°Ð·
ĠÐĲÒĽÐ¿Ð°ÑĢÐ°ÑĤ ÑĤÑĭÒĽ
ĠÐ¼ÐµÑĢÐ·ÑĸÐ¼ Ð´Ðµ
ÐºÓ© Ð¿
ĠÑĢÐµÑģÐµÐ¹ Ð»ÑĸÐº
ĠÐ±Ð¾Ð»Ð¼ Ð°Ñģ
ÐĲÐ·Ð°Ð¼ Ð°ÑĤÑĤÑĭÒĽ
ĠÐ°ÑĢÑĤÑĭÒĽ ÑĪÑĭÐ»ÑĭÒĽ
Ðł ÐµÑģÐ¿ÑĥÐ±Ð»Ð¸ÐºÐ°Ð»ÑĭÒĽ
ĠÐĶÐµÐ½ Ðµ
ĠÒĽÑĭÑĢÐºÒ¯Ð¹ÐµÐº ÑĤÐµ
Ġ ÑĭÑģ
ĠÑĪ ÐµÐ³ÑĸÐ½Ð´Ðµ
Ð»ÑĭÒĽ Ð¿ÐµÐ½
ĠÑģ ÑĨÐµÐ½Ð°ÑĢÐ¸Ð¹
Ð°ÑĢÑĥÑģ ÑĮ
ĠÐľ Ð°Ðº
ĠÐĿ ÐµÐ³Ðµ
Ġ199 7
ĠÑģÐ°Ð»Ð°Ñĥ Ð°ÑĤÑĤÑĭ
ĠÐľ Ð°Ð¼ÑĭÑĢ
ĠÑĤÐ°Ð¿ÑģÑĭÑĢÐ¼ Ð°Ð»Ð°ÑĢÐ´Ñĭ
ÑĤÐ°Ðº ÑĤÐµ
ĠÐ°ÑĤÐ°Ñĥ Ð»Ñĭ
Ð°Ñĥ ÑĭÐ·
ĠÐ¿ÓĻÐ½ Ð´ÐµÑĢ
Ð»Ð°Ð½ Ñĥ
Ð°Ð½ Ð°Ð»Ð°ÑĢÒĵÐ°
ÐķÑģ ÐµÐ¿
ĠÐ±ÐµÑĢÑĥ Ð´Ðµ
ĠÑĤÐ¾Ð» ÑĤÑĭÑĢÑĥ
ĠÐĸÓĻÐ½ ÑĸÐ±ÐµÐº
ĠÒĵÑĭÐ»ÑĭÐ¼ Ð´Ð°ÑĢ
ÓĻÐº ÓĻÑĢÑĸÐ¼
Ð» Ð¾Ð³
ĠÒĽÒ±ÑĤÑĤÑĭÒĽ ÑĤÐ°Ð´Ñĭ
ĠÐ±Ð°ÑĥÐ» Ñĥ
ĠÐŁÐ°ÑĢ Ð»Ð°Ð¼ÐµÐ½ÑĤÑĸ
ÐĲÐ² ÑĤÐ¾ÑĢÐ»ÑĭÒĽ
ĠÐ± Ð°ÑĤÑĭÐ»
ĠÐ¾ÒĽÑĭÑĤÑĥ ÒĵÐ°
ĠÐ°ÑĤÒĽÐ°ÑĢ Ð´Ñĭ
ĠÐ¾Ð¹ Ð»Ð°ÑĢÑĭÐ½
ĠÒĽÐ¾Ð· ÒĵÐ°Ñĥ
ĠÐºÓ©Ð± ÑĸÐ½Ðµ
Ġ3 8
ĠF oundation
ĠÓ©Ð· Ð´ÐµÑĢÑĸÐ½
ĠÐºÓ©ÑĤÐµÑĢ Ð³ÐµÐ½
ĠÐºÐ¾Ð¼Ð¿ Ð¾Ð½ÐµÐ½ÑĤ
ĠÐ´ÓĻÑĢÐµÐ¶ ÐµÑģÑĸ
ÐµÐ» ÐµÐ¹Ð´Ñĸ
ĠÐ¿Ð°ÑĤ ÑĪÐ°
ĠÐºÐµ ÑĪÐµ
ĠÑĤÒ¯ÑģÑĸÐ½ ÑĸÐ¿
ÒļÐ°ÑĢ Ð¶Ñĭ
ĠÑĪÑĭÒĵÑĭÐ½ Ð´Ð°ÑĢ
ĠC reative
ĠÐ´ÐµÒ£Ð³ÐµÐ¹ ÑĸÐ½Ð´Ðµ
ĠÐŀ Ð¼Ð°ÑĢ
Ðº Ð°Ð½
ĠÐķÐ½ Ð´ÐµÑĪÐµ
ĠÒĽÐ°ÑĢ Ð°ÑĥÒĵÐ°
Ð°Ð½Ð´ ÑĥÐ¼
Ñĥ ÐµÐ½
ĠÐ±ÐµÑĤ ÑĸÐ¼ÐµÐ½
ĠÐ°ÑĢÐ°Ð» Ð°Ð¿
Ð°Ð» Ð°ÒĽ
ĠÒĽÐ°Ð»ÑĭÐ¿ÑĤÐ°Ñģ Ð°Ð´Ñĭ
ĠÐºÑĸÑģ ÑĸÐ»ÐµÑĢ
i e
Ó¨ÑĢ Ð»ÐµÑĥ
ĠÓ© ÑĪ
ĠÐ¶Ò±Ð¼ ÑĭÑĢÑĤ
Ġ5 5
ĠÐ±Ð°ÑģÒĽÐ°ÑĢÐ¼ Ð°ÑģÑĭÐ½Ð´Ð°
ĠÐ¶Ò±Ð¼ÑĭÑģ ÑģÑĭÐ·
ĠÐ£ Ð¸ÐºÐ¸Ð¿ÐµÐ´Ð¸Ñı
ÓĻÑĢÐµÐº ÐµÑĤÑĤÐµÑĢ
ÑĤÑĭÐ½ Ð´Ñĭ
ĠÑįÐºÐ¾Ð½Ð¾Ð¼Ð¸Ðº Ð°ÒĵÐ°
ĠÐ¡ ÑĭÐ½
ĠÐºÐµÐ» ÐµÑĪÐµÐº
Ð½ ÐµÑĤ
Ð¶ Ð¾
ĠÐºÑĸÑĤÐ°Ð¿ ÑĤÐ°ÑĢ
9 6
ĠÐ¾ ÑģÑĭÐ½Ð´Ð°
ĠComm ons
ĠÐ°ÑĤ Ð¾Ð¼
ĠÐľ Óĺ
ÓĻÐ· ÑĸÐº
ĠÐ¶Ð°ÑģÑĭÑĢ ÑĭÐ½
Ð¢ Ò¯
ĠÐ¢ Ð°Ð»Ð´ÑĭÒĽÐ¾ÑĢÒĵÐ°Ð½
ÑĤÐ¸ Ð¼
ĠÐ¶Ð°Ð½ Ð´Ð°ÑĢ
Ġ199 1
Ð¾Ð¹ ÑĭÐ·
Ð¼ÐµÑĤ ÑĢ
ĠÐ°Ð¹ Ð¼Ð°ÒĵÑĭÐ½Ð´Ð°
ÐĳÐ°Ñģ ÒĽÐ°ÑĢ
ĠÐ¡Ð°ÒĵÑĭÐ½ ÑĤÐ°ÐµÐ²
Â °
ĠÐĲÐ± Ð´
ĠÐ± ÐµÑģÑĸÐº
ĠÐ» Ð°ÑĥÑĢÐµ
ĠÑį ÑĦÐ¸ÑĢ
Ð´ÑĭÑĢ Ð´Ñĭ
ĠÐ¶Ò¯Ð¹ ÐºÐµ
ÒļÐ¾Ñģ ÑĭÐ¼ÑĪÐ°
ÐµÑģÑĸÐ½ ÑĪÑĸ
ĠÑĦÐ¾ÑĤ Ð¾Ñģ
ĠÐĲÐĿÐ«ÒļÐ¢ÐĲÐľ ÐĲ
ÐļÐ¾Ð½ ÐºÑĥÑĢÑģ
o w
Ð°Ð¹ÑĭÐ¿ ÑĤÑĭ
ÑĥÑĪÑĭÐ»Ð°ÑĢ ÒĵÐ°
ĠÑĸÑģ ÑĸÐ½Ðµ
Ð¡ Ð«
ĠÒĽÐ°ÑĥÑĸÐ¿ÑģÑĸÐ· Ð´ÑĸÐ³ÑĸÐ½
ĠÐ°ÑĤÒĽÐ°ÑĢ ÑĭÐ¿
ĠÑĪÐ°ÒĽÑĭÑĢ Ð´Ñĭ
Òļ ÐĲÐĹÐĲÒļÐ¡Ð¢ÐĲÐĿ
ÒĵÐ°Ð» ÑĸÐ¼Ð´ÐµÑĢ
ÒĽÐ¾Ñģ ÑĭÐ¼ÑĪ
ĠÐ¼ÐµÒ£Ð³ÐµÑĢ Ð³ÐµÐ½
Ð°Ò£ ÒĵÑĭ
ĠÐ±Ð°Ñģ ÑĤÐ°Ð¼Ð°
ĠÒĴ Ð°Ð±
Ð´Ð°Ð¹ Ñĭ
ĠÐ¾ÑĢÑĭÐ½ Ð´Ð°Ð¹Ð´Ñĭ
ĠÒĽÐ¾Ñģ ÑĤÑĭ
ĠÑĤÐ°ÑĢ ÑĤÑĤÑĭ
ĠÐĶÒ¯Ð½Ð¸ ÐµÐ¶Ò¯Ð·ÑĸÐ»ÑĸÐº
ĠÐ±Ð¾Ð»Ð°ÑĪÐ°ÒĽ ÒĽÐ°
ĠÐ°Ð»Ð°Ò£ Ñĭ
ÐľÓĻ Ò£Ð³ÑĸÐ»ÑĸÐº
ĠÑģ Ð¾ÑģÑĭÐ½
ĠÐºÒ¯Ð· ÐµÑĤ
ri bu
ĠÐ¼Ò±ÒĵÐ°Ð» ÑĸÐ¼Ð½ÑĸÒ£
Ðľ ÐķÐ¢
ĠÒĽÐ¾ÑĢ ÑĭÐ½Ð°Ð½
Òĵ Ð°Ð¿
ĠÐºÓ© Ð±Ñĸ
ĠA tt
ribu tion
ĠX X
ĠÐ¶Ð°Ñĥ ÑĭÐ¿
ĠÐĳÐ°Ñģ ÑĤÐ°ÑĥÑĭÑĪ
ĠW ik
ĠÐ¼Ð°ÒĽÑģ Ð°ÑĤÑĤÐ°ÑĢ
ĠÐ¶Ð¾Ð± Ð°Ð»Ð°ÑĢÑĭ
ĠÒĽÒ± ÑĤÑĤÑĭ
Ð»ÑĸÑģ ÑĸÐ¼
ĠÐ³ÐµÐº ÑĤÐ°ÑĢ
ÐľÒ± ÒĵÐ°Ð»ÑĸÐ¼
ĠÐ¶Ð°Ñģ ÑĤÐ°
ĠÒĽÐ°Ð· ÑĭÐ½Ð°
ÐļÓ©ÑĢ Ð½ÐµÐºÑĸ
ĠÐº ÑĢÐ¸ÑĤÐµÑĢ
ĠÐ°Ð¹ÑĤ Ð°ÑĤÑĭÐ½
Ð¿Ð¾ÑĢ ÑĤÑĭ
Ð´ Ð°ÑģÑĤÑĭÑĢ
ĠÐµÑĢÐµÐ¶ ÐµÐ»ÐµÑĢÑĸÐ½
ĠÐĶ Ð°ÑĢ
ĠÐ¾ÐºÑĢÑĥÐ³ ÑĤÐµÑĢ
ÑĪ Ñĥ
Ðļ ÓĻÐ¼ÐµÐ»ÐµÑĤÐºÐµ
ĠÒĽÑĥ Ð°Ð½
ĠÑĤÐ°Ð½ÑĭÑģ Ñĥ
ĠÒĽÑĭÐ· Ð´ÑĭÒ£
ĠÐºÐ¾Ð¼Ð¼ÑĥÐ½ Ð¸ÐºÐ°ÑĨÐ¸Ñı
Ð¾ÑĢ ÑĥÐ¼
ĠÒĽÐ°Ð± Ð°ÑĤ
ĠÐ¸Ð¼ Ð¼ÑĥÐ½
ĠAtt ribution
ĠÓ©ÑĤ ÐºÑĸÑĢ
ĠÐ¶Ò¯ÑĢÐµÐº ÑĤÐµÐ½
20 50
Ð»Ð°Ð½ Ð´
Ð´Ñĭ ÒĵÑĭÐ½ÑĭÒ£
ĠÐ¿ÑĸÐºÑĸÑĢ ÑĸÐ½
ÑĤ Ð°ÑģÑĤÑĭÑĢÑĥ
ĠÐºÐµÐ´ÐµÐ½ Ð´ÑĸÐº
ĠÐºÐ¾Ð½Ñģ ÑĥÐ»ÑĮ
ĠÓĻÐ¹ ÐµÐ»Ñĸ
ĠÑģÐ¾ ÒĵÐ°Ð´Ñĭ
ĠÑģÑĤÐ°ÑĤÐ¸ÑģÑĤ Ð¸ÐºÐ°
ĠÐŀ ÒĽÑĭÑĤÑĥ
200 8
ĠÐ±ÐµÑĢÑĥ Ñĸ
ĠÑģÐµÑĢÑĤÐ¸ÑĦÐ¸Ðº Ð°ÑĤ
ĠÐ¾ ÑĤÑĭÐ·
ĠÐ¢ ÐµÐ½
ĠÐ´ÐµÐ¿ Ð¾Ð·
Ð¼ÐµÐ½ Ñĸ
ĠÑĪ Ó©Ð»
ĠÐ¢Ð°ÒĽÑĭÑĢ ÑĭÐ±Ñĭ
ĠÑģÐ°Ð½ Ð¸ÑĤÐ°ÑĢÐ»ÑĭÒĽ
Ð°ÑĤ ÑĤÐ°Ð½Ð´ÑĭÑĢÑĥ
Al ike
Ð´Ñĭ Ð»ÑĭÒĽ
ĠÐ¶Ò±Ð¼ ÑĭÐ»
ĠÐ¿Ð°Ð¹ÑĭÐ· ÑĭÐ½
ÐµÐ´ Ð¸ÑĨÐ¸Ñı
Share Alike
a il
ĠÐºÐµÐ»ÑĸÑģÑĸÐ¼ Ð³Ðµ
ĠÐļ ÑĸÑĪÑĸ
ĠÑĤÐ¸Ð³ÑĸÐ· ÐµÐ´Ñĸ
Ġ0 5
ÐŁ Ð¾ÑĢ
Ð¼ÑĸÐ· Ð´Ñĸ
ĠÑģÐ°Ð¹ ÑĤÑĤÐ°ÑĢ
ĠÐ³ Ð°
ĠÐ¸ Ð·
ĠÑĤÒ±ÑĢ ÑĥÒĵÐ°
ĠÐŁ ÑĥÑĤÐ¸Ð½
ĠÐ¾ÑĤ Ð±Ð°ÑģÑĭÐ½ÑĭÒ£
ĠÐ±ÑĸÑĢÐµÑĥ Ñĸ
Ò® Ð»ÐºÐµÐ½
Ð°ÒĽ Ð¿Ð°ÑĢÐ°ÑĤ
e c
ĠÐ°ÑĪ ÑĥÒĵÐ°
ÑĸÐ» Ð¼ÐµÐ³ÐµÐ½
ĠÐķÑĢ Ð»Ð°Ð½
ĠÐľ Ð°ÑĤÐµÐ¼Ð°ÑĤÐ¸ÐºÐ°
ĠÑĤÒ¯Ð½ Ð´Ðµ
ĠÑĤÐ°ÒĽÑĭÑĢÑĭÐ± ÑĭÐ½Ð´Ð°ÒĵÑĭ
9 1
ĠÐ¼Ò¯Ð¼ÐºÑĸÐ½Ð´ÑĸÐº ÑĤÐµÑĢÑĸÐ½
ÒĽÐ°Ð·Ð°ÒĽ ÑĪÐ°
Ð¡Ð°Ð¹ÑĤ ÒĽÐ°
ĠÐ¼Ð°Ð·Ð¼Ò±Ð½ ÑĭÐ½Ð°
ĠÐ± Ð°Ð½ÐºÑĸ
im edia
Ðµ ÑĨ
ĠÒļÒ± Ð¿Ð¸ÑıÐ»ÑĭÒĽ
ĠÐºÓ©ÑĤÐµÑĢ ÑĸÐ»ÐµÐ´Ñĸ
ĠÒļÒ±ÑĢ ÑĭÐ»ÑĭÑģ
ĠÐ¼ Ð¾Ð±Ð¸Ð»ÑĮ
ĠÐ°Ð² Ð¸
ĠÒĽÐ°ÑĤÑĭÑģ ÑĥÑĪÑĭÐ»Ð°ÑĢÐ´ÑĭÒ£
ĠÐºÓ©Ð»ÐµÐ¼ Ð´Ðµ
Ġt o
Ð°Ñı ÑĤ
ÐĲÐ¢ Ð«
ĠÐ°ÑĥÑĢÑĥ Ð»Ð°ÑĢÑĭ
ĠÐ·ÐµÑĢÑĤ ÑĤÐµÐ¿
ĠÐ¶Ð°Ð· ÒĵÑĭ
Ð°Ò£ Ð´Ð°ÑĢ
ĠÐ¶ÑĥÑĢ Ð½Ð°Ð»Ñĭ
ĠÐ°Ñģ ÑĤÑĭÒĽ
ĠÐ±Ó©Ð»ÑĸÐ¼ Ð´ÐµÑĢ
ĠÐ¶Ð°ÑģÐ°Ñĥ Ð´Ñĭ
ĠÐ£ÐºÑĢÐ°Ð¸ Ð½Ð°
ĠW ikipedia
ĠÑĸÑĪ ÑĸÐ½Ðµ
ĠÒļÐ°Ñĥ ÑĸÐ¿ÑģÑĸÐ·Ð´ÑĸÐº
Ð¿ Ð°Ðº
ĠÐŁ ÓĻÐ½
ĠÒ¯Ð» ÐµÑģÑĸÐ½
ĠÑĢÐµÑģÑĥÑĢÑģÑĤÐ°ÑĢ ÑĭÐ½
ĠÑģÐ¸Ð¿Ð°ÑĤ ÑĤÐ°ÒĵÑĭ
Ñģ ÑĤÑĭÒĽ
ĠÐľ Ò±ÑĢÐ°ÑĤ
ĠÐ¾Ð¿ÐµÑĢÐ°ÑĨÐ¸Ñı Ð»Ð°ÑĢ
ĠÑĤÓ©Ð»ÐµÐ½ ÐµÑĤÑĸÐ½
Ð± Ð°ÑģÑĭÐ½Ð´Ð°
ĠÑĪÑĭÒĵÐ°ÑĢÐ¼Ð° ÑĪÑĭÐ»ÑĭÒĵÑĭ
ÑĥÐ½Ð¸ ÑĨÐ¸Ð¿
ĠÑģ Ð°Ò£
Ð°Ð» ÑĤÑĥ
ĠÑģÐ¸Ð¼ Ð²Ð¾Ð»
ĠÐ±Ò±Ð· ÑĭÐ»Ñĥ
ĠÐ±ÐµÑĢ ÑĸÒ£ÑĸÐ·
ĠÐ¶Ò¯ÑĢÐ³ÑĸÐ· ÑĸÐ»ÐµÑĤÑĸÐ½
ĠÐ°Ðº ÑĤÐµÑĢ
ĠÐ°ÑĥÐ´Ð°Ð½ Ð½ÑĭÒ£
ĠÐºÒ¯Ð½ ÑĸÐ½
ÑĤÐ° ÑĨÐ¸ÑıÐ»ÑĭÒĽ
ĠÐ±Ð°ÒĽÑĭÐ» Ð°ÑĥÑĭ
ĠÐ½ÓĻÑĢÑģÐµÐ½ Ñĸ
ĠÐ°Ð¹ Ð´ÑĭÒ£
ĠÒĽÐ¾Ð» Ð¼Ð°
ĠÐ±Ð°Ð¿ ÑĤÑĭÒ£
ĠÑĤÐ°Ð½ ÑĭÐ»ÒĵÐ°Ð½
ĠWik imedia
ĠÐºÑĥÓĻ Ð»ÑĸÐº
Ñģ Ð¸Ð¼
Ð¾Ð² Ð½Ð°
Ñģ Ð°Ð¹ÑĤ
ÑĭÑĤÑĥ ÑĪÑĭÐ»ÑĭÒĽ
ĠÐº ÑĥÐ±
ĠF acebook
ĠÑĢ ÐµÐ½
ĠÒĽÐ¾ÒĵÐ°Ð¼ Ð´Ð°ÒĵÑĭ
ĠÐļÐµÒ£ ÐµÑģÑĸÐ½ÑĸÒ£
ÑģÑĤÐµÑĢ Ñĸ
ĠÐ°ÑģÑĤÐ°Ð½ Ð°ÑģÑĭ
Ò£ Ð³ÑĸÑĢ
ĠÐļ Ò¯ÑĪ
ĠÐ¶ÑĭÐ» Ð¶
ĠÐ°ÑĢ Ð°ÒĽ
ĠÐ°ÑĤÐ»ÐµÑĤ Ð¸ÐºÐ°
ÐĲ ÒĵÑĭÐ»ÑĪÑĭÐ½
ĠÐ°ÑĤ ÑĭÐ½Ð°
ĠÐµÑĢ ÐºÐµÐº
Ġ Q
ĠÐºÑĸÑĢ Ð³ÐµÐ½
Ð° Ñİ
ĠÐ°ÑĤ Ð°Ð»ÑĭÐ¿
Ðļ ÑĸÑĢÑĥ
ĠÐĹÐ°Ò£ Ð½ÑĭÒ£
Ñģ Ð°Ð»ÑĭÑģ
ÑĭÑģÑĤÐ°ÑĢ ÑĭÐ½ÑĭÒ£
Ðŀ Ðĵ
ĠÒĽÐ°Ñģ ÑĤÐµÑĢ
Ð½ Ñĸ
ĠÐĲ Ñħ
ĠÐ½ ÐµÐ½Ñĸ
ĠÐ±Ð°Ñģ ÑĤÐ°Ð»ÑĭÐ¿
ĠÐĸ Ð°ÑĥÐ°Ð¿
Ð» ÐµÐ¹
ĠÑĪÐ°ÑĢÑĥÐ°ÑĪÑĭÐ» ÑĭÒĵÑĭÐ½ÑĭÒ£
ĠÐĶ Ðµ
ÑģÑĤÐ² Ð¾
Ð¾Ð· Ñĭ
Ð¡ ÑĥÑĢÐµÑĤ
ĠÐ°Ð» Ð°ÑĢ
ÑĭÒĽ ÑĤÐ°Ð½
ÑĤÐµÒ£ Ð³Ðµ
ĠÓĺÐ± Ñĥ
ĠÐ¢Ó© ÑĤÐµÐ½ÑĪÐµ
Â» )
ÑĤÑĸÐ½Ð´Ðµ Ð¿
ĠÐ±Ð¾Ð»Ð¼ Ð°ÑģÑĭÐ½
ĠÐĳ Ð°Ð¹Ð»Ð°Ð½ÑĭÑģ
ĠÐºÐµÐ· Ð´ÐµÑĢÑĸ
Ðľ ÑĸÐ½Ðµ
Ð¢Ð°Ð» ÒĽÑĭÐ»
ĠÒĽÐ°Ð½ ÑĪÐ°Ð¼Ð°
ĠÑģÐ°Ð» ÑĤÑĭÐ½
ĠÐ¶ÑĭÐ»Ð´Ð°ÑĢ Ð´Ð°ÒĵÑĭ
ĠÑģÐ¸ ÑĭÑĢ
ĠÑĨÐ¸ÑĦÑĢ Ð»ÑĭÒĽ
ĠÒĽÐ°Ð¹ Ð½
ÐĶÐµÐ½ Ðµ
ĠÐļÐ¾Ð´ ÐµÐº
ÐµÐ³ÐµÐ¹ Ð»Ñĸ
ĠÐĸÐ°ÑĢ Ð½Ð°Ð¼Ð°
ĠÐ±Ð°ÑĢ Ñĥ
ĠÐĲÑĥ ÒĵÐ°Ð½
ĠÐ´ÐµÐ¼ ÐµÑĥ
ÑĸÒ£ Ð´ÐµÑĢ
ĠÐ» Ð¸Ð·
u p
ĠÐ¡ Ð°Ð¿Ð°ÑĢ
ĠÒĽÐ°Ð» Ð°ÒĵÐ°Ð½
ÐµÐ½ÑĤ Ð³ÐµÐ½
ĠÐ±ÑĸÐ» Ðµ
ĠÑģÑĭÐ¹ Ð°ÒĽÑĭ
ĠÐĸ Ò±
Ð¾Ð½ Ð´Ð¾Ð½
ĠÑĢÐµÐ´Ð°ÐºÑĨÐ¸Ñı Ð´Ð°
ĠÐĸ ÐĨ
ĠÑģÐ°Ð» Ð°Ð»Ð°ÑĢ
ĠÐľ Ð°Ð½
ĠÐ¨ Ð¾
ĠÐ¢ Ðĸ
ĠÐ¾ÑĢÑĭÐ½ Ð´Ð°ÑĢÑĭÐ½Ð°
ĠÐºÐ¾Ð½ÐºÑĥÑĢÑģ ÒĽÐ°
ĠÐµÑģÑĤÑĸ Ð³ÐµÐ½
ĠÐ¸Ð½Ð¶ÐµÐ½ ÐµÑĢÐ»ÑĸÐº
ĠÐĺ Ð¼Ð°Ð½
ÑĤÐ¾ Ñĩ
ĠÑĤÐ°Ð»Ð°Ð¿ ÑĤÐ°ÑĢÒĵÐ°
ĠÐºÒ¯Ð½Ð´Ñĸ Ð·
ÒĽ ÑĭÐ¿
ĠÐļÐ¾Ð½ÑģÑĤÐ¸ÑĤÑĥ ÑĨÐ¸ÑıÐ»ÑĭÒĽ
ÒĵÑĭÐ» ÑĭÒĽÑĤÑĭ
ĠÒĽÐ°ÒĵÐ¸Ð´ Ð°Ð»Ð°ÑĢÑĭ
ĠÐ¼ÓĻÐ¼ ÑĸÐ»
ĠÐĳ ÐŀÐĽ
ĠÒ¯Ð· ÑĸÐ½Ð´Ñĸ
ÑĪ ÑĸÑģÑĸÐ½Ðµ
Ð¸Ð¼ Ð¸Ñı
Ðł ÐµÑģÐ¿ÑĥÐ±Ð»Ð¸Ðº
ĠÐ±ÑĸÐ» ÐµÑģÑĸÒ£
ĠÓ©Ð»ÐµÒ£ Ð´ÐµÑĢÑĸ
ĠÐ±ÐµÐº i
h a
ĠÓĻÑĢ ÐºÑĸÐ¼
ĠÒļ Ð°Ð¿
ĠÑĤÐ°ÑĢ ÑĤ
ÑĥÐ½ Ð´
ĠÐ±ÑĸÑĢ ÑĤÒ±ÑĤÐ°Ñģ
Ð³ÐµÐ» Ð´Ñĸ
ĠÑĭÒĽ ÑĭÐ»
ĠÒĽÐ°ÑĤÑĭÑģ Ð°ÑĤÑĭÐ½
ĠÐ±Ð°Ðº ÑĤÐµÑĢ
ĠÒĽÐ°Ð»ÑĭÐ¿ÑĤÐ°Ñģ Ñĥ
Ò°Ð» ÑĤ
ĠÐ¢ÓĻÑĥÐµÐ»ÑģÑĸÐ· Ð´ÑĸÐ³Ñĸ
Ġ4 2
ĠÐ·Ð°Ò£ ÒĵÐ°
ĠÑģ ÑĤÑĥÐ´ÐµÐ½
ĠÒĵÑĭÐ»ÑĭÐ¼ ÑĭÐ½ÑĭÒ£
ĠÐ¿ÑģÐ¸Ñħ Ð¸ÐºÐ°Ð»ÑĭÒĽ
ĠÐ¼ÓĻÑģÐ»Ð¸ÑħÐ°ÑĤ ÑĭÐ½ÑĭÒ£
ÑĤÑĭ ÒĵÑĭÐ½ÑĭÒ£
ĠÐ±Ò±Ð¹ÑĢ ÑĭÒĽ
ĠÐ² ÐµÐ»
ĠÑĤÐ°Ð¼Ð°ÒĽ ÑĤÐ°Ð½Ð´ÑĭÑĢÑĥ
ĠÑĤ iÐ»
Ð°ÑĤÑĥÑĢ Ð°
ĠÑįÐºÐ¾Ð½Ð¾Ð¼Ð¸Ðº Ð°ÑģÑĭ
ĠÒĽÒ±ÑĢ ÒĵÐ°ÒĽ
ĠÐ¿ÑģÐ¸Ñħ Ð¾Ð»Ð¾Ð³
ĠÐĲ ÐºÐ°Ð´ÐµÐ¼
ĠÐ°ÑĤÑĤÐµÑģÑĤ Ð°ÑĤÑĤÐ°Ñĥ
ĠÐĨ ÑĪ
ĠÐ¢ Ð°Ð¹
ĠÐ¶Ò±Ð¼ÑĭÑģ ÑĤÐ°Ð½
ĠÓ©ÑĤ ÐºiÐ·
ĠÐ¿ÑĢÐ¾ÑĨ ÐµÑģÑĸÐ½Ð´Ðµ
Ð»ÑĸÐ¼ÑĸÐ· Ð´Ðµ
ĠÐ¾ÑĢÑĤÐ°Ð»ÑĭÒĵ ÑĭÐ½Ð°
Ð¶ Ò¯ÑĢ
ÒĴ ÑĭÐ»ÑĭÐ¼
Ð´Ð°Ð½ ÑĭÐ¿
ÑĤÑĭÑĢ ÒĵÐ°Ð½
ĠÐ°Ð¹ÑĤ ÑģÐ°ÒĽ
ĠÐ´ÓĻÑĢÑĸ Ð»ÑĸÐº
ĠÐ± ÓĻÐ¹
Ñħ ÐµÐ¼
ĠÑĪÐµÐº Ð°ÑĢÐ°
ĠÑĤÒ¯Ñģ Ñĸ
ĠÐµ Ð´
ĠÐ·ÑĥÐ± Ð¾Ð²
ĠÐºÐ°ÑĤÐµÐ³Ð¾ÑĢ Ð¸Ñı
ĠÑģÐ°Ð¿ Ð°
Ò° Ðľ
ÑĨ ÐµÐ²
ĠÒĽÐ°ÑĤ ÐµÐ»ÑĸÐº
Ñĥ ÑĸÐ½
ÐºÐµÑģ ÑĸÐ½
ĠÐ¶Ð°ÒĽ ÑĤÐ°
ÑĪ ÑĭÑģÑĭÐ½ÑĭÒ£
ÑĤÐ°Ð¿ ÑģÑĭÑĢ
ĠÐ±ÐµÑĢ ÑģÑĸÐ½
ĠÒĽÐ¾Ò£ ÑĭÑĢ
ĠÒ±Ð½ Ð°Ð´Ñĭ
ĠÐ¼Ò¯Ð´ Ð´ÐµÐ»Ñĸ
ĠÒ¯ÐºÑĸÐ¼ ÐµÑĤÑĤÑĸÐº
ĠÐ¿Ð°ÑĤÑĢÐ¸Ð¾ ÑĤÑĤÑĭÒĽ
ĠÐ¡ Ð°ÒĽ
ĠÐ´ÐµÐ¼ ÐµÐº
ĠÐ°Ð¹ÑĭÑĢÐ¼Ð° ÑĪÑĭÐ»ÑĭÒĽ
ĠÐºÐ» Ð¸Ð¼
o d
ĠÓĻÑĢÑĸÐ¿ÑĤÐµÑģ ÑĤÐµÑĢ
ĠÐ¿ÑĢ ÐµÐ¼ÑĮÐµÑĢ
Òļ Ð°ÑĤ
ĠÐłÐķÐ¡ ÐŁÐ£ÐĳÐĽÐĺÐļ
Ð¡ Ðļ
ĠÐºÓ©ÑĢÑģÐµÑĤÐºÑĸÑĪ ÑĤÐµÑĢÑĸ
ĠÓ©Ð· Ð´ÐµÑĢ
Ð¾Ð² Ð¸Ñĩ
ĠÐ¶Ð°ÑĢ Ð°Ð¼
iÐ» ÐµÐ´i
ÑĤÐ°Ð» Ð¼ÑĭÑĪ
ĠÑģÑĤÑĥÐ´ÐµÐ½ÑĤ ÑĤÐµÑĢÐ´ÑĸÒ£
ĠÒĽÐ¾Ð»Ð´Ð°Ñĥ ÑĭÐ¼ÐµÐ½
ĠÐ¼ÓĻ Ò£Ð³Ñĸ
Ġt ur
o u
Ð¸Ðº Ð°ÒĵÐ°
ĠÑĪÐµÑĪ ÐµÐ½
ĠÐ°ÑĪ Ð°Ð´Ñĭ
Ð² ÐµÑĢ
ĠÒ± ÒĵÑĭÐ½
ĠÓĺÐ¹ ÐµÐ»
ĠÐ±Ð°Òĵ Ð°ÑģÑĭÐ½
ĠÐ°Ð²ÑĤÐ¾Ð¼ Ð°ÑĤÑĤÑĭ
ĠÐ°ÑĤ Ð°Ð½ÒĵÐ°Ð½
ĠÐ´ÓĻÑĢÑĸÐ³ÐµÑĢ Ð»ÐµÑĢ
ĠÓĻÐ½ Ð´ÐµÑĢ
ĠÐºÐ¾ Ð´Ñĭ
ÑĤÐµ Ð»ÑĸÐ¿
ĠÓ©Ð· ÑĸÐ½ÐµÐ½
ĠÑĤÒ¯ Ð»
ĠÑģÓĻ Ð»ÐµÐ¼Ñĸ
ÑĢ ÐµÐ½
ĠÐ¢ Ñĥ
ĠÐ±Ð°ÑıÐ½ Ð´Ð°Ð¼Ð°
ĠÐ¾Ð¹ÑĭÐ½ Ð´Ð°ÑĢÑĭ
Ð± ÐµÐ¹ÑĤÑĸÐ½
ĠÐºÓ©ÑĪ Ð¿ÐµÐ»Ñĸ
ĠÐ°Ð» Ð°Ð¼ÑĭÐ½
ĠÐ½Ð°Ð·Ð°ÑĢ ÑĭÐ½Ð°
ĠÐ°Ð³ÐµÐ½ÑĤ ÑĤÑĸÐº
ÑĦÐ¸Ð» ÑĮÐ¼
Ð¶ Ð°Ò£Ð°
ĠÐ¶ÑĸÐ±ÐµÑĢ ÑĸÐ¿
ĠÑĤÐ¾Ð½ Ð½
ĠÐĸ Ò±Ð»Ð´ÑĭÐ·
ĠÑģÓ©Ð· ÑĸÐ½Ð´Ðµ
Ð»Ð°Ð² Ð½Ð°Ñı
ÐĸÐµÑĢ Ð³ÑĸÐ»ÑĸÐºÑĤÑĸ
ĠÐ¿Ð¾Ð» Ð¸ÑĨÐµÐ¹
ĠÑĸÑģÑĤ ÐµÐ´Ñĸ
Ð¿ ÑĭÐ·
Ð¿ Ð°Ð·Ñĭ
ĠÐ¶Ð°ÑĢÑĤÑĭÐ¶ÑĭÐ»Ð´Ñĭ ÒĵÑĭÐ½Ð´Ð°
Ð¾Ð² ÐµÑĤ
ĠÑģÐ°ÒĽ ÑĤÐ°Ð»ÑĭÐ¿
ĠÐ¶Ð¾Ð± Ð°Ð½ÑĭÒ£
ĠÐºÐ°ÑĢ ÑĤÐ°
ĠÐ¼ÐµÐ· Ð³Ñĸ
ĠÐĴÐ»Ð°Ð´ Ð¸Ð¼Ð¸ÑĢ
ĠÐ¶Ð°Ð»Ð¿Ñĭ ÒĵÐ°
ĠÑĤÐ¾Ð¿ ÑĤÐ°ÑĢ
ĠÐ¶Ð°ÑĢÐ°ÒĽ Ð°ÑĤ
ĠÐ¶Ð°Ñģ ÑĤÐ°ÑĢÐ´Ñĭ
Ðµ Ð´ÐµÐ½
ĠÐ¾Ð½ Ð´Ð°ÒĵÑĭ
Ó©Ð½ÐµÑĢÐºÓĻÑģÑĸÐ¿ ÑĤÑĸÐº
ĠÐºÐµ ÑĪÑĸ
ĠÐ¾ÑĢ ÑĤÐ°Ð½ÑĭÒ£
iÐ»ÐµÑĤ ÑĤi
ĠÑģÐ°Ð» ÑĭÐ½ÑĭÐ¿
ĠÐ¢Ó© Ð¼ÐµÐ½
Ñģ ÐµÐ¹
ÑĪÑĸÐ» ÐµÑģ
Ð¡ Ð¿Ð¾ÑĢÑĤ
ĠÐ¶Ð°Ð½ ÑĭÐ½Ð´Ð°
ĠÐºÓ©Ð· ÑĸÐ½
ĠÐ¾ÑĢ Ð´ÐµÐ½
Ð³Ñĸ ÑģÑĸ
Ð½ iÒ£
ĠÐ°ÑĢ Ñĥ
ĠÑģÐ°Ð»ÑĭÑģÑĤÑĭÑĢ Ð¼Ð°Ð»Ñĭ
Ð±Ð°Ñģ Ð°ÑĢ
G oogle
ĠÑĤÐ¾ Ð·
ĠÑĤÒ¯Ð¿ Ð½Ò±Ñģ
9 4
ĠÐ´ ÐµÑĢÑĤ
ĠÐ¸ Ð¿Ð¾ÑĤÐµÐº
ĠÑĤÒ±ÑĢÒĵÑĭÐ½ Ð´Ð°ÑĢÐ´ÑĭÒ£
ĠÐ» Ð°Ð³ÐµÑĢ
ĠÐ±ÑĭÐ» ÑĤÑĭÑĢ
ĠÒĽÐ°Ð¼ ÑģÑĭÐ·Ð´Ð°Ð½Ð´ÑĭÑĢÑĥ
ĠÐ°ÒĽÑĪ Ð°Ð½Ñĭ
Ð¶ Ð¸Ð½
ĠÐ±Ð¾Ð» Ð°Ð¼ÑĭÐ·
ĠÐºÓ©Ð»ÐµÐ¼ Ð´Ñĸ
ĠÐ°ÐºÐ°Ð´ÐµÐ¼ Ð¸ÑıÑģÑĭÐ½ÑĭÒ£
ĠÐ¸Ð½ÑĦ ÐµÐºÑĨÐ¸Ñı
ĠÐ°Ð·Ð°Ð¼Ð°ÑĤÑĤÐ°ÑĢ ÒĵÐ°
ĠÐ±ÐµÑĢ ÐµÐ¼ÑĸÐ½
Ðĳ Ð°Ð¹Ð»Ð°Ð½ÑĭÑģ
ĠÑĢÐµÐ°Ðº ÑĨÐ¸Ñı
Ðĳ ÐĲÒļ
Ð°Ð±ÑĭÐ» Ð´Ð°Ñĥ
ĠÐļÓ©Ð¿ ÑĤÐµÐ³ÐµÐ½
ĠÐ¸Ð½ÑģÐ¿ ÐµÐºÑĨÐ¸Ñı
ĠÑĤÐ°ÑĢ Ð°ÑĤ
e k
ĠÐ°ÑĤ Ð¼Ð¾ÑģÑĦÐµÑĢ
ĠÑį Ð¼Ð¾
ĠÒĽÒ±ÑĢÐ°Ð¼ Ð°ÑģÑĭ
ĠÐ± ÑĥÑħÐ³Ð°Ð»ÑĤÐµÑĢÐ»ÑĸÐº
ĠÐºÐµÐ· Ñĸ
ĠÐ¿Ð°ÑĤ Ð¾Ð»Ð¾Ð³Ð¸Ñı
ÐµÑĢ ÑĤÐµÒ£
ÑĢ ÑĸÐº
ĠÐ½ÐµÐ¼ ÑĸÑģ
ĠÓĻÒ£Ð³ÑĸÐ¼ ÐµÐ»ÐµÑĢ
ÐµÐº ÑĥÐ»
ĠÑħÐ°Ð±Ð°ÑĢÐ»Ð°Ð¼ Ð°Ð»Ð°ÑĢ
t r
ĠÐ°Ð¹Ð½Ð°Ð» ÑĭÐ¼Ñĭ
T witter
ÑĭÑģÑĤÐ°ÑĢ ÒĵÐ°
Ð± Ð°Ð¹Ð»Ð°Ð½ÑĭÑģ
Â ·
ĠÑĢÓĻÐ¼ÑĸÐ· Ð´ÐµÑĢ
ĠÐ¡ Ò¯Ð»ÐµÐ¹Ð¼ÐµÐ½
ÐĶ Ð°ÑĢ
ĠÐł Ð°Ð´Ð¸Ð¾
ĠÒ®ÑĪ ÑĸÐ½ÑĪÑĸ
ĠÐ±ÐµÐ¹Ð½ ÐµÑģÑĸ
Ñģ Ð°Ð¿
Ð¸Ñı Ð·
Ð· Ð°Ð¹ÑĭÐ¿ÑĤÑĭ
ĠÐķ ÑģÐµÐ½
ĠÑĤÑĸÐ» Ð³Ðµ
ĠÐ¢ ÓĻÐ¶ÑĸÐºÑģÑĤÐ°Ð½
ĠÐ¡ ÑĤÑĢÐ°ÑĤÐµÐ³
ĠÐ°Ð½ Ð°Ð»Ð°ÑĢ
ĠÐ±Ð°Ð» Ð°ÑģÑĭÐ½ÑĭÒ£
Ðº Ñĥ
ĠÐ¶ÑĸÐ±ÐµÑĢ ÑĸÐ»Ð³ÐµÐ½
Ð¸Ðº Ð°ÑģÑĭÐ½ÑĭÒ£
Ð°ÑĪ ÐºÐµÐ½ÑĤ
ÑģÑĤ Ð°ÑĦ
Ð°Ð´Ð° ÒĽ
ÑĤÐ°Ð¼ ÑĭÐ½
ĠÑģÓ©Ð· ÑĸÐ½Ðµ
ĠÒĽÐ°Ð» Ð°Ð´Ð°
ÐŁ ÑĢÐ¾
ĠÐµÐ» ÑĸÐ½Ðµ
ĠÐ°ÑĥÑĭÑĢ ÑģÑĭÐ½
ĠÒĽÐ°ÑĢÐ°ÑĪÐ° Ð´Ð°ÒĵÑĭ
ĠÐĳÒ¯ ÐºÑĸÐ»
ĠÐĿ ÐµÐ³ÑĸÐ·
ĠÑģÒ¯ÑĢ ÑĸÐ¿
ĠÐķÑĥÑĢ Ð°Ð·Ð¸Ñı
ĠÐ¸ ÐµÐ»ÐµÑĢÑĸ
ĠÐ°Ð¹ÑĭÑĢ ÑĭÐ»ÒĵÐ°Ð½
ĠÐ½Ò¯Ðº ÑĤ
ĠÑģÐ¾ Òĵ
ĠÐ±Ð°Ð· Ð°Ð»ÑĭÒĽ
Ð¾ ÒĵÐ°Ð½
ĠÒ±ÑģÑĤ Ð°ÒĵÐ°Ð½
ĠÐŀ Ð»Ð°ÑĢÒĵÐ°
ĠÒĽÐ°ÑĢ ÒĽÑĭÐ½
200 9
Ð´Ð°Ð½ Ñĭ
ĠÑĪÐ°ÒĽÑĭÑĢ Ð°Ð´Ñĭ
ÐĿ Ðµ
ĠÐ¼Ð°Ð¼Ð°Ð½ Ð´ÑĭÒĽÑĤÐ°ÑĢ
ĠÓĻÐ¹ÐµÐ» Ð´ÑĸÒ£
ÐŁÐ°Ð¹ Ð´Ð°Ð»Ð°Ð½
ĠÑĢ Ð°Ð¹
ĠÑĥÐ°ÒĽÑĭÑĤ ÑĭÐ½
Ð± Ð°Ð·
ĠÐ¼ÓĻÑĢÑĤÐµ Ð±ÐµÑģÑĸ
. "
ÑĤÐ°Ð½ Ð´Ð°ÑĢ
ĠÑģÐ°Ð»ÑĭÑģ ÑĤÑĭÑĢÑĥ
Ð¾ÑģÐº Ð¾Ð¿
ĠÓ©ÐºÑĸÐ» ÐµÑĤÑĤÑĸÐº
ĠÒĽÐ°Ð¹ÑĤÐ°Ð» Ð°Ð½
ĠÐ¼Ð°ÑĤÐµÐ¼Ð°ÑĤ Ð¸ÐºÐµ
Ð± Ð°Ð½Ðº
Ð¸Ñĩ ÐµÑģÐº
ĠÐŀÐ±Ð» ÑĭÑģÑĤÑĭÒĽ
ĠÐĶ ÓĻÑĢÑĸ
ĠÐ±Ò±Ð· ÑĭÐ»ÒĵÐ°Ð½
ĠÐ°Ð´Ð°Ð¼ Ð½Ð°Ð½
ĠÐ¼ÓĻÑģÐµÐ» ÐµÐ³Ðµ
ĠÑģÐ°Ð±Ð°ÒĽ ÑĤÐ°Ñģ
ĠÐ¿ÐµÑĢÑģ Ð¿ÐµÐº
ĠÒĽÒ±ÑĢÐ°Ð¼ ÑĭÐ½Ð´Ð°ÒĵÑĭ
ĠÒĵ Ð¸
ĠÐľ ÐµÐº
ĠÒĽÒ±ÑĢÐ¼ÐµÑĤ ÑĸÐ½Ðµ
ĠÐ¶ÐµÑĤÐºÑĸÐ· ÑĸÐ¿
ĠÑģÒ± Ð¹
ÑĭÐ½Ð´Ñĭ ÑĢ
ÒĽ Ð°Ð¿
ĠÓ©Ð½ÑĸÐ¼Ð´ÐµÑĢ ÑĸÐ½ÑĸÒ£
ÐŁ ÐĲÐł
ÒĵÑĭÐ¼ Ð´Ð°ÒĵÑĭ
Ð¼ iÑĢ
ĠÐ´ ÐµÑĤ
ĠÐ¶Ð¾ÑģÐ¿Ð°ÑĢ ÑĭÐ½Ð°
ĠÐ°Ð¹ ÑĭÐ½Ð°Ð½
ĠÓĻ ÐºÐµÐ¼
ĠÐ» Ð°Ñģ
ÐĨ ÑĪÐºÑĸ
ĠÐºÐµÐ·Ð´ÐµÑģ ÑĸÐ¿
ĠÐĲ ÑģÑĭÐ»
ĠÒĽÐ°ÑĥÐ» ÑĭÑģÑĭÐ¼ÐµÐ½
ĠÐ°Ñģ ÒĽÑĭÐ½
ĠÐ°Ð¹ ÒĵÐ°
Ġ Ò£
Ðĳ Ð°ÒĽÑĭÑĤ
ĠÒĽÑĥÐ°Ð½ÑĭÑĪ ÑĤÑĭ
ĠÐ¶Ð¾ÑģÐ¿Ð°ÑĢ Ð»Ð°Ð½
ÐŀÑģÑĭ ÒĵÐ°Ð½
Ð°ÒĽ Ð°Ð»
ĠÑģÐ¸Ð¿Ð°ÑĤ ÑĤÐ°Ð»Ð°Ð´Ñĭ
ĠÑĤÒ¯ÑĢ ÑĸÐ½Ð´ÐµÐ³Ñĸ
ĠÐ°Ð¹ÑĤÑĭÐ» Ð´Ñĭ
ÒĽÐ¾ ÒĵÐ°Ð¼
Ò® ÐºÑĸÐ¼
ĠÒĽÐ¾ÒĵÐ°Ð¼ ÒĵÐ°
ĠÑĪ Ð°Òĵ
ĠÐ°Ð» ÑĮ
Ð¸ ÒĽ
ĠÓĺ Ð»Ñĸ
ĠÐ¼ÐµÐ·Ð³Ñĸ Ð»Ð´Ðµ
ĠÑĤÐ°Ð½ÑĭÑģ ÑĤÑĭ
ĠÐ±ÑĸÐ» ÐµÑģÑĸÐ·
Ð°ÑĢ ÒĵÐ°
ĠÐµÑģ ÑĸÑĢÑĤ
Ò° Ð¹ÑĭÐ¼Ð´Ð°ÑģÑĤÑĭÑĢÑĥ
Ð±Ð¸ Ð·
ĠÒĽÐ°ÑĢ Ð°Ñģ
ÑĤÐ¸Ð² ÑĤÑĸÐº
ĠÐ¾ Ð´Ð°ÒĵÑĭÐ½ÑĭÒ£
ĠÐµÐºÑĸÐ½ ÑĪÑĸÑģÑĸ
ĠÐ½ÓĻÑĤÐ¸Ð¶ ÐµÑģÑĸÐ½
ĠÑģÐ°Ð±Ð°ÒĽ ÑĤÐ°
ĠÐĸ Ò¯ÑģÑĸÐ¿
ĠÐ¾ÒĽÑĭÑĤÑĥ ÑĪÑĭ
Ð¼ ÐµÒ£
ĠÒĽÐ¾Ð»Ð´Ð°Ð½ ÒĵÐ°Ð½
ĠÒĽÑĭÐ·Ð¼ÐµÑĤ ÑĸÐ½Ð´ÐµÐ³Ñĸ
ĠÐľ Ð°Ð¼Ð°Ð½
ĠÒĽÒ±ÑĢ Ð±
ÐµÐº Ð¾Ð¼
inf o
ĠÐ£ Ð°ÒĽÑĭÑĤ
Ð°Ð½ Ð¸
ĠÐ±Ð¸Ð·Ð½ÐµÑģ ÑĤÑĸ
ĠÑĤÒ±ÑĤ ÒĽÑĭÐ½
ÐĨ Ð¥
ĠÐĸÐµÑĢ Ð³ÑĸÐ»ÑĸÐºÑĤÑĸ
ĠÒĽÐ¾ÒĵÐ°Ð¼ ÑĭÐ½ÑĭÒ£
ĠÐĲ Ð¿
ĠÐ°ÒĽÐ¿Ð°ÑĢÐ°ÑĤ ÑĤÐ°Ð½Ð´ÑĭÑĢÑĥ
ĠÐ¿ÑĢÐ¾ÑĨ ÐµÑģÑĸÐ½
ĠÑĪÐµÑĪÑĸÐ¼ ÑĸÐ¼ÐµÐ½
ĠÑĦ Ð¾Ð½
ĠÑģÐ°Ð½ Ð°Ð»Ð°ÑĤÑĭÐ½
Ðĵ Ð»Ð°Ð²Ð½Ð°Ñı
ÑĤÐ°Ð¼ ÐµÐ½
ĠÐ½ÓĻÑĤÐ¸Ð¶ ÐµÐ»ÐµÑĢÑĸÐ½
ĠÓ©ÑĤÑĸÐ½ ÑĸÐ¼
ĠÑĸÑĪ ÑĸÐ¿
ĠÐ±ÐµÑĤ ÑĸÐ½Ð´ÐµÐ³Ñĸ
Ð¸Ð½Ð³ Ð²
ÓĻ Ð»ÐµÐ¼
ÑĢ Ð¸ÑģÑĤ
ĠÐºÓ©ÑĢÐºÐµÐ¼ Ð´ÑĸÐº
ĠÑĢÐµÐ¶ Ð¸ÑģÑģÐµÑĢ
ĠÐºÒ¯ Ð´ÑĸÐº
ĠÒĽÐ¸Ñı Ð»
ĠÐ±Ð¸ÑĢ Ð¶
ĠÐ¢ Ð°Ð¼
Ð¡ Ð°ÑĢÑĭ
ĠÒĽÐ¾Ð» ÑĤÐ°Ò£
Ð¸Ð¼ Ð°ÑĪ
ĠÐ±Ð¾ÐºÑģ ÑĪÑĭ
ĠÐ½ Ð°ÑĢÑĭ
ĠÐºÓ©Ðº Ó©Ð½
9 3
ÐµÐ¼ ÒĽÐ¾ÑĢÐ»ÑĭÒĽ
ĠÑĥÐ½Ð¸Ð²ÐµÑĢÑģÐ¸ÑĤ ÐµÑĤÑĸÐ½Ð´Ðµ
ĠÐ°Ð´Ð°Ð¼ Ð·
ĠÐ¼Ð°ÒĽÑģÐ°ÑĤ ÑĤÐ°
ÑĤÑĭÐ» Ð°Ð´Ñĭ
ĠÐ´Ð°Ð¼ Ð¸Ð´Ñĭ
ĠÐ¸ ÐºÐµÐ¼
ĠÐ¿Ð°Ð¹Ð´Ð°Ð»Ð°Ð½ ÑĭÐ»Ð°ÑĤÑĭÐ½
ĠÒĽÐ¸ÑĭÐ½ Ð´ÑĭÒĽÑĤÐ°ÑĢ
Ð´ÐµÐ¼ ÑĸÐ·
ĠÐº Ð°Ð¼ÐµÑĢ
ÑĤÑĸÑĢ ÑĸÐ»Ð³ÐµÐ½
Ðĵ Ðµ
Ð°Ð¿ Ð°Ð½
Ð¾Ñģ ÑĭÐ½ÑĭÒ£
ĠÑĤÒ¯Ð± ÐµÐ³ÐµÐ¹Ð»Ñĸ
Ðľ ÐµÐ´Ð¸ÑĨÐ¸Ð½Ð°Ð»ÑĭÒĽ
ĠÐ¶Ð°ÑĤÒĽÐ°Ð½ Ð´Ð°
ĠÐ¼Ò± Ò£
ĠÐ¸Ð½ÑĦ Ð¾ÑĢÐ¼
Ð¸Ðº Ð°ÑģÑĭÐ½
ĠÐĳÐ¾Ð» Ð°ÑĤ
ĠÐĲÒĽ Ð¿Ð°Ð½
9 2
ĠÐ±Ð°Ð½Ðº ÑĤÑĸÐº
ĠÐĲ Ðł
ĠÑĤÐ°ÒĵÐ´ÑĭÑĢ Ñĭ
ĠÐ´Ð°Ò£ ÒĵÑĭÐ»Ñĭ
ĠÒĽÐ°Ð±ÑĭÐ»Ð´Ð°Ð½ Ð°Ð´Ñĭ
ĠÐ¡ ÓĻÑĥÑĸÑĢ
ĠÐ¿ÑĢ Ð¾Ð²
ĠÐĵ Ð¾Ð»Ð¾Ð²ÐºÐ¸Ð½
ĠÐ¼ÐµÐ½ ÑĪÑĸ
ĠÐ¼Ð¾Ð¹ Ð½
Â ¬
ĠÑĤÐµÐ¿ Ðµ
ĠÐ°ÑĤ ÑģÐ°Ð»ÑĭÑģ
ĠÐµÒ£Ð±ÐµÐº ÑĤÐµÑĢÑĸ
ÑģÐµÑĢ Ñĥ
ĠÐ¶ÐµÑĢ Ð´ÐµÐ³Ñĸ
ĠÑĤÐµÑĤ ÑĸÐº
ĠÑĤ Ð¾Ñģ
ĠÐ°ÒĽ ÑĭÐ»Ð´Ñĭ
ĠÑĦÑĢÐ°Ð½ ÑĨÑĥÐ·
ĠÑĤÒ¯Ð¹ ÑĸÐ½
ÑĪÐ°ÑĢ Ð°Ð»Ð°ÑĢÐ´Ñĭ
ĠÐ¶Ð¾ÒĽ ÒĽÐ°
Ð¡ Ð¾ÑĤ
Ð¸ÑĦ Ð¸Ð½Ð³
ĠÐŁÐ¾ÑĢ Ð½Ð¾
Ġ ....
ĠÐĳ Ð¾
ĠÑģ Ò±Ð»ÑĤÐ°Ð½
ĠÐ·Ð°Ò£ Ð´Ð°ÑĢÑĭ
ĠÑĸÑĪ ÑĸÐ½
ĠÓĻÐ»Ð´Ðµ ÒĽÐ°Ð¹Ð´Ð°
ĠÑĭÐ» ÒĵÐ°Ð»
ÑĤÐ°Ð½ ÑĭÐ¼Ð´ÑĭÒĽ
ĠÒĽÐ°ÒĽÑĤÑĭ ÒĵÑĭÑģ
ĠÐĿÒ±ÑĢ ÑĤÐ°Ñģ
Ð¼Ð°Òĵ Ð°Ð¼Ð±ÐµÑĤ
Ð¾Ð» Ð»Ð°
ĠÐŀÐ±Ð» ÑĭÑģ
ĠÑģÐ°Ð»ÑĭÒĽ ÑĤÑĭÒĽ
ĠÐĸÐµÒ£ ÑĸÑģ
ĠÐºÐµÐ·ÐµÒ£ Ð³Ðµ
ĠÐµÑĢÐµÐ¶ Ðµ
Ġ6 00
ĠiÑĪ iÐ½Ð´Ðµ
ĠÒĽÐ°ÑĢÐ¶ÑĭÐ» Ð°Ð½
Ġ6 5
ĠÑħÐ°Ð½Ð´Ñĭ ÒĵÑĭÐ½ÑĭÒ£
Ð°Ð» ÐµÑĢ
Ðĳ Ðĳ
iÐ¼ Ð´ÐµÑĢ
ÐµÑģ ÐµÐ¿
ĠÐ±ÐµÑĢ ÑĸÐ»ÑĥÑĸ
ĠÐĲÑģÑĤÐ°Ð½ Ð°Ð½ÑĭÒ£
ĠÐµÑĤÑĥ Ð´Ñĸ
ÒļÒ± ÒĽÑĭÒĽ
ĠÐĸÐ°Ò£Ð° Ó©Ð·ÐµÐ½
ĠÒĽÐ°ÑĤÐ°ÑĢ ÑĭÐ½Ð°Ð½
ÐļÐµÒ£ ÐµÑģ
ĠÐ´ÓĻ Ð¿
ĠÑĤÓĻÐ¶ÑĸÑĢÐ¸Ð±Ðµ Ð»ÑĸÐº
Ð±Ó© Ð»ÑĸÐ¼
Ð¿ ÐµÐ´Ð°Ð³Ð¾Ð³Ð¸ÐºÐ°Ð»ÑĭÒĽ
ĠÐ¶Ð°Ð· ÑĥÒĵÐ°
ĠÐ´ÐµÑĢ ÐµÑĥ
ÐĶ Ð«Ò¢
ĠÐľÐµÐ¼Ð»ÐµÐºÐµÑĤ ÑĤiÐº
A N
ĠÐŁ Ð°ÑĤ
ÑĤ ÐºÑĸÐ·
ĠÐ¶Ð°ÑĤÑĤÑĭÒĵÑĥ Ð»Ð°ÑĢ
ĠÒĽÐ°ÑĥÑĭÐ¼ Ð´Ð°ÑģÑĤÑĭÒĽ
ĠÒĽÐ¾Ð» Ñĭ
Ð¶ ÑĭÑĢ
ĠÑĢ Ð°Ð·
Ġ ti
Ð±Ò±ÑĢ ÑĭÑĪ
ĠÐ¡ÑĸÐ· Ð³Ðµ
Ñģ Ð°ÑĢÑĭ
ĠÐ¶Ð°Òĵ ÑĭÐ½Ð°
ĠÐ¿ÐµÑĢ Ð·
il im
ÑģÑĭÒ£ Ð´Ð°ÑĢ
ĠÐ¢ ÐµÐ»
ÐĶ ÓĻÑĢÑĸ
ĠÐºÐ¾Ð¼Ð¿Ð°Ð½Ð¸Ñı Ð½ÑĭÒ£
ĠÒĽÒ±ÑĢÑĭÐ»ÑĭÑģ ÑĭÐ½Ð°
ÐĳÒ¯ Ð³ÑĸÐ½Ð´Ðµ
ĠÐ¼Ð°ÒĽÑĤÐ°Ð½ ÑĭÑĪ
ĠÐºÒ¯Ð¹ ÑĸÐ½Ð´Ðµ
ĠÑĤÓ© ÑģÐµÐº
ĠÐĳÐ°ÒĽÑĭÑĤ Ð¶Ð°Ð½
Ð¾Ð· Ð¸
ĠÒĽÐ¾Ñİ ÒĵÐ°
ĠÐ¿ Ð¾Ð¹ÑĭÐ·
Ð¸ ÑĪ
ĠÓ¨ Ð»ÐµÒ£
I X
ĠÐ³ ÑĢÐµÐº
ÐĲÐ¡Ð¢ ÐĲÐĿÐĲ
Ð»Ð°ÑĢ Ð°ÑĨÐ¸Ñı
ĠÐ¶ÐµÐ¼ ÑĸÑģ
Ñħ Ð¾Ð·
ĠÐ±ÐµÐ»Ð³Ñĸ Ð»ÐµÑĢ
ÐĲ ÑĤ
Ġtur aly
ÐŀÑĢ ÑĭÑģ
ÐºÐµÐ· ÐµÒ£
Ð¶ Ð°ÑĤÑĤÑĭÒĵÑĥ
ĠÐµÑĪ Ð±ÑĸÑĢ
ĠÐ±ÐµÐ¹Ð±ÑĸÑĤ ÑĪÑĸÐ»ÑĸÐº
ĠÐ°ÑģÑĭÑĢ ÑĭÐ»Ð°ÑĤÑĭÐ½
ĠÑĤÐ°Ð»Ð´Ð°Ñĥ Ñĭ
ĠÐĶÐµÐ½ Ð¸Ñģ
ĠÒĽÐ°ÑĢÐ°Ð¶ Ð°ÑĤÑĭ
ĠÑģÓ©Ð·Ð´ÐµÑĢ Ð¼ÐµÐ½
ĠÐ±ÑĸÑĢ ÑĸÐ½Ð´Ðµ
ĠÑĤÐµÒ£ Ð´ÐµÑĥ
ĠÐ¶ÐµÒ£ÑĸÐ¼ Ð¿Ð°Ð·Ñĭ
Ð´Ð°Ð» Ð´Ñĭ
Ð¢ÑĸÑĢ ÐºÐµÐ»Ñĥ
ĠÐ¶Ò±ÑĢÑĤ ÑĪÑĭÐ»ÑĭÒĽ
ĠÑģÐ°Ð¿ Ð°ÑĢÑĭ
ÐµÐ´Ð° ÐºÑĨÐ¸Ñı
ÐµÐ³Ñĸ Ð¼
ĠÐ¶Ð¾Ð» ÑĭÐ½Ð´Ð°ÒĵÑĭ
ÑĥÑĪÑĭ ÒĵÐ°
ÒļÐ¾Ð»Ð´Ð°Ð½ ÑĭÐ»ÒĵÐ°Ð½
ĠÐº ÑĸÑģÑĸÐ½ÑĸÒ£
ÑĤÐ°Ð» ÑĮ
ĠÐľ Ð°ÑĤÐµÑĢÐ¸Ð°Ð»Ð´Ð°ÑĢÐ´Ñĭ
ĠÐ¿Ð° ÑĨÐ¸ÐµÐ½ÑĤ
ĠÐ¼Ò± ÑħÐ¸ÑĤ
ĠÐĲÒĽ ÑĭÐ½
ĠÐ¼Ð°ÒĽÐ°Ð» Ð°ÑģÑĭ
ÐĹ Òļ
ĠÐ³Ðµ Ð¾Ð³ÑĢÐ°ÑĦÐ¸ÑıÐ»ÑĭÒĽ
ĠÐ¼Ð°Ð¼Ð°Ð½ Ð´Ð°ÑĢÐ´Ñĭ
ĠÐ´ Ð°ÑģÑĤÐ°ÑĢ
ĠÐ±Ð°Ñģ ÑĭÐ½Ð´Ð°ÒĵÑĭ
ĠÑĤÓ© Ñģ
ĠÐ· ÓĻÑĢ
ĠÐ±Ð°ÑĢ Ð»Ð°Ñĥ
ĠÑĪ Ð°Ñħ
ĠÒ®Ð½Ð´Ñĸ ÑģÑĤÐ°Ð½
ĠÒĽÐ¾Ð»Ð´Ð°Ð½ ÑĭÐ»ÒĵÐ°Ð½
ĠÐ°ÑĢ Ð°ÑģÑĭÐ½Ð°Ð½
Ð´Ð°Ð½ Ð´Ñĭ
ĠÓĻÑĥ ÐµÐ»Ñĸ
Ð°ÑĢ ÒĽÐ°
ĠÐļ ÐµÑĪ
ĠÐ¾ÑĢÑĭÐ½ Ð´ÑĭÒĽ
ĠÐ±Ð¸ Ð»ÑĸÐ³Ñĸ
ĠÐ±ÑĸÑĢ ÑĤÑĸÐ½Ð´ÐµÐ¿
ĠÒļ ÑĭÑģ
Ð°Ð³ ÐµÑĢÑĸ
ĠÒļÐ°ÑĢ ÑĥÐ»Ñĭ
ĠÑĤÐ°Ð»Ð°Ð¿ ÑĤÐ°ÑĢÐ´Ñĭ
ÑĤÐµÑĥ ÑĸÑĢ
Ðº ÑĤÐ¸ÐºÐ°Ð»ÑĭÒĽ
ĠÐºÐµÑĤ Ðµ
ĠÑģÐ°ÑĢÐ°Ð¿ ÑĪÑĭÐ»Ð°ÑĢ
ĠÒĽÐ°ÑĢ ÑĭÐ½
ÐºÐµÒ£ ÐµÑģ
ĠÓĻÑģÐµÑĢ ÑĸÐ½ÐµÐ½
f i
Ð°Ñĥ ÑĭÐ½Ð°
ÐĨ ÐŁ
ĠÑħÐ°Ð» ÒĽÑĭÐ½
ĠÐ³ Ó©ÑĢÑĸ
ĠÐºÓĻÑģ iÐ¿
ĠÑĤÐ°Ð¼Ð°ÒĽ ÑĤÐ°Ð½Ñĥ
Ñı ÑĤ
ĠÐµÑĤÑĥ Ð´Ðµ
ĠÐ¡ ÑĭÐ½ÑĭÐ¿
ĠÐ±Ð°Ð¹Ð»Ð°Ð½ÑĭÑģ ÑĤÐ°
Ġ0 3
ĠÐ½Ð¾ ÑĤÐ°ÑĢ
ĠÐĳ ÐµÐ¹Ð½
ĠÐµÐ¼ ÑħÐ°Ð½
ĠÐ°Ð· Ð°Ð¹
ÐĨÐĿ ÐĨÒ¢
Ġ v
Ð´Ñĸ Ð»
Ð¡ ÐºÐ°ÑĩÐ°ÑĤÑĮ
ĠÐĸÐ¾Ð» Ð°ÑĥÑĪÑĭÐ»Ð°ÑĢ
ĠÒĽÒ±ÑĢ ÒĵÐ°Ð½
ĠÐºÒ¯Ð½ ÓĻ
ÐĶ ÐµÐ¼
ĠÐ±Ð¾Ð»Ð¼ Ð°Ð´Ñĭ
ĠÓ©Ð·Ð³ÐµÑĢ ÑĸÐ¿
200 6
ĠÐľ Ð°ÑĤÐµÑĢÐ¸Ð°Ð»
Ñģ Ð¾Ð»
Ð¾ÒĽ Ñĥ
Ðºi Ð¼ÐµÑĤ
ĠÑĤÐ¾ÒĽÑģÐ°Ð½ ÒĵÐ°
ĠÓ©Ð½ÐµÑĢ ÑĸÐ½ÑĸÒ£
ĠÐµÑĢ Ð»ÑĸÐº
ĠÒļ Ð¾Ð¹
ĠÒļ ÐĲÐĹÐĲÒļÐ¡Ð¢ÐĲÐĿ
ĠÐ¡ Ò±ÑĢ
ÑģÐ°Ñĥ Ð¸
ĠÑħÐ°Ð»ÑĭÒĽ ÑĤÑĭÒĽ
ĠÐ¼ÓĻÑĢÑĤÐµ Ð±ÐµÑģÑĸÐ½
ĠÑģ ÑĥÑĭ
Òļ ÑĭÑģ
ĠÐºÓ©ÑĢÑģÐµÑĤ ÑĸÐ»Ð´Ñĸ
ÑĤÐ¾Ð½ Ð¾Ð¼
ĠÐ±Ð°Ð» Ð°ÑģÑĭÐ½
Ð°ÑĤÐ°Ð» Ð¾Ð³
Ð¾Ð· Ð¸ÑĤÐ¾ÑĢ
ĠÑħÐ°Ð»ÒĽ ÑĭÐ¼ÑĭÐ·Ð´ÑĭÒ£
ĠÑĤÐ°Ñģ ÑĤÐ°Ð´Ñĭ
ÑĤÐ¿ ÐµÑģÐµ
ĠÐ¶Ð¾Ð» Ð´Ð°Ð¼Ð°
ÐĲ Ð·Ð°ÑĤ
ĠÐ°Ð·Ð°Ð¼ Ð°ÑĤÑĤÑĭÒ£
Ñĸ Ð±ÑĸÑĢ
ÑĸÐ»ÑĸÐ¼ ÐµÐ½
ĠÓ©ÐºÑĸÐ» Ð´ÐµÑĢÑĸÐ¼ÐµÐ½
ĠÑĤÒ± Ð½
Ñī Ñĭ
ĠÐ±ÑĸÑĢÑĸÐº ÑĤÑĸÑĢÑĥ
ĠÑģÐ°ÒĽ ÑĤÐ°Ð¹
Òļ Ð°ÑĤÑĭÑģ
ĠÐ±Ò±Ð· ÑĭÐ»ÑĥÑĭ
Ð°Ðº ÑĤÐ¾ÑĢ
ĠÒĽÐ¾Ð¹ ÑĭÐ»ÑĭÐ¼
ĠÐŀ Ð´Ð°ÒĵÑĭÐ½ÑĭÒ£
Ð² Ð°
ĠÐ¡ ÐºÐ°ÑĩÐ°ÑĤÑĮ
Ðŀ Ðĳ
ÑĢÐ°Ð¼ Ð¿
ÑĤÐ¸Ð· Ð¼
ĠÒĽÒ±ÑĢÐ°Ð» Ð´Ð°ÑĢÐ´Ñĭ
ĠÒ±Ð· Ð°ÒĽÑĤÑĭÒĵÑĭ
ÐµÐº ÑĤ
ĠÐĳ Ð¾ÑĢ
ĠÐ¢Ð°Òĵ Ð°Ð»Ð°
ĠÐ¸ Ð±Ð½
ĠÑĤÒ¯ÑĢ Ð»ÐµÑĢ
ĠÑĤÐµÐ»ÐµÑĦÐ¾Ð½ Ñĭ
ĠÐµÑģÐµÐ± ÑĸÐ½
ĠÐ½ÓĻÑĤÐ¸Ð¶ ÐµÐ»Ñĸ
Ð°Ð±Ð°ÒĽ ÑĪÐ°
ĠÐºÐ¾Ð´ÐµÐºÑģ i
ĠÒĽÐ°Ð·Ð°Ð½ Ð´Ð°
ĠÐ½Ð°ÑĢÑĭ ÒĵÑĭ
ĠÐŀ Ðł
ĠÐ¼Ð°ÑĤÐµÑĢÐ¸Ð°Ð» ÑĭÐ½
ĠÐ¶ÓĻÑĢÐ´ÐµÐ¼ Ð´ÐµÑģ
ĠÐ°ÐºÑĤÑĸ Ð»ÐµÑĢÑĸÐ½Ðµ
Ð°ÑĤ Ð¾Ð¼
W hatsApp
Ġ Ò±ÑĢÑĭÑģ
ĠÐĳÐ¾Ð» Ð°ÑĪÐ°ÒĽ
ĠÐºÑĸÑĤÐ°Ð¿ÑħÐ°Ð½ Ð°ÑģÑĭ
ĠÑĤÓ© Ð±
ÉĻ ÑĢ
ÐĲ ÑĤÐ°Ð»ÒĵÐ°Ð½
Ġ4 3
ĠÑĤÐ°Ð½ÑĭÑģ ÑĭÐ¿
Ġâ Ĩ
ĠÐ¶Ð¾ÑģÐ¿Ð°ÑĢ Ð»Ð°ÑĢÑĭÐ½ÑĭÒ£
ÐµÐ´Ð°Ð³Ð¾Ð³ Ð¸ÐºÐ°
Ð´i ÑĢÑĥ
ĠÐ±Ð¸ Ð¾
Ð´ÐµÑģ ÑĸÐ½Ðµ
ĠÐ¶ÑĭÐ» Ð´Ñĭ
ĠÑĤÐ°ÑĢ Ð°Ð»
ĠÑĢÐµÐ´Ð°Ðº ÑĤÐ¾ÑĢÑĭ
ĠÐ½Ð¾ÑĢÐ¼ Ð°ÑĤÐ¸Ð²
Ð°Ð½ ÑĤÑĤÐ°ÑĢ
ĠÐĳÐµÐ» Ð°ÑĢÑĥÑģÑĮ
ĠÓ©Ð· Ð±ÐµÐº
ĠÐ¼Ð°ÑĤ ÐµÑĢ
ĠÐ¶Ð°ÑĤ Ð°ÒĽ
az aq
Ð´Ð°Ð½ Ð°
Ð ¬
ĠÑģÐ°Ð»Ð° Ð´Ð°ÒĵÑĭ
ĠÑĤÑĥ ÑĭÐ¿
ĠÐĸ ÐŀÐĽ
ĠÐ°ÒĽÐ¿Ð°ÑĢÐ°ÑĤ ÑĤÑĭÒ£
ĠÑĤÐµÐ¼ÑĸÑĢ Ð¶Ð¾Ð»
ÑĤ ÐµÑĤÑĸÐ½
ÒĽÒ±Ð» ÑĭÒĽ
ĠÒĽÐ°Ð» Ð°Ð»Ð°ÑĢÐ´ÑĭÒ£
ĠÐ°ÒĽ Ð¸ÒĽÐ°ÑĤ
ĠÐ¢ Ð£Ðł
ĠÐ±ÑĸÑĢÑĸ Ð³ÑĸÐ¿
. :
ÑĤÐ°ÑĢ Ð¼Ð°ÒĵÑĭÐ½ÑĭÒ£
ĠÐ´ÐµÒ£Ð³ÐµÐ¹ Ð³Ðµ
ĠÐ» Ð¸
ĠÒĽÒ±Ð¹ ÑĭÐ¿
ĠÐ¶Ò¯Ð· Ñĸ
ĠÒ± ÑĤÑĭÐ¼Ð´Ñĭ
Ðľ Ðĸ
ĠÐ¼Ð°Ð¼Ð°Ð½ Ð´Ð°ÑĢÐ´ÑĭÒ£
ĠÐºÓ©ÑĪÑĸÑĢÐ¼ ÐµÑģÑĸ
ÑĥÐ½Ð¸ÑĨÐ¸Ð¿ Ð°Ð»
ÑĤ Ð½
ĠÓ©ÑĢ Ð½ÐµÐº
ĠÑįÐºÑģÐ¿ ÐµÐ´Ð¸ÑĨÐ¸Ñı
ĠÐ¼Ò±ÒĵÐ°Ð»ÑĸÐ¼Ð´ÐµÑĢ Ð´ÑĸÒ£
ĠÐĸÐĨ Ó¨
ĠÐ¶ÐµÑĤÑĸÑģÑĤÑĸÐº ÑĤÐµÑĢÑĸ
ĠÐºÒ¯ Ð´ÑĸÐºÑĤÑĸ
ĠÐŁ Ð¾
ĠÐ¾ Ð±ÑĢÐ°Ð·
ĠÑĤÐ°Òĵ ÑĭÐ»ÑĭÐ¼
ĠK azakh
ĠÐ¼Ð°Ð¼ÑĭÑĢ Ð´Ð°
Ð»ÐµÐº ÑĤÑĸ
ĠÑģÑĭÐ½ÑĭÐ¿ ÒĽÐ°
ĠÐ¡Ð¾ ÒĵÐ°Ð½
in t
ÑĭÐ¼ÑĭÐ· Ð´Ð°Ð½
ĠÐ¼Ð°ÑĤÐµÐ¼Ð°ÑĤ Ð¸ÐºÐ°Ð»ÑĭÒĽ
ĠÐ¾ÑĢÐ³Ð°Ð½ ÒĵÐ°
ĠÐ½ ÓĻÐ·ÑĸÐº
ĠÑģÑĤÑĥÐ´ÐµÐ½ ÑĤÑĸ
Ñı Ð±ÑĢ
ĠÐ°ÒĽ ÑģÐ°ÒĽ
Ð± Ð°ÑĤÑĭ
ĠÑĤÐµÐ¼Ð¿ÐµÑĢÐ°ÑĤÑĥÑĢ Ð°ÑģÑĭ
ÑĢÐ°Ð½ Ñģ
ĠÐĸ Ð¾ÒĽ
ĠÐ¼Ð°ÑĥÑģÑĭÐ¼ Ð´Ð°ÒĵÑĭ
Ġ w
ĠÐ¸Ð¼ Ð¿Ð»Ð°Ð½
ĠÒĽÐ°Ð± Ð°ÑĤÑĤÑĭ
ĠÐĲ Ðļ
ĠÐľ Ð°ÑĥÑģÑĭÐ¼
ĠÐ°Ð»Ñĥ Ð´Ð°
ÐµÑĥ Ð½
ĠÑĤÓĻÑĢÐ±Ð¸ ÐµÑĪ
ĠÑĢÓ©Ð» ÑĸÐ½
ĠÐ±ÐµÐºÑĸ ÑĤÐºÐµÐ½
ĠÐ¼Ð°ÒĽÐ°Ð» Ð°Ð½Ñĭ
ĠÐ¸Ð½Ð²ÐµÑģÑĤÐ¸ ÑĨÐ¸ÑıÐ»Ð°ÑĢ
ĠÐľ Ðµ
ĠÐ±Ð°Ð¹ÒĽ Ð°ÑĥÒĵÐ°
ÑĤÐ°Ð½ Ð´ÑĭÑĢÑĭÐ»ÒĵÐ°Ð½
ĠÐ¸Ð´ÐµÑı ÑģÑĭ
ĠÐ¨ ÐµÑĤÐµÐ»
Ð¸Ð¼ Ð°
ĠÑģ ÑĭÐ¿
ĠÐĳÐ°Ð» ÒĽÐ°ÑĪ
Ð¢ Ð¾
ĠÐĲÐ»ÑĤÑĭÐ½ ÑģÐ°ÑĢÐ¸Ð½
Ð¢ Ðķ
ĠÐ¾Ð¹Ð½ Ð°Ð¿
Ð£ Ð¸ÐºÐ¸Ð¿ÐµÐ´Ð¸Ñı
ĠÓĻÐ´Ñĸ Ð»ÐµÑĤ
ĠÐŀ ÑģÑĭÐ½ÑĭÒ£
ĠÐ± Ð¾Ð·
ĠÐ¶Ð¾Ð» Ð´Ñĭ
Ð¸Ñı Ð´Ð°Ð½
ÓĻÑĢÐ±Ð¸ ÐµÐ»ÑĸÐº
ĠÒĽÐ°ÑĥÐ» ÑĭÑģÑĭ
ĠÐĲÐ´Ð°Ð¼ Ð½ÑĭÒ£
ĠÑĤÓĻÑĥÐµÐºÐµÐ»Ð´ÐµÑĢ ÑĸÐ½ÑĸÒ£
ĠÐĳ ÑĢ
ĠÐ±Ò¯Ð» Ð´ÑĸÑĢ
ĠÑĪ Ðº
ĠÐ¼ÓĻÐ´ÐµÐ½Ð¸ ÐµÑĤÑĤÑĸ
ĠÐ¾ÑĤÑĭÑĢ Ð¼ÑĭÐ½
ĠÐºÐµÒ£ÐµÐ¹ ÑĤÑĸÐ»Ð³ÐµÐ½
ĠÑģ ÐµÑĢÑĸ
Òļ Ð¾Ð½
ĠÑģÒ¯ ÑĤÑĸ
ĠÓĻ ÐºÐµÑģÑĸÐ½ÑĸÒ£
Ð°Ð»Ð°Ð½ ÒĵÐ°Ð½
ĠÐ¶Ð°Ð± ÑĭÒĽ
Ð³ÑĸÐ½ Ñĸ
ĠÐ±Ò±Ð¹ÑĭÐ¼ Ð´Ð°ÑĢ
ÐĨ Ðļ
ĠÐĵ Ð°Ð·
ĠÐºÑĥÓĻ Ð»ÑĸÐ³Ñĸ
ĠÒĽÐ°ÒĽ Ð¿
ĠÒĽÐ¾Ñģ ÑĭÐ»Ð°Ð´Ñĭ
Ò±ÑĢ ÑĭÒĽ
Ð¸Ðº Ð°Ñı
ĠÑģÓĻ ÑĤÑĸ
ĠÐ°ÒĽÐ¿Ð°ÑĢ Ð°ÑĤÑĤÐ°ÑĢÐ´Ñĭ
ĠÐ± ÐµÑĤÑĸ
ĠÐµÐ´ ÓĻÑĥÑĸÑĢ
ĠÐµÑģÐµÐ¿ ÑĤÐµÐ»
o b
ÑĤ ÐµÑģÐµ
ÐµÐ» ÐµÐ´Ñĸ
ÑĤ ÑĢÐ¾
ĠÒ±ÑĢÐ¿Ð°ÒĽ ÑĤÑĭÒ£
ĠÐ°Ð¹ÑĭÑĢÐ¼Ð° ÑĪÑĭÐ»ÑĭÒĵÑĭ
ĠPl us
ĠÐĸ ÑĥÑĢÐ½Ð°Ð»
ÑĤ ÑģÐµ
ÑĤÐ¾Ð¼Ð°ÑĤ Ð¾Ð»Ð¾Ð³Ð¸Ñı
ÑĤÐ°Ð½ ÑĥÑĪÑĭ
ĠÐ¼Ò¯ÑĪ ÐµÐ»ÐµÑĢ
Ġ9 9
ĠÐ¶Ð°Ð½ ÑĭÐ½Ð°Ð½
ĠÐ¾ÑĤÑĭÑĢÒĵÐ°Ð½ ÑĭÐ½
ĠÐĸ ÐµÐ·ÒĽÐ°Ð·ÒĵÐ°Ð½
ĠÑĤÒ¯ÑģÑĸÐ½ÑĸÐº ÑĤÐµÐ¼Ðµ
ĠÐķÐ» Ð±Ð°Ñģ
ĠÑĤÐ°Ðº Ð¿Ð°Ðº
ĠÐ´ÓĻÑĢÐµÐ¶ ÐµÑģÑĸÐ½
ĠÑĤÑĸÐ· Ð±ÐµÑģÑĸ
ĠÒĽÐ¾Ñģ ÑĭÐ»ÑĭÐ¿
I S
ĠÐ¸Ð½ÑĤÐµÑĢ Ð°ÐºÑĤÐ¸Ð²ÑĤÑĸ
ĠÓ©Ð· ÑĸÒ£ÑĸÐ·
Óĺ Ñģ
ÑĸÐ½Ð´Ðµ Ð¹
ĠÐ¶Ð°ÑģÐ°Ð» ÑĥÑĭ
ĠÒĽÐ¾ÒĵÐ°Ð¼ Ð´Ð°ÑģÑĤÑĭÒĽ
ĠÑģ ÑĬÐµÐ·
ĠÐ´ÐµÐ¿ÑĥÑĤ Ð°ÑĤÑĤÐ°ÑĢÑĭ
ĠÒĽÐ¾ÑĢ Ð¶ÑĭÐ½
ĠÑĢÐµÑģÑĥÑĢ ÑģÑĤÐ°ÑĢÑĭ
Ð¾Ð³ÑĢÐ°ÑĦ Ð¸ÑıÑģÑĭ
Ð±ÑĭÑĢ Ð°Ð¹
ĠÐ¼ÑĭÒ£ Ð´Ð°ÒĵÐ°Ð½
ĠÐĲÐ¹ ÑĤÐ°
ĠÑįÐº ÑĢÐ°Ð½
ĠÐ¶Ð°Ð»Òĵ Ð°ÑģÑĭ
ĠÑģÐ¿Ð¾ÑĢÑĤ ÑĪÑĭÐ»Ð°ÑĢ
ĠÒ±Ð¶ÑĭÐ¼ Ð´ÑĭÒĽ
ÑĥÑĢ ÐµÐ½
ĠÐºÐµÐ» Ð¼ÐµÐ¹ÑĤÑĸÐ½
ĠÒĽÑĭÑĢ ÑĭÒĽ
ĠÐľ Ð°ÒĵÐ°Ð½
ÐµÒ£ Ð±ÐµÐº
ĠÐ±ÐµÐ»Ð³i Ð»ÐµÐ½Ð³ÐµÐ½
Ġ8 5
ÑĤÐµÑĢ Ð°Ð¿
m ent
ĠÐ¶Ð°Ð¼ Ð±Ð°Ñģ
ÑĤÑĸÐº ÐºÐµ
ĠÐ·Ð¾ÑĢ Ð»ÑĭÒĽ
Ð±ÐµÑĢ ÐºÑĥÐ»
ĠÐ¿Ð¾Ð» Ð¸Ð³
ĠÐ´ÐµÐ¿Ð°ÑĢÑĤÐ°Ð¼ÐµÐ½ÑĤ ÑĸÐ½Ð´Ðµ
ÐľÒ±Ð½ Ð´Ð°Ð¹
ĠÑĪÐ°Ò£ ÑĭÑĢÐ°ÒĽ
ĠÐ±ÑĸÐ» ÐµÐ¼ÑĸÐ½
ĠÐ¼Ð¾Ð¹ ÑĭÐ½Ð´Ð°
ĠÑĢÐµÐ¹ÑĤ Ð¸Ð½Ð³
ĠÐ¶Ò¯ÑĢÐ³ÑĸÐ· Ð´Ñĸ
ĠÐļ Ð°Ð½
ĠÐ¨ Ð²
ĠÐ¼Ò±ÒĵÐ°Ð»ÑĸÐ¼Ð´ÐµÑĢ Ð³Ðµ
ĠÑģÑĭÐ¹ Ð»ÑĭÒĽÑĤÐ°ÑĢ
ĠÐ¶Ð¾ÑģÐ¿Ð°ÑĢ Ð»Ð°Ð¿
ÑĭÐ» ÑģÐ°
ÑĤÐ¸ Ð¿
ĠÒĽÐ°ÑĢ Ð°Ð¹ÑĤÑĭÐ½
ĠÐµÑĢÐµÑģÐµÐº ÑĤÐµÑĢ
Òļ Ò±Ð»
Ġ u
Ð¸ÐºÐ° ÑĨÐ¸ÑıÐ»ÑĭÒĽ
ĠÒĽÐ¾ÑĢ ÑĤÑĭÐ½Ð´Ñĭ
ÑĪÐµ ÑĪ
ĠÒĽÐ°Ð¹ ÑĪÑĭ
ĠÑĤÐµÐ» ÐµÐ´Ð¸
ÐµÐ½ Ð¸Ð½
ĠÐºÐ¾Ð½ Ð²
ĠÑĤÒ¯ÑģÑĸÐ½ ÑĸÐ³Ñĸ
Ð¸ Ð¸
ĠÐ¾ÑĢÑĭÐ½ Ð´Ð°Ð¿
ĠÐĳ ÐĲÐ¡
ĠÐºÓ© ÑĪÑĸ
Ñģ Ð¾ÑĢ
ĠÐķÑĥÑĢ Ð°Ð·Ð¸ÑıÐ»ÑĭÒĽ
ĠÐ·Ð¸Ñı ÑĤ
ÑĭÑĢ ÑĭÐ¿
Ð´Ð°Ð¼ ÑĭÐ·
ĠÒĽÐ°ÑĢ ÑģÑĭÐ»ÑĭÒĽ
ĠÑĤÐ°Ð± Ð¸ÒĵÐ°
Ð¡ÓĻ Ð»ÐµÐ¼
ĠÐ±ÐµÑĢÐ¼ ÐµÑĥ
ĠÑĥÓĻ Ð´Ðµ
ĠÑħÐ°Ð´ Ð¸Ñģ
ĠÓĺ Ð´ÐµÐ¿
ĠÐ¼ÐµÐºÑĤÐµÐ± ÑĸÐ½Ð´Ðµ
e b
ĠÑĸÑģ ÑĸÐ½ÑĸÒ£
Ð½ ÐµÑĥ
ĠÐ·ÐµÑĢÑĤÑħÐ°Ð½ Ð°Ð»ÑĭÒĽ
Ð± Ð¾Ð¹
ÐºÐµÐ½ Ðµ
ĠÑĤÐ°Ð¿ÑģÑĭÑĢÐ¼ Ð°Ð½Ñĭ
ÑĨ Ð¸Ð½
ĠÐºÓ©Ðº Ð¿Ð°ÑĢ
ÒļÐ¾ ÑĪ
ĠÑĢÓĻÑģ ÑĸÐ¼Ñĸ
ÓĻÐºÑĸÐ¼ ÑĪÑĸÐ»ÑĸÐ³ÑĸÐ½ÑĸÒ£
ĠÐł ÑĭÑģ
ĠÐºÑĸÑĢ Ð´Ñĸ
ĠÒĽÑĥ Ð°ÑĤÑĭ
ĠÐ¿ÑĢÐ¾ÐºÑĥÑĢÐ°ÑĤÑĥÑĢ Ð°
Ðļ ÑĸÐ¼
ĠÒĽÐ°ÑĪ ÑĭÐ¿
ĠÐ°Ñĥ Ð¼Ð°ÒĵÑĭÐ½Ð´Ð°ÒĵÑĭ
ĠÐ¸Ð½ Ð´ÐµÐº
ÑĤÐ°ÑĢ Ð°Ñĥ
ÐĸÐ°ÒĽ ÑģÑĭ
Ðľ ÓĻÐ´ÐµÐ½Ð¸ÐµÑĤ
Ð»ÐµÐ½ Ð´ÑĸÑĢÑĥ
ĠÐºÒ¯ÑĢ ÑĤ
ÑĤÐ°Ð» ÑĥÑĭ
Ð°Ð´Ñĭ ÒĽ
Ð¸ÐµÐ² Ð°
ĠÐ´ Ð»Ñı
Ð°Ð¼ÑĭÐ· Ð´Ð°
ÑĪ ÑĸÑģÑĸÐ½ÑĸÒ£
Ó©Ð½ Ð´ÑĸÑĢ
ĠÒĽÐ¾Ð» ÑĭÐ½
ĠÐ´Ð°Ð¼ ÑĭÑĤ
ĠÐ½ ÐµÐº
ĠÑģÓ©Ð¹ Ð»ÐµÐ¿
ĠÑĤÑĸÑĢ Ðº
Ð¢ ÑĥÑĢ
ĠÐ¡ Ð°ÑıÑģÐ°ÑĤ
ĠÐ¾ÑĢÐ³Ð°Ð½ Ð´Ð°ÑĢÑĭÐ½Ð°
ĠÓ© ÑĪÑĸÑĢ
ĠÐ°Ð»Ñĥ ÑĪÑĭÐ»Ð°ÑĢÐ´ÑĭÒ£
ĠÑģÐ°Ð½ Ð°Ð¹Ð´Ñĭ
ĠÓĻÐ½ Ñĸ
ÐĲÐł Ð«
ĠÐµ Ð´ÑĸÒ£
ĠÐĸ Ð¾Ð±
ĠÑĤÐµÐ¼ Ñĥ
âĢ ĭ
ĠÑģÐ°Ð± Ð°ÒĵÑĭ
ĠS p
ĠÐ½ Ð°ÒĽ
Ð°Ð»Ð°ÑĢ ÑĭÐ¼ÐµÐ½
ĠÑĤÒ¯ÑĢ Ð»ÐµÑĢÑĸÐ½ÑĸÒ£
Ð´Ð°ÑĢ ÑĭÐ½Ð´Ð°ÒĵÑĭ
ĠÒĽÐ°ÑĤÑĭÑģ ÑĥÑĭ
ĠÐĸ Ò®
Ðķ ÑĥÑĢ
ĠÑį Ð²
Ð¼ÑĭÑģ Ð°Ð»Ñĭ
ĠÓ©ÑĤÐºÑĸÐ· ÑĸÐ»ÑĸÐ¿
ĠÐ¶ÓĻÑĢÐ´ÐµÐ¼Ð°ÒĽ Ñĭ
ĠÒĽÐ°Ò£ÑĤÐ°ÑĢ Ð´Ð°
ĠÒĽÒ±Ð¶Ð°ÑĤÑĤÐ°ÑĢ ÑĭÐ½
ĠÐ°Ð²ÑĤÐ¾ Ð±Ñĥ
ĠÐ°Ð»Ð°ÑģÑĭÐ· Ð´Ð°ÑĢ
ĠÐ±Ð°ÑĢ Ð°ÑĤÑĭÐ½
ĠÓ©ÑĤ ÐµÐ¼
ĠÐķ Ð¼
ĠÒ±ÑĪ Ð°ÒĽ
ĠÐ±Ð¾Ð»ÒĵÐ°Ð½ ÑĭÐ¼ÐµÐ½
ĠÐ¿Ð°Ð¹ ÑĭÐ¼
ÐĸÑĭÐ» ÑĭÐ¾Ð¹
ĠÐ¶Ò±ÒĽ Ð¿Ð°Ð»Ñĭ
âĢ Ń
ĠÐºÓĻÑģÑĸÐ¿Ð¾ÑĢÑĭÐ½ Ð´Ð°ÑĢÐ´ÑĭÒ£
ĠÐ¼Ò¯Ð´Ð´Ðµ Ð»ÐµÑĢÑĸÐ½
ĠÐĸ Ð¸
ÒĽ ÑĭÐ½ÑĭÒ£
ĠÒ¯Ð¼ÑĸÑĤ ÐºÐµÑĢ
ĠÑĨ Ð¸ÐºÐ»
ĠÓĺ Ð´ÐµÐ±Ð¸ÐµÑĤ
Ñĥ Ð¿
ĠÐ°ÑĪÑĭÐ» ÑĭÐ¿
ĠÒ±ÒĵÑĭÐ¼ Ñĭ
ĠÑģÐ¿Ð¾ÑĢÑĤ ÑĪÑĭ
ĠÐ¼ÐµÐ½ÐµÐ´Ð¶ Ð¼ÐµÐ½ÑĤ
ĠÐĸÐµÑĤ ÑĸÑģÑĥ
ĠÒĽÐ¾Ð¹Ð½ Ð°ÑĥÑĭÐ½
ĠÐĴ ÐµÐ½
ĠÐ½Ð°ÑĢ ÑĭÒĵÑĭÐ½
ĠÐ¶Ð°Ò£ Ð±ÑĭÑĢ
ĠÐ¶ ÓĻÐ½
ĠÐ±Ð°Ñģ ÑĪÑĭÐ»ÑĭÒĵÑĭ
Ð¡ Ò°
ĠÐł ÑĥÑģ
ĠÑĤÐ°Ð½Ñĭ ÑĤÑĭÐ¿
ĠÐ°ÑĥÑĭÐ» ÑĪÐ°ÑĢÑĥÐ°ÑĪÑĭÐ»ÑĭÒĽ
ĠÒĽÐ¾Ð¹ Ð¼
ĠÐ°ÑĢ Ð´Ð°ÒĽÑĤÑĭ
ĠÒļÐ°Ð· Ð°Ð»Ñĭ
ĠÐļ ÐµÑģÑĤ
ĠÑģÓ©Ð· Ð´ÐµÑĢÐ´ÑĸÒ£
Â» ;
Ó©Ð» Ð´ÑĸÑĢ
ĠÐºÐ¾Ð´ÐµÐºÑģ ÑĸÐ½ÑĸÒ£
ĠÐ±Ñĸ ÑĤÑĸÑĢÑĥ
ĠÒ±ÑģÑĭÐ½ ÑĭÐ»Ð´Ñĭ
ĠÓ¨ Ð½
ĠÒļÑĥ Ð°Ð½ÑĭÑĪ
Ð¡ Ðķ
ĠÑģÒ±ÑĢ Ð°Ð¹Ð´Ñĭ
ĠÐ±ÑĸÐ»Ð´ÑĸÑĢ ÐµÑĤÑĸÐ½
Ð³ iÐ»iÐºÑĤi
ĠÐ±Ð°ÒĵÐ´Ð°ÑĢÐ»Ð°Ð¼ Ð°Ð½ÑĭÒ£
ĠÑĪ Ó©
ĠÑģÒ±ÑĢ Ð°ÒĵÐ°Ð½
ĠÐĲÑĢ Ð¼Ð°Ð½
Ð´Ñĸ Ð±ÐµÐº
ĠÒĵÐ¸Ð¼Ð°ÑĢ Ð°ÑĤÑĤÐ°ÑĢ
ĠÑĤÐ°ÒĽ Ð¿Ð°ÒĽÑĤÐ°ÑĢ
ĠÓ©Ð½ÐµÑĢÐºÓĻÑģÑĸ Ð±Ñĸ
ÑĢ Ð°Ð¸
ÑĤÐµÑĥ Ð³Ðµ
ĠÐ°Ð» Ð´ÑĭÒĽ
ĠÐºÒ¯Ð¹ Ñĸ
ĠÐľ ÐķÐľÐĽÐķÐļÐķÐ¢Ð¢ÐĨÐļ
ĠÐ½Ðµ Ð»ÑĸÐºÑĤÐµÐ½
ĠÐºÐ°Ð½Ð´Ð¸Ð´Ð° ÑĤÑĭ
Ð±ÐµÑĢÐºÑĥÐ» ÐµÐ·
Ðľ ÐµÑĢ
ĠÐĲÐ² ÑĤÐ¾ÑĢÐ»ÑĭÒĽ
ĠÐ°Ð¿ÑĤÐ° Ð´Ð°
ĠÐ´ÓĻÑĢ ÑĸÑģ
ĠÐĳ Ð¾Ñģ
ÐºÑĸÐ» ÐµÑĢ
ĠÒļ Ð°Ð¼
ĠÐ¿ÐµÑĢÑģÐ¿ÐµÐº ÑĤÐ¸Ð²
ĠÑĪÑĭÐ½ Ð´ÑĭÒĽ
ĠÒ¯Ð¹ Ð´Ñĸ
ĠÐĶ ÑĥÐ»Ð°ÑĤ
ĠÐĲ Ð¢
ĠÐ¾ Ð´Ð°ÒĵÑĭ
ĠÑĪÐ¾ ÑĪ
ĠÐ°Ðº ÑĨÐ¸ÑıÑģÑĭ
Ð¿ Ð°Ñĥ
g e
ĠÐ°ÑĥÑĢÑĥ Ð»Ð°ÑĢÐ´ÑĭÒ£
ÐĶÐĨ Ò¢
ĠÑĦÑĥÐ½ÐºÑĨÐ¸Ñı Ð»Ð°ÑĢÐ´Ñĭ
Ġ4 8
ĠÑĤÐ¾Ð± ÑĭÐ½Ð°
ÐµÑĤ Ð°
ÑĢ Ð¾ÑĢ
ĠÑĤÐ°Ð» Ð°Ð½ÑĤÑĤÑĭ
ĠÑģÑĸÐ» ÐºÑĸÐ½
ÑĦ Ð°
ĠÑħÐ°Ð»ÑĭÒĽ ÑĤÐ°ÑĢÑĭÐ½ÑĭÒ£
ĠÐ¨ÑĭÒ£ ÒĵÑĭÑģ
ĠÒĽÐ°Ð» Ð°ÑĤÑĭÐ½
ĠÒĽÐ°Ñĥ Ð¿Ñĸ
ĠÐµÑĪÐºÑĸÐ¼ Ð³Ðµ
ĠÑįÐº Ð¾Ð»Ð¾Ð³Ð¸Ñı
ÑĤÐµÐ¼ ÐµÐ»ÐµÑĢ
Ð¢ Ð¾Ð»
ÐĲÐ» ÒĵÑĭÑģ
sta gram
ĠÐĺ Ð·
Ð¶Ó©Ð½ Ñĸ
ĠÐ¸Ð½ ÑĤÐµÑĢÐ½
ĠÐºÐ°ÑĢ ÑĤÐ¾Ñĩ
ÐĶÐķ ÐĳÐĺ
Ð¾Ð½ Ð¾Ð¼
ĠÐļ Ò¯ÑĢ
Òļ ÐļÐŀ
Ġ %-
ĠÐºÐ¾Ð¼Ð¼ÑĥÐ½ Ð°
ĠÐºÓ©ÑĢ Ð´ÑĸÐ¼
Ð¡ Ðŀ
ĠÑĤÐ°Ð¼Ð°ÒĽ ÑĤÐ°Ð½
ĠÑģÑĥÐ±ÑĬÐµÐºÑĤÑĸ Ð»ÐµÑĢÑĸÐ½ÑĸÒ£
ĠÒĽ ÑĭÐ»ÑĭÐ¿
ĠÑĤÓĻÐ¶ÑĸÑĢÐ¸Ð± ÐµÑģÑĸÐ½
ĠÐ¶ÑĭÐ» Ð¼ÐµÐ½
ÑĤ Ð°Òĵ
ĠÑĤÐ°ÑĢ ÑĤÐ°Ð´Ñĭ
ĠÐĽ Ð°ÑĤÑĭÐ½
iÐ» ÐµÑĤiÐ½
ĠÑĤÐ°Ð· Ð°Ð»Ð°Ñĥ
ÐľÐ°ÒĽ Ð°ÑĤ
Ðľ Ð°ÑĤÐµÑĢÐ¸Ð°Ð»
ĠÐ¶ÑĭÐ» ÑĭÐ½Ð´Ð°
Ð°Ò» Ð°ÑĢ
ĠÓ©Ð· Ð³
ĠÐ¶Ò±Ð¼ÑĭÑģ ÑĪÑĭ
ĠÐ°ÑĥÑĢÑĥÑħÐ°Ð½ Ð°ÒĵÐ°
ĠÑĤÑĥÑĭÐ½ Ð´Ð°Ð¹Ð´Ñĭ
ĠÒļ Ò°
Òĵ Ò±Ð»
ĠÐ·ÐµÑĢÑĤ ÑĤÐµÐ»
ĠÑįÐ½ÐµÑĢÐ³ ÐµÑĤÐ¸ÐºÐ°
ĠÐ¾ÑĤÐ±Ð°Ñģ ÑĭÐ½Ð°
ÑĥÑĢ ÐµÑĤÑĤÐµÑĢ
ĠÐ¼Ò¯Ð¼ÐºÑĸÐ½Ð´ÑĸÐº ÑĤÐµÑĢ
Ð« Ò°
ĠÐ¼ÓĻ Ò£Ð³ÑĸÐ»ÑĸÐº
ĠÐ°Ð´ Ð²Ð¾Ðº
ĠÐĲÐ»Ð»Ð°Ò» ÑĤÑĭÒ£
ĠÑģÐ°Ð»ÑĭÐ½ Ð°ÑĤÑĭÐ½
ĠÒĽÐ°Ð» ÑģÐ°
ÐµÐ± Ð°Ð¿
ĠÑĤÓĻÑģ ÑĸÐ»ÑĸÐ¼ÐµÐ½
ĠÐ±Ð» Ð¾Ðº
Ò¯Ð¹ ÑģÐµÐ½Ð±Ñĸ
ĠÐ¶Ò¯Ð¹ ÐµÐ»ÐµÑĢÑĸ
ĠÐļÐ¾Ð¼ Ð¸ÑĤ
ÑĭÐ» ÑĭÒĵÑĭ
ĠÐ°ÑģÑĭÑĢÑĥ Ð´ÑĭÒ£
Ð½ Ð´Ð°Ð¹
ÑĩÐµÐ½ ÐºÐ¾
ĠâĨ Ĵ
ĠÐ¡ ÑĤÐ°ÑĤÐ¸ÑģÑĤ
ĠÐ¿ÑĸÐºÑĸÑĢ ÑĸÐ½ÑĪÐµ
ÐºÐµ ÑĪ
ĠÑģÐ°Ð» Ð°Ð»ÑĭÒĽ
ĠÐ±Ð°Ñģ ÒĽÐ°Ð½
Ð¶ÑĭÐ» Ñĭ
ĠÒļ Ðŀ
ĠÐº ÐµÐ½ÑĤÑĸ
ĠÐµÑĤ Ð¿ÐµÐ¹ÑĤÑĸÐ½
Ð¸ÑĤ Ð¼
ÐĴ Ðĺ
iÐ¼ iÐ·
ĠÑģÑĭÐ¹ Ð»ÑĭÒĵÑĭÐ½ÑĭÒ£
ĠÐ°Ð»Ð¼Ð°Ð¹ Ð¼ÑĭÐ½
Ġ0 9
ĠÒĽÐ°Ð»ÑĭÐ¿ÑĤÐ°Ñģ ÑĥÑĭÐ½Ð°
ĠÐ±Ò¯Ð³ÑĸÐ½ Ð³Ðµ
ĠÑģÑĤÑĢÐ°ÑĤÐµÐ³ Ð¸ÑıÑģÑĭÐ½
Ð«Ð¡ Ð«
ĠÐºÐµÐ»ÑĸÐ½ ÑĪÐµÐº
ĠÐ±ÑİÐ´Ð¶ ÐµÑĤÑĤÑĸÒ£
ĠÐ°Ð´Ð°Ð¼Ð´Ð°ÑĢ Ð¼ÐµÐ½
ĠÐ·Ð°Ò£ Ð¼ÐµÐ½
Ð± Ð°ÑĤÑĤÑĭ
e g
ĠÓ©Ð½ÐµÑĢ ÑĸÐ½
ĠÑĤÐ°Ò£ Ð´Ð°ÒĵÐ°Ð½
ĠÐ¸Ð½ÑģÐ¿ ÐµÐºÑĨÐ¸ÑıÑģÑĭ
ĠÒĽÐ¾Ð» ÑĭÐ¼ÐµÐ½
ÑģÐ°Ñĥ ÑĭÒĽ
ÐĿ ÐķÐ¡
ĠÐĿ Ð¸Ðº
ĠÒ±Ð¶ÑĭÐ¼ Ñĭ
ĠÒĽÐ¾ÑĢ ÑĭÐ½Ð°
ĠÐ¶Ð°ÒĵÐ´Ð°Ð¹ Ð»Ð°ÑĢÑĭ
ĠÐ¶Ð°ÒĽ ÑģÑĭÐ»
ĠÐ¼ÐµÐ´ Ð°Ð»
ÐµÑĤ ÑĸÐ¿
ÑĭÑĢ Ð´Ð°
ĠÐ±Ð¾ÑģÑĤÐ°Ð½ Ð´ÑĭÒĽ
ĠÒļÐ¾Ñģ ÑĭÐ¼ÑĪÐ°
ĠÐ´Ð¸ÑĢÐµÐºÑĤÐ¾ÑĢ ÑĭÐ½ÑĭÒ£
ĠÐ¢ Ð°ÑıÑĥ
ĠÑĤÑĥ ÑĭÐ½Ð´Ð°
ĠÐ´ÐµÐ¹ Ð¼ÑĸÐ½
ĠÐ´Ð¾Ðº ÑĤÐ¾ÑĢ
Ð°Ð»ÑĭÒĵ ÑĭÐ½ÑĭÒ£
ÑĤÑĸÐ½ ÑĸÑĪ
ĠÐ¡Ð¾Ð» Ð°ÑĢÐ´ÑĭÒ£
Òĵ Ð¸
Ġ l
Ð¾Ð³ Ð¾Ð»ÑĮ
ĠÐ°Ð»Ð¼ Ð°ÑģÑĤÑĭÑĢ
Ð±Ð¸Ð· Ð½ÐµÑģ
Ð±Ð°Ð¹ Ð´ÑĭÒ£
ĠÐ¼ÐµÐºÐµÐ¼ ÐµÐ»ÐµÑĢÑĸÐ½ÑĸÒ£
ĠÐºÓ©ÑĢÑģÐµÑĤÑĥ Ð´ÑĸÒ£
Ð°Ð» Ð°Ñģ
Ð½ Ò±ÑĢ
ĠÐ±ÐµÐ»Ð³ÑĸÐ»ÐµÐ½ ÐµÐ´Ñĸ
Ð» Ð°Ð¹ÑĤÑĭÐ½
ĠÐ¸Ð½Ð¶ÐµÐ½ ÐµÑĢ
ĠÒĽÐ°Ð»Ð´ÑĭÑĢ ÒĵÐ°Ð½
ĠÑĤÑĥÑĭÐ½ Ð´Ð°Ð¹ÑĤÑĭÐ½
ÑĤ Ð±Ð°ÐµÐ²
Ñĥ ÑĭÐ¼ÐµÐ½
ĠÐ¾Ð»Ð°ÑĢ Ð¼ÐµÐ½
ĠÐ¶Ð¾Ð» ÑĭÐ½Ð°
ÑĤÑĭÑĢ Ð°Ð´Ñĭ
ĠÒĽÐ°Ð»Ð´Ñĭ Ð¼
ĠÐļÐµÐ¹ Ð´Ðµ
ĠÓ¨Ð· ÑĸÐ½
ĠÐºÒ¯Ð½ Ð´ÐµÑĢ
ĠÑģÐ¾ÑĤ ÑĤÐ°Ð»ÒĵÐ°Ð½
ĠÐºÐµÒ£ ÑĸÑģÑĤÑĸ
ĠÐ°Òĵ ÑĭÐ½
ĠÐĸ Ò°Ðľ
ĠÑĤÓ© Ð½
ĠÐĹÐ°Ò£ ÑĭÐ½Ð°
ĠÐ¶Ò¯Ð¹ ÐµÐ³Ðµ
ĠÑį ÑģÑģÐµ
ĠÐ±Ð¸ÑĸÐº ÑĤÑĸÐ³Ñĸ
ĠÐ¶Ð°Ð· ÑĭÐ»Ð°Ð´Ñĭ
Ð¼ ÐµÐ»ÐµÑĢ
ĠÐ°Ñģ ÑĭÒĽ
Ð¢ ÐµÐ¼ÑĸÑĢ
ÑĨ ÐµÐ¿
ĠÐ°Ð¹Ð¼Ð°ÒĽ ÑĤÐ°
ĠÐ°Ð¹ÑĤÒĽÐ°Ð½ Ð´Ð°Ð¹
ÐµÐ¼ Ð¸Ð½Ð°ÑĢ
ĠÐ±ÐµÐºÑĸ ÑĤÐµÐ´Ñĸ
ĠÐ°ÑĤ Ð°ÑģÑĭ
ÑĤÐ°Ñģ ÑĭÐ¿
Ð¸Ð´ Ð¶
ĠÐ¾Ð±ÑĬÐµÐºÑĤÑĸ ÑģÑĸ
ĠÐ±Ñİ ÑĢÐ¾Ñģ
ĠÐ½ÑĭÑģÐ°Ð½ ÑĭÐ½Ð´Ð°
ÑĭÐ¼ ÑĭÐ½
Ð¦ Ð¸ÑĦÑĢ
Ð³ Ð°ÑĢ
ĠÒĵÐ°ÑģÑĭÑĢ Ð´Ð°ÒĵÑĭ
ĠÐ¾ÑĢÐ½ Ð°ÑĤÑĭÐ»ÒĵÐ°Ð½
ÐĲ Ð³ÑĢÐ¾
ĠÐ¢Ò¯ÑĢ ÑĸÐº
ĠÐµÑģÑĤ ÐµÐ»ÑĸÐº
C opyright
ĠÒĽÐ°ÑĤÑĭÐ½ Ð°ÑģÑĭ
ĠÐ· Ð°ÑĥÑĭ
ĠÐ¿Ð°ÑĤ Ð¾Ð»Ð¾Ð³Ð¸ÑıÐ»ÑĭÒĽ
ĠT engrinews
Ð¼ ÐµÐ»ÐµÑĥ
Ð¾ Ðµ
ĠÑĤÒ¯ÑģÑĸÑĢ Ð³ÐµÐ½
ĠÐ¶ÑĸÐ±ÐµÑĢ ÑĸÐ»ÐµÐ´Ñĸ
ĠÐ¾ÑĢÑĭÐ½Ð´Ð°Ð» Ð°Ð´Ñĭ
ÐĲÐ¡ Ð«ÐĿÐ«Ò¢
ĠÑĢÐµÑģÑĥÑĢÑģÑĤÐ°ÑĢ Ð´Ñĭ
ĠÑģÐ°ÑĥÐ°ÑĤ ÑĤÑĭÐ»ÑĭÒĵÑĭÐ½
ÑĭÒ£ÑĭÐ· Ð±ÐµÐ½
ĠÐ±Ð°ÒĵÐ´Ð°ÑĢÐ»Ð°Ð¼ Ð°Ð»Ð°ÑĢÐ´Ñĭ
ĠÐ±Ð°ÑģÑĪÑĭÐ»ÑĭÒĽ ÒĽÐ°
Ð¾ÑĢ Ð²
ĠÐ½Ð°ÑĥÑĢÑĭÐ· Ð´Ð°
ÐķÑĢ ÐºÑĸÐ½
ĠÒĽ Ð¸Ð½
ĠÓ©Ð½ ÐµÐ³Ðµ
ÐĲ Ð¼Ð°Ð½
Ð´ÑĸÐ¼ Ð³Ñĸ
Ð¾Ð»ÑĮ ÐºÐ»
ĠÐ¶Ð¸Ð½Ð°ÒĽÑĤÐ°Ñĥ ÑĪÑĭ
ÑĢ Ð¸Ð½
ĠÐ¼ÓĻÑģÐµÐ»ÐµÐ»ÐµÑĢ Ð´ÑĸÒ£
ĠÐ¼Ð°ÒĽÑģ Ð°ÑĤÑĭÐ½
ĠÐ¼iÐ½Ð´ÐµÑĤ ÑĤi
ĠÓ© ÑĤÑĸÐ»Ñĸ
ĠÒļÐ¾ÑĢ ÑĭÑĤÑĭÐ½Ð´Ñĭ
ĠÐ°ÑĢÑĤ ÑĤÑĭ
ĠÐ¡ ÑĥÑĢÐµÑĤ
ĠÓ©Ð¼ÑĸÑĢ Ð´ÐµÐ½
ĠÒ±ÑĪÑĭÑĢ Ð°ÒĵÐ°Ð½
ĠÓ©Ð» Ð³ÐµÐ½
ĠÒĽÒ±ÑĢÑĭÐ»ÑĭÐ¼ ÑĭÐ½
ĠÐ±ÐµÐ»ÑģÐµÐ½Ð´Ñĸ Ð»ÑĸÐ³ÑĸÐ½
Ð¸ÑĤ Ð¸ÐºÐ°Ð»ÑĭÒĽ
Ð¤ Ðŀ
Ðĸ Ò¯Ðº
Ð¸ÑĨ Ð°
ĠÑĤÐµÒ£ ÐµÑģ
ĠÐ¢ Ðķ
ĠÐ·Ð°Ð» ÑĭÐ½Ð´Ð°
ĠÐ¼Ð¾Ð½Ð¸ÑĤÐ¾ÑĢ Ð¸Ð½Ð³Ñĸ
ÑĪ Ð°ÒĵÐ°Ð¹
ĠÐľÒ± ÒĵÐ°Ð»ÑĸÐ¼
ĠÓ©ÑĤÑĸÐ½ÑĸÑĪ ÑĤÐµÑĢÑĸÐ½
ĠÐ¶ÐµÐºÐµ ÑĪÐµÐ»ÐµÐ½
ĠÑģÐ°ÑĢ Ð°Ð¹
ĠÐ°Ñı ÒĵÑĭ
ÒĽÒ± Ð¶
ĠÐµÑĢÐµÐ¶ ÐµÑģÑĸÐ½
Ðµ Ð¾
ÑĤÑĸ Ð³ÑĸÐ½Ðµ
ĠÐ½Ð°ÑĥÑĢÑĭÐ· Ð´Ð°ÒĵÑĭ
ÐĶ ÐķÐĿ
ĠÐ°Ñĥ ÐºÑĨÐ¸Ð¾Ð½
ĠÒ »
ĠÑĤÒ±Ð» ÒĵÐ°Ð½Ñĭ
ÐĨ Ð·
Ð¿ÑĢÐ¾ ÑĨ
ĠÐ´Ð°Ð¹ÑĭÐ½ Ð´Ð°Ð»ÒĵÐ°Ð½
ÑĢÐ¸ Ð³
ĠÓ©Ð·Ð³ÐµÑĢ ÑĥÑĸ
ĠÐ¼ÓĻÑĤÑĸÐ½ Ð´Ñĸ
ĠÑĤÑĸÐ»ÐµÐ¹ Ð¼ÑĸÐ·
ĠÐ¿ Ð°Ðº
ĠÐ¶Ð¸Ð½ Ð°ÒĵÐ°Ð½
ÑĦ Ð¾ÑĢ
ĠÐĸÐ¾Ð»Ð´Ð°Ñĥ ÑĭÐ½Ð´Ð°
ĠÐµÐ» ÐµÑģÑĤ
Ġ5 6
ĠÒĽÐ°Ð¹ Ñģ
ĠÑĥÑĩÐ°ÑģÐº ÐµÐ»ÐµÑĢÑĸÐ½
Ð¿ÐµÑĢÐ¸ Ð¼ÐµÐ½ÑĤ
Ðĸ Ð¸
ĠÐºÐ¾Ð½ÑģÑĤÐ¸ÑĤÑĥ ÑĨÐ¸ÑıÐ»ÑĭÒĽ
Ð°Ð¼ Ð½ÑĭÒ£
ĠÐ¿ÑĥÐ½ ÐºÑĤ
ĠÑģÓĻÑĥÑĸÑĢ Ð´Ðµ
ĠÐ°ÑĥÐ´Ð°ÑĢ ÒĵÐ°Ð½
ĠÑĤÐ°ÑĢ ÑĤÑĭÐ»ÒĵÐ°Ð½
ĠÐ·ÐµÑĢ Ð´Ðµ
ĠÓĻ Ð¼ÑĸÑĢ
ÑĪÑĸÐ»ÐµÑĢ Ð´Ñĸ
ĠÐĲÐ¹ Ð´Ð°ÑĢ
ĠÐ¶Ò¯ÑĢ Ð´Ñĸ
ĠÐ°Ð»Ð°Ò£ ÑĭÐ½Ð´Ð°
ĠÑĢ ÑĭÐ½
ĠÑĤÓ© Ò£
ĠÐ¿ÐµÑĢÑģ Ð¾Ð½
ĠÐ¶ Ð°Ð¹Ð»
ĠÐ¶Ð°Ð» Ð¿
ĠÐ¢ ÐµÐ³ÑĸÐ½
ĠÐ¾ÒĽÑĭÑĤÑĥ ÑĪÑĭÑģÑĭ
ĠÐ¾Ð¹ Ñĭ
ÑĨ Ð¸Ð¹
ĠÑĤÑĥ ÑĭÐ»ÒĵÐ°Ð½
Ð¾ ÒĽÑĭÑĤÑĥ
ĠÒ¯Ð¹ ÑĸÐ½ÑĸÒ£
ĠÐ¼ÐµÑĤ Ð°Ð»
Ð°Òĵ ÑĭÐ½Ð°Ð½
ĠÑĤÐ°Ð¼ÑĭÐ· Ð´Ð°
ĠÐ¼Ð°ÒĵÑĭÐ½ Ð°ÑģÑĭÐ½
ĠÑĤÐ°Ñģ ÑĤÐ°ÒĵÐ°Ð½
ĠÑĤÐµ Ð»ÑĸÐ¼
ÑĤ ÑĤÐµÑĢ
Ð¢ Ð°Ò£
ĠÒĽ ÑĭÐ¼ÑĭÐ·Ð´Ñĭ
ĠÐ¼ÐµÐ¼Ð»ÐµÐº ÐµÑĤÑĸ
ĠÑģÒ¯ Ñİ
ĠÐ¶Ð°ÑĤÑĤÑĭÒĽ ÑĤÑĭÑĢÑĥ
ĠÐ±Ð°ÑģÐ¿Ð°Ð½ Ð°
ĠÑĤÐ¾Ð¿ ÑĭÑĢ
Ġ ;
Ð¼Ò±ÑħÐ°Ð¼ ÐµÐ´
ĠÑĦÐ¸Ð»Ð¾ÑģÐ¾ÑĦ Ð¸ÑıÐ»ÑĭÒĽ
ĠÐ¼ÓĻÑģÐ»Ð¸Ñħ Ð°ÑĤÑĤÑĭÒ£
ĠÐ¼ÓĻÐ´ÐµÐ½Ð¸ ÐµÑĤÑĸÐ½ÑĸÒ£
ĠÑģÐ°Ð±Ð°ÒĽ ÑĤÐ°ÑĢÑĭ
ĠÐ±Ð°Ð· Ð°ÑģÑĭ
ĠÐĹ Ð°Ðº
ĠÐ±ÐµÐ»ÑģÐµÐ½ Ðµ
ĠÐĶ Ð°Ñĥ
Ð´Ñĸ Ð»ÐµÑĢ
ĠÐ¶Ð°Ð½ Ò±Ñı
ĠÐ¾ Ñİ
ĠÓĺ ÐĶÐķÐĳÐĺ
ÑĭÐ½Ð´Ñĭ ÒĵÑĭÐ½
ĠÐ¸ÐµÐ»ÐµÐ½ Ð´Ñĸ
ÑĸÑĢ ÑĸÑģ
ÑĤÑĸÑĢ ÑĸÐ¿
ĠÐ°Ð± Ð·Ð°Ð»
Ðĸ Ñĥ
ĠÐ½Ð°ÑĢÐ°Ð· ÑĭÐ»ÑĭÒĽ
. (
ĠÑĤÑĸÐ» ÐµÐ³Ñĸ
ĠÐ¶Ð°Ñģ ÑĤÐ°ÑĢÑĭ
ĠÐ°Ñģ ÒĽÐ°Ð·Ð°Ð½
ĠÐºÑĸÑĢ Ð³ÑĸÐ·
Ð½ Ñı
ĠÑģÐ°ÑıÑģÐ°ÑĤ ÑĤÑĭÒ£
ĠÐ´ Ð¸Ð½Ð°Ð¼
ĠÐ´ÐµÐ³ÐµÐ½ Ð´ÐµÐ¹
ĠÐ±Ð¾Ð»Ð¼ ÑĭÑģ
Ò®ÑĪ ÑĸÐ½ÑĪÑĸ
ĠÐ¡ Ð°Ð±
Ð¼ Ð°ÑĥÑĭ
Ġ4 4
Ðĸ ÐĹÒļ
ĠÒĵÐ°Ð»ÑĭÐ¼ Ð´Ð°ÑĢÐ´ÑĭÒ£
Ó¨ Ð½Ð´ÑĸÑĢ
Ðĳ ÐķÐļ
ĠÑĤÑĭÒ£ Ð´Ð°Ð¿
ĠÑĤÑĭÑĢÑĭÑģ Ð°Ð´Ñĭ
ĠÑĪÐµÐ± ÐµÑĢÑĸ
Ġ5 2
ÐµÐ³ÑĸÐ½ ÐµÐ½
ĠÐĳÑĸÑĢ ÑĸÐºÐºÐµÐ½
Ð¸ÑĦ Ð¸ÐºÐ°ÑĨÐ¸Ñı
ĠÐ°ÒĽÑĭÐ½ Ñĭ
ĠÐ¶Ð¾ÑģÐ¿Ð°ÑĢ Ð»Ð°Ð½ÑĭÐ¿
ĠÐ¼ Ð³
in do
ĠÑĦÐ¸Ð»Ð¾ÑģÐ¾ÑĦ Ð¸Ñı
ĠÐµÐºÐµÐ½ ÑĸÐ½Ðµ
Ð´ ÐµÑĤÑĤÐµÑĢ
ĠÐ¶Ð°ÒĵÐ´Ð°Ð¹ ÑĭÐ½Ð´Ð°ÒĵÑĭ
Ðļ ÐµÐ»
ĠÑĤÑĢ ÐµÐ½Ð¸Ð½Ð³
ĠÐ°Ð» ÑģÐ°
Ġ2 50
Ð¼ Ò¯
ĠÐºÐµÐ· Ð´ÐµÐ½
Ð¡ Ð°Ð¹
ĠÐ´ÓĻÑĢÐµÐ¶ ÐµÐ»Ñĸ
ĠÐ±ÑĸÑĢ Ð¶Ð¾Ð»
ĠÑĥÐ°ÒĽÑĭÑĤ ÑĤÑĭ
ĠÓ© ÑĤÑĸÑĢÑĸÐº
ĠÐ¶ÐµÑĤÑĸÑģ Ð¿ÐµÑĥ
ĠÑģÐ¾ÑĤ ÑĤÑĭÒ£
Òļ Ñĥ
ĠÓ¨ Ò£ÑĸÑĢ
Òļ Ð°Ð¼
ĠÒĽÐ°Ð½Ð°ÒĵÐ°ÑĤ ÑĤÐ°Ð½Ð´ÑĭÑĢÑĥ
Ð¾Ð² Ð°Ð½
ÐµÐ» Ð¸
ĠÐ¾ÑĢÐ½ ÑĭÐ½ÑĭÒ£
Ð°Ð³ Ð¾Ð½
Ð» ÑĭÐ»ÑĭÒĽ
Ð± ÐµÐ»Ð³Ñĸ
ÐºÐ» Ð°ÑģÒĽÐ°
ĠÐ¾ÒĽ ÑĭÑĤ
ĠÒĽÑĭÑģ ÒĽÑĭ
ĠÑĤ ÓĻÐ¼
Ðľ Ð°Ð¼Ð°Ð½
ĠÐĲÐ»Ð» Ð°ÒĵÐ°
ĠÐ¿Ð» Ð°ÑĤ
Ðĳ ÑİÐ´Ð¶
Ð¾Ð¼ ÑĭÑĪ
ÑĤÐ°Ñĥ Ñĭ
ÐµÐ½ ÐºÐ¾
ĠÐ¶Ð°ÑĢ Ð°Ð¼Ð´Ñĭ
ĠÑģÐµÐº ÑĥÐ½Ð´
ĠÐ±Ð¸ Ð»ÐµÑĥ
Ġ20 25
ĠÐµÑĢ Ð»ÐµÑĢ
V III
ĠÐµÒ£Ð±ÐµÐº ÑĤÑĸ
ĠÐºÐ¾Ð¾Ð¿ÐµÑĢ Ð°ÑĤÐ¸Ð²
ĠÑįÑĤÐ½ Ð¸ÐºÐ°Ð»ÑĭÒĽ
ĠÐ¶Ò¯ÑĢÐ³ÐµÐ½ Ð´Ðµ
ĠÐºÓ©ÑĢÑĸÐ½ ÑĸÐ¿
ĠÐ³ Ð¸Ð³Ð¸ÐµÐ½
ÑĤi ÑĢ
Ð½ Ð°ÒĽ
ÑĪ Ð°Ò£
Ð´Ð°Ñĥ ÒĵÐ°
ÒĵÐ°Ð» ÑĸÐ¼Ð½ÑĸÒ£
ĠÑĤÒ±Ð»Òĵ Ð°ÒĵÐ°
ĠÐł Ð°Ð¼Ð°Ð·Ð°Ð½
ÑĤÑĭÐ» Ð´Ñĭ
stan a
ÒĽÑĭÑĪ ÑĤÐ°ÑĢ
ÒļÐ¾ÑĢ ÑĭÑĤÑĭÐ½Ð´Ñĭ
Ð¶ÐµÑĤ ÐºÐµÐ½
ĠÑģÑĥ Ð°ÑĢ
Ð³ÐµÑĢ Ð´ÑĸÒ£
ĠÑĪ Ð°ÑĤ
ĠÐµÐ» ÑĪÑĸÑģÑĸ
ĠÑģÐ°Ð¿ Ð°ÑģÑĭÐ½Ð°
ÐµÐ² ÑĤÑĸÒ£
Ðļ Ð°ÑĢ
ÑĨÐ¸ Ð¸
Ġti le
ĠÐ¼Ò±ÑĢÐ°Òĵ Ð°ÑĤÑĭ
r a
ĠÑĤÐ°Ð±Ð¸ÒĵÐ° ÑĤÑĭ
ĠÐ°Ð¹Ð½Ð°Ð»ÑĭÑģ Ð°Ð´Ñĭ
Ð¸Ð·Ð¼ Ð½ÑĸÒ£
ĠÑĤÐ°Ð»Ð´Ð°Ñĥ Ð´ÑĭÒ£
ÒļÒ±ÑĢ ÑĭÐ»ÑĭÑģ
ĠÒĽ Ñĭ
Ð¥ ÐĲÐĿ
ĠÐĲÒĽ ÑĭÑĢ
ĠÒĽÒ±ÑĢÑĭÐ» Ð°Ð´Ñĭ
ÐĹ Ð°Ð¼Ð°Ð½
ĠÑģ Ð¿ÐµÐº
Ð¼Ð°ÒĽ ÑĪÑĭ
ĠÒ±ÑģÑĭÐ½ÑĭÑģ ÑĤÐ°ÑĢÐ´Ñĭ
ĠÒĽÐ°ÑĢÐ°ÑģÑĤÑĭÑĢ ÑĭÐ»Ð°Ð´Ñĭ
Ð¸ Ð³Ñĸ
ĠÑĤÒ± ÑģÑĤÐ°
ĠÐ¶ Ò±Ð»
ĠÒĽÐ°Ð» ÑĥÑĭ
ĠÐ¾ÑĢÐ½Ð°Ð»Ð°Ñģ Ñĥ
Ð´ Ð¸Ð¾
ĠÐĿ Ð°Ñĥ
Ð¶ Ñĥ
Ò° Ðŀ
Ġ on
ĠÒĽÐ¾ÑĢ ÑĭÑĤÑĥ
Ð¨ ÑĭÐ½
Ò® ÐĿ
Ð´ÑĸÑĢ ÑĸÐ»Ð³ÐµÐ½
ÐĿ Ð¾ÑĢÐ¼Ð°ÑĤÐ¸Ð²ÑĤÑĸÐº
Ð¾ Ñħ
ĠÐºÐ¾Ð¼Ð¿ ÑĮÑİ
ĠÑģ Ð°Ð»ÑĭÒĵÑĭ
ĠÐ¼ÓĻÑģÐµÐ» ÐµÑģÑĸÐ½Ðµ
ĠÑģ Ó©
ĠÐºÐ¾Ð½ ÑĦ
ĠÐ¡ ÓĻÑĢ
Ñĸ Ð»ÑĸÐºÑĤÑĸ
ÒĵÑĭÐ» ÑĭÒĽ
Ð°Ò£ÑĭÐ· Ð´Ð°ÑĢ
Ðļ ÐµÐ½
ĠÐ¾ÑĢÑĭÐ½ Ð´Ð°Ð¹
ĠÐ¼Ð¸Ð½ ÐµÑĢ
ĠÐ±Ð¸ Ð´Ð°Ð¹
ĠÑģÑĭÐ½ ÒĵÐ°
ĠÑģÐµÐ½ Ð´ÐµÑĢÐ³Ðµ
ĠÐ³ ÐµÐ¼
ĠÐ±Ð°ÑģÒĽÐ°ÑĢ ÑĥÑĪÑĭ
ĠÐ¶ÑĭÐ» Ð´Ð°ÑĢÑĭÐ½Ð´Ð°
ĠÒ±ÑģÑĭÐ½ ÑĭÐ¿
ĠÑĤÐ°Ò£ Ð±
ĠÐ¶Ð°Ð·Ð± Ð°Ð»Ð°ÑĢ
ĠÐ¶Ò±ÑĢÑĤ ÑĤÑĭÒ£
ĠÑĤÐ°ÑĢ ÑĤÐ°
ĠÒ±Ð¹ ÒĽÑĭ
Ð¢Ð°ÑĢ Ð°Ð·
ĠÐ°Ð½Ð°Ð» Ð¸Ð·
ĠÐ·Ð°ÑĥÑĭ ÑĤÑĭ
ĠÐºÓ©Ðº ÐµÐ¹
ĠÒĽÒ±ÑĢ Ð°Ð»ÒĵÐ°Ð½
ĠÐ¶Ð¾Ð» Ð´ÑĭÒ£
ĠÐºÒ¯ÑĢ ÐµÑģÑĸ
ĠÐ±Ð°Ð½Ðº ÑĤÐµÑĢÐ´ÑĸÒ£
Ð¸Ð» Ð¾
ÐµÐº ÑĪÐµ
ÑĤ ÑĤÑĭÒ£
ĠÐ´ÐµÒ£Ð³ÐµÐ¹ ÑĸÐ½ÑĸÒ£
ĠÒĽÒ±ÑĤÑĤÑĭÒĽ ÑĤÐ°Ð¹Ð¼ÑĭÐ·
ĠÐ°ÑĢÑĤÑĤÑĭÑĢ Ð°Ð´Ñĭ
Ð«ÐĿ ÐĲ
Ð¢Ó©ÑĢ ÑĤÑĸÐ½ÑĪÑĸ
ĠÐ½ ÐµÐºÐµ
ĠÐ°ÑĢ Ð¼
Ð°Ð»Ð°ÑĢ ÑĭÐ¼ÑĭÐ·
ĠâĢ º
Ð» ÐµÐ³ÐµÐ½
Ñį ÑĦ
ĠÑĪÐ°ÑĢ Ð°ÒĵÐ°
ĠÒĽÒ±Ð¶Ð°ÑĤÑĤÐ°ÑĢ Ñĭ
ÑģÑĤÐ°Ð½ Ð¾Ð²ÐºÐ°
Ð¶ Ð°Ñĥ
ĠÐ¼ÐµÑĢÐµÐº ÐµÑģÑĸÐ½Ðµ
Ð¾Ð½ Ð¸Ð¼
Ð°Ð»ÑĭÒĵ ÑĭÐ¼ÐµÐ½
Ðł Ðķ
ĠÐ°ÒĽÑĭÐ½ Ð´Ð°ÑĢ
ĠÑģÓ©Ð¹Ð» ÐµÐ¹Ð´Ñĸ
Ġ7 00
Ð±Ðµ Ð»Ñĸ
ĠÐºÒ¯Ð½Ð´Ðµ Ð»ÐµÐºÑĤÑĸ
ĠÑģÐµÐ½ Ð´ÐµÑĢ
ÐĶ ÐµÑĢÐµÐº
ĠÐ¶ÑĭÐ»Ð´Ð°Ð¼ Ð´ÑĭÒĵÑĭ
ĠÐºÐµÐ·Ð´ÐµÑģ ÐºÐµÐ½
ĠÑĪ Ð°
ĠÐ±ÓĻÑĢ ÑĸÐ½Ðµ
ĠÐŀÐ» Ð¸Ð¼Ð¿Ð¸Ð°Ð´
ĠÑĤÒ± ÒĽÑĭÐ¼Ð´Ñĭ
ĠÐ°ÑģÐ¿ ÐµÐºÑĤÑĸ
Ó©Ð· ÐµÐº
Ð±Ðµ Ñİ
Ð¼ ÐµÑĥ
Ðķ Ð½
ÐµÑĥÐ½ ÑĸÐº
ĠÐ±Ð¾Ð»ÑĭÐ¿ ÑĤÑĭ
indo ws
Ðŀ Ð»Ð°ÑĢÐ´ÑĭÒ£
ĠÒ° Ð·
ÑĤÑĸÐ½ Ñĸ
ĠÐ¼ÐµÑĤÐ°Ð»Ð» ÑĥÑĢÐ³
ĠÑĪÐ°Ð¹ ÒĽÐ°Ñģ
Ð°Ð½ Ð°ÑģÑĭ
ĠÑĪÐ¾ Ñĥ
ĠÐµÐ»Ð´ÐµÑĢ ÑĸÐ½Ð´Ðµ
ÐºÐµÑģ ÑĤÑĢ
ÑĦ ÑĥÐ»Ð»Ð¸Ð½
ĠÒĵ Ò±Ð»
ĠÐ°ÑģÑĭÑĢ Ð°
ĠÐĽ Ð¾Ð½Ð´Ð¾Ð½
ĠÑĢÐµÐ´Ð°ÐºÑĨÐ¸Ñı ÑģÑĭ
ÑĤÐ°ÑĢ Ð¸Ñħ
ÑĢÐ¾ Ð·
Ð°Ð² ÑĢ
ĠÐ±Ó©Ð»ÑĸÐ¼ ÑĸÐ½Ðµ
ĠÐ°Ð»Ñĥ Ð»Ð°ÑĢ
ĠÐ¿ÑĢÐ°ÐºÑĤ Ð¸ÐºÐ°
ĠÐ»Ð°ÑĥÑĢÐµ Ð°ÑĤÑĭ
ĠÐ¼ÐµÐ¼Ð»ÐµÐº ÐµÑĤÑĤÑĸ
ĠÐ±Ð¸Ð»ÑĸÐº ÑĤÑĸÒ£
ĠÐ¶Ð°ÑĢ Ð°ÑĤÑĭÐ»ÑĭÑģÑĤÐ°Ð½Ñĥ
ĠÐĳ Ð°Ð½ÐºÑĸ
ĠÐ³Ðµ Ð¾Ð¼ÐµÑĤÑĢ
ÑĥÑĢÐ¾Ð¿ Ð°Ð»ÑĭÒĽ
ĠÐŀÒĽÑĥÑĪÑĭÐ»Ð°ÑĢ ÒĵÐ°
ÑĸÑĢ ÑĸÐ¿
ĠÐ¶Ð¾Ð»Ð´Ð°Ñĥ Ñĭ
ĠÐºÓ©Ð¼ÐµÐº ÑĤÑĸÒ£
ĠÑĤÐ°Ð»ÒĽÑĭÐ» Ð°Ð´Ñĭ
ĠÐ¾ÑĢ Ð°Ð·Ð°
ĠÐ¾ÑĢÑĭÑģ ÑĪÐ°
ĠÐĳ ÑĥÑĢ
ĠÓĻÐ¹ÐµÐ»Ð´ÐµÑĢ Ð´ÑĸÒ£
ĠÑģ ÑħÐµÐ¼
ĠÐ°ÑĥÑĭÐ» ÒĵÐ°
Ð±Ð°Ð¿ ÑĤÑĭÒ£
Ð°Ð»Ñİ ÑĤÐ°
ĠÐ¢ ÑĭÐ½
ĠÒļ Ð°Ð»Ð°Ð¹
ĠÐľ ÑĭÐ½Ð°
ĠÐ¢ Ð°Ð¿ÑģÑĭÑĢ
ĠÐ¼ ÑĥÐ»ÑĮ
Ġ ma
ĠÒĽÑĭÐ· Ð´Ñĭ
ĠÐ¼ÐµÐ¼Ð¾ÑĢ Ð°Ð½Ð´ÑĥÐ¼
Ġ5 1
ĠÐºÑĢÐ¸ÑĤÐµÑĢ Ð¸Ð¹
ĠÐ·Ð°Ò£ Ð½ÑĭÒ£
ĠÑĤÒ¯Ñģ ÑĸÐ½Ðµ
ĠÐ¾ ÑıÐ½
ĠÐ¶ Ð°ÑıÑĥ
ÑĥÐ» Ð»Ð°
ÑĸÐ¼ ÑĸÐ½
Ðľ ÑĥÐ·
ĠH D
Ð¼Ð± ÐµÐ±Ð°Ð¿
ĠÐ±Ð°ÑģÒĽÐ°ÑĢ ÑĥÒĵÐ°
ĠÓĻÐ»ÐµÑĥ ÐµÑĤÑĸÐ½
ĠÑĤÐ°Ð±Ð¸Òĵ Ð°ÑĤÑĤÑĭ
ĠÒĽÐ°Ñĥ Ð»Ñĭ
ĠÐ£ ÑģÑĤÐ°Ð½Ð¾Ð²ÐºÐ°
Ð± ÑĸÐ½
ĠÐĨÐĨ ÐĶ
ĠÐºÐ»ÑĥÐ± Ñĭ
ÐºÐµÑĢÐ»ÐµÑĢ Ð´Ñĸ
ĠÐ¼ÐµÐ½ÑĪÑĸÐº ÑĤÑĸ
ĠÐºÐµÑĤ ÑĥÑĸ
ĠÐ¾Ð±Ð»ÑĭÑģ ÑĤÐ°
ĠÐºÐµÐ¹ÑĸÐ½ Ð½ÐµÐ½
ĠÐºÓ©Ð· Ð´ÐµÐ»
Òļ ÐĲÐł
ĠÒ° Ðļ
ĠÒĽÒ±ÒĽ ÑĭÒĵÑĭÐ½Ð°
ĠÑĤiÑĢ ÐºÐµÑĥ
ĠÐ¼ÐµÐ½ ÐµÐ½
Ð¾Ð· ÒĵÐ°Ð»
ĠÐ·Ð¸ÑıÑĤ ÐºÐµÑĢÐ»ÑĸÐº
ĠÓ©ÑĤÑĥ Ð³Ðµ
ĠÐ´ ÐµÑĢÐ»ÑĸÐº
ĠÐ±ÐµÑĢ ÑģÐµ
ĠÐ¸Ð½ÑĦ Ð»ÑıÑĨÐ¸Ñı
ĠÐŀ ÒļÐŀ
ĠÐ´ Ð¸Ð²
Ðķ ÐĵÐĨ
ÐĳÒ± ÒĵÐ°Ð½
ÐµÐ½ Ð¸Ðµ
ĠÐ¾Ð¹ Ð»Ð°ÑĢ
ĠÐ¾ÑĢÑĤÐ°Ð»ÑĭÒĽ ÑĤÐ°ÑĢÑĭ
ÑĤÐµÐ» ÑĮ
ÑĤÐ°Ñĥ ÑĪÑĭ
ĠÐ±Ó©Ð» ÐµÐ´Ñĸ
ĠÐ¸Ð½ÑĦÐ¾ÑĢÐ¼ Ð°ÑĤÐ¸ÐºÐ°
ĠÐºÐµÑĤ ÑģÐµ
ĠÐĲÐ½ Ð³
ĠÐ¶Ò±Ð¼ Ð±Ð°ÒĽ
Ðĺ ÓĻ
ĠÐ°Ð»Ñĥ ÑĭÐ½Ð°
ĠÑģÐµÐ¿ ÑĤÑĸÐ³ÑĸÐ½
Ð´ÑĸÐº ÐºÐµ
ÑĤÐµÑĢ ÑĸÐ½ÐµÐ½
ĠÐ¶Ð°Ð· ÑĭÐ»Ñĥ
Ð¥ Ð¥
ĠÒ±Ð¹ÑĭÐ¼Ð´Ð°ÑģÑĤÑĭÑĢ Ð°Ð´Ñĭ
ÑĭÐ» ÑĤÑĭÑĢ
ĠÐ³ Ð¾Ð»
iÐ¼ Ð´i
ĠÐŀ ÑĤÑĭÑĢ
Ñ ĳ
ĠÑģÒ±Ð»Ñĥ Ð»ÑĭÒĽ
ÐµÐ¼ ÐµÐ»
Ð¡ ÐµÐ¹
ĠÐºÒ¯ ÑĤÑĸÐ¼
q u
ĠÐ¾Ð±ÑĬÐµÐº ÑĤÐ¸Ð²ÑĤÑĸ
ĠÐ¶Ð°Ð½ ÐºÒ¯Ð¹
ĠÑĤÐ¾Ð»ÑĭÒĽ ÒĽÐ°Ð½Ð´Ñĭ
Ð¿ Ð¾Ð½
ĠÑĤÓĻÑģÑĸÐ» Ð´ÐµÑĢÑĸÐ½
ÒļÐ°Ð¹ ÑĭÑĢ
ĠÐ°Ð² ÑĤÐ¾Ð½Ð¾Ð¼
ĠÐ¾ ÑģÑĭÐ½ÑĭÒ£
Ð´Ð°ÑĢ Ð°
Ð¡ Ð°ÒĽ
Ð»ÑĮ ÑĤÑĢ
Ð»ÐµÑĥ Ð¼ÐµÑĤ
ĠÑĤÑĸÑĢ ÐµÐº
ĠÑĤÓ©Ð»ÐµÑĥ Ð³Ðµ
ĠÐºÐµÑĪÑĸÐº ÑĤÑĸÑĢ
Ð³ÐµÑĢ Ð»ÐµÑĢÑĸ
ĠÐ¶Ð°ÑĤÒĽÐ°Ð½ Ñĭ
Ð½ Ð¸ÑĤ
ĠÑĤÐµÐ°ÑĤÑĢ Ñĭ
ĠÐ°ÑĥÑĭÐ» Ð´ÑĭÒ£
ĠÐ¶ÑĭÐ» Ð´Ð°ÑĢÐ´ÑĭÒ£
200 7
ĠÐ´Ð¾Ð¼Ð±ÑĭÑĢ Ð°
ÐŃ ÐºÐ¾Ð½Ð¾Ð¼Ð¸ÐºÐ°
Ð°Ð¹ Ð·
ĠÐ´ÐµÐ½ ÐµÑģÑĸ
ÒĽÐ°ÑĢ ÑģÑĭ
ĠÐ¾ÒĽ ÑĪÐ°Ñĥ
Ð±ÑĸÑĢ ÑĸÐ½
ĠÐ¼Ð°ÒĵÐ»Ò±Ð¼ Ð°ÑĤ
ĠÐ¼ ÉĻ
Ð¨ Ð°Ð»
ĠÐ¢ Ð°ÑĪÐºÐµÐ½ÑĤ
ÑĤÒ¯ ÑģÑĤiÐº
ĠÒ±ÑģÑĤ Ð°Ð»Ð´Ñĭ
ÓĺÑĢ Ð¸Ð½Ðµ
Ð¸Ñı Ð»Ð°Ð½Ð´ÑĭÑĢÑĥ
ĠÐºÓ© Ð½
ĠÓĺÐ´Ñĸ Ð»
ĠÒĽÐ°ÑĤÑĭÐ½Ð°Ñģ ÑĤÐ°ÑĢÐ´Ñĭ
ÐµÐ¼ÐµÐ½ ÑĪÑĸÐº
ĠÐºÓ©ÑĤÐµÑĢ ÑĸÐ»Ð³ÐµÐ½
ĠÐĲÐ»Ð¼Ð°ÑĤÑĭ Ð´Ð°ÒĵÑĭ
ĠÐļÐµÑģÑĤ ÐµÑģÑĸ
Ð°Ð¹ Ð´ÑĭÒ£
ĠÐµÑĢÑĸ ÑĤÑĸÐ½Ð´Ñĸ
ĠÐ±Ð¸Ð·Ð½ÐµÑģ ÑĤÑĸÒ£
Ð¨ ÐĲ
ĠÐ¾Ð±Ð»ÑĭÑģ ÑĭÐ½Ð°
ĠÐŁ ÑĸÐºÑĸÑĢ
ĠÐ±Ð°ÒĵÐ°Ð»Ð°Ñĥ ÒĵÐ°
ĠÑĤÑĸÐ» Ð´ÐµÑĢÑĸ
ĠÐ¶Ð°ÑĢÐ¸Ñı Ð»Ð°Ð¹Ð´Ñĭ
ÑĤ Ð°ÑģÑĭÐ½
ĠÑĤÒ¯Ð¿ ÐºÑĸ
ĠÒĽÑĭÐ·Ð¼ÐµÑĤ ÑĪÑĸÐ»ÐµÑĢÐ´ÑĸÒ£
ĠÓ©Ð½Ð´ÑĸÑĢÑĸÑģ ÑĤÑĸÒ£
ĠÒĽ ÑĭÐ¿
ÒĵÐ°Ð½ ÑĭÐ½
ĠÑģÑĸÐ· Ð´ÐµÑĢ
ÑĦÐ¾ÑĢÐ¼Ð° ÑĨÐ¸Ñı
ÒļÐ°Ð· ÐĲÒĽÐ¿Ð°ÑĢÐ°ÑĤ
ĠâĢ ¬
ro s
ĠÐŀÑĢ Ð´Ð°
Ð³ Ó©Ð·
ĠÐ¾ ÑģÑĭÐ»Ð°Ð¹ÑĪÐ°
ĠÐµÒ£Ð±Ðµ Ð³ÑĸÐ½
ĠÐ¢ Ðµ
ÓĺÑĢ Ð±ÑĸÑĢ
ĠÑĤÑĸÑĢÐºÐµÐ» Ð´Ñĸ
ÒĽ Ð¸
ĠÐ¢ Ð°Ð¼ÑĭÐ·
ĠÐºÐµÐ¿ ÑĸÐ»Ñĸ
ĠÒĽÒ± Ð´ÑĸÑĢ
ĠÐ°ÑĢ ÑĤÐ°
ĠÓ©Ð½ÑĸÐ¼Ð´Ñĸ Ð»ÑĸÐ³Ñĸ
ĠÑĦÐ¸Ð» Ð¾Ð»Ð¾Ð³Ð¸Ñı
ĠÑĤÐ¾Ð»Ð¼Ð°ÒĵÐ°Ð½ Ð´Ð°ÑĢÐ´ÑĭÒ£
ĠÐĸÐ°ÑĢ Ð±Ð¸
ĠÐŀÒĽÑĥÑĪÑĭÐ»Ð°ÑĢ Ð´Ñĭ
ĠÐĸ Ð«ÐĽ
ĠÐ¶ÐµÑĢ Ð»ÐµÑģ
ĠÐ¼ÐµÑĢÐ·ÑĸÐ¼ ÑĸÐ½
ĠÐľÐ°ÒĽ ÑģÐ°ÑĤÑĭ
Ð¶ Ò¯Ð·
ĠÒĽÐ°Ð¶ÐµÑĤÑĤÑĸ Ð³ÑĸÐ½
ĠÐ±Ó©Ð» iÐ¼
ĠÐ±ÑĢ Ð¸ÑĦÐ¸Ð½Ð³
ĠÐ½ÑĭÑģÐ°Ð½ Ð´Ð°ÑĢÑĭ
ĠÐ¼ÑĭÐ½ Ð°Ð»Ð°ÑĢ
ÐĳÑĸÐ· Ð³Ðµ
ĠÐµÑģ ÑĤÑĸÐ¿
ÐĳÐ°Ñģ ÑĭÐ¿
ĠÑĨ ÐµÑħ
Ð°ÑĢ Ñħ
Ð¡Ð°Ð½ Ð°ÑĤ
A S
âĢĿ .
ĠÑĤÓ©Ð¼ÐµÐ½Ð´ÐµÐ³Ñĸ Ð´ÐµÐ¹
Ð± Ð¾
Ð¶ Ò¯Ð¹
ĠÐ°Ð» Ð¼Ð°
Ðĳ ÓĻÐ¹
ÒļÐ°Ð½ Ð´Ð°Ð¹
ĠÒĽÑĭÐ·Ð¼ÐµÑĤ ÑĸÐ½ÐµÐ½
ĠÐ¶Ò¯ÑĢÐ³ÑĸÐ·Ñĥ Ð´Ñĸ
ÒĵÐ° Ñİ
ÑĪ Ð°Ð½
. ),
ĠÐ¶Ð°ÑĢÐ¸Ñı Ð»Ð°Ð¿
ĠÑĤÐ¾Ð» ÑĭÐ¿
Ð°Ð¹ ÒĵÑĭÑĢ
ĠÐºÑĸÐ½ ÓĻÐ»Ñĸ
Òĵ Ð°Ð·
Ðŀ ÒļÐŀ
% )
Ñĸ ÑģÑĤ
ĠÑģÐ°Ð¹ ÑĭÑģÑĭ
ĠÓ©ÑĢÐºÐµÐ½ Ð¸
ĠÒĽÐ°Òĵ ÑĭÐ¿
ĠÐ±ÐµÐ»ÑģÐµÐ½Ð´Ñĸ Ð»ÑĸÐº
ĠÐ±Ð°ÒĽÑĭÐ»Ð°Ñĥ ÒĵÐ°
ÐĿ ÓĻÑĤÐ¸Ð¶
ĠÑĤÐ°ÑĢÐ¸Ñħ ÑĭÐ½Ð°
ĠÐļ ÓĻÑĢÑĸÐ¼
ĠÒĽÒ±ÑĢÐ°Ð¼ Ð´Ð°Ñģ
ĠÒĽÐ°Ð¹ÑĤÐ°ÑĢ Ñĥ
ĠÐ°ÑĢÑĤÑĤÑĭÑĢ ÑĭÐ¿
ĠÐ¼ÓĻÐ»ÑĸÐ¼ Ð´ÐµÐ¼
ĠÓĺ Ðļ
ĠÐĲÑĥÒĵÐ°Ð½ ÑģÑĤÐ°Ð½
ĠÐºÐ¸ ÑĸÐ·
ĠÐ°ÑĥÐ» Ð°ÒĽ
ĠÐºÓ©ÑĢÑĸÐ½ Ð´Ñĸ
ÑĤÐ°ÑĢ ÑĭÐ½Ð°Ð½
Ð± Ð°Ð»Ð°
ĠÐ¾ÑĢÑĤ Ð°ÑģÑĭ
ÑĪÑĸÐ»ÐµÑĢ ÑĸÐ½ÑĸÒ£
Ò£Ð³Ñĸ Ð¼Ðµ
ĠÐ±Ò±Ð¹ÑĢ ÑĭÒĵÑĭ
ĠÑĤÑĸÐ»ÐµÐ¹ Ð¼ÑĸÐ½
ĠÒĽÐ°Ð·Ð°ÒĽ ÑĤÐ°ÑĢÐ´ÑĭÒ£
ĠÒĵÐ°Ð»ÑĭÐ¼ Ð´Ð°ÑĢÑĭ
Ð¼ Ñĥ
Ġ ÒĵÐ°ÑĪ
ĠÐ´ Ð¸Ðº
ĠÑĪÑĸÐ»Ð´Ðµ Ð´Ðµ
ĠÐ¶Ð¾Ñİ ÒĵÐ°
Ð´Ñĭ Ð¼ÐµÐ½
ĠÐ° ÑĤÑĭÐ¿
ĠÒĽÐ°Ð±ÑĭÐ½ Ñĥ
ĠÐ¢Ð£Ðł ÐĲÐĽÐ«
ĠÐ¼ÑĭÐ½ Ð°Ñĥ
ĠÐ³ ÑĢÐ°Ð´
ĠÒ¯Ð½ÐµÐ¼ Ð´ÐµÑĥ
Ð°ÑĨÐ¸Ñı Ð»Ð°Ñĥ
ĠÐºÐ¾Ð¼Ð¸ÑĤ ÐµÑĤ
ĠÑĸÐ· Ð´ÐµÑģÑĤÑĸÑĢÑĥ
ĠÐºÐ¾Ð½ÑĦÐµÑĢÐµÐ½ÑĨÐ¸Ñı ÑģÑĭ
ĠÐ±Ð°ÒĵÑĭÑĤ ÑĭÐ½Ð´Ð°ÒĵÑĭ
ĠÐ¼ÓĻÑģÐµÐ» ÐµÐ½ÑĸÒ£
Ð»Ð°Ð½ Ð°Ð´Ñĭ
ĠÐ±Ð°Ð» Ð°Ð»ÑĭÒĽ
ÐµÐ´Ð¸ÑĨÐ¸Ð½ Ð°
ĠÐ°Ð¹ÑĭÑĢÐ±Ð°Ñģ ÑĤÐ°Ñĥ
ĠÓ©Ñģ ÑĥÑĸÐ½Ðµ
ĠÐºÓ©ÑĢÑģÐµÑĤÑĥ Ð´Ñĸ
Ð« ÐŁ
ĠÐ±Ð°ÑģÒĽÐ°ÑĢ ÒĵÐ°Ð½
ÑĸÑĢ ÐµÐ¿
ĠÐ±Ð¾Ð» ÑģÐ°Ò£ÑĭÐ·
Ð°ÒĽÑĤÑĭ Ð»Ñĭ
ĠÐŀ ÑĢÑĤ
Ġ199 4
ÐŀÑĢÑĤÐ°ÒĽÒĽÐ¾ÑĢ Ð´Ð°ÒĵÑĭ
Ð¾Ð¼ Ð±ÑĭÐ»
ĠÓ¨ ÑĤÐµ
ĠÐ¼ÐµÐ¼Ð»ÐµÐºÐµÑĤ ÐºÐµ
Ð¶Ñĸ Ð³ÐµÑĢ
ĠÐºÐµÑĪÑĸÑĢ ÑĸÐ¼
ĠÒĽÒ±ÑĢ Ð°Ð¼Ð°
ĠÑģÐ°Ð½ Ð°ÑĤÑĤÐ°ÑĢÑĭÐ½Ð°
ÐºÐµÑĢÐ»ÐµÑĢ ÑĸÐ½ÑĸÒ£
ÐĲÐĽÐ«Òļ Ð¢ÐĲÐł
ĠÐĶ ÐµÑĢ
ĠÐ¡Ð°Ñĥ Ð´Ð°
ĠÓ©Ð· ÑĸÐ¼ÑĸÐ·Ð´ÑĸÒ£
Ġ5 4
ĠÑĪÑĭÒĵÐ°ÑĢÐ¼ Ð°Ð»Ð°ÑĢÑĭ
ĠÑĤÓĻÑĢÐ±Ð¸ ÐµÐ»ÑĸÐº
ÑĥÐ» Ñı
ĠÐ» ÐµÐºÑģ
Ð» Ñĥ
ĠÐ°Ð¹ÑĤÑĭÐ» ÑĭÐ¿
ĠÐ¾Ð»Ð°ÑĢ Ð´Ð°Ð½
ĠÐºÐµÒ£ÐµÑģ ÑĤÑĸÒ£
ĠÐ¸Ð¼ Ð¿Ð¾ÑĢÑĤ
ĠÑģÐ¾Ð» Ð°ÑĢÐ´ÑĭÒ£
ĠÐ±ÑĸÑĢÐ»ÐµÑģ ÑĤÑĸÐ³Ñĸ
ÐºÑĸ ÑĤ
ĠÑĤÒ± ÑģÑĭÐ½Ð´Ð°
ĠÐµÐ½Ð³ÑĸÐ· ÑĥÐ³Ðµ
ĠÐ¾ÑĢÑĤÐ° Ð´Ð°
ĠÒ¯ÑģÑĤ ÑĸÐ½ÐµÐ½
E R
ÑĤ ÒĽÐ°
ĠÑģÐ°Ð½ ÐºÑĨÐ¸Ñı
ÑĭÐ» ÑĥÒĵÐ°
Ðŀ ÑģÑĭÐ½Ð´Ð°Ð¹
ĠÒ±ÑģÑĭÐ½ Ð°ÑĤÑĭÐ½
ĠÑĤÐ°Ð½Ñĭ ÑĤÑĥ
ĠÐ¾ÑĢÐ³Ð°Ð½ Ð¸ÐºÐ°Ð»ÑĭÒĽ
ĠÐºÓ©Ð» ÐµÒ£ÐºÐµ
ĠÒĽÒ±ÑĢÐ°Ð¼ ÑĭÐ½
ĠÒļÑĭÑĤÐ°Ð¹ Ð´ÑĭÒ£
ĠÒĽÒ±ÑĢÐ°Ð¼ ÑĭÐ½ÑĭÒ£
ĠÑģ Ð°ÒĵÑĭÐ½
ĠÐ¾ÒĽÑĥÑĪÑĭÐ»Ð°ÑĢ ÑĭÐ½Ð°
I N
ĠÐ±Ó©Ð»ÑĸÑģ ÑĤÑĸ
ĠÑįÐºÐ¾Ð½Ð¾Ð¼Ð¸Ðº Ð°Ð½Ñĭ
ĠÑĸÑģ ÐºÐµÑĢ
ÐĲÑĤÑĭÑĢÐ°Ñĥ Ð´Ð°
ĠÑĤÐ°ÒĽÑĭÑĢÑĭÐ¿ ÑĤÐ°ÑĢ
ĠÐ±ÑİÑĢÐ¾Ñģ ÑĭÐ½ÑĭÒ£
ĠÐ´ ÑĢÐ°Ð¼
Ð» Ð¸Ð¼
ÐµÑĤÐµÑĢ Ð±ÑĥÑĢÐ³
ĠÐºÓ©ÑĢÑģÐµÑĤ ÑĸÒ£ÑĸÐ·
ĠÒĽÑĭÐ· Ñĥ
Ð¾ÑĢ ÑĤÐ°
Ġ199 6
ĠÐ°Ð¹ ÑĤÑĭ
ĠÐĲ ÑĦÑĢÐ¸ÐºÐ°
ĠÑįÑģÑĤ ÐµÑĤÐ¸ÐºÐ°Ð»ÑĭÒĽ
ĠÐ´ÑĢ Ð°Ð¼Ð°
ĠÐ±Ó©Ð»ÑĸÑģ Ñĥ
ĠÐµÑĢÐµÐºÑĪÐµÐ»ÑĸÐº ÑĤÐµÑĢÑĸÐ½Ðµ
Ġ4 6
ĠÒĽÒ±ÑĢÑĭÐ» ÑĥÑĭ
ĠÑĪÐ°Ð¼ Ð°ÑģÑĭ
ĠÐ¶Ð°Ð» Ð°Ò£
ĠÐ¿ Ñĥ
ĠÐ¶Ð°Ð±Ð´ÑĭÒĽ ÑĤÐ°Ð»ÒĵÐ°Ð½
ÒĽÐ¾ Ð¶Ð°
ĠÐĸ Ñĸ
ĠÐ¿ÑĸÑĪ ÑĸÐ½
ÐµÐ¼Ð°ÑĤ Ð¸ÐºÐ°Ð»ÑĭÒĽ
Ð¢ ÐµÑħÐ½Ð¸ÐºÐ°Ð»ÑĭÒĽ
ÐµÐ² ÑĢ
ĠÐ´ÐµÐ½ÑģÐ°Ñĥ Ð»ÑĭÒĵÑĭÐ½
ĠÐļÐµ Ð´ÐµÐ½
Ð² ÑĢ
ÑĪ Ð¸Ð½
ÐĲ Ðĸ
ÐĲÑĤÐ°Ð¼ ÐµÐºÐµÐ½
ĠÐ¾Ð¹ÑĭÐ½ ÑĪÑĭÒĽ
ÒĽ Ð°ÑģÑĭÐ½
ĠÐľÑĥÐ· ÑĭÐºÐ°
ĠÐ±ÐµÐ» Ð´ÐµÑĥ
ĠÐ¿ Ð°ÑĢÐ°
ĠIn stagram
ĠÐ¶Ò±Ð¼ÑĭÑģÑĤÐ°ÑĢ ÒĵÐ°
ĠÒĽÐ¾ÑĢ ÒĽÑĭÐ½
Ð¢Ò±ÑĢ Ð°ÒĽÑĤÑĭ
ĠÑĪ ÐµÐºÑĤÑĸ
ĠÓĻÑĢ ÑĤÑĸ
ĠÐºÐµÐ»ÑĤÑĸÑĢ ÐµÐ´Ñĸ
ÐµÑģ ÒĽÐ¾Ð¹
ĠÐļ Ò¯Ð»
ĠÐµÐ» Ð´ÐµÐ½
ĠÐľÐ°Ñħ Ð°Ð¼Ð±ÐµÑĤ
ĠÐ¼ Ñĥ
k az
Ñģ Ñı
ĠÐ¶Ð°ÑĢÑĭÒĽ ÒĽÐ°
ĠÐºÐ¾Ð»Ð»ÐµÐ´Ð¶ Ñĸ
ĠÐ±Ð°ÑģÒĽÐ° ÑĪÐ°
Ð°Ð¼ Ð¼Ð°
ĠÑĤÒ¯ÑģÑĸÐ½Ð´ÑĸÑĢ Ð¼Ðµ
ĠÐ¶ÐµÒ£ÑĸÐ¼Ð¿Ð°Ð· Ð´Ð°ÑĢÑĭ
ĠÐ¶Ð°ÒĽÑģÐ°ÑĢÑĤÑĥ ÒĵÐ°
ĠÐ¶Ð¾Ð» Ð´Ð°ÑĢ
ĠÓ©Ð· ÑĸÐ¼ÑĸÐ·
ĠÑģÐ¾Ð· ÑĭÐ»ÒĵÐ°Ð½
Ġ4 1
ĠÓĺÑĢ Ñĸ
ĠÐĸÐµÑĢ Ð´ÑĸÒ£
ĠÐĲ ÒĵÑĭÐ»ÑĪÑĭÐ½
Ð¡Ð°Ð¼ Ò±ÑĢÑĭÒĽ
ĠÒ±ÑģÑĭÐ½ ÑĭÐ»Ð°ÑĤÑĭÐ½
ĠÐ±ÐµÐ» Ð³
ĠÐºÓ© ÑĤÐµÑĢÐ´Ñĸ
ĠÐ°Ð¹ÒĽÑĭÐ½ Ð´Ð°Ð¹Ð´Ñĭ
Ñģ Ð°Ð±Ð°ÒĽ
ĠÑĢ ÐµÐ¹
ÐĸÐ°Ñģ ÑĭÐ»
ÒļÒ± Ð¿Ð¸Ñı
ĠÐ¼ÐµÐ¹ÑĸÑĢ ÑĸÐ¼Ð´Ñĸ
ĠÒĽÐ°Ñĥ iÐ¿
ĠÐ¾ÒĽÑĥ Ð»ÑĭÒĽÑĤÐ°ÑĢ
ĠÒļÐ°Ð· Ò°Ð£
ĠÓĺ ÐĽ
ĠÒĽÐ°Ð¼ ÑĤÑĭ
ÑĭÒĽ ÒĽÐ°Ð½
ĠÓĻÑĢÐµÐºÐµÑĤ ÑĤÐµÑģ
ĠÑģÒ¯Ð¹ÑĸÑģÐ¿ÐµÐ½ ÑĪÑĸÐ»ÑĸÐº
ĠÐµÑĢÐµÐºÑĪÐµÐ»ÐµÐ½ ÐµÐ´Ñĸ
Ð´ Ð¾Ñģ
ĠE n
ĠÓ©ÑĤÑĥ Ñĸ
ĠÐ¾Ò£ Ð°Ð»ÑĤÑĥ
ĠÑĦÐ°ÐºÑĥÐ»ÑĮÑĤ ÐµÑĤÑĸÐ½ÑĸÒ£
ĠÒĽÐ¾Ð»Ð´Ð°Ð½ Ð±Ð°Ð»Ñĭ
ĠÑĪÑĭÒĵ ÑĥÒĵÐ°
ĠÑģ ÐµÐ¹
ĠÒļ ÐĲÐĹÐĲÒļ
ĠÐ¶Ñĸ Ð³Ñĸ
Ġ8 00
ĠÒĽÐ°Ð·Ð°Ð½ Ð´Ð°ÒĵÑĭ
ĠÑĪÑĭÒĵ ÑĥÑĭ
ĠÒļÐ°Ð½ Ð°ÑĤ
ÐµÑĢÐµÐº Ðµ
ĠÐºÒ¯ ÑĤÐºÐµÐ½
ĠÒĽÑĭÐ·Ð¼ÐµÑĤ ÑĪÑĸÐ»ÐµÑĢÑĸ
ÐµÐ´Ð¸ Ð°
Ð°ÑĢ Ð»Ñĭ
ĠÑĤÒ¯Ñģ ÑĥÐ³Ðµ
ĠÒĽÐ¾Ñģ ÑĥÒĵÐ°
Ðł Ðŀ
ĠÐ½Ò±ÑģÒĽ Ð°ÑģÑĭÐ½
ÐŁ Ðĺ
Ð°Ð» Ð¸Ñı
ÑĤÐ°Ð» Ñĥ
ĠÐºÐµÐ·ÐµÒ£ Ð´ÐµÑĢÑĸ
ĠÐºÐ¾Ð½ÐºÑĥÑĢÑģ ÑĭÐ½Ð°
ĠÐºÐµÑģ ÐµÐ½
ĠÐµÑģÑĸÑĢÑĤ ÐºÑĸ
ĠÐ½Ð°Ð·Ð°ÑĢ ÑĭÐ½
Ð¤Ðŀ Ð¢Ðŀ
Ð´ÐµÐ½ Ð³ÐµÐ½
ÑĢÐµÑģ ÑĥÑĢ
ĠÑħÐ°ÑĤ ÑĤÐ°Ð¼Ð°
ĠÑģÐµÑĢ Ð¿ÑĸÐ½
ĠÐĲ ÑĤÐ°Ð¼
Ð¾Ð» Ð°ÑĢÐ´ÑĭÒ£
ĠÒ®ÐºÑĸÐ¼ ÐµÑĤÑĤÑĸÒ£
Ð¾ÑĢ Ðº
ĠÐ±ÑĸÐ» Ð¼ÐµÐ¹Ð´Ñĸ
ĠE x
ĠÐºÓ©Ò£ ÑĸÐ»Ñĸ
Ġ Æı
Ð¶ Ð¾ÑģÐ¿Ð°ÑĢ
ĠÑĤÐµÑħÐ½ Ð¸ÐºÐ°ÑģÑĭ
ÐļÐµÐ¹ Ð±ÑĸÑĢ
ĠÐ¶Ð¾ÑģÐ¿Ð°ÑĢÐ»Ð°Ð½ ÑĥÐ´Ð°
ĠÐºÐµÐ·ÐµÒ£ ÑĸÐ½Ðµ
Ġ4 7
ÑģÐ°ÑĤ ÑĤÑĭÒĽ
ĠÐ±ÐµÐ· ÑĸÐ½ÑĸÒ£
ĠÑģÑĸÐ· Ð´Ñĸ
Ġ d
ĠÓĻÐ» Ð´Ð¸
ÐµÐ½ Ð´ÑĸÑĢÑĥ
ÐµÐ» Ð´Ñĸ
ĠÑģÑĤÐ¸ Ð»ÑĮ
ĠÐ¶Ñĸ Ð³ÐµÑĢ
ÑĤÐ°Ñģ Ñĥ
ĠÓĻÐ½ ÑĸÐ½
Ġt he
ĠÐ¶Ð¾ÒĵÐ°Ð» ÑĭÐ¿
ĠÐļÐ¾Ð´ÐµÐºÑģ ÑĤÑĸÒ£
ĠÒļ Ð°ÑĤÑĭÑģ
Ð¶Ð°ÑĢ Ð°ÒĽ
ĠÐľ Ð¸Ð½
ĠÒĽÒ±Ð» Ð°Ð¿
ĠÐ¶ÐµÒ£ÑĸÐ»Ð´ÐµÑĤ ÑĸÐ»Ð³ÐµÐ½
ĠÑģÐ°Ð½ Ð´Ð°ÑĢ
ÑĤÐ°Ð¹ Ð¼ÑĭÐ½
Ġ4 9
ĠÑĤÓ©Ð· ÑĸÐ¼Ð´Ñĸ
ĠÐ¾ÑĤ Ð±Ð°ÑģÑĭÐ½Ð´Ð°
ĠÐľÐ°ÑĢ Ð°ÑĤ
ĠÐ±ÐµÑĢ ÐµÐºÐµ
ĠÐµÐ¼ÐµÑģ Ð¿ÑĸÐ½
ĠÐ´ÐµÐº Ð»Ð°ÑĢÐ°ÑĨÐ¸Ñı
on t
ĠÐļÐ¾Ð½ ÐºÑĥÑĢÑģ
ĠÑĤÒ±ÑĢ ÑģÐ°
ĠÐľ Ò¯
ĠÑĥÓĻ Ðº
ÑħÐ¸Ð¼ Ð¸ÑıÐ»ÑĭÒĽ
ĠÐ¨ Ð°Ð¼
ÐĽ Ð«
Ðº Ð¾ÑĢ
ĠÐ±Ð°ÒĵÐ°Ð» Ð°Ð¹Ð´Ñĭ
ĠÐ¶Ð°Ð»Òĵ Ð°ÑģÑĭÐ½
ĠÐ¢ ÐµÑħÐ½
Ð±Ò±Ð» Ð°ÒĽ
Ð° Ñĩ
ĠÑĸÐ» ÐµÑģ
ĠÐºÐµÐ·Ð´ÐµÑģ ÑĥÑĸ
Ð¾Ð± Ð°Ð²
Ðº Ð°Ð»Ð°ÑĢ
ĠÐºÓ©Ð¼ÐµÐº ÑĤÐµÑģÐµ
ĠÐ°Ð¹ Ð»Ð°ÑĢÑĭÐ½Ð´Ð°
ĠÐ±Ð¾Ð» Ð´ÑĭÒĽ
Ð¸ÑıÑģÑĭÐ½ Ð°Ð½
ĠÐ°Ð¹Ð½Ð°Ð» Ð´ÑĭÑĢÑĥ
ĠÐłÐµÑģÐµÐ¹ Ð³Ðµ
ĠÐµÑĤÑĥ Ð´ÑĸÒ£
ĠÐ¾ ÑĤÐ°ÑĢ
Ð¼ ÑĸÐ·Ð´ÑĸÒ£
ĠÐĳÐ¸ Ð¾Ð»Ð¾Ð³Ð¸Ñı
ĠÐºÓ©Ò£ ÑĸÐ»Ð´Ñĸ
ĠÑģÑĤÑĥÐ´ÐµÐ½ÑĤ ÑĤÐµÑĢÐ³Ðµ
ĠÑĸÑģ ÑĤÑĸÒ£
Ð°ÑĤÐ¾ÑĢ Ð»Ð°ÑĢ
ÐŁ ÐµÐ´Ð°Ð³Ð¾Ð³Ð¸ÐºÐ°Ð»ÑĭÒĽ
ĠÐ´ ÑĸÑĢ
Ð´ÑĸÑĢ ÑĸÐ¿
Ð´Ðµ Ð»ÑĸÐ¿
ĠÐĲÐ» Ð´Ð°ÒĵÑĭ
ĠÐĺ Ð±ÑĢ
ĠÐ°Ð»Ð°Ò£ Ð´Ð°
Ðĺ ÐĴ
ĠÐľ Ðļ
ĠÒ±ÑĢ ÑĭÐ¿
ĠÐ±ÐµÐºÑĸ ÑĤÑĸÐ»Ð´Ñĸ
ĠÑĤÐ°Ð± ÑĭÑģÑĭ
ĠÒĽÐ°Ð» Ð°Ñĥ
ÐĲ ÑģÑĭÐ»
ĠÒĽÐ°Ð¹ÑĤÐ°ÑĢ ÑĭÐ¿
ĠÐ¾Ð¹ Ð»Ð°ÒĵÐ°Ð½
ĠÐ¾ÒĽÑĭÑĤÑĥ Ð´Ñĭ
ÒļÐ°Ð· ÑĭÐ½Ð°
ĠÐ°ÑģÑĤ ÑĭÐ½Ð°
Ð¶Ð°ÑĢ ÑĤÑĭ
ĠÐ¢Ó©Ð» Ðµ
ĠÒļ Ð°Ò£ÑĤÐ°ÑĢ
ĠÐ±Ð°ÑģÑĤÐ°Ñĥ Ñĭ
ĠÐ¢ Ò¯Ð¹
ĠÑģÑĭÐ½ÑĭÐ¿ ÑĤÐ°ÑĢ
ĠÐĳ ÐĨÐł
ĠÐ¶Ð°Ò£Ð°ÑĢ ÑĤÑĭÐ»ÒĵÐ°Ð½
ĠÒĽÐ°Ð·ÑĭÐ½ Ð°ÑģÑĭ
ÒĽÑģ Ð°Ñģ
ÑĪ Ð°Ð»Ð°ÑĢ
ĠÓ©ÑĤÐºÑĸÐ·Ñĥ Ð´Ñĸ
Ġtile gi
ĠÓ©Ð» ÐºÐµ
ĠÑĤÐ¸ iÑģ
ÐĲ ÒĽÑĭÐ½
Ð± Ð°ÑıÐ½
Ð¸Ð¿Ð»Ð¾Ð¼ Ð´ÑĭÒĽ
ÐºÐµÐ½ Ñĸ
ĠÑģÐµÐ·ÑĸÐ¼ ÑĸÐ½
ÑĸÐ» ÑĥÑĸÐ½Ðµ
Ð°Ñĥ Ð½
ĠÐ°Ð»Ð¼Ð°Ð¹ Ð¼ÑĭÐ·
ĠÑĤÑĸÐ·ÑĸÐ¼ ÑĸÐ½
ĠÒĽÐ°Ð» Ð°ÑģÑĭÐ½Ð°Ð½
ĠÐ°Ñı Ð½
ĠÐ¿ÑĢÐ¾ÑĨ ÐµÑģÑĸÐ½ÑĸÒ£
Ðĸ Ò±Ð»Ð´ÑĭÐ·
Ð± Ð°ÑĢÐ»ÑĭÒĽ
Ð°Ð¹ ÑĭÑĢ
ĠÑĤÑĸÐ» Ð´ÐµÑĢÑĸÐ½Ð´Ðµ
ĠÑįÐºÐ¾Ð½Ð¾Ð¼Ð¸Ðº Ð°ÑģÑĭÐ½ÑĭÒ£
ĠÑģÓĻÑĤÑĤÑĸ Ð»ÑĸÐº
ĠÐ±ÑĸÑĤÑĸÑĢ ÑĸÐ¿
ĠÐ½ Ó©
ÑĤÑĥ Ð°Ð»Ð´ÑĭÒĽ
ĠÐ¶Ò±Ð¼ ÑģÐ°Ñĥ
ĠÑĤÓ©Ò£ÑĸÑĢ ÐµÐ³ÑĸÐ½Ð´Ðµ
Ð¾Ð»Ð¾Ð³Ð¸Ñı Ð´Ð°ÒĵÑĭ
ĠÐºÓ© Ð±ÐµÑİ
Ð« Ð¢
Ð¸Ð¼ Ð¾Ð²
ÑĸÐ¼ Ð½ÐµÐ½
ÑģÑĤÐµÑĢ Ð´Ñĸ
ÐĶÐĨ Ðļ
ĠÒĽÒ± ÑĤÑĭÐ»
Ð»ÐµÐº ÑĤÑĢÐ¾
ĠÒĽÐ°Ð¶ÐµÑĤÑĤÑĸ Ð»ÑĸÐ³ÑĸÐ½
Ð°ÑĪ ÑĭÑĢ
ĠÑħÐ°Ð½Ð´Ñĭ ÒĵÑĭ
ĠÑįÐ½ÐµÑĢÐ³ ÐµÑĤÐ¸ÐºÐ°Ð»ÑĭÒĽ
ĠÐ¢ Ò¯Ñģ
ĠÐºÓ©Ð¿ ÑĤÐµÐ¿
ĠÑĤÓ©Ò£ ÐºÐµÑĢ
ĠÐľÓĻÐ¶ÑĸÐ»ÑĸÑģ ÑĸÐ½ÑĸÒ£
ĠÐļÐ¾Ð½ÑģÑĤÐ¸ÑĤÑĥ ÑĨÐ¸ÑıÑģÑĭ
ÑĭÐ· Ð´Ñĭ
ĠÑĤÐµÒ£ Ð³ÐµÐ½ÑĸÒ£
ÑĸÒ£ÑĸÐ· Ð´Ðµ
ĠÒĽÐ°ÑĢÐ°ÑģÑĤÑĭÑĢ Ð°Ð´Ñĭ
ĠÐ´ÐµÐ¿Ñĥ ÑĤÐ°ÑĤ
ÑĤÐµ Ð³
r ess
ĠÐĲÑĢ Ð½Ð°Ð¹Ñĭ
ÐºÐµÑĤ Ð°Ð½Ñĥ
ĠÒĽÐ°Ð±ÑĭÐ»Ð´Ð°Ñĥ Ð´Ñĭ
Ò¯Ð¹ ÑĢÐµÐº
ĠÐľÐ°Òĵ Ð¶Ð°Ð½
ĠÐºÐµÐ»Ð´Ñĸ Ð¼
ĠÐ¾ÑĢ ÐºÐµÑģÑĤÑĢ
Ð°Ð´ Ð¸
ĠÐĲÒĽ ÑĤÐ°Ò£
ĠÐ Ļ
y m
ĠÑĤÐ¾Ð»ÑĭÒĽ ÑĤÑĭÑĢÑĭÐ¿
ĠÑĪÑĭÒĵÑĭÐ½ Ð´Ð°ÑĢÐ´Ñĭ
ĠÑĤÐµÐ¼ ÐµÐºÑĸ
Ð¨ Ð°ÒĵÑĭÐ½
ĠÐ¨ ÓĻÐºÓĻÑĢÑĸÐ¼
Ð¸Ð°Ð» Ð´ÑĭÒĽ
ĠÑĪÐ°ÒĽ ÒĽÐ°Ð½
ĠÐ´Ð°Ð¹ÑĭÐ½ Ð´Ð°Ð¿
ĠÐºÒ¯Ð½ Ð´ÑĸÐº
ĠÐľ ÐµÐ´Ð¸ÑĨÐ¸Ð½Ð°Ð»ÑĭÒĽ
ĠÐ¡Ð°Ð¹ÑĤ ÑĤÐ°
Ð´Ð°Ð½ Ð°Ð´Ñĭ
ÑĤÐµÑħÐ½ Ð¾Ð»Ð¾Ð³Ð¸Ñı
ĠÑĤÐ°Ð» ÒĵÐ°Ð¼
ĠÑĪÐµÑĪÑĸÐ¼ ÑĸÐ½Ðµ
Ð¶Ð¾Ð» Ð¾Ð²
ĠÐºÓ©ÑĢÑģÐµÑĤÐºÑĸÑĪ ÑĤÐµÑĢ
ĠÐĺÐ½Ð²ÐµÑģÑĤÐ¸ ÑĨÐ¸ÑıÐ»Ð°ÑĢ
ÐĿÐķÐ¡ ÐļÐŀ
e x
ĠÐ¶ÑĸÐ³ÑĸÑĤ ÑĤÐµÑĢ
Ð¡ÑĭÐ½ÑĭÐ¿ ÑĤÐ°Ð½
Ðº Ò¯Ð»
ĠÐ±Ð°ÑģÑĪ ÑĭÑģÑĭÐ½Ð°
ÐµÐ¼Ð»ÐµÐº ÐµÑĤÑĤÑĸÒ£
ÑĥÐ°ÑĢ Ð»Ð°ÑĢ
ĠÓĻ Ð¼Ð±ÐµÐ±Ð°Ð¿
ÐĶÐĲ Ð£
ĠÑģÐ¾ÒĽ ÒĽÑĭ
B N
ĠÓĺÑģ ÐºÐµÑĢÐ¸
ĠÐłÐµÑĦÐµÑĢ Ð°ÑĤ
ĠÐĲÐ½ÑĭÒĽ ÑĤÐ°Ð¼Ð°
ĠÒĽÐ°Ð» Ð°ÒĵÐ°
ĠÑĤÑĥÑĢ Ð¸ÑģÑĤÐµÑĢ
ĠÑįÐ»ÐµÐ¼ÐµÐ½ÑĤ ÑĤÐµÑĢÑĸ
ĠÐ¿Ð°Ð¹Ð´Ð°Ð»Ð°Ð½ ÑĭÐ»ÑĥÑĭ
ĠÐ´Ð¸Ð¿Ð»Ð¾Ð¼Ð°ÑĤ Ð¸ÑıÐ»ÑĭÒĽ
ĠÐºÐµÐ·Ð´Ðµ Ð¹
ĠÐ¶Ð°Ð· ÑĭÐ»ÑĭÐ¿
ĠÑĤÑĥ Ð´ÑĭÑĢÐ°Ð´Ñĭ
ĠÓ©Ð¼ÑĸÑĢ ÑĸÐ½Ð´Ðµ
Ð¢Ò¯ÑĢ Ðº
Ð°Ð½ Ð°Ð´Ñĭ
Ð°Ð½ Ð°Ð½ÑĭÒ£
ĠÐ¼ÐµÒ£Ð³ÐµÑĢ ÑĤÑĥ
ĠÐĳ Ó¨
ĠÐµ Ðºi
Ð¸Ñģ Ñĸ
ĠÒĽÐ°ÑĥÑĸÐ¿ÑģÑĸÐ·Ð´ÑĸÐº ÑĤÑĸ
Ð°ÑĪ ÑĭÒĽ
ĠÑĤÐ°Òĵ Ð°Ð¹ÑĭÐ½Ð´Ð°
ĠÐ²ÐµÐ´Ð¾Ð¼ÑģÑĤÐ² Ð¾
ĠÐ°Ñĥ Ð´Ð°ÑĢÐ´Ñĭ
ĠÒ±Ð»ÒĵÐ°Ð¹ ÑĤÑĥ
Ð´ÑĸÐº ÑĤÑĸÒ£
ĠÐ¨ ÑĸÐ»Ð´Ðµ
ÐŃ ÐļÐ¡ÐŁÐŀ
ĠÐĳ Ð°ÒĽ
ĠÐ°ÑĢÑħÐ¸Ð² ÑĤÐµÑĢ
Ġ7 2
ÑĤÒ¯Ñģ ÑĸÐ½
ĠÐ¼Ð°ÒĽÑģÐ°ÑĤ ÑĭÐ½Ð°
ÑĪ ÑĭÒĵÑĭÑģ
ĠÐºÓ©ÑĢ ÑĸÒ£ÑĸÐ·
ÐĶ ÐķÐł
ĠÐºÐµÑĪÐµÐ½ ÑĸÐ½
ÐºÐµÑĢ Ð´Ñĸ
ĠÐ¾ÒĽÑĥ Ð´Ñĭ
ĠÑĤÐ°Ð± ÑĭÒ£ÑĭÐ·
ÑģÐµÐ½ Ð´Ñĸ
ĠÑģ Ò¯Ð·
ĠÒ¯Ð¹ Ð´ÐµÐ½
ĠÒĽÐ°Ð±ÑĭÐ» Ð´Ð°Ð¹
ĠÑĤÐ°ÒĽÑĭÑĢÑĭÐ¿ ÒĽÐ°
Ðĳ Ð°ÑıÐ½
Ð£ Ð½Ð¸Ð²ÐµÑĢÑģÐ¸ÑĤ
Ð¸Ñı ÑģÑĭÐ½Ð°
Ð°Ð» Ð°Ð½ÑĭÒ£
ĠÐļÓ©ÑĢ ÑģÐµÑĤ
i ÑģÑĤi
ĠÑĤÑĸÐ» Ð´ÐµÑĢ
ĠÐ¿ÑĢÐ¾ÑĨ ÐµÐ´
Ð¡ÐµÑĢ ÑĤÐ¸ÑĦÐ¸Ðº
iÐ½i ÑĪ
ĠÐ¼ÐµÐºÐµÐ¼ ÐµÐ½ÑĸÒ£
ĠÑĤÐ°ÑĢ ÑĤÑĭÐ¼Ð´Ñĭ
Ð°ÒĽÑĤÐ°ÑĢ ÒĵÐ°
l d
ĠÐŀÐ½ Ð´Ð°Ð¹
ÐĲ Ðº
t ar
Ġ16 0
Ð±ÐµÐº Ò±Ð»Ñĭ
ĠÓĻÑĢÐµÐº ÐµÑĤÑĸÐ½
ĠÑĤÓ©Ð¼ÐµÐ½ Ð´ÐµÑĤÑĥ
ĠÐ± Ð°ÑĤÑĭÐ¿
Ð¾Ð» Ð¿Ð°Ð½
Ð°Ð³ Ð½Ð¾ÑģÑĤ
ÑĸÒ£ ÑĸÐ·Ð´ÑĸÒ£
ĠÒĽÐ¾Ð» Ð±Ð°Ñģ
ĠÐĺ Ð»ÑĮ
ĠÐ¶ÑĭÐ½ ÑĭÑģ
n ews
ÑįÑĦ ÑĦÐ¸ÑĨ
ĠÐ¶Ð¾Ð» Ð´Ð°ÑĢÑĭÐ½ÑĭÒ£
ĠÐ±ÑĸÐ»ÑĸÐºÑĤÑĸ Ð»ÑĸÐºÑĤÑĸ
ĠÐ°Ð»ÒĵÐ°Ð½ Ð½Ð°Ð½
ĠÐºÐ¾Ð½ ÑģÐµÑĢÐ²
ĠÐ°ÑĢÐ½ Ð°ÒĵÐ°Ð½
ÐµÐº ÑĤÐµÑĢ
ÐľÒ± ÑħÐ°Ð¼
ĠÐºÐ¾ÑĢÐ¿Ð¾ÑĢÐ°ÑĨÐ¸Ñı ÑģÑĭ
Ġ in
Ð¾Ð³ Ð¾ÑĢ
ĠÐ¶Ð°ÒĽ ÑĤÐ°Ð½
ĠÐłÐµÑģÐµÐ¹ Ð´Ðµ
Ð°ÑģÑĤ ÑĢÐ¾
Ð»ÑĸÐ³Ñĸ Ð¼ÐµÐ½
ÐŁ Ð¾Ð»
ĠÐ¼Ð°Ò£ ÑĭÐ½Ð´Ð°
ĠÑĭ Ð´ÑĭÑĢ
ĠÒĽÐ°ÑĥÑĭÐ¼Ð´Ð°Ñģ ÑĤÑĭÒĵÑĭ
Òļ Ð¡
ÑĪÑĭÐ»Ð°ÑĢ Ð´Ñĭ
ĠÐ¸Ð½ÑģÑĤÐ¸ÑĤÑĥ ÑĤÑĤÐ°ÑĢ
Ð¨ ÒļÐŀ
Ð¾Ð¼ Ð°ÑĢÑĤ
ĠÐ´Ð¸Ñģ ÑģÐµÑĢ
ĠÐ±Ð°ÒĵÑĭÑĤ ÑĭÐ½
ĠÐ¼Ð¾Ð» ÐµÐºÑĥÐ»
Ð¼ ÐµÐ³Ðµ
ÑĭÑĤ Ð°Ð¹Ð´Ð°
Ð»Ð°ÑĢ ÑĭÒ£ÑĭÐ·ÒĵÐ°
ĠÑĦ Ð¸ÑĤ
Ð°Ð» ÒĵÐ°
Ð¸ÑĢ ÑĤÑĥÐ°Ð»Ð´Ñĭ
ĠÐ°Ñı ÑģÑĭÐ½Ð´Ð°ÒĵÑĭ
ĠÐ¼ÐµÐºÑĤÐµÐ¿ÑĤÐµÑĢ Ð´ÐµÐ³Ñĸ
ĠÐ±Ó© Ð»ÑĸÐ³ÑĸÐ½ÑĸÒ£
Ó©Ð· ÑĸÐ½
ĠÐ±Ð¾Ð»ÒĵÐ°Ð½ Ð½Ð°Ð½
ÐµÑģÑĤ Ð²
ĠÐºÒ¯Ð½ Ð³Ñĸ
Ð°Ñĥ Ð´Ñĭ
ĠÒĵÐ¸Ð¼Ð°ÑĢ Ð°ÑĤ
Ð¸ Ð´ÑĸÒ£
ĠÐ¼ Ð°Ð½
ĠÐ¾ÑĢÐ³Ð°Ð½ Ð´Ð°ÑĢÒĵÐ°
Ð°ÒĽÑĤÐ°ÑĢ ÑĭÐ½ÑĭÒ£
ĠÐ¶ÐµÐ»Ñĸ Ð´Ðµ
ÑĨÐ¸Ñı Ð½ÑĭÒ£
ÒļÑĭÑĢ ÒĵÑĭÐ·
ĠÐ¿ Ð¾Ð·Ð¸ÑĨÐ¸Ñı
ĠÑĪÑĭÒĵÐ°ÑĢ ÑĭÐ»Ð´Ñĭ
ĠÑģ Ðº
Ð¾ Ð¸Ð´
ĠÐ´ÐµÐ´Ñĸ Ð¼
ĠÑįÐ½ Ð´
ĠÒ±Ð¹ÑĭÐ¼Ð´Ð°ÑģÑĤÑĭÑĢÑĥ ÑĪÑĭÐ»ÑĭÒĽ
... Â»
ĠÓĺ Ð»ÑĸÐ¼
ĠÐ±Ð°ÑĢ ÑĭÐ½
ÐµÑĤÑĸÐ½ ÑĪÐµ
Óĺ Ðł
ĠÑģÐ°Ð» ÑĤÑĭ
ĠÐºÐµÐ» Ð±
Ð¸Ð³ ÑĥÑĢ
Ġ199 0
ĠÐ·ÐµÑĢÑĤÑĤÐµÑĥ Ð³Ðµ
Ð¾ ÑģÑĤÐ°ÑĢ
ĠÐ·Ð°Ò£ Ð´Ð°ÑĢ
ÑĸÐ¼Ð´ÐµÑĢ Ð´ÑĸÒ£
ĠÐ¾ÑĤÑĭÑĢ ÑĭÑģÑĭÐ½Ð°
ĠF M
ĠÒĽÐ°ÑĪÑĭÒĽÑĤÑĭÒĽ ÑĤÐ°
ĠÐ°Ñģ Ð°ÑĤÑĭÐ½
ĠÒļÐ¾ÑĢÒĵÐ°Ð½ ÑĭÑģ
Ð³ÐµÐ½ ÑĸÐ½
ĠÐ´ÐµÐ¿ ÑĤÑĸ
Ġ5 7
ĠÐļÐ¾Ð¼ Ð¸ÑģÑģÐ¸Ñı
ĠÐ¸ ÐµÐ»ÑĸÐº
ĠÐ¶ÐµÑĢ Ð³iÐ»iÐºÑĤi
z h
Ñį ÑĢ
Ðº ÑĸÑģÑĸ
Ð° ÑħÐ°Ð½
ĠÑĤÑĥ Ð°Ð´Ñĭ
ĠÑģÑĤÐ°Ð½Ð´Ð°ÑĢÑĤÑĤÐ°ÑĢ ÒĵÐ°
ĠÓĻÑĥ ÐµÐ½
Ð¤ Ð¸Ð»
ĠÑĪÑĭÒĵÐ°ÑĢ ÑĭÐ»Ð°Ð´Ñĭ
ĠÐ±Ð¾Ñģ Ð°ÑĤÑĥ
ĠÐĳ Ð¸Ð·Ð½ÐµÑģ
ĠÐ½Ð°ÑĢ ÑĭÒĵÑĭÐ½ÑĭÒ£
ĠÐ¿ÑĢÐ¾Ð² Ð¸Ð½
ĠÐŁÑĢÐµÐ·Ð¸Ð´ÐµÐ½ÑĤ ÑĤÑĸÒ£
Ð¾ÑĢ ÑĭÑģ
ĠÑĪÐ°ÒĽÑĭÑĢ ÒĵÐ°Ð½
ÐľÐ¸Ð½Ð¸ÑģÑĤÑĢ Ñĸ
ĠÐ¾ÑĢ Ð°ÑģÐ°Ð½
ĠÒ¯Ð¹ÑĢÐµÐ½ ÑĸÐ¿
ĠÐ½ Ð¸
ĠÐ±ÐµÐ»Ð³ÑĸÐ» ÐµÐ¹Ð´Ñĸ
ĠÐºÐ¾Ð¼ Ð±Ð¸Ð½
ĠÐ°Ð½ÑĭÒĽ ÑĤÐ°Ð´Ñĭ
ĠÐ°ÑĥÑĭÐ» Ð´Ð°
Ð· ÑĭÐ¼
ÐºÐµÑĢÐ»ÐµÑĢ Ð³Ðµ
Ó Ĭ
p t
ĠÒĽÐ¾Ñı ÑĤÑĭÐ½
ÐĶ ÐĲÐĿ
ĠÐ¿Ð¾ Ñĩ
ĠÐ¼ÐµÐºÐµÐ½ Ð¶Ð°Ð¹Ñĭ
ÐĲ Ð±
ĠÐ¸Ð¼Ð¿Ð»Ð°Ð½ ÑĤ
Ðº ÑĸÐ½ÑĸÒ£
M ail
ĠÐ°ÑĤ Ð°ÒĵÐ°Ð½
ĠÐºÐµÐ·Ð´ÐµÐ¹ ÑģÐ¾ÒĽ
ĠÑĤÒ¯ÑĢ Ð»ÐµÑĢÑĸÐ½Ðµ
Ð¾ÑĢÐ¼ Ð¾Ð½
ÑģÐ¾ ÑĨÐ¸
Ð°Ð¼ÑĭÐ· ÒĵÐ°
ĠÐ·ÐµÑĢÐ´Ðµ Ð»ÐµÑĥ
ĠÒļÒ±Ð´Ð°Ð¹ Ð±ÐµÑĢÐ³ÐµÐ½
Ðļ ÐµÑĢ
ĠÐ¶Ð°ÒĵÐ´Ð°Ð¹ Ð»Ð°ÑĢÒĵÐ°
ĠÒ¯Ð»Ð³Ñĸ Ð´ÐµÐ³Ñĸ
ÑĮ ÐµÐ²
ĠÐºÓ©Ð±ÐµÐ¹ ÑĸÐ¿
ĠÑģ Ò±Ð»
ĠÐ±Ó©Ð» ÑĥÐ³Ðµ
ĠÐ¶Ð°Ð» ÒĵÐ°Ñĥ
ĠÒ±Ð¹ÑĭÐ¼Ð´Ð°ÑģÑĤÑĭÑĢ ÑĥÒĵÐ°
ĠÒĽÐ¾Ð» Ó©Ð½ÐµÑĢ
ĠÑĤÒ¯ÑģÑĸÐ½ ÑĥÐ³Ðµ
ĠÒĽÐ°Ð»Ð° Ð´Ð°ÒĵÑĭ
ĠÐ¶Ð¾Ð» ÑĭÐ½ÑĭÒ£
ĠÐ¼ÐµÑĢÐµÐº ÐµÑģÑĸÐ¼ÐµÐ½
Ð¼ Ð°ÑģÑĭÐ½ÑĭÒ£
Ð± Ð°ÒĵÐ´Ð°ÑĢÐ»Ð°Ð¼
ĠÑģÓ©Ð· Ð³Ðµ
ĠÒ³ ÓĻÐ¼
ÒĽ Ð°Ð»Ñĭ
ĠÑģÐ¾ ÑĤÑĭ
ĠÐĲ ÒĽÐ¾ÑĢ
Ð³ÑĸÐ½ ÐµÐ½
ÐļÓ© ÑĪ
ĠÓĺÐ± Ð´ÑĸÑĢ
ĠÒ±Ð¹ÑĭÐ¼Ð´Ð°ÑģÑĤÑĭÑĢ ÒĵÐ°Ð½
ĠÑģÐ¾ ÒĽÑĤÑĭ
ĠÑĤÐ°Ð¿ÑģÑĭÑĢ ÒĵÐ°Ð½
ĠÑģÑĭÐ½ÑĭÐ¿ ÑĤÐ°
ĠÐ±Ð¾Ð»Ð°ÑĤÑĭÐ½ Ñĭ
ĠÐ¾Ð» Ð°Ð¹
ĠÐ°Ð¼ÐµÑĢ Ð¸ÐºÐ°Ð»ÑĭÒĽ
ĠÑĤÑĸÐ· Ð±ÐµÐº
ÐĶ Ðĵ
ĠÑģÑĭÑĢÑĤ ÑĤÐ°Ð¹
ĠÐºÐµÐ»ÑĤÑĸÑĢ ÑĸÐ¿
ĠÒļÐ°Ð¹ ÑĤÐ°
ĠÐ¼ÐµÐ¼Ð»ÐµÐº ÐµÑĤÑĸÐ½ÑĸÒ£
ĠÒĽÒ±Ð¼ Ð°ÑĢ
ĠÐĸ Ð¾ÑģÐ¿Ð°ÑĢ
ĠÑģÐ°Ð» Ð°ÑĤÑĭÐ½
ĠÑĸÐ» Ð³ÐµÑĢ
Ð´ Ð°Ð±
ÐĲ ÑħÐ¼ÐµÑĤ
ĠÐ¶Ð¸Ð½Ð°ÒĽ ÑĤÐ°Ð»ÒĵÐ°Ð½
ĠÐºÐ¾Ð¼Ð¿ Ð¾Ð·Ð¸ÑĤÐ¾ÑĢ
ÐŁ ÑĢÐµÐ·ÐµÐ½ÑĤÐ°ÑĨÐ¸Ñı
ĠÐ°Ð½ÑĭÒĽ ÑĤÐ°Ð¹ÑĤÑĭÐ½
ĠÐ¼ÐµÐºÑĤÐµÐ¿ÑĤÐµÑĢ Ð´Ðµ
ĠÐº Ð°Ð»
ĠÑģ ÑĭÐ»
Ðŀ ÑģÑĭÐ»Ð°Ð¹ÑĪÐ°
ĠÐĸÐ°Ð¿Ð¾Ð½ Ð¸Ñı
Ðº iÐ¼
ĠÐĨÐĨ Ðľ
ĠÐ¢ ÑĭÒ£Ð´Ð°
ĠÑĤÐµÐºÑģÐµÑĢ ÑĸÐ¿
ĠÐ¿Ð¾ÑĪ ÑĤÐ°Ò£ÑĭÐ·
ĠÑĪÒ¯ ÐºÑĸÑĢ
Ñħ Ð°Ð±Ð°ÑĢ
ÐµÑģ ÑĤÐµÑĢ
ĠÓĺ Ð´ÐµÑĤÑĤÐµ
ĠÑįÐº ÑģÐº
ĠÐºÓ© Ð¹
ĠÑģÐ°Ð» ÒĽÑĭÐ½
ĠÐ°ÑģÑĭÑĢ ÑĭÐ»ÑĥÑĭ
Ð¿ Ð»ÐµÑĢ
Ð¸Ñģ ÑĮ
Ñĥ Ð´Ð°Ð½
ÑĸÐ» ÑĥÐ´Ðµ
ĠÐ³ Ð¾Ð´
ĠÐ¢ ÓĻÑĥ
ĠÑĤÐ°ÑĢÐ¸Ñħ ÑĭÐ½ÑĭÒ£
ĠÓ©Ò£ÑĸÑĢ Ð´Ðµ
ĠÐ°Ñı ÒĵÑĭÐ½Ð´Ð°
ÑĤ Ð¸ÐºÐ°
ĠÐĳÐ°ÑĢ Ð»ÑĭÒĵÑĭ
Ðļ ÐĨ
ĠÑĤÓĻÑĢÑĤi Ð±
ĠÑģÑĥÐ±ÑģÐ¸Ð´Ð¸Ñı Ð»Ð°Ñĥ
ĠÑĸÑģÑĤ ÐµÐ¼
Ð»ÐµÑĢ Ð´ÐµÐ½
ĠÒĽÒ±ÑĢ Ð°Ð¿
ĠÐ¼Ò±ÑĢ Ð°ÑģÑĭ
ĠÒĽÒ± Ñİ
Ð¾Ð» Ð¸ÑĤ
ĠÑĤÐ°Ò£ Ñĭ
ĠÐ¶Ð¾Ð± Ð°Ð»ÑĭÒĽ
Ð´ÐµÐ¹ ÑģÐ¾ÒĽ
? ?
ĠÐ¶Ð°ÑĢ ÑĭÐ»ÑĭÑģ
ĠÐ¼Ð°Ð¼ÑĭÑĢ Ð´Ð°ÒĵÑĭ
ĠI S
ĠÐºÐ°Ð¿ Ð¸
ĠÐºÐµÐ» iÑģ
ĠÐ¢ ÑĢÐ°Ð¼Ð¿
ÑģÑĤÐ°ÑĢ Ð´Ñĭ
ÑĸÐ» Ð¼ÐµÐ¹
ĠÒĽÐ°Ð·Ð°ÒĽÑģÑĤÐ°Ð½ Ð´ÑĭÒĽÑĤÐ°ÑĢ
ĠÐ´ÐµÐ¹ Ð¼ÑĸÐ·
Ð´ÑĭÑĢ Ð°
ĠÐ·Ð¸Ñı Ð»
ĠÐ¶Ð°ÒĵÐ´Ð°Ð¹ Ð´ÑĭÒ£
ĠÑĤÐ¾ÒĽ ÑĤÐ°Ð»Ð´Ñĭ
ĠÐ°Ñı ÑĥÐ»Ñĭ
ĠÓ©Ð·Ð³ÐµÑĢÑĤÑĥ Ð³Ðµ
ÐŃ Ð½ÐµÑĢÐ³
ĠÑĦ Ð°Ð±ÑĢ
ĠÐ¸Ð´ÐµÑı Ð»Ð°ÑĢ
ĠÐ¡ÑĭÑĢ Ð´Ð°ÑĢÐ¸Ñı
ĠÑĢÒ±ÒĽÑģ Ð°ÑĤÑĭÐ½
ÑģÑĭÐ· Ð´Ð°ÑĢ
ĠÐ´ÑĸÐ½ Ñĸ
ÐĴ Ð¸Ð´ÐµÐ¾
ĠÒĽÐ° Ò»Ð°ÑĢ
ĠÑģÐ°Ð½ Ð°Ð¿
ĠÐ±ÑĸÐ» Ð¼ÐµÐ¹ÑĤÑĸÐ½
ĠÑĦÐ¸Ð» ÑĮ
ĠÐºÐµÐ»ÑĤÑĸÑĢÑĥ Ð³Ðµ
ĠÐĳÐ°ÑģÒĽÐ°ÑĢ Ð¼Ð°
ĠÐ½ÐµÐ³ÑĸÐ· Ð´ÐµÑĢÑĸÐ½
ĠÐºÓ©Ð· Ð´ÐµÐ¹Ð´Ñĸ
ĠÐ¶Ð°ÒĽ Ñģ
ĠÐº ÓĻÑģÑĸ
ĠÐ´Ð¾ ÑĨ
ĠÐºÓ©ÑĢ Ð¼ÐµÐ³ÐµÐ½
Ð±ÐµÑĢ Ð½
ĠÐ±Ð°Ð¹Ð»Ð°Ð½ÑĭÑģ ÑĤÐ°ÑĢ
ĠÐºÑĸÑĢ ÑĸÑģÑĤÑĸ
ĠÓ©Ðº Ð¿Ðµ
ĠÐºÓ©ÑĤÐµÑĢÑĸ Ð»ÑĸÐ¿
Ñĥ Ð»Ð°ÑĢ
ĠÐ°ÒĽ Ð°Ñĥ
ĠÐ±ÑĸÑĢÐ¶Ð¾Ð» ÒĵÑĭ
ÑģÐ¸Ñħ Ð¾Ð»Ð¾Ð³Ð¸Ñı
ĠÐ¡ Ò±ÑĢÐ°ÒĽ
ĠÑĢÒ±ÒĽÑģÐ°ÑĤ ÑģÑĭÐ·
Ð¿ Ð°Ð´Ñĭ
Ñģ Ð°Ð¿Ð°ÑĢ
ĠÐł Ð°Ñģ
ĠÐ¶Ò¯ÑĢÐ³iÐ· Ñĥ
ÓĻ ÑĥÑĢÐµÐ½
ĠÒĵÑĭÐ»ÑĭÐ¼ Ð½ÑĭÒ£
ĠÑĩÐµÐ¼Ð¿Ð¸Ð¾Ð½ Ð°ÑĤÑĭ
Ð°Ðº Ó©Ð»
ĠÐ± ÐµÑģÑĸÐ½ÑĪÑĸ
ĠÐ± iÐ·
ĠÐĲÑģÑĤÐ°Ð½Ð° Ð´Ð°ÒĵÑĭ
ĠÑĤÐ°ÒĽÑĭÑĢÑĭÐ¿ ÑĤÑĭÒĽ
ĠÓ©Ð·Ð³ÐµÑĢ ÐµÐ´Ñĸ
ĠÑĤÐ¾Ð± ÑĭÐ½
ĠÐĸÐ°Ò£ Ð°ÒĽ
ĠÐ¼ÓĻÐ½ ÐµÑĢÐ»ÐµÐ¿
ĠÑģÑĭÑĢÑĤ ÒĽÐ°
ĠÑĥ Ð°ÒĽÑĤÑĭÐ»Ñĭ
ĠÑģÑĭÐ½ Ð¸
Ò¯ Ð³ÑĸÑĢ
ĠÐ±Ð°ÒĵÑĭÑĤ ÑĤÐ°ÑĢ
Ð°Ð»ÐµÑĢ ÐµÑı
ĠÐ² Ð¸Ð´Ðµ
ĠÑģÓ©Ð· ÑĸÐ½ÑĸÒ£
ĠÐºÐ¾Ð¼ Ð°Ð½
ĠÐ»Ð¸Ð· Ð¸Ð½Ð³
ĠÑĦÐ°ÐºÑĤÑĸ ÑģÑĸ
ĠÑĪÐµÐº ÑĤÐµÐ»
ĠÐ¢ÓĻÑĥÐµÐ»ÑģÑĸÐ·Ð´ÑĸÐº ÑĤÑĸÒ£
ĠÒĽÑĥ ÒĵÑĭÐ½
ĠÐ¶ÐµÐ»Ñĸ Ð»ÐµÑĢÐ´Ðµ
ĠÐ°ÑĪÑĭÐ» ÑĥÑĭ
ation al
ĠÐĸ Ò¯Ðº
ÐĲ Ð¿
Ð±Ð¾Ð» ÑĭÐ¿
ĠÑĤÓĻÑĢÑĤi Ð¿
ĠÐĨ Ð·
ĠÐ¶Ð¾Ð» Ð´Ð°Ñģ
ĠÐ½ÑĭÒĵÐ°Ð¹ÑĤÑĥ ÒĵÐ°
ÐĲÐ² ÑĤÐ¾ÑĢ
\ \
ĠÒ¯Ð¹ÑĢÐµÐ½ ÐµÐ´Ñĸ
Ð°ÑĤ Ð¾Ð²
Ð± Ð°Ð¹ÑĤÑĭÐ½
ĠÐ¨Ð¾ ÒĽÐ°Ð½
ĠÐļÓ© Ð±
ĠÐ´Ð¸ Ð°Ð±
Ðĳ ÐµÐ¹Ð½
ĠÒļÐ°Ð·Ð°ÒĽÑģÑĤÐ°Ð½ Ð´Ñĭ
ĠÒĽÐ¾Ð» Ð´Ð°Ð¿
Ð´Ð°ÒĵÑĭ Ð´Ð°Ð¹
Ðļ ÐµÑĪ
ĠÐºÓ©Ð· ÑĸÐ½Ðµ
i st
ĠÓ©Ð· ÐµÐ½Ñĸ
C O
ĠÒ±ÑģÑĤÐ°Ð· Ð´Ð°ÑĢÒĵÐ°
ĠÒļ Ðļ
ĠÐµÐ» ÑĸÐ½
ĠÐºÓ©ÑĢÑĸÐ½ ÐµÑĤÑĸÐ½
Ð½ Ð¾Ð¹
ĠÐ°ÐºÐ°Ð´ÐµÐ¼ Ð¸ÑıÑģÑĭ
Ð¼ÑĭÐ· ÒĵÐ°
ĠÐ°Ð½ÑĭÒĽÑĤÐ°Ð¼ Ð°Ð»Ð°ÑĢ
ĠÐ°ÑĤ Ð°ÒĵÑĭ
ĠÐ±Ð°ÒĵÐ´Ð°ÑĢÐ»Ð°Ð¼ Ð°Ð½Ñĭ
ĠÐ¾ÑĤÑĭÑĢ Ð°
ĠÑĪÐµÐ½ ÐµÑĥÐ½ÑĸÐº
ÐµÐ» ÐµÐ¹ÑĤÑĸÐ½
ĠÒ±Ð¹ ÒĵÐ°ÑĢ
ĠÐļ ÑĸÐ¼
Ð¡ Ò±ÑĢ
ĠÐ°Ñģ ÒĽÐ°ÒĽ
ĠÐ±Ñĸ Ð»ÑĸÐº
Ð² ÐµÑĤ
ĠÒļÐ°ÑĢ Ð°ÑĤÐ°Ñĥ
ĠÒĽÐ¾Ð»Ð´Ð°Ñĥ ÒĵÐ°
ĠÐĺÑģ Ð¿Ð°Ð½Ð¸Ñı
ÐŁÐĲÐł ÐĲÐ¢
ĠÑĭÐ½ÑĤÑĭÐ¼Ð°ÒĽÑĤÐ°ÑģÑĤÑĭÒĽ ÑĤÑĭ
ÑĨ Ð°ÑĢ
ĠÒĽÐ°ÑĤÑĭÐ½Ð°Ñģ ÑĤÐ°ÑĢÐ´ÑĭÒ£
ĠÐ¾Ð½ Ð´Ð°ÒĵÐ°Ð½
00 00
ĠÐ¼Ò¯ ÑģÑĸÐ½
ĠÐ¶Ò±Ð¼ Ð°
Ð¢ Ò¯Ð¹
ĠÐ¸Ð´Ðµ Ð¾Ð»Ð¾Ð³Ð¸Ñı
ÑĤÐµÐ¼ ÑĸÐ·
ĠÐ¶Ð°ÒĵÐ´Ð°Ð¹ Ð»Ð°ÑĢÐ´ÑĭÒ£
ĠÐ¢ Ð¾Ð»ÑĭÒĽ
ÒĵÑĭÐ½ Ñĭ
Ð¸Ð½ ÑĤÐµÑĢÐ½
ĠÐ±Ð°ÑģÑĤÐ°Ð¼ Ð°ÑģÑĭÐ¼ÐµÐ½
ĠÐ¶Ð°ÑĥÐ°Ð¿ ÑĤÐ°ÑĢ
Ð· Ð¾Ð¼Ð±ÑĭÐ»
Ð¾Ð³ÑĢ Ð°Ð¼Ð¼
ĠÐ´Ð°ÑıÑĢ Ð»ÑĭÒĽ
ĠÑĤÒ¯ÑģÑĸÑĢ ÑĸÐ»Ð³ÐµÐ½
Ð°Ð»ÑĮ Ð´Ñĸ
le s
Ð¿Ð»ÐµÑĢ Ð¾Ð³ÑĢÐ°ÑĦÐ¸Ñı
ĠÐ±Ð°Ð» Ð°Ð¼ÐµÐ½
ĠÐ¨ ÒļÐŀ
ĠÐ³ÑĢÐ°Ð½ ÑĤÑĭÐ½
ĠÐºÐµÐ»ÑĤÑĸÑĢ Ð³ÐµÐ½
ĠÑĤ ÑĸÑģ
Ð¼ Ð¾Ð»
ĠÒĽ Ð¾Ð¼
ĠÑĤÒ±ÑĤÑĭÐ½ ÑĥÑĪÑĭÐ»Ð°ÑĢ
ĠÒĽÐ°ÑĤÐ°ÑĢ Ð»Ñĭ
ĠÐ¶Ð°ÑĢÐ°Ð¼ ÑģÑĭÐ·
ĠÐ°ÑıÒĽ ÑĤÐ°Ð»Ð°Ð´Ñĭ
ĠÑħÐ°Ð±Ð°ÑĢÐ»Ð°Ñĥ ÑĭÐ½ÑĪÐ°
o c
ĠÐ¶Ð¸ Ò»
Ð£ÐĶ ÐĶÐĵ
ÑĭÑģ Ð°Ð½
ÐĲÐ» Ð´ÑĭÒ£ÒĵÑĭ
Ð¢ ÐµÑħÐ½
ĠÑģÐ¾ ÒĵÑĭÐ¿
ĠÐł ÑĥÑħÐ°Ð½Ð¸
ĠÐ¾ÒĽ ÑĭÐ»ÑĭÐ¼
ĠÐ¢ ÐµÑħÐ½Ð¸ÐºÐ°Ð»ÑĭÒĽ
Ð°Ðº Ð¾Ð²
ĠÐºÐµÑĪ ÐºÑĸ
ĠÐĲ ÒĽÑĭÐ»
Ð¸Ð½ Ð¸
Ð¢Ó© ÑĤÐµÐ½ÑĪÐµ
Ð¢ Ð¾ÑĢ
ĠÐºÐ¾Ð½ÑĨ ÐµÐ½ÑĤÑĢ
ĠÐľ Ð¸ÑĢ
ĠÐľ ÑĭÑĢÐ·
ĠÐ½Ðµ Ð´Ðµ
ĠÓ¨ ÑĢ
ĠÐ°ÑģÐ¿ Ð°Ð¹ÑĤÑĭÐ½
ĠÐ°Ð¹ÑĭÑĢ Ñĥ
ĠÐ°Ñı ÒĵÑĭÐ½Ð°
Ð¶ Ð°Ò£
ĠÐ¾ÑĢÐ³Ð°Ð½ ÑĭÐ½ÑĭÒ£
ĠÒĽÑĥ ÑĭÑĢ
ÒĽÑĭÑĢ Ð»Ñĭ
ĠÐĸ Ð°Ð¹ÑĭÒĽ
ĠÐ¶ÐµÑĤÑĸÑģÑĤÑĸÐº ÑĤÐµÑĢ
Ð¸Ðº ÑĤÐ¾ÑĢ
ĠÑĤÒ±ÑĢ ÒĵÑĭÐ»ÑĭÒĽÑĤÑĭ
ĠÐµÑģÑĤ Ñĥ
ĠÒĽÑĭÐ·Ð¼ÐµÑĤÐºÐµÑĢÐ»ÐµÑĢ ÑĸÐ½Ðµ
ĠÐºÐµÑĪ ÐºÐµ
ĠÐ½Ð¾Ð¼ ÐµÑĢ
ĠÑģ ÑĸÑĢ
ÐµÐ»ÐµÑĢ Ð´Ðµ
Ð°ÑģÑĤÑĭÑĢ ÑĭÐ¿
Ñĩ ÐµÑĢ
ĠÐ´ÐµÑĢÐµÐº ÑĤÐµÑĢÑĸ
ĠÐĳ ÐĨÐĽÐĨÐľ
ĠÐ´Ð°ÒĵÐ´Ð°ÑĢ ÑĭÑģ
ÑĤÐ¾ ÒĵÐ°Ð¹
ĠÐµÑģÐµÐ¿ Ð¿ÐµÐ½
ĠÐ¶ÑĭÐ»Ð´Ð°Ð¼ Ð´ÑĭÒĽ
ÑĢÑĥ Ð¿
Ð°Ð»Ð°Ñĥ ÒĵÐ°
ĠÒ±ÑĢ Ð°Ð½
ĠÐ¾Ð¿ Ð¿
ĠÐ°Ð¹ ÑĤÐ°Ð¼ÑĭÐ·
ĠÑģ ÑĤÑĥ
ĠÐ¿Ð°Ð¹Ð´Ð°Ð»Ð°Ð½ Ð°ÑĤÑĭÐ½
ĠÐ£ÓĻÐ» Ð¸ÑħÐ°Ð½Ð¾Ð²
ĠÒ±Ð¹ÑĭÐ¼ Ð´Ð°ÑĢÒĵÐ°
ĠÒļ ÐĲÐł
ĠÑģÐ¾Ò£ Ñĭ
ĠÐº Ð¸Ð»
ĠÒĽÐ°Ð» Ð°Ð»Ð°ÑĢÑĭ
ĠÑģÐ¸Ð¿Ð°ÑĤ ÑĤÐ°Ð¼Ð°
ĠÐ¿ÑĢÐ¾ÑĨ ÐµÐ½ÑĤ
ĠÒĵÐ°Ð»Ð°Ð¼ ÑĤÐ¾ÑĢ
Ð¾Ð½ Ð½ÑĭÒ£
Ð± Ð°ÒĽÑĤÐ°ÑĢ
ĠÓĻÐºÑĸÐ¼ ÑĪÑĸÐ»ÑĸÐ³ÑĸÐ½ÑĸÒ£
ĠÑĤÐ¾ÒĽ ÑĤÐ°Ð»ÑĭÐ¿
ĠÑģÐ°ÒĵÐ°ÑĤ ÑĤÐ°Ð½
ÑĤÐ°ÑĢ Ð°Ð¿
ĠÐ±Ð°Ñģ ÑĭÐ½ÑĭÒ£
ÑĭÒĵ Ñĥ
ĠÑĪ Ð°Ð¼Ð°
ĠÑĢÐµÑģÐ¿ÑĥÐ±Ð»Ð¸Ðº Ð°Ð½ÑĭÒ£
Ð¼Ð¾ ÑĤÑĢ
ÐºÐµÐ½ ÑĸÒ£
ĠÒĽÐ°ÑĤ ÐµÑĢ
ĠÐºÓĻÑģÑĸÐ¿Ð¾ÑĢ Ð½Ñĭ
ĠÑģÐ°Ð½ ÑĭÐ½Ð°
ĠÓ¨Ð· ÑĸÐ½ÑĸÒ£
ĠÒĽÒ±Ð½Ð´ÑĭÐ»ÑĭÒĽ ÑĤÐ°ÑĢÐ´Ñĭ
ĠÑĤÒ¯ÑĢ Ð³Ðµ
ĠÐ¿Ð°ÑĢ Ð°Ñģ
ĠÐ´Ð¸ Ð´Ð°
Ð¶ Ò¯ÑĢÐ³ÑĸÐ·ÑĥÑĪÑĸ
ĠÐ°Ð³ÑĢ Ð°ÑĢÐ»ÑĭÒĽ
ĠÑĤÑĸÐ» Ð¼ÐµÐ½
ĠÐ°ÑĢÑĤ ÒĽÐ°Ð½
ĠÐ°ÒĽÐ¿Ð°Ð½ Ð´Ð°
ÐļÓ©Ð¿ ÑĤÐµÐ³ÐµÐ½
Ò° ÒĽÑģÐ°Ñģ
Ð¸Ðº Ð°ÑģÑĭÐ½Ð°
Ð· ÑĭÐº
Ð´Ñĭ Ð»ÑĭÒĵÑĭ
ĠÐŀ Ð¿ÐµÑĢ
ĠÐ±Ó© Ð³
ÑĤÐ¸ Ð»
ĠÐ¢ ÐĴ
ÐŁÑĢÐµÐ·Ð¸Ð´ÐµÐ½ÑĤ ÑĤÑĸÒ£
ĠÐ¶Ò¯ÑĢÐ³ÑĸÐ· ÐµÑĤÑĸÐ½
ĠÐºÐµÑĢÐµÐº ÑĤÑĸ
ĠÐ´ÐµÒ£Ð³ÐµÐ¹ Ð»Ñĸ
ĠÐ½Ð¾ÑĢÐ¼ Ð°Ð»Ð°ÑĢÑĭÐ½
ĠÐľ Ð°ÑĤ
ĠÐºÓ©Ð· Ð´ÐµÐ½
i Ð³i
ĠÑģÑĥÐ±ÑĬÐµÐºÑĤÑĸ Ð»ÐµÑĢÑĸ
ĠÑĪ Ð°Ð»Ð´ÑĭÒĽ
ĠÓĻ ÐºÐµÑĤ
ĠÐºÐµÐ·Ð´ÐµÑģÑĥ Ð»ÐµÑĢ
ĠÐ¼Ó©Ð»ÑĪÐµÑĢ ÑĸÐ½Ð´Ðµ
ĠÐ· Ð°ÑĤÑĤÑĭÒ£
ĠÐľ Ñĥ
ĠÐ¼Ð°ÒĽÑģÐ°ÑĤÑĭ Ð¼ÐµÐ½
ÑĭÐ½ Ð´Ð°Ð¹
Ðĸ Ò¯ÑĢÐ³ÑĸÐ·ÑĥÑĪÑĸ
Ðĺ Ð¡Ð¢
ĠÐ¶Ò¯ÑĢ Ð¼ÑĸÐ½
ĠÐ¢ Ð¸
ĠÑĦÐ¾ÑĢ Ð¼Ð°
ĠÒĽÐ¾ÑĢÒĵ Ð°Ð¿
ĠÐºÐ¾ ÑįÑĦÑĦÐ¸ÑĨ
Ð¼ Ð°Ð³
ĠÐ¶ÓĻÑĢ Ð¼ÐµÒ£
ĠÐµÐ» Ñĥ
ĠÑĤÐ°Ð¿ÑģÑĭÑĢÐ¼ Ð°Ð»Ð°ÑĢÑĭ
ĠÓ©Ð» ÑĤÑĸÑĢÑĥ
ĠÐ±ÐµÑĢ Ð¼ÐµÐ¹ÑĤÑĸÐ½
ĠÑĪÐ°ÒĽÑĭÑĢ Ð°Ð¼ÑĭÐ·
ĠÐºÐµÑģ ÑĸÐ¿
Ó¨ ÐĹ
ĠÒĽÒ±ÑĢÑĭÐ» ÒĵÑĭ
ĠÑĤÐ°Ð¼Ð°ÒĽÑĤÐ°Ð½Ð´ÑĭÑĢÑĥ Ð´Ñĭ
ĠÐ¼Ð¾Ð´ ÑĥÐ»ÑĮ
ĠÐĳ ÓĻÐ¹
Ð» Ð³Ñĸ
ĠÐ¶Ò¯Ðº ÑĤÐµÐ»Ð³ÐµÐ½
ĠÐĳÐ¸ Ð»ÑĸÐº
ĠÐ°Ð» Ðº
ĠÐ¥ Ð°ÑĤ
ÑĤÐµÑĢ i
Ð°Ð¹ÑĭÐ¼ Ñĭ
ĠÐŀ Ð´Ð°ÒĵÑĭ
ĠÐ¨ Ð°Ð¹
ÐĶÐķ Ðŀ
ĠÑĤÑĢÐ°Ð½ Ð·
ÑĢÐ°Ð¸ Ð»ÑĮ
ĠÐĳ Ðŀ
ĠÐ´ÓĻÑĥÑĸÑĢ Ñĸ
ÑģÓĻ Ð¹ÐºÐµÑģ
ÑĥÐ´ Ð½ÑĭÐ¹
ĠÐ¨ Ð°ÑĢÑĤ
ĠÐºÐ¾Ð¼Ð¿Ð°Ð½Ð¸Ñı Ð»Ð°ÑĢÐ´ÑĭÒ£
ĠÐ±ÑĸÐ»ÑĸÐ¼ Ð³Ðµ
Ò°ÐĽ Ð«
ĠÒĽÑĭÑĢ ÐºÒ¯Ð¹
i b
ĠÐ´ÓĻÑĢ ÑĸÐ¿
ĠÑĤÐµÑĢ Ð±ÐµÑĤ
ĠÐº Ð°ÑĤÐ°Ð»Ð¾Ð³
Ð´Ñĸ Ð³ÑĸÐ½Ð´Ðµ
ÑĨ Ð¸ÑĤ
ĠÑģÐ°Ð» Ð°Ð»Ð°ÑĢÑĭÐ½Ð´Ð°
ĠÑĤÒ¯Ðº Ð¿ÑĸÑĢ
ĠÐľÒ±Ð½ Ð°Ð¹
Ð¶ÐµÐºÐµ ÑĪÐµÐ»ÑĸÐº
ĠÒ±Ñı Ð»
ĠÐ¼Ò¯Ð³ÐµÐ´ÐµÐº ÑĤÐµÑĢÐ³Ðµ
ĠÐ¡ Ð°Ð¿
ĠÐºÐµÐ·ÐµÒ£ Ð´ÐµÐ³Ñĸ
ĠÑĤÐ°Ò£ ÐµÑĢÑĤÐµÒ£
ĠÑĪÐµÑĪ ÑĸÐ¿
ĠÐ¾ ÑĪ
ĠÒĵ Ð°Ð¶
ÑĭÒ£ÑĭÐ· Ð´ÑĭÒ£
Ð¡ ÑĭÐ½
ĠÑĪÑĭ Ð´Ð°Ð¼
ÑģÐµÐ¹ ÑĸÑĤ
ĠÐ¶Ð¾ Ð±Ð°ÑģÑĭÐ½Ð°
y l
ĠÒĽÐ°Ð¹ Ð½Ð°ÑĢ
ĠÐĲÑģ Ð°Ð½
Ð¼ Ò¯Ð¼ÐºÑĸÐ½
Ð¢ Ð°Ð¿ÑģÑĭÑĢ
ÒĽÐ° ÐµÐ²
Ð¿ ÑĸÐ½Ðµ
ĠÑģÐµÐ±ÐµÐ± ÑĸÐ½
ĠÐ¡ÐµÑĢ Ð³ÐµÐ¹
en g
Ð°Ð½Ðº ÑĤ
ĠÐºÒ¯Ð¹ Ð´Ðµ
Ð¿ ÐµÑĤ
Ð¿Ñĥ ÑĤ
Ð°ÐµÐ² Ð°
ÑģÐ°Ð½ Ð¸ÑĤÐ°ÑĢÐ¸ÑıÐ»ÑĭÒĽ
ĠÐºÐ»ÑĥÐ± ÑĭÐ½ÑĭÒ£
Ð¾ Ñĥ
ĠÐºÑĥÑĢ ÑģÑĭ
ĠÐ¶ÐµÑĤ ÑĸÐ¼Ð´Ñĸ
ÑĦ Ð¾
ĠÐ±Ð°ÑģÒĽ Ð°Ð»Ð°ÑĢ
ÒĵÒ±ÑĢ ÑĭÐ¿
ĠÐĲ Ð³ÐµÐ½
Ð¶Ð°Ñģ ÑĭÐ»
ÐļÓ©ÑĢ ÑģÐµÑĤ
ĠA n
ĠÐ´ÐµÑĢÐµÐº ÑĤÑĸ
ÑĭÑģ ÒĽÐ°Ð½
Ð´ Ð¸Ð½Ð³
ĠÐ¾Ð±ÑĬÐµÐºÑĤÑĸ Ð»ÐµÑĢ
of t
Ð³ Ð¸Ð¿
ÑĤÐµÐ½ ÑĤ
ÐĲÐ» ÑĤÐ°Ð¹
ĠÑĩÐµÐ¼Ð¿Ð¸Ð¾Ð½ Ð°ÑĤÑĭÐ½ÑĭÒ£
ĠÐł ÐľÐļ
ÐľÐµÐ½ ÑĪÑĸÐº
ĠÑģÐ¾ÒĽ ÒĽÐ°Ð½
ÐķÑģ ÐºÐµ
ĠÐ°Ð· Ð°Ð¿
ÐĲ ÒĽÑģ
ĠÒĽÐ°Ð»Ð´ÑĭÑĢ ÑĭÒ£ÑĭÐ·
ĠÐ¼ÐµÐºÐµÐ¼ÐµÐ»ÐµÑĢ Ð´ÑĸÒ£
ĠÐĸÒ±Ð¼ Ð°Ð±Ð°ÐµÐ²
ĠÐ´ Ð¾Ð·
Ð´ÐµÑĥ ÑĸÐ½Ðµ
ĠÒļÐ¾ Ð¶Ð°
ĠÐ¶Ð°ÑĢ ÑĭÐ»
ĠÐ¶Ð°Ð»Ð°ÒĽ ÑĭÑģÑĭ
ĠÐĲ ÑĤÐ°Ð»Ð¼ÑĭÑĪ
ÐĲ Ðļ
ĠÐ¾Ð¹ ÑĪÑĭÐ»
ĠÐ¼Ð°Ò£ÑĭÐ·Ð´Ñĭ Ð»ÑĭÒĵÑĭÐ½
ĠÐ°ÑĢ ÒĵÑĭ
ĠÑģÐ°Ð» Ð°Ð»Ð°ÑĢÑĭ
Ġ5 50
ĠÓ©Ð¼ÑĸÑĢ ÑĸÐ½Ð´ÐµÐ³Ñĸ
ÑĭÑģ ÑĭÐ½Ð°Ð½
ĠÐ½ÑĭÑģÐ°Ð½ Ð´Ð°
ĠÐ¢ÑĭÒ£Ð´Ð° Ò£ÑĭÐ·
ĠÓ©Ð»ÑĸÐ¼ ÑĸÐ½Ðµ
ĠÒĵ Ð°Ð¶Ð°Ð¹ÑĭÐ¿
Ð¿Ð°ÒĽ ÑĪÑĭ
ĠÑĥ Ð»ÑĮÑĤÑĢ
ĠÐļÓ© Ð»ÑĸÐº
ĠÑĤÓ©ÑĢÐ°Òĵ Ð°Ð»ÑĭÒĵÑĭÐ¼ÐµÐ½
ĠÒ± ÑĤÑĭÐ¿
ĠÑĤÑĭÐ½ÑĭÑĪ ÑĤÑĭÒĽ
ĠÐĲ ÐĻ
ÐļÓĻÑģÑĸÐ¿ Ð¾ÑĢÑĭÐ½
ĠÐ¶ÑĸÐ³ÑĸÑĤ ÑĤÑĸÒ£
ÑĤÐ°Ð¼ Ð¸Ð½
Ðł ÐµÐ´Ð°ÐºÑĨÐ¸Ñı
Ð°Ñģ ÑĤÑĭÒĽ
ĠÐµÐ» Ð¾ÑĢÐ´Ð°
ĠÒĽÑĭÐ·Ð¼ÐµÑĤÑĤÐµÑĢ ÑĸÐ½ÑĸÒ£
Ð¼Ðµ Ð»Ñĸ
ĠÐ±Ð°ÑıÐ½ Ð´Ð°Ñĥ
ĠÒĽÐ¾Ñģ ÑĭÐ»Ñĥ
ĠÐ¶Ð¾ÑģÐ¿Ð°ÑĢ Ð»Ñĭ
ĠÐºÓ©ÑĤÐµÑĢ ÐµÑĤÑĸÐ½
ÒĽÐ°ÑĢ Ñĥ
ÓĻÐ» ÐºÑĸÐ¼
ĠÒĽÐ¸ÑĭÐ½ ÑĪÑĭÐ»ÑĭÒĽ
âĨ ĳ
Ñģ ÑĸÐ½Ð´Ðµ
ĠÐ°Ð½ÑĭÒĽ ÑĤÐ°Ð»
ĠÓĻÐ»ÑĸÐ¿Ð±Ð¸ ÑĸÐ½Ðµ
ĠÐĶ Ò±ÑĢÑĭÑģ
ĠÐĶ Ò¯Ð¹
ĠÑģÐµÐ½ Ð±Ñĸ
ĠÐļÓ©ÑĢ ÑĸÒ£ÑĸÐ·
ĠÐ½ÑĭÑģÐ°Ð½ Ð°Ð»Ñĭ
ĠÑģ ÑĭÒ£
ĠÒ± Ð´Ð°Ð¹Ñĭ
ĠÐ¼Ò¯ÑĪ ÐµÐ»ÐµÑĢÑĸÐ½
ĠÐ¼ÓĻÐ»ÑĸÐ¼ ÐµÑĤÑĤÐµÑĢÑĸ
200 5
ĠÒ±Ð¹ÑĭÐ¼Ð´Ð°ÑģÑĤÑĭÑĢ Ð´Ñĭ
ĠÑĤÓ©Ð»ÐµÐ¼ Ð´Ñĸ
ÑģÑĭÐ½ Ñĭ
Ñį Ð»ÐµÐºÑĤÑĢÐ¾Ð½Ð´ÑĭÒĽ
ĠÐ±Ð°Ð· Ð°ÑģÑĭÐ½
ÑĤÐ°Ñģ Ð°
ĠÐ¶ÐµÑĢ Ð»ÐµÑĢÐ´Ñĸ
ĠÐ¿ÑĢÐ¾ÑĦÐ¸Ð» Ð°ÐºÑĤ
ĠÑĪ Ð¾ÒĽ
ÑĸÐ¼ Ð¿Ð°Ð·
ĠÒĽÑĥ ÑĭÐ¿
ĠÐ° ÑĪÑĭ
ĠÓĻÐ· ÑĸÐ»
ÐĲ Ð¯
Ð°Ðº Ñĥ
ĠÑĤÐ°Ð± Ð°Ð½
ĠÑĤÓĻÑĢÑĤÑĸÐ¿ ÑĤÑĸ
ĠÐ´Ò± ÒĵÐ°
ĠÐĸ Ð°Ð¹
ĠÒĽÒ±ÑĢÑĭÐ» ÑĭÐ¿
Ò± Ñħ
Ðĵ Ò¯Ð»
ĠÐŀ Ð¼ÑĭÑĢÑĤ
ĠÒ¯Ð¹Ð»ÐµÑģ ÑĸÐ¼Ð´Ñĸ
ĠÐ°ÑĥÐ´Ð°Ð½ ÑĭÐ½Ð°
Ð´ÑĸÐº ÑĤÐµÑĢ
ÐµÑĤÑĸÐ½Ð´Ðµ Ð¹
ĠÒļÒ±Ð½Ð°Ð½ Ð±Ð°ÐµÐ²
ÒĽ Ð°Ð¶
ĠÒĽÒ±Ð¶ Ð°ÑĤÑĤÑĭÒ£
ĠÐ±Ð°Òĵ Ð°Ð»Ð°Ð¹
Ò®Ð¹ Ð³Ðµ
ĠÐ·Ð°Ð» Ð°Ð»
ĠÑĤÐ°ÑĥÐ°ÑĢ Ð»Ð°ÑĢÐ´ÑĭÒ£
ĠÐ¶Ò¯Ð¹ ÐµÐ½Ñĸ
Ñģ ÑĸÐ¿
Ð¸Ð³ Ð°ÑĨÐ¸Ñı
ĠÐ¶Ð°Ð¿ ÑĭÑĢ
ĠÐ¶Ò¯ÑĢÐ³ÑĸÐ·Ñĥ Ð´ÑĸÒ£
ĠÑĤÒ¯ÑģÑĸÐ½Ð´ÑĸÑĢ ÑĸÐ¿
ĠÐ¶ ÐµÐ¿
ĠÒ±ÑģÑĤ Ð°ÑĥÒĵÐ°
ĠÑģÐ¾ÒĵÑĭÑģ ÑĭÐ½ÑĭÒ£
ĠÐ°Ð½ Ð°Ð¼
ĠÒĽÐ°ÑĤÑĭÑģ Ð°
ĠÐļ ÐµÐ¼
Ð¼Ð°Ð½ Ð´Ð°ÑĢ
Ð½ ÓĻÑĢ
ĠÒĽÒ±ÑĤÒĽÐ°ÑĢ Ñĥ
i v
Ñį Ð½ÐµÑĢÐ³
ĠÐºÐ» ÐµÑĤ
ĠÑįÐ½ÐµÑĢÐ³ Ð¸ÑıÑģÑĭ
Ð¶Ð°Òĵ Ð´Ð°Ð¹
ĠÐ°ÑĤÐ°Ñĥ ÑĭÐ½
ĠÐĳÐ°Ð» Ð°Ð»Ð°ÑĢÐ´ÑĭÒ£
ĠÐĸ Ð¾
ÐŀÒĽ ÑĭÒ£ÑĭÐ·
ĠÐ°ÑĤÐ°Ñĥ Ð»Ð°ÑĢÑĭ
ĠÐºÐ»Ð°ÑģÑģ Ð¸ÐºÐ°Ð»ÑĭÒĽ
ĠÐ·Ð°Ò£ Ð´Ð°
ÑĢ Ñĭ
ĠÐ°Ñĥ Ð»Ð°Ñĥ
Ó¨ Ð»ÐµÒ£
ĠÒĽÐ¾ÒĵÐ°Ð¼ Ð´Ñĭ
ĠÑĤÐ°ÒĵÐ°Ð¹ÑĭÐ½ Ð´Ð°Ð»ÒĵÐ°Ð½
Ð°Ð½ ÑĮ
Ð´ÐµÐ½ ÑĸÒ£
ĠÒĽÐ¾Ð» Ð¼ÐµÐ½
Ð¿Ð¾ÑĢ Ð°ÑĤÐ¸Ð²ÑĤÑĸÐº
ĠÐ® ÐĿÐķÐ¡ÐļÐŀ
Ð¶ Ð°Ð»Ð¿Ñĭ
E mail
ĠÐ¾ÑĢÑĭÐ½Ð´Ð°Ð» ÒĵÐ°Ð½
ĠÑĤÒ±ÑģÐ°Ñĥ ÐºÐµÑģ
Ðµ Ð´ÐµÐ³Ñĸ
ĠÐºÓĻ Ð´ÑĸÐ¼Ð³Ñĸ
ĠÒĽÐ°ÑĢ ÑĥÐ»Ñĭ
ĠÐ² Ð¸Ð·
ÐµÑĤÑĤÐµÑĢ ÑĸÐ½ÑĸÒ£
ĠÒĽÐ°ÑĢ ÑĤ
Ð¾Ð³ Ñĭ
ĠÐ¼Ð°Ò£ÑĭÐ·Ð´Ñĭ Ð»ÑĭÒĵÑĭ
Ð¡ÐµÑĢ ÑĸÐº
ĠÐºÐµÐ· iÐ½Ð´Ðµ
ÐĶÐ°Ð¼ ÑĭÑĤÑĥÑĪÑĭÐ»ÑĭÒĽ
ĠÐĸ ÐµÐ»
Ġ ðŁ
ĠÑĤÐ¾Ð¿ ÑĤÐ°ÒĵÑĭ
ĠÒĽÐ¾Ð» Ð°Ð¹ÑģÑĭÐ·
ĠÓĻÐ» ÑģÑĸÑĢ
ĠÐ±Ó©Ð»ÑĸÐ½ ÐµÑĤÑĸÐ½
ĠÑĤÒ¯Ð½ Ð³Ñĸ
Ð±Ðµ Ð³Ñĸ
ĠÑĤÐ°ÒĽÑĭÑĢÑĭÐ¿ ÑĤÐ°
ĠÑįÐ½ÐµÑĢÐ³ Ð¸ÑıÑģÑĭÐ½
ĠÒļÐ«ÐĹ ÐľÐķÐ¢
Ð±ÑĸÑĢ ÑĸÐ½ÐµÐ½
ĠÑĪÑĭÒĵÐ°ÑĢ Ð°
Ðĸ Òļ
ĠÑĤÓĻÑģÑĸÐ» Ð´ÐµÑĢ
ĠÑĪÐ°ÒĽÒĽÐ°Ð½ Ð´Ð°ÒĵÑĭ
Ð¿Ð°Ð¹ Ð´Ð°Ð»Ð°Ð½
ĠÐ±Ð°ÑģÑĭÐ»ÑĭÐ¼ Ð´Ð°ÑĢ
Ð°Ð¿ Ð°Ð¹ÑĭÐ¼
Ðĳ Ð°Ð¹ÑĤÒ±ÑĢÑģÑĭÐ½
ĠÒļÐ°Ð¹ ÑĭÑĢ
ĠÑĦ Ð¾Ð»ÑĮÐºÐ»
ĠÒĽÐ°ÑĤÑĭÑģÑĥÑĪÑĭÐ»Ð°ÑĢ ÒĵÐ°
ÑĪÑĸ Ð»ÑĸÐ³ÑĸÐ½Ðµ
ĠÐ¼Ò±ÑĢ ÑĭÐ½
ĠÓĻÐ·ÑĸÑĢ Ð³Ðµ
Ðĳ iÑĢ
ÐºÐµÐ» ÐµÒ£
e le
ĠÑĤÐ°Ð» Ð¿ÑĭÐ½
Ð°Ð¼Ð¼ Ð¸ÑĤ
ĠÐ°Ðº ÐºÑĢÐµÐ´Ð¸ÑĤ
ĠÒ®Ð¹ Ð³Ðµ
ĠÐ³ÐµÐ½ ÐµÑĢÐ°Ð»
ĠÐĲÐ» Ð°ÑĤÐ°Ñĥ
ÑĪÐ° ÑĪÑĭÐ½
ĠÐ½ÑĭÑģÐ°Ð½ Ð´Ð°ÑĢÑĭÐ½
ĠÑĤÐ°Ò£Ð´Ð° Ò£ÑĭÐ·
ĠÐĲÐ² ÑģÑĤÑĢ
ĠÐ»Ð¸ÑĨ ÐµÐ¹
Ð¢ÓĻÑĥÐµÐ» ÑģÑĸÐ·
ĠÐĿ ÑĮÑİ
Ñģ ÐµÐ·
ÑĭÐ» ÑĭÒĵÑĭÐ½
ĠÒĽ Ð°ÒĵÐ°Ð½
ĠÑĤÑĥ Ð±ÐµÑĢÐºÑĥÐ»ÐµÐ·
ÐµÐº ÑĨÐ¸ÑıÐ»ÑĭÒĽ
ĠÐ³Ð¸Ð¿ ÐµÑĢ
ĠÐ¢ ÐµÐ¼
ĠÐ¼Ð°ÒĽÑģÐ°ÑĤ ÑĤÐ°ÒĵÑĭ
ĠÐŀÑĢÑĭÐ½ Ð±Ð¾ÑĢ
Ð¡ Ò¯Ð¹
ĠÐĨ Ð»Ðµ
ĠÐ¼Ð°ÒĽÐ°Ð» Ð°Ð½ÑĭÒ£
ĠÑģÐ°Ð¹ÑĤ ÒĽÐ°
ĠÐ°Ð²ÑĤÐ¾Ð¼ Ð°ÑĤÑĤÐ°Ð½
ĠÐ¾Ð¿ÐµÑĢ Ð°ÑĨÐ¸ÑıÐ»ÑĭÒĽ
Ð« Ð¡Ð¢
ĠÐĲÑģÑģÐ°Ð¼Ð±Ð»ÐµÑı ÑģÑĭÐ½ÑĭÒ£
Ð«ÐĽ Ð«Ðľ
Ð°ÑĤÐ¾ÑĢ Ñĭ
ĠÐ°Ð¹ ÑĢ
ĠÑĤÑĸÑĢ ÐµÐ³Ñĸ
ĠÐ¾ÒĽÐ¸Òĵ Ð°ÑģÑĭ
ÐĳÐ°ÒĵÐ´Ð°ÑĢÐ»Ð°Ð¼ Ð°
ĠÐĲ ÑĢÑĤ
ĠÒ¯Ð»Ð³Ñĸ ÑģÑĸÐ½
ĠÐ¼ ÑĭÑĢÐ·Ð°
Ò± Ð¹ÑĭÐ¼
Ð³ Ð¸Ð´
ĠÑģÐ°ÑĢÐ°Ð¿ ÑĤÐ°Ð¼
ĠÒļ Ò°Ðł
ĠÒļÐ°Òĵ Ð¸Ð´
ĠÑĤÒ¯Ð½ Ñĸ
ĠÑģ Ð°ÑĤÑĭÑģ
ĠÐ°ÒĽÐ¿Ð°Ð½ Ð´Ð°ÒĵÑĭ
ĠÒĽÑĭÐ· ÑĭÒĵÑĭ
o st
ĠÑĦ Ð»
ĠÐ¶Ð°Ð½ Ð°ÑĪÑĭÑĢ
ĠÒĽÐ°Ð»ÑĭÐ¿ÑĤÐ°Ñģ ÑĭÐ¿
Ġ '
ĠÐł Ñĥ
Ð¡Ð°Ð¹ÑĤ ÑĤÑĭÒ£
ĠÑįÑĤ Ð½Ð¾
ĠÐ¾ÑĢ Ð´
Ð³ iÐ½iÒ£
ĠÐ¤ Ð¸Ð·Ð¸ÐºÐ°
Ð¶Ð°Ð½ Ð¾Ð²Ð°
ĠÑĤÐ¾ÑĢ ÑģÑĭÒĽ
ĠÐĳÐ°Ð» Ð°Ð½ÑĭÒ£
ĠÒ±Ð¹ÑĭÐ¼Ð´Ð°ÑģÑĤÑĭÑĢ ÑĭÐ»ÑĭÐ¿
ĠÐ¾ÑĢ Ð°Ð»ÒĵÐ°Ð½
Ð°ÒĽ ÑĤÐ°
ÐµÐº ÐµÑĢ
200 0
Ð¿Ð°ÑĢÑĤÐ°Ð¼ ÐµÐ½ÑĤ
ĠÐ´Ð¸Ð· Ð°Ð¹
Ó¨ ÑģÐºÐµÐ¼ÐµÐ½
ĠÒĽÒ±Ð±ÑĭÐ» ÑĭÑģÑĤÐ°ÑĢ
ĠÐºÐ¾Ð½ÑģÑĥÐ»ÑĮ ÑĤÐ°ÑĨÐ¸Ñı
Ñģ Ò¯ÑĢ
ĠÐ°ÑĥÐ´Ð°ÑĢ ÑĭÐ»ÒĵÐ°Ð½
ĠÓĻÐºiÐ¼ ÑĪiÐ»iÐº
ÐĶÑĸÐ½ Ð¸
Ð¤ ÑĢÐ°Ð½
ĠÑĥÓĻ ÐºÑĸÐ»
ĠÑģÐµÑĢÑĤÐ¸ÑĦÐ¸Ðº Ð°ÑĤÑĤÐ°ÑĢ
ĠÐķÑĥÑĢÐ¾Ð¿ Ð°Ð»ÑĭÒĽ
ĠÒĽ Ð¸Ð¼
ÑĸÑĪ ÐºÐµ
Ðĳ Ò±ÑĢÑĭÐ½
Ð¶Ð°Ð± Ð´ÑĭÒĽÑĤÐ°ÑĢ
A Q
ĠÒ¯Ð»Ð³Ñĸ Ð»ÑĸÐº
ĠÐ°Ðº ÑĤ
Ð°ÒĽÐ°Ð» Ð¿Ð°ÒĽ
ÐĶ Ð°Ð¹ÑĭÐ½
ĠÐł Ð°Ð±
ĠÒļ Ð¥
Ġ5 3
ub e
ĠÐ¼Ò±ÒĵÐ°Ð»ÑĸÐ¼ Ð´ÐµÑĢÑĸ
ĠÐ½Ð°ÑĢ ÑĭÒĵÑĭÐ½Ð´Ð°
ĠÐºÓĻÑģÑĸÐ¿ Ð¾Ð´Ð°ÒĽ
ĠÒ¯ÐºÑĸÐ¼ ÐµÑĤÑĸÐ½ÑĸÒ£
ĠÐºÐµÐ¼ ÐµÐ»
ĠÒĽÐ°Ð¹ÑĤÐ°Ð» Ð°Ð¿
ÑĤÓĻÐ¶ÑĸÑĢÐ¸ Ð±ÐµÐ»ÑĸÐº
ĠÓ©Ð·Ð³ÐµÑĢÑĸÑģÑĤÐµÑĢ Ð³Ðµ
Ð°Ð´ Ð¸Ð¹
ĠÐ¶ÐµÑĤÐºÑĸÐ· ÐµÐ´Ñĸ
ĠÒ±Ð¹ÑĭÐ¼Ð´Ð°ÑģÑĤÑĭÑĢÑĥ Ð´ÑĭÒ£
ĠÒĵÐ¸ Ð±Ð°
ÑĤ ÐµÐ¹Ð½
ĠÐºÐµÑĤ ÐµÑĢ
Ð°Ð½ ÑĭÒĽ
ĠÐ°Ð» Ð´Ð°
ĠÐ°ÑĥÑĭÐ» ÑĭÐ½Ð´Ð°ÒĵÑĭ
ĠÐµÑģÐºÐµÑĢ Ñĥ
ĠÐ¼ÐµÐ½ÑĪÑĸÐº ÐºÐµ
ÑĤÑĭÐ» Ð°ÑĤÑĭÐ½
ĠÐ¢Ò±ÑĢ ÑģÑĭÐ½
ĠÓ©ÑĤÑĥ Ð´Ðµ
ĠÐ¾ÑĤÑĭÑĢ ÑĭÑģÑĭÐ½ÑĭÒ£
ĠÑĤÓ©Ð¼ÐµÐ½ Ð´ÐµÑĥÑĸ
Ð±Ð¸ ÑĤ
ĠÐ¼Ð¸Ð½Ð¸ÑģÑĤÑĢ Ð»ÑĸÐ³ÑĸÐ½Ð´Ðµ
ĠÑĦÐµÑģÑĤÐ¸Ð² Ð°Ð»ÑĮ
ĠÒĽÐ°Ð»ÑĭÐ¿ÑĤÐ°Ñģ ÑĤÑĭ
ÑĭÒ£ Ð½Ð°Ð½
ĠÐ°Ð´Ð°Ð¼ Ñĭ
ĠÐ°Ð¹Ð¼Ð°ÒĽ ÑĤÐ°ÑĢ
Ð¢ ÐĲÐĿ
ĠÐºÓ©Ð»ÐµÐ¼ ÑĸÐ½Ð´ÐµÐ³Ñĸ
ĠÒ±Ð¼Ñĭ ÑĤÑĭÐ¿
ĠÐºÐµÐ» Ð¼ÐµÐ¹
ĠÐ¾ÑĤ Ð±Ð°ÑģÑĭÐ½
Ð½ ÐµÐ²
ĠÐ¶ÑĭÐ» Ð°Ð¿
ĠÑĢÐµÐ· Ð¸Ð´ÐµÐ½
ĠÓĻ ÐºÐµÐ»Ð³ÐµÐ½
ÑĢÐ°Ð· Ð¸Ð»
ĠÑĸ ÑĪÑĸ
ĠÐº Ð°Ð»ÑĮ
ĠÑĸÑĪ ÐºÐµÐ½
ĠÓ© Ð»ÑĸÐ¿
ĠÒĽÐ°Ð¶ Ñĭ
Ð±ÑĸÑĢ ÑĤÐµ
ÑĤÐ°ÑĢ Ð¼Ð°ÒĵÑĭÐ½Ð°
ĠÐ¶Ð¾Ð» Ð°ÑĥÑĪÑĭ
ĠÒĽÐ¾Ñģ Ð°Ð´Ñĭ
ĠÐ°ÑģÑĭÑĢÑĥ Ð´Ñĭ
ĠÑĥÓĻÐº iÐ»ÐµÑĤÑĤi
Ð°Ñģ Ð°Ð´Ñĭ
Ðĳ ÐµÑģ
ĠÐ¾ÑĢÑĭÐ½Ð´Ð°Ð» Ñĥ
ĠÑĤÒ¯Ñģ ÑĸÐ½ÐµÐ´Ñĸ
ĠÒ¯ Ð´ÐµÑĢÑĸ
ĠÓ©Ò£ÑĸÑĢ Ñĸ
Ð³Ð¾ÑĢ Ð¸ÑĤÐ¼
ĠÐ°Ð¹ÑĭÑĢ ÑĭÑģÑĥ
ĠÐ¼Ð°ÒĽÑģ Ð°ÑĤÑĤÐ°ÑĢÒĵÐ°
Ð± Ð°Ñĥ
ĠÑĥÐ°ÒĽÑĭÑĤ ÑĤÐ°Ð½
ĠÐ³Ð°Ð· ÐµÑĤÑĸÐ½Ð´Ðµ
ĠÑģÑĤÐ° ÑĨÐ¸Ð¾Ð½
ÑĸÑĢÑĸÑģ Ð¿Ðµ
ĠÐĳ ÑİÐ´Ð¶
ĠÐ°Ð»ÑĥÑĪÑĭ ÒĵÐ°
Ð°Ð¼ Ð¸
Ð¼ÐµÑĢ ÑĨÐ¸ÑıÐ»ÑĭÒĽ
Ð· Ðµ
Ð¸Ð½ ÐµÐº
ĠÐĸ Ð¾Ð±Ð°
Ð»Ð°Ð½ Ð°
ĠÑĤÐ°Ò£ Ð´Ð°Ð¹
ÓĺÐºÑĸÐ¼ ÑĪÑĸÐ»ÑĸÐº
ÐĲÐ´Ð°Ð¼ Ð½ÑĭÒ£
ĠÐ¡ ÑĤÐ¾Ð¼Ð°ÑĤÐ¾Ð»Ð¾Ð³Ð¸Ñı
ĠÐ¶Ò¯Ð»Ð´Ðµ Ð³ÐµÑĢÑĸ
ĠÐ±ÐµÑĢÑĸÐ» Ð¼ÐµÐ¹Ð´Ñĸ
ĠÒĽÐ¾Ð»Ð´Ð°Ð½Ñĥ Ð´ÑĭÒ£
ĠÓĻÐºÐµÐ» Ð´Ñĸ
ĠÐ¾Ò£ÑĤ Ð°Ð¹Ð»Ñĭ
ĠÐ¸Ð½Ð´ Ð¸Ðº
ĠÐ£Ð½Ð¸Ð²ÐµÑĢÑģÐ¸ÑĤ ÐµÑĤÑĸ
ĠÓ©Ð½ÐµÑĢ Ð¿Ð°Ð·
Ð°Ð» Ð¸Ð½
ĠÑĤ Ð°Ñı
ĠÒ±ÑģÑĤ Ð°Ð»ÒĵÐ°Ð½
ĠÑĤÒ¯ÑģÑĸÐ½Ð´ÑĸÑĢ ÐµÐ´Ñĸ
ĠÑĤÐ°Ò£ ÒĵÑĭ
ĠÑģÐ°ÒĽÑĤÐ°Ñĥ Ð´Ñĭ
Ð°ÑĢÐ¼Ð° ÑĨÐµÐ²
ĠÐ¶Ð°Ò£Ð° ÑĪÐ°
Ð³ÐµÑĢ ÑĸÐ¼
ĠÐ¨ ÐµÑĪ
ĠÐµÐ» ÑĸÐ½Ð´Ðµ
ĠÑįÑĤÐ½ Ð¾Ñģ
ĠÐºÑĸÑĪ ÐºÐµÐ½Ðµ
ĠÐĳÐ¸ÑĭÐ» ÒĵÑĭ
ĠÐºÓ©Ð·ÒĽÐ°ÑĢ Ð°ÑģÑĭÐ½
________ ________
ĠÐ¶ÐµÑĤÑĸÑģÑĤÑĸÐº ÑĤÐµÑĢÑĸÐ½
ĠÑĤ Ð¸ÑıÐ½
ĠÒĽÐ°Ð±ÑĭÐ» Ð´Ð°Ð¹ÑĤÑĭÐ½
ĠÐ°ÑģÑĤÐ°Ð½ Ð°Ð½ÑĭÒ£
ĠÑĤÒ¯Ð· Ñĥ
Ñĥ ÑĭÐ·
ĠÐ¿ÑĢÐ¸Ð½ÑĨÐ¸Ð¿ ÑĤÐµÑĢÑĸ
ĠÐ¡ÑĤÐ°ÑĤÐ¸ÑģÑĤ Ð¸ÐºÐ°
ĠÒĽÒ±ÑĢÐ°Ð» Ð´Ð°ÑĢÑĭÐ½Ð´Ð°
ĠÑĪÐ°ÑĢ Ð°Ð»Ð°ÑĢÐ´ÑĭÒ£
ĠÓĻÐ´ÐµÑĤ ÑĤÐµÐ³Ñĸ
ÒĽ ÑĭÐ½Ð´Ð°
ĠÐ¼ÐµÐºÑĤÐµÐ¿ ÑĤÐµÑĢÐ´ÑĸÒ£
ĠÐļÓĻÑģÑĸÐ¿ Ð¾ÑĢÑĭÐ½
ĠÒĽÑĭÐ·Ð¼ÐµÑĤ ÑĤÐµ
ĠÓĺÐ±ÑĸÑĪ Ò±Ð»Ñĭ
ĠÑħ Ð¾ÑĢ
ÑĤ Ò¯Ð¹
ĠÑģÑĥÑĢ ÐµÑĤÑĸ
ĠÑģÒ±ÑĢ Ð°Ð¹Ð¼ÑĭÐ·
ĠÐ±Ð°ÑģÒĽÐ°ÑĢÑĥ Ð´Ñĭ
ĠÑĪÐµÑĪ iÐ¼
ÑĪÐ° Ð´Ð°
ÑĭÐ» Ð°ÑĢÑĭ
ĠÑĤÐ¾ Ðº
ÐµÐ¹ ÑĨÐ°ÑĢ
ĠÐ°Ñı ÑĤ
ĠÐŀ ÑģÐ¿Ð°Ð½
ĠÐ¶Ð°Ð½ Ð´Ñĭ
Ð±ÐµÑĢ Ð´Ñĸ
ĠÐ±Ð¾Ð» ÑģÐ°Ò£
ĠÐ¢ Ò¯Ð½
ÑģÑĤÐ°ÑĢ Ð´ÑĭÒ£
ĠÓ©Ò£ÑĸÑĢ ÑĸÐ½Ð´Ðµ
ĠÒ¯ÐºÑĸÐ¼ ÐµÑĤÑĤÑĸÒ£
Ñģ ÑĸÐ¼ÐµÐ½
ĠÐºÓ©ÑĤÐµÑĢ ÑĸÐ»Ð´Ñĸ
ÑĢÑĥ Ð³
ÐķÐ» Ð±Ð°ÑģÑĭÐ½ÑĭÒ£
Ð¿ ÑĸÑĪ
ĠÐº Ð¾Ñģ
ĠÐµÑģÐµÐ¿ ÑĤÐµÐ¹Ð´Ñĸ
ĠÒĽÐ°Ð± ÑĭÑĢ
ĠÐº ÑĸÐ¼Ð´ÐµÑĢ
ÒĽÐ°Òĵ Ð°Ð»Ð¸
ÐĲ ÑĥÑĢ
Ð°Ð» Ð°Ð¹ÑĤÑĭÐ½
ĠÐĳÑĸÐ· Ð³Ðµ
ĠÐ¶Ð°Òĵ ÑĭÐ½
ĠÐ°Ð¹ÒĽÑĭÐ½ Ð´Ð°Ð»Ð°Ð´Ñĭ
Ð°Ð¹ÒĵÑĭÑĢ Ð¾Ð²
Ð´Ð°Ð» ÑĭÐ¿
ĠÓĺÐ»ÐµÐ¼ Ð´ÑĸÐº
ĠÐµÐ¼ Ð´ÐµÐ»
ĠÑĤÐ°ÒĽÑĭÑĢÑĭÐ± ÑĭÐ½
ĠÑĤÐ¾Ð¿ ÑĤÐ°Ð¼
ĠÐ±ÐµÐ´ÐµÐ» Ð´Ñĸ
ĠÐ¾Ñı ÑĤÑĥ
ĠÑĤÑĸÑĢÐº ÐµÒ£ÑĸÐ·
ĠÐ°Ðº ÑĤiÐ»ÐµÑĢ
ĠÐ ¹
ÐºÐ¾Ð¼Ð¼ ÑĥÐ½
an k
ĠÐ² Ð¾Ð»
ĠÑĦÐµÑģÑĤÐ¸Ð²Ð°Ð» Ñĸ
ÐĴÐĺ ÐĶÐķÐŀ
ĠÐ¸ ÑĸÑģÑĸ
ĠÐĺÐ½ ÑĦÐ¾ÑĢÐ¼Ð°ÑĤÐ¸ÐºÐ°
ĠÐºÒ¯Ð½ ÑĸÐ½Ð´Ðµ
ĠÐ¾Ò£ÑĤ Ð°Ð¹Ð»
ĠÑĤÐ°Ð¿ ÒĽÑĭÑĢ
ĠÒĽÐ¾Ð·ÒĵÐ°Ð» ÑĭÑģÑĭÐ½ÑĭÒ£
ĠÑĪ Ð¸Ð¿
e st
ĠÐ¾Ð¹ Ð»Ð°Ð´Ñĭ
ĠÐ¶Ò¯Ð· Ð´ÐµÐ³ÐµÐ½
ĠÒ±Ð¹ÑĭÐ¼Ð´Ð°ÑģÑĤÑĭÑĢ ÑĭÐ¿
ĠÑĤÑĸÐ»ÐµÐº ÑĤÐµÑĢ
ĠÐ°ÑĤ Ð¿ÐµÐ½
ĠÐ³ÑĢÐ°Ð´ ÑĥÑģ
ĠÑģÐ°Ñĥ ÑģÐ°ÒĽ
ĠÐĸÐµÑĤ ÑĸÑģ
ĠÒĽÐ°Ð½ Ð°ÑĤ
ÑĭÒĽ ÑģÑĭÐ·
Ð¼ Ð°ÑĪ
ĠÑģÒ¯Ð¹ÐµÐ½ Ðµ
ĠÓ©ÑĤ ÐºÐµÑĢ
Ðķ Ò¢
Ð½Ð¸ Ð·
ĠÐ·Ð°Ò£ Ð´Ð°ÑĢÑĭÐ½Ð´Ð°
ĠÐ¿Ð°Ð¹Ð´Ð°Ð»Ð°Ð½ ÑĥÑĪÑĭÐ»Ð°ÑĢ
ÐºÐµÑĢ Ð»iÐº
ĠÐ°ÑĤ Ð°ÒĽ
ĠÐµÑģÐµÐ± ÑĸÐ¼ÐµÐ½
ĠÐºÐ°Ð½ Ð°Ð»
ĠÑģÐ°Ñĥ ÑĭÒĽÑĤÑĭÑĢÑĥ
ĠÐ¶Ò¯Ðº ÑĤÐµÐ¼
ĠÐºÐµÐ»ÐµÑģÑĸ Ð´ÐµÐ¹
Ð¶ Ð°Ð¹ÑĭÐ½
ĠÑĤÐ°Ð¼ÑĭÐ· Ð´Ð°ÒĵÑĭ
ĠÓ©ÑĤ iÐ½iÑĪ
Ð´Ð° ÒĵÐ°
ĠÒĽÐ°Ð» Ð°Ð»Ð°ÑĢÑĭÐ½Ð´Ð°
ĠÓ©Ð½ÑĸÐ¼Ð´ÐµÑĢ Ð´Ñĸ
ĠÐĸÐĲÒ¢ ÐĲÐĽÐ«ÒļÐ¢ÐĲÐł
ÑĤ ÒĽÑĭÑĪ
an s
ÐĲÑĥÑĭÐ» Ð´ÑĭÒĽ
Ðĳ ÐµÐ»
ĠÐķ Ð»ÑĸÐ¼ÑĸÐ·Ð´ÑĸÒ£
Ð°Ð¶ Ð°ÑĤ
ĠÑĤÒ¯ÑģÑĸÐ½Ð´ÑĸÑĢ Ð´Ñĸ
ÐļÐµÐ· Ð´ÐµÐ¹ÑģÐ¾ÒĽ
Ñİ Ð·
ĠÐ¶Ð°ÑģÐ°ÒĽ ÑĤÐ°Ð»ÒĵÐ°Ð½
Ð¼ÐµÐº ÐµÐ½
ĠÐ°ÐºÑĨÐ¸Ð¾Ð½ ÐµÑĢ
ĠÑģ Ð¸Ð³
Ñħ Ð°Ð±
ĠÐ¶Ò± Ð±Ð°Ð¹
iÑģ i
Ð¶Ð°Òĵ Ð°ÑĢ
Ð¢ Ð¾Ð»ÑĭÒĽ
ĠÐ¿ÑĢ Ð°Ð²
Ð¿ Ð¾Ð»
ĠÒĽÐ¾ÑĢ ÑĪ
ĠÑĤÐ¸ÑĸÑģ ÑĸÐ½ÑĪÐµ
ĠÒĽÐ°ÑĢÐ°Ð¶ Ð°ÑĤÑĤÑĭ
ĠÒĽÒ±ÑĢ ÑĤ
ĠÐ°Ð¿ ÑĤ
ĠÐľÒ± ÑģÑĤÐ°ÑĦ
ĠÒ°Ð»ÑĭÐ±ÑĢÐ¸ÑĤÐ°Ð½ Ð¸Ñı
ĠÐµÑĤ Ð¿ÐµÐ¹Ð´Ñĸ
ĠÐ±ÑĸÑĢ ÑĸÐ½ÐµÐ½
ĠÒ±Ð» Ð°Ð½
ĠÑģÐ°ÒĽÑĤÐ°Ð» ÑĥÑĭÐ½
ĠÐºÐµÐ·ÐµÐº ÐºÐµ
ĠÐ´ Ð°ÑĢÑĭ
Ð»Ð°Ð¼ ÐµÐ½
20 25
ĠÐ¿ ÑĭÑĪ
ĠÐ¼Ð¾Ð±Ð¸Ð»ÑĮ Ð´Ñĸ
ĠÐ¤ Ð°ÑĢ
ĠÐ¡Ð°ÑĢÑĭ Ð°ÒĵÐ°ÑĪ
ĠÑĪ Ð°ÒĽÑĤÑĭ
Ðĳ ÐµÐº
ĠÐ¾ÒĽÑĭÐ»ÒĵÐ°Ð½ Ð´Ð°ÑĢ
ĠÑįÐºÑģÑĤÑĢÐµÐ¼ Ð¸Ð·Ð¼
ĠÐ¼ÓĻÑģÐµÐ»ÐµÐ»ÐµÑĢ ÑĸÐ½Ðµ
ĠÑĢÐµÑĤ ÑĤÐµÐ¹ÑĤÑĸÐ½
ĠÐºÓ©ÑĤÐµÑĢ Ð¼ÐµÐ»ÐµÑĥ
ĠÒĽÐ¾ÑĢÒĵ Ð°Ð¹Ð´Ñĭ
Ð¼ Ð°Ð·
ĠÐ½ÑĭÑģÐ°Ð½ Ð´Ð°ÑĢ
ĠÐ±Ð°ÒĵÑĭÑĤ ÑĤÐ°ÑĢÑĭÐ½
ĠÐ¿ÐµÑĢÐ· ÐµÐ½ÑĤ
ĠÐ¶Ð°ÑĥÑĭÐ½ Ð³ÐµÑĢ
ĠÐķ ÐºÐµÑĥ
Ð±Ð°Ð¿ ÒĽÐ°
ĠÑħ Ð°ÒĽ
ÑĨÐ¸Ð°Ð» Ð¸ÑģÑĤÑĸÐº
ĠÐ±ÑĸÐ»Ð¼ÐµÐ¹ Ð¼ÑĸÐ½
ĠÐ¶Ð°ÑģÐ°Ñĥ Ð´Ð°
ĠÐ¶Ð¸Ð½ Ð°Ð»ÑĭÐ¿
Ðľ ÑĭÐ½Ð°
ÐºÑĥÑĢ Ð¾ÑĢ
ĠÐ´Ð°Ð¹ÑĭÐ½Ð´Ð° ÑĥÒĵÐ°
ĠÐ» Ð°ÑģÑĤÐ°Ð½
ĠÐ¼ÓĻÐ»ÑĸÐ¼ ÐµÑĤÑĸÐ½ÑĪÐµ
Ð¾ÑĢ Ð³
ÑĤÐ°Ð½ ÑĤ
ĠÐ±Ó©Ð»ÑĸÐ¼ÑĪ ÐµÑģÑĸÐ½ÑĸÒ£
ÑĥÑĪ ÐºÐ¸Ð½
ĠÓĻÐºÑĸÐ¼ Ð´ÐµÑĢÑĸ
ĠÐ´Ð°Ð¹ÑĭÐ½Ð´Ð° ÒĵÐ°Ð½
ĠÑĤÐ°Ð½ÑĭÑģÑĤÑĭÑĢ Ð´Ñĭ
ĠÐ¼ÐµÐºÑĤÐµÐ¿ ÑĤÑĸ
ĠÐ¼ÐµÐºÐµÐ½ Ð´ÐµÑĢÐ´Ðµ
Ð´ÐµÐ¼ Ð¸Ð¾Ð»Ð¾Ð³Ð¸ÑıÐ»ÑĭÒĽ
Ġ6 3
ĠÐľ Ð¾Ò£ÒĵÐ¾Ð»
ĠÐºÐµÐ»ÑĤÑĸÑĢ ÐµÑĤÑĸÐ½
ĠÑģÑĭÑĢ Ñĭ
. Â«
ĠÐ¼ÐµÑĢ Ð´Ñĸ
ĠÒĽÐ¾Ð»Ð´Ð°Ð½ Ð°ÑĤÑĭÐ½
ĠÑĤÒ¯Ñģ Ðµ
ĠÑı Ð·ÑĭÐº
Ñĭ ÑĪÑĭ
ĠÑģÒ¯Ð¹ÐµÐ½ ÑģÐµÐº
ĠÒĵÑĭÐ»ÑĭÐ¼ Ñĭ
ĠÒ±ÑĢÐ¿ Ð°ÒĽÑĤÑĭ
ĠÐ´Ð°Ð» Ð°Ð½ÑĭÒ£
Ð°Ð± Ð¾ÑĢ
ÑĪÑĭÐ»ÑĭÒĽ ÒĽÐ°
ĠÓĻ Ð¿
ĠÐ°Ð± Ñģ
Ð°Òĵ ÑĭÐ¼ÑĭÐ·
ĠÑĤÐ°ÑĢÐ¸Ñħ ÑĭÐ½Ð´Ð°ÒĵÑĭ
ĠÐľÐ°ÒĽ ÑģÐ°ÑĤ
ĠÑģÐ°Ð½ Ð´Ñĭ
Òĵ ÑĭÐ¼Ð´Ñĭ
ĠÐ¾ÑĢÑĭÐ½Ð´Ð°Ð» ÑĭÑģÑĭ
ĠÓ©Ð½ ÑĸÐ¼Ñĸ
ĠÐĳÐĲ Ò°Ðŀ
ĠÐĿ Ð¾
ÑģÑĤÐµÑĢ Ð´ÑĸÒ£
] ,
ĠÑĨÐ¸ÑĦÑĢ Ð»Ð°Ð½Ð´ÑĭÑĢÑĥ
Ð¾ÑĢ Ð¸ÑıÐ»ÑĭÒĽ
Ġ x
ĠÐ¾Ð¹ Ð»Ð°Ð½ÑĭÐ¿
Ðľ ÓĻÐ´ÐµÐ½Ð¸
ĠÐ¶Ð°Ð»ÒĵÐ°ÑģÑĤÑĭÑĢ ÑĭÐ¿
ĠÐ¶ Ð°Ð¹Ñĭ
ĠÑģÒ±ÑĢ ÑĭÐ¿
ÑĤ ÐµÐºÐµ
ĠÐ½Ð¾Ð¼Ð¸Ð½ Ð°ÑĨÐ¸Ñı
ÐĽ ÐĲÐľ
Ðĳ ÐĲÐĻ
ĠÒĽÐ°ÑĢ Ð°ÒĽ
ĠA ward
Ð»Ð¸Ñı Ñģ
ĠÐ¶ÐµÑĤ ÑĥÐ³Ðµ
ÑģÑĤÑĢÑĥ Ðº
Ðĸ Ò±
ĠÐ± Ð°Ð·Ð°
ĠÐ°Ð» Ð°ÒĽÐ°Ð½
ĠÑĤÑĢÐ°Ð½Ñģ ÑĦ
ÐµÐ¼ ÑĸÑģ
Ð»Ð°ÑĢ ÑĭÐ½Ð´Ð°ÒĵÑĭ
ĠÐ¼ Ð°ÑħÐ°Ð±
ĠÑĤÐµÑħÐ½Ð¾Ð»Ð¾Ð³Ð¸Ñı Ð½Ñĭ
ĠÐ¶Ð°Ð½ÑĥÐ°ÑĢ Ð»Ð°ÑĢÐ´ÑĭÒ£
ĠÐ¶Ð¾Ð¹ ÑĭÐ»Ð´Ñĭ
ÐļÐ¾Ð¼ Ð¿Ð°Ð½Ð¸Ñı
ĠÐ¨ Ñĥ
ĠÐ¾ ÑĦ
Ðľ Ð¾Ð½
ĠÑĥ Ð»Ñĭ
ĠÐ¿ÑĢÐ¾Ð±Ð»ÐµÐ¼ Ð°Ð»Ð°ÑĢÑĭ
Ðĸ Ð¾Ð±
ĠÐ´ÐµÐ³ÐµÐ½ Ð¼ÐµÐ½
ĠÐºÑĥÓĻÐ»Ð°Ð½ Ð´ÑĭÑĢÐ°ÑĤÑĭÐ½
ĠÓĻÐ·ÑĸÑĢ Ð»ÐµÐ½Ð³ÐµÐ½
ĠÓ©Ð»ÑĪÐµÐ¼ Ñĸ
........ ........
ÒĽ ÑĭÐ·ÑĭÐ»
ÐµÐ» Ñı
ÑĢÑĥ Ð·Ð¸Ñı
ĠÐ°Ð¹ÒĽÑĭÐ½ Ð´Ð°Ð»ÒĵÐ°Ð½
Ð¸ Ñĥ
ĠÐ°ÑĥÐ´Ð°Ð½ Ð´Ð°
ĠÐ¼ÐµÑħÐ°Ð½ Ð¸ÐºÐ°Ð»ÑĭÒĽ
ĠÐ¸Ð´ÐµÑı ÑģÑĭÐ½
ÑĤÐ¿ ÐµÐ³ÐµÐ½
ĠÐ¼ÐµÑĤÑĢ Ð³Ðµ
Ó¨ Ò£ÑĸÑĢ
ĠÐµÐ¼ Ð´ÐµÐ»Ñĥ
ĠÐ½ÓĻÑĤÐ¸Ð¶ ÐµÐ³Ðµ
Ñİ Ð½
ĠÐĳÐµÐ¹ Ð±ÑĸÑĤ
ĠÐ´ÑĭÐ± ÑĭÑģÑĭ
ĠÓĺÐ» Ð¸
ĠÐĳÒ±Ð» Ð°ÑĢ
ÒĽÐ°Ð· ÑĸÑĢÐ³Ñĸ
âĢ İ
Ð´Ð°Ñģ Ð°
ĠÐ°Ð·Ð°Ð¼Ð°ÑĤÑĤÐ°ÑĢ ÑĭÐ½ÑĭÒ£
ĠÐ°Ð´Ð°Ð¼Ð· Ð°ÑĤÑĤÑĭÒ£
ĠÐ¼Ð°Ò£ ÑĭÐ½Ð´Ð°ÒĵÑĭ
ÑĭÐ¼ Ð¼ÐµÐ½
ĠÑģÓ©Ð· ÑĸÐ½ÑĪÐµ
ĠÓĻ Ð¶Ðµ
ĠÐ±Ð°Ð» Ð°ÑģÑĭÐ½Ð°
Ð¿Ð°Ñģ Ð°
ÐĸÐ¾ÒĵÐ°ÑĢÑĭ Ð´Ð°
Ð¢ ÐµÐ»
Ġ5 8
M S
Ð¸Ð» Ð°
ĠÑģÑĥÑĢ ÐµÑĤÑĤÐµÑĢÑĸ
ĠÐºÓ©Ð· Ð´ÐµÑĢÑĸÐ½
ĠÑĤÐ¾ÒĽ ÑĤÐ°Ð»
i z
ĠÓ©ÑĤÐºÐµÐ½ Ð½ÐµÐ½
ÑĤÐµÑĢ Ð´i
ĠÐ°ÐºÑĤÑĸ Ð»ÐµÑĢÐ´Ñĸ
ĠÐ°ÑĥÑĢÑĥ ÑħÐ°Ð½Ð°
ĠÑĸÐ»Ð³ÐµÑĢ ÑĸÐ»
ĠÐŁ Ð¾Ð»ÑĮ
ĠÑģÐ°Ð¿ Ð°Ð»ÑĭÒĽ
s h
ĠÐľÓĻ ÑĤÑĸÐ½
it y
ĠÐ°Ð» ÑĭÒ£ÑĭÐ·
ĠÐ¼Ð°ÑĤ Ñĩ
ĠÒĽÑĭÐ·Ð¼ÐµÑĤ ÑĤÐµÐ½
ĠÐ¾ÒĽÑĥÑĪÑĭ ÒĵÐ°
ĠÐ¶Ò±Ð¼ÑĭÑģ ÑĪÑĭÐ»Ð°ÑĢ
ĠÑĤÐ°Ð±Ð¸Òĵ Ð°ÑĤÑĤÑĭÒ£
ĠÐľÐ°ÑĢ ÐºÐµÑĤÐ¸Ð½Ð³
ĠÑĦÐ¾ÑĢÐ¼ Ð°Ð»Ð°ÑĢÑĭ
ĠÐ°Ð¿Ð¿Ð°ÑĢÐ°ÑĤ ÑĭÐ½Ð°
ĠÐ°ÑĤ Ð°Ð´Ñĭ
Ð°ÑĦ Ð¾Ð½
ĠÐ±Ð¾Ð»Ð¶ Ð°Ñĥ
ĠÐĸÐ¾Ð»Ð´Ð°Ñĥ ÑĭÐ½
ÑįÐ½ ÑĤÐµÑĢ
ÑĭÑģ ÑĭÐ¿
ĠÐŁ Ð°Ð»
ĠÐĶ Ð¾Ð½
Ð¶Ð°Ð± Ð´ÑĭÒĽ
ÑĤÐ°Ñģ ÒĽÐ°Ð½
ĠÐĸ Ñĥ
ĠÒĽÑĭÑģÒĽÐ°ÑĢ ÑĤÑĥ
ĠÐ¡ Ð¸
iÐ» Ð´i
ĠÐ¿Ð°Ð¹ÑĭÐ· Ð´ÑĭÒĽ
ĠÑĭÒĽ ÑĪÐ°Ð¼
ÐļÑĸÑĤÐ°Ð¿ ÑħÐ°Ð½Ð°
ĠÐ¥ ÒļÐļÐŀ
ĠÐ°Ð²ÑĤÐ¾ ÐºÓ©
Ð¸Ðº Ð°Ð½Ð´ÑĭÒĽ
Ñģ ÑĤÑĸÒ£
ÐĸÐ°ÑĢ Ð½Ð°Ð¼Ð°
V II
ĠÐ¾Ð¹ ÒĵÐ°
ĠÐ·ÐµÐ¹Ð½ÐµÑĤ Ð°ÒĽ
ĠÐ°Ð¹Ð¼Ð°ÒĽ ÑĤÑĭÒ£
ĠÒĽ Ð¸Ñģ
Ðĺ ÐĲ
ĠÑĤÒ±ÑĢÐ¼ÑĭÑģ ÒĽÐ°
ĠÒĽÑĭÐ·Ð¼ÐµÑĤÑĪÑĸÐ»ÐµÑĢ ÑĸÐ½ÑĸÒ£
ĠÐĳ ÐµÐ»Ð³ÑĸÐ»Ñĸ
ĠÐ¸Ð¿Ð¾ÑĤÐµÐº Ð°Ð»ÑĭÒĽ
ÑĭÐ¼ Ð´Ð°ÒĵÑĭ
ĠÐ± Ð°ÑĤÐ°
Ð¢ ÐľÐĶ
ĠÐ±ÓĻÑģ ÐµÐºÐµ
Ð¾Ð²Ð¾ ÑģÑĤÐ¸
ĠÑĢÐ°Ñģ ÑĤÐ°Ñĥ
Ð¼ÐµÐº ÑĤÐµÐ¿
ÒĽÐ°Ð¹ ÑĭÑĢ
ĠÐ· ÐµÐ¹ÑĸÐ½
ĠÐ±Ò±Ð·ÑĥÑĪÑĭÐ»ÑĭÒĽ ÑĤÐ°ÑĢ
ĠÑĸÑĪ ÐµÐºÑĤÑĸÒ£
ĠÑħÐ°Ð»ÑĭÒĽ ÑĤÐ°ÑĢ
ĠÐµÑģÐµÐ¿ ÑĤÐµÑĢÐ´Ñĸ
ÑĤ Ð°ÒĽÑĭÑĢ
ĠÐ¼Ð°Ò£ Ð´Ð°Ð¹
ÒĽ Ð°Ð·Ð°ÒĽÑģÑĤÐ°Ð½
ĠÑĤÓĻÑĢÐ±Ð¸ÐµÐ»ÐµÑĥ Ð´Ðµ
ĠÑĤÐ°Ð½ ÑĭÐ»Ð°Ð´Ñĭ
ĠT witter
as h
Ð¸ ÑĤÐ°Ð¼Ð¸Ð½
Ð¶ Ð°Ð¼
ĠÐŁÐ°Ð¹ÒĵÐ°Ð¼Ð±Ð°ÑĢ ÑĭÐ¼ÑĭÐ·
ĠÑĪÑĭÐ½ Ñĭ
ĠÐµ ÑĥÑĢ
ĠÐ°ÑĢ Ð°Ð¼
ĠÐµÑĤÑĸÐ» Ð´Ñĸ
ĠÐ¶Ð°ÑĢ ÑĭÑģÑĤÐ°ÑĢ
ĠÐĲ Ð£
ĠÐ¶Ð°ÑģÐ°Ñĥ Ð´ÑĭÒ£
ĠÐĸ ÐµÑĤÑĸ
ĠÓĻÐ´Ñĸ ÑģÑĸÐ½
ĠÒĽÐ°ÑĤÑĭÑģÑĥÑĪÑĭÐ»Ð°ÑĢ Ñĭ
Ð¼ÐµÑĤ Ð°Ð»ÑĭÒĽ
ĠÒĽÐ°Ð»ÑĭÐ¿ÑĤÐ°ÑģÑĤÑĭÑĢ Ð°Ð´Ñĭ
ĠÐ°Ñı Ð»
ĠÑģÑĥÑĢ ÐµÑĤÑĤÑĸ
ÓĻÑģÑĤ Ò¯ÑĢÐ»Ñĸ
Ð¾Ð½ ÑģÑĤÑĢÑĥÐºÑĨÐ¸Ñı
ĠÑĤÐ¸Ð¿ Ñĸ
ĠÐµÑĢÑĤÐµ Ò£Ð³Ñĸ
ÐĲ Ðŀ
ĠÑģÐ°ÒĽ ÑĤÐ°ÒĵÐ°Ð½
ĠÐ°Ð»Ð¿ ÑĭÑģ
ÓĻÐ¶ Ñĸ
ĠÐ¶Ð°Ð¹ ÑĭÐ¿
ĠÒĽÐ°Ò£ÑĤÐ°ÑĢ ÑĭÐ½Ð°Ð½
u c
ĠÐ°Ð´Ð°Ð¼ Ð´Ð°ÑĢÑĭ
ĠÐ¿Ð°Ð¹Ð´Ð°Ð»Ð°Ð½Ñĥ Ð´ÑĭÒ£
ĠÐ¿ Ð¾Ð´
ĠÐ±Ð¾Ð» ÑģÐ°Ð¼
ĠÐ±Ò¯Ð»Ð´ÑĸÑĢ ÑĪÑĸÐ½
ĠÐºÐµÑģ ÑĸÑĢ
ĠÐµ Ð´i
ÑĤÒĽÐ°ÑĢ Ñĥ
ÐĳÓ© Ð»ÑĸÐ¼
ĠÐ¾Ð¹ Ð´Ñĭ
ÐºÓ© Ðº
ÐŁÐ¾ÑĢ ÑĤÐ°Ð»
Ðļ Ð°Ð½
ĠÑĤÐ°ÒĵÐ°Ð¹ÑĭÐ½Ð´Ð°Ð» Ð°Ð´Ñĭ
Ð±Ð°Ð± ÑĭÐ½Ð´Ð°
ĠÐ±Ð°ÑģÐ¿ Ð°ÑģÑĭ
ĠÑĪÑĭÑĢ ÑĭÑĪÑĤÑĭ
ĠÒĽÐ¾Ð¹ Ð¼Ð°Ð¹Ð´Ñĭ
ĠÐ¿Ð¾Ð» Ð¸
ĠÑħÐ°Ð»ÑĭÒĽ ÑĤÐ°ÑĢÐ´ÑĭÒ£
ĠÐ¨ Ð¸ÐµÐ»Ñĸ
ĠÐ¶Ð¾ÑģÐ¿Ð°ÑĢ Ð»Ð°ÑĢ
A T
ĠÐºÓ©Ð¼ÐµÐºÑĤÐµÑģ Ñĥ
ĠÒĵÐ¸Ð¼Ð°ÑĢ Ð°ÑĤÑĭ
ĠÐľ Ò¯Ñģ
ĠÐ°Ð¿ ÑĤÐ°ÑģÑĭÐ½Ð°
ĠÒ±Ð¹ÑĭÐ¼Ð´Ð°ÑģÑĤÑĭÑĢÑĥ ÑĪÑĭ
S k
ĠÐ¿Ð»Ð°ÑĤ ÑĦÐ¾ÑĢÐ¼
Ġi ÑģÑĤ
ĠÐŀ Ð´Ð°ÒĽ
ĠÐºÑĸÑĢÑĸÑģ Ð¿Ðµ
ĠÐĶ Ñĥ
ĠÑĤÒ±ÑĢÒĵÑĭÐ½ Ð´Ð°ÑĢÑĭÐ½
ĠÑįÐºÑģ Ð¿ÐµÑĢÐ¸Ð¼ÐµÐ½ÑĤ
ĠÓ©Ð·ÑĸÒ£ ÑĸÐ·Ð´ÑĸÒ£
P O
ĠÐ¡ Ò¯ÑĤ
ĠÐ¢Ð°Ð» ÒĵÐ°ÑĤ
ĠÐ²Ð°Ð»Ñİ ÑĤÐ°Ð»ÑĭÒĽ
ÐĿÐ°ÑĢ ÑĭÒĽ
ĠÑĤÑĸÑĢÐºÐµ Ð»ÑĸÐ¿
ĠÒĽÐ°Ð·Ð°ÒĽ ÑĤÐ°ÑĢÑĭ
ĠÐ¶ÑĭÐ» ÑĭÐ½ÑĭÒ£
ÒĽÐ°ÑĤÑĭÐ½ Ð°ÑģÑĭ
ĠÐ¼Ò±ÑĢ Ð°Ð¶
Ð½ÐµÐ³ÑĸÐ· Ð³Ñĸ
ÑĨÐ¸Ð¾Ð½ Ð°Ð»Ð´ÑĭÒĽ
ĠÐ±ÑĸÑĢ ÑĤÐµ
ĠÑĤÓĻÑĢÐ±Ð¸ÐµÐ»ÐµÐ½Ñĥ ÑĪÑĸÐ»ÐµÑĢÐ´ÑĸÒ£
ÐĲ ÒĵÑĭÐ¼Ð´Ð°ÒĵÑĭ
Óĺ Ð´ÐµÐ±Ð¸ÐµÑĤ
ĠÑģÐ°Ð» Ð°Ð½ÑĭÒ£
ĠÐ±ÑĸÑĢÑĸÐ½ÑĪÑĸ Ð´ÐµÐ½
ĠÐºÐ¾Ð¼ Ð¼ÐµÐ½ÑĤÐ°ÑĢÐ¸Ð¹
ĠÐºÓĻÑģÑĸÐ¿ ÒĽÐ¾Ð¹
ĠÒ±Ð· Ð°ÑĢÑĤÑĥ
ĠÒĽÐ°Ð» Ð°Ð»Ð°ÑĢÑĭÐ½ÑĭÒ£
ĠÑĤÑĥÒĵÐ°Ð½ ÑĭÐ½Ð°
Ñį Ð¹
ĠÐ¿Ð°ÑĤ ÑĪ
ĠÐºÓ©ÑĢÐ½ÐµÐºÑĸ Ð»ÑĸÐ³Ñĸ
Ð¸Ñı Ð»
ĠÐ¶Ò¯Ðº ÑĤÑĸÐ»ÑĸÐº
Ġ6 4
ĠÑģÑĥÑĢ ÐµÑĤÐºÐµ
ĠÒļÐ¾ ÑĪ
ÑĪÑĸÐ»ÑĸÐ³Ñĸ Ð¼ÐµÐ½
ĠÐĲÑģÑĤÐ°Ð½ Ð°ÒĵÐ°
Ð´ ÑĭÐ½Ñĭ
ĠÐ±ÐµÐ»Ð³Ñĸ Ð»ÐµÑĢÑĸÐ½
ĠÐ´ÐµÐ¹iÐ½ Ð³i
Ð°ÑģÑĤÑĢÐ¾ ÑįÐ½ÑĤÐµÑĢ
ĠÐ°ÑĥÑĢÑĥ Ð´Ñĭ
Ó¨ Ð»
ĠÐ¢ ÐµÒ£ÑĸÐ·
ĠÐ±Ð°ÒĵÐ´Ð°ÑĢÐ»Ð°Ð¼ Ð°ÑģÑĭÐ½Ð´Ð°
ĠÐ°ÑģÑĭÑĢÑĥ Ð´Ð°
ĠÐ°Ð²ÑĤÐ¾Ð¼ Ð°ÑĤÑĤÐ°Ð½Ð´ÑĭÑĢÑĥ
ÑĸÐ» Ð¼ÐµÐ¹Ð´Ñĸ
Ð´Ð°Ñģ ÑĭÐ¿
ĠÒĽÒ±ÑĤÑĤÑĭÒĽ ÑĤÐ°Ð¿
ĠÐ¢ Ð°Ð±
ÑĭÐ» Ð¼ÑĭÑģ
Ð¡ ÑĭÑĢÑĤÒĽÑĭ
ÑĤÐµÒ£ ÑĸÐ·
Ð³ Ð¸Ð¼Ð½
ĠÐ°Ð¿Ð°ÑĢ ÑĭÐ¿
ĠÐºÐµÐ»ÑĸÑģÑģÓ©Ð· Ð´ÐµÑĢ
ÑĭÐ» Ð°Ñĥ
ĠÐĲÐ¹ Ð½Ð°Ð»
ĠÒĽÒ±Ð» Ð´ÑĭÑĢ
ĠÐĳ ÐĲÒĴ
ĠÐĲÐ·Ð¸Ñı Ð´Ð°ÒĵÑĭ
ĠÐ´ÐµÑģ ÐµÒ£ÑĸÐ·
ĠÒ» ÓĻÐ¼
ĠÐºÐ¾ÑĢÐ¿Ð¾ÑĢ Ð°ÑĤÐ¸Ð²ÑĤÑĸÐº
ĠÒĽÐ°Ð»Ð´ÑĭÑĢ Ð´Ñĭ
Ð³ÑĸÐ» Ð³ÐµÐ½
ĠÑģÐ°Ð» ÑĥÐ´Ñĭ
ĠÐ¾Ð¹ÑĭÐ½ Ð´Ð°ÑĢÑĭÐ½ÑĭÒ£
ĠÓ© Ð¼iÑĢ
Ð¸Ð½ Ð´Ñĸ
ĠÐļ Ð¸
Ðľ Ð°Ñħ
ce l
ĠÐ±Ð¾Ð»Ñĥ ÑĭÐ¼ÐµÐ½
Ð¸ÑĤ ÑĤÑĸÒ£
ĠÐ¼ÓĻÑģÐµÐ»ÐµÐ»ÐµÑĢ Ð³Ðµ
Ð´Ðµ Ð»ÑĸÐºÑĤÑĸ
ĠÐĲ Ð£ÐĶ
ĠÑĤÐ¾Ð¿ ÑĤÐ°ÑĢÑĭ
ĠÒĽ Ð°Ð»Ð°ÑĢ
ĠÐľ Ò±ÑĢ
ter n
ĠÑĤÐµÑĢÐ°Ð¿ Ð¸Ñı
ÐķÑģ ÑĸÐ¼
ĠÐķÑĢ Ð¼ÐµÐº
Ñħ Ð°ÑĢ
ÐŀÑĤ Ð±Ð°ÑģÑĭ
A Z
ĠÐ¡ ÑĸÐ±ÑĸÑĢ
ĠÐ¶Ð°ÑĥÐ°Ð¿ÐºÐµÑĢÑĪÑĸÐ»ÑĸÐº ÐºÐµ
ĠÐ¼ÐµÑĢ ÐµÐ¹
ĠÐµÐ¼ Ð´ÑĸÐº
ĠÓ©Ð»ÐµÒ£ Ñĸ
ĠÐ°Ð» Ð»ÐµÑĢ
ĠÐ¼Ò¯Ð»ÑĸÐº ÑĤÑĸÐº
ĠÓĻÐ¹ÐµÐ»Ð´ÐµÑĢ Ð³Ðµ
ĠÐ±Ð¾Ð»Ñĥ Ð´Ñĭ
Ð±Ð» Ð¸
ĠÐ¼Ð°Ð¼Ð°Ð½ Ð´Ð°ÑĢÒĵÐ°
Ð°Ð»ÑĮ Ð´
Ð»Ð°ÑĢ ÑĭÐ½Ð°Ð½
ĠÑĤÐµÐ»ÐµÑĦÐ¾Ð½ Ð´Ð°ÑĢÑĭ
ĠÒĽÒ±ÒĽÑĭÒĽ ÑĤÑĭ
ĠÑģÐ°ÑĢ Ð±Ð°Ð·
ÐĽ ÐķÐł
ĠÒĽÐ°Ð·Ð°ÒĽÑģÑĤÐ°Ð½Ð´ÑĭÒĽ ÑĤÐ°ÑĢÐ´ÑĭÒ£
ĠÐ°Ð» ÒĽÐ°
ĠÐ¼ÐµÐºÐµÐ¼ ÐµÐ»ÐµÑĢÑĸ
ÐĲÐ· Ð°ÑĤÑĤÑĭÒĽ
ĠÑģÓ©Ð· Ð´ÐµÑĢÑĸÐ½
ĠÐµÑģÐµÐ¿ ÑĤÐµÐ¹
ĠÑģÒ± Ð¹ÑĭÒĽ
ĠÐ±Ó©Ð»ÑĸÐ¼ ÑĸÐ½Ð´ÐµÐ³Ñĸ
ĠÐ³Ðµ Ð¾Ð³ÑĢÐ°ÑĦÐ¸ÑıÑģÑĭ
ĠÐ±Ð°Ñģ ÑĭÐ¼Ð´Ñĭ
ÒĴ Ð°Ð»ÑĭÐ¼
ĠÐ¢Ð°ÒĽÑĭÑĢ ÑĭÐ¿
ÐµÐ² Ð¸Ð·
Ò±Ð¼ Ð°ÑĢ
ĠÒĽÐ°Ð»Ð´ÑĭÑĢ ÑĭÐ¿
ĠÑĢ Ð¾Ð±
ÑĤ Ð°Ð»Ð°ÑĢ
ĠÐ± Ð°Ð¶
Ð±Ð°Ñģ ÒĽÐ°
Ðķ Ð»ÑĸÐ¼ÑĸÐ·Ð´ÑĸÒ£
ĠÑĦÑĥÐ½ÐºÑĨÐ¸Ñı Ð»Ð°ÑĢÑĭ
ĠÐľÒ± ÒĽÐ°ÒĵÐ°Ð»Ð¸
ĠÐĲÐ½ Ð´ÑĢ
ĠÐ±ÐµÐ¹Ð½ ÐµÐ»ÐµÐ½Ð³ÐµÐ½
ÐĲ ÒĽÑĭÐ»
ĠÐ¼ ÐµÐ¶
ĠÐ· ÑĭÐ¼ÑĭÑĢ
Ð¸Ðº Ð¾
ĠÐ¶Ò¯ÑĢÐ³ÐµÐ½ ÑĸÐ½
ĠÑĤ Ð°ÑĤ
ĠÐ´Ð°Ð¼ÑĭÑĤÑĥ Ð´Ñĭ
ĠÓĻÑĥÐµÐ¶ Ð°Ð¹
ĠÐ¿ÑĸÑģ ÑĸÑĢ
ĠÑĦÐ°ÐºÑĤÐ¾ÑĢ Ð»Ð°ÑĢÐ´ÑĭÒ£
ĠÐ±Ð¾Ð¹ Ð¶ÐµÑĤÐºÐµÐ½
ĠÑĦÑĥÐ½ÐºÑĨÐ¸Ñı ÑģÑĭ
ĠÐļ Ò®ÐĿ
ĠÐ°ÑĢÐ°Ð» Ð°ÑģÑĭÐ¿
Ð´ Ð¸Ð¾Ð½
ĠÐµÐ³ Ð¶ÐµÐ¹
ĠÐºÓ©ÑĤÐµÑĢ ÑĥÐ³Ðµ
ĠÐ¼Ð°Ò£ÑĭÐ· ÑĭÐ½
ÐĳÑĸÐ»ÑĸÐ¼ Ð´ÑĸÐ»ÑĸÐº
ĠÑĥ Ð°ÒĵÑĭÐ·
ĠÐºÐµÐ»Ð´ÑĸÒ£ÑĸÐ· Ð´ÐµÑĢ
Ðķ ÐĶ
ÐļÓĻÑģÑĸÐ¿ ÐºÐµÑĢÐ»ÑĸÐº
Ðļ ÐķÐł
ĠÑĤÒ¯ÑĢ Ð¼Ðµ
. ;
Ġ ÒĵÐ°
ĠÑģ Ð°Ð»ÑĭÒĽÑĤÐ°ÑĢ
ĠÐ¶Ð°Ñģ ÑĤÑĭÒĽ
ĠÒ°Ð» ÑĤÑĤÐ°ÑĢ
ĠÐµÐ½ ÑĸÐ¿
ĠÐ¼Ð°ÒĽÐ°Ð» Ð°ÑģÑĭÐ½Ð´Ð°
ĠÐ¾ Ñģ
ĠÑĤÒ¯Ñģ ÑĥÑĸ
ĠÑģÑĤÐ°Ð½Ð´Ð°ÑĢ ÑĤÑĭÐ½
Ð´ÐµÐ½ Ñĸ
ĠÐ¶Ð°Ð¿ ÑĭÑĢÐ°ÒĽ
ĠÐ¼ÓĻÐ´ÐµÐ½Ð¸ ÐµÑĤÑĤÑĸÒ£
ĠÐ¾ÒĽ ÑĭÐ¼
ĠÑģÐµÐ· ÑĸÐ¼Ñĸ
ĠÑĪ ÑĭÐ±
ĠÐµÒ£Ð±ÐµÐº ÑĤÐµÑĢ
or y
ĠÑĸÑĪ ÑĤÐµÐ¹
ĠÐĳÐ°Ð¹ÑĤÒ±ÑĢÑģÑĭÐ½ Ð¾Ð²
Ðļ ÐķÐĿ
ÐµÐ»ÐµÑĢ ÑĸÐ½Ð´Ðµ
Ðľ ÐµÐ¹
ĠÐ´ÐµÑģ ÐµÐ´Ñĸ
ĠÒĽÐ°Ð¼ Ð°ÑĥÒĵÐ°
ÐµÑĤÑĤÑĸ Ð»ÑĸÐº
ĠÓĻÐ»ÐµÐ¼ Ð´Ñĸ
ĠÐļ ÑĥÑĢÑģÑĤÑĭÒĽ
ĠÐ´Ð°Ð¼Ñĭ ÑĤÑĭÐ¿
ĠÒĽÐ°ÑĤ Ð°ÑĢÑĭ
ĠÐµÑģÐµÐ¿ ÑĤÐµ
ĠÐµÐ½Ð³ÑĸÐ· Ð³ÐµÐ½
ĠÐĳ ÓĻÑĢ
ĠÑĤÑĥ Ð°
ĠÐ¾Ð¹ Ð»Ð°Ð¼
ĠÐ¶Ð°ÑĥÐ°Ð¿ÐºÐµÑĢ ÑĪÑĸÐ»ÑĸÐºÑĤÑĸ
Ð² Ð¸Ð½
ĠÑģÐ°Ð¹ÑĤ ÑĤÐ°
ĠÐĲÑĥÐ´Ð°Ð½ Ð´ÑĭÒĽ
ĠÓĺÐ´Ñĸ ÑģÑĤÐµÐ¼ÐµÐ»ÑĸÐº
ĠÒĽÐ°ÒĵÐ¸Ð´Ð° ÑĤ
ĠÐ± Ð¾Ðº
Ðŀ ÐłÐ¢
ÐŁÑĸÐºÑĸÑĢ Ð»ÐµÑĢ
Ð±Ð°Ð± ÑĭÐ½Ð°
Ð¶ Ð°Ð¿
ĠÐ±ÐµÑĢ ÐµÑĢ
ic ros
ĠÐ°Ð¹ÑĤÑĥ Ð»Ñĭ
ĠÐĳÐ°Ð» Ð°Ð½Ñĭ
Ð°ÑĤÑĭÐ» ÑĭÐ¿
ĠÐ´ÐµÐ½ Ñĸ
ĠÐ¾ Ð¼ÑĭÑĢÑĤ
ĠÐ±Ð°Òĵ Ð°Ð½
ĠÒĽÐ¾ÑĢÒĵÐ°Ð» ÑĥÑĭÐ½
Ð´Ñĸ Ð»ÑĸÐ³Ñĸ
ĠÑĪÐ¸ ÐµÐ»ÐµÐ½
ĠÐºÐµÒ£ÐµÑģ ÑĤÑĸÐº
ĠÐ±Ð°Ð¹Ð» ÑĭÒĵÑĭ
Ð°ÑĢÑĤ Ð°Ð´Ñĭ
Ð´ ÑĸÐ½
ĠÐ¼Ð¾ÑĢ Ð°Ð»ÑĮÐ´ÑĭÒĽ
ĠÐ° Ð´ÑĢ
ĠÐĲÑĢ ÒĽÐ°Ð»ÑĭÒĽ
ĠÐ»Ð°Ð³ÐµÑĢ ÑĮ
ÑģÑĤÐµÑĢ ÑĸÒ£ÑĸÐ·Ð³Ðµ
Ð¼Ð°Òĵ ÑĭÐ½Ð°Ð½
ĠÐ¶Ò¯ÑĢÐ³ÑĸÐ·Ñĥ Ð´Ðµ
ÑĤÐ°Ð» Ð°Ñģ
ĠÑģÑĸÒ£ Ð³ÐµÐ½
ĠÒ±Ð· Ð°ÑĢ
ĠÐºÐ¾Ð½ÑĨ ÐµÐ¿
ĠÐ·Ð¸Ñı Ð»Ñĭ
Ñģ Ð¾Ò£
Ġ0 6
ĠÐº ÓĻÑĢ
ĠÑĤÐ°Ð·Ð°ÑĢ ÑĤÑĥ
ĠÐ´Ð¸ÑģÑģÐµÑĢ ÑĤÐ°ÑĨÐ¸Ñı
ĠÐķÐºÑĸÐ½ÑĪÑĸ Ð´ÐµÐ½
ĠÐ±ÑĢ Ð¾Ð½
Ð±Ð¾Ð¹ ÑĭÐ½ÑĪÐ°
ĠÐ±ÓĻÑĢ ÑĸÐ¼ÑĸÐ·
ĠÑħ Ð°ÑĤÑĤÐ°ÑĢ
ĠÐ± Ð°Ñĥ
ĠÒ¯ Ð³ÑĸÑĤ
ĠÑĤÑĥ Ð´ÑĭÑĢÑĥ
Ð±ÐµÑĢ Ð³
ÑĭÒĽÑĤÑĭ ÒĵÑĭ
ĠÐĺ ÑģÐ°
ĠÓ©Ð½Ð´ÑĸÑĢÑĸÑģ ÑĤÑĸ
ĠÓĻÑĢÒĽÐ°Ð¹Ñģ ÑĭÑģÑĭ
ĠÐ¿ÑĢÐ¾ÑĨÐµÐ´ ÑĥÑĢ
Ðļ ÑĢ
Ð¸Ð· Ð¸ÐºÐ°Ð»ÑĭÒĽ
ĠÐŀÑĤ Ð±Ð°ÑģÑĭ
ĠÓ©Ò£ÑĸÑĢ Ð´ÑĸÒ£
ĠÐ²ÐµÐ´Ð¾Ð¼ÑģÑĤÐ² Ð¾Ð»ÑĭÒĽ
ĠÒ±ÒĵÑĭÐ¼ Ð´Ð°ÑĢ
ÑĦ Ð¸
Ð´ÐµÐ½ Ðµ
ĠÒĽÐ°Ð¹ ÑĤÑĤÑĭ
ĠÐ¿ÑĢÐ¾ÑĦÐµÑģÑģÐ¾ÑĢ Ñĭ
ĠÑģÑĭÑĢÑĤ ÑĤÐ°Ð½
ĠÐºÐµÐ¹ÑĸÐ¿ ÐºÐµÑĢ
ĠÐ°ÑĥÑĭÑĢ ÑĭÐ¿
Ó©Ð½ Ðµ
ÐŃ Ð¡
ĠÑģÑĤÐ¸ Ð¿ÐµÐ½
ĠÐĶ ÐµÑĢÐµÐº
ĠÐ±Ò¯ Ðº
Ð» Ð¾Ð½
Ð°Ð· Ð°Ð¼
ĠÐķ Ð³ÐµÐ¼ÐµÐ½
ĠÐ°Ð¹ÒĽÑĭÐ½ Ð´Ð°Ð¹ÑĤÑĭÐ½
ĠÐ¾ÑĢÑĭÐ½Ð´Ð° ÒĵÐ°Ð½
ĠÑĤÐµÐ¼Ð¿ÐµÑĢÐ°ÑĤÑĥÑĢ Ð°
Ðĸ Ðŀ
ĠÐ½ÐµÐ³ÑĸÐ· Ð³Ðµ
l ine
ĠĠĠĠ ĠĠĠĠ
ĠÐ´ Ò¯Ð¹ÑģÐµÐ½Ð±Ñĸ
Ð¾ÐºÑĢÐ°ÑĤ Ð¸ÑıÐ»ÑĭÒĽ
ÐºÑĢÐ°Ð¸ Ð½
ĠÐł Ð¸Ð¼
ĠÐºÐ¸ ÑĸÐ¿
ĠÐ¿ÑĢÐ¾Ð²Ð¸Ð½ ÑĨÐ¸Ñı
ĠÐ¡ÓĻ ÐºÐµÐ½
ĠÓ¨Ð· Ñĸ
Ð¾ Ð´Ðµ
ĠÑĪÑĸÑĢ ÐºÐµÑĥ
ÐĽ Ð°ÑĤÑĭÐ½
Ò± ÑĪ
ĠÐ´ÐµÐ»ÐµÐ³ Ð°ÑĨÐ¸Ñı
Ñģ ÑĥÐ»
Ð°Ð» Ð°ÒĵÐ°Ð½
ĠÐ°Ñĥ ÑĭÑĢÑĤ
ĠÒĽÐ°Ñģ ÒĽÑĭÑĢ
Ð¸ÑĤ ÐµÑĤÑĤÑĸÒ£
ĠÐ¿Ð¾ ÑģÑĤ
ÑĤÐ°Ð¿ÑģÑĭÑĢ Ð¼Ð°
ĠÑĤÐ°Ð· Ð°Ð»ÑĭÒĽ
ĠÐ¶ ÓĻÐ¹
ÐµÐ´Ð¸ Ð°ÑĤÑĢ
ĠÐ¢ ÐĲÐł
ÐĶ Ð¸
ĠÐºÓ© ÑģÐµÐ¼
ĠÓ¨ Ð»
ĠÐ¶Ð°Ð· ÑĥÑĪÑĭÐ»Ð°ÑĢ
Ó¨ Ð½
Ð«ÐĿÐĶÐĲ ÒĴÐ«
Ò¯Ð½ ÑĸÑģ
ĠÐĳÐ°Ð¹ ÒĽÐ¾Ò£ÑĭÑĢ
ĠÓĺ Ð·
Ð°Ð¿ ÑĤÐ°ÑĢ
ĠÒĽ Ð°ÑģÑĭÐ½Ð´Ð°
ĠÐ¥ ÐĨÐ¥
Ñģ Ð¸Ð½
ĠR e
ĠÐ°Ð´Ð°Ð¼ Ð¸
Ð½Ñĭ Ñħ
Ð°Ð· Ð°ÑĤÑĤÑĭÒĽ
ÑĪi Ð»ÐµÑĢ
ĠÑģÐ°ÑĤ Ð°ÑĤÑĭÐ½
ĠÒ¯ÑĢÐ´Ñĸ ÑģÑĸ
ÒļÐ¾ÑĢ ÑĪÐ°ÒĵÐ°Ð½
ĠÐ¼Ò¯Ð» iÐº
ĠÐ¶Ò±Ð¼ÑĭÑĢÑĤ ÒĽÐ°
ĠÐ¾ÑģÑĭÐ½ Ð°Ñĥ
ĠÐ½Ð°Ñĥ ÒĽÐ°Ð½
ĠÐ¢Ð°Ð±Ð¸Òĵ Ð°ÑĤ
ÑĪ ÑĭÒĵ
ĠÑĤ iÐ·
ĠÐ¿Ð¾Ð»Ð¸Ð³ Ð¾Ð½
ĠÓĺ Ð»ÑĸÐ¿
ĠÐ°Ðº ÑĨÐ¸ÑıÐ»Ð°ÑĢ
ĠÐ¶Ò¯Ð» Ð´ÐµÐ»Ñĸ
ĠÑģÑĭÐ½ Ð°Ð¿
Ġ1 30
ĠÐºÐµÐ»ÑĸÑģ Ñĥ
icros oft
Ðŀ Ò£
ĠÐ°Ð½ Ð³
ĠÐ°ÒĽÐ¿Ð°ÑĢ Ð°ÑĤÑĭ
ĠÓ©Ð· ÑĸÐ¼Ð½ÑĸÒ£
ĠÐļ Ðŀ
ĠÑĪÐ°ÑĢÑĤ ÑĤÐ°ÑĢÑĭÐ½
ÐĲÒĽ ÑĤÐ°Ñĥ
ĠÐ¤ÑĢÐ°Ð½ÑĨÐ¸Ñı Ð´Ð°ÒĵÑĭ
ĠÐ°ÑĢÑħÐµ Ð¾Ð»Ð¾Ð³Ð¸ÑıÐ»ÑĭÒĽ
ĠÑĸÑĢ Ð³ÐµÐ»Ñĸ
ĠÐ¢Ð°ÑĢÐ¸Ñħ Ð¸
ĠÐ±Ð°ÒĽÑĭÐ» Ð°Ð¿
ĠÒĽÐ¾ ÑıÐ½
ĠÐ³ÑĢÐ°ÑĦ Ð¸ÐºÐ°Ð»ÑĭÒĽ
Ð°Òĵ Ð°ÑĢÑĤÑĥ
c ri
ĠÑį Ð»
Ðº Ð¸Ð¹
ĠÓ©Ð½Ð´ÑĸÑĢ ÐµÑĤÑĸÐ½
y n
ĠÒĽÐ°ÑĢÑģÑĭÐ» Ð°Ñģ
ĠÐĳ ÓĻÑĢÑĸ
ÐĺÐļ ÐĲÐĽÐ«Òļ
ĠÐ±Ò±Ð» Ð°ÑĢ
ĠÐľ Ð¾Ð¼ÑĭÑĪ
Ò¯ÑĪ ÑĸÐ½
ĠÐ¨ ÐµÑĤ
ÐĸÐµÑĤ ÑĸÐ¼
ĠÐ¼ÐµÐ¹ÑĢÐ°Ð¼ Ñĭ
Ġ g
ĠÐ¸ ÑĤÐµÑĢ
A M
ĠÒ± Ð½Ð°Ð¼
ÑĤÑĢÐ°ÑĤÐµÐ³ Ð¸Ñı
ĠÐºÐµ ÑĪÐµÐ³Ñĸ
Ð°Ð¼ÑĭÐ· Ð´Ñĭ
ĠÑĤÐµÐ°ÑĤÑĢ ÑĭÐ½ÑĭÒ£
ĠÓ©Ð½Ð´ÑĸÑĢÑĥ ÑĪÑĸ
ĠÑĢÐµÑĤ ÑĸÐ½Ð´ÐµÐ³Ñĸ
ĠÐ±ÑĸÑĢÐ»ÐµÑģ ÑĤÑĸÐ³ÑĸÐ½ÑĸÒ£
ĠÑģÑĭÐ½ÑĭÐ¿ ÑĤÐ°Ð½
ĠÐ°Ð¹Ð¼Ð°ÒĽ ÑĤÐ°ÒĵÑĭ
ÐµÐ½ Ð³ÐµÐ½
ĠÐ¶ÐµÑĤ ÑĸÐº
ÓĻÐ»ÐµÐ¼ Ð´ÑĸÐº
ĠÐ¼ÐµÐ¼Ð»ÐµÐº ÐµÑĤÑĤÐµÑĢÑĸ
ĠÐ¶Ð¾Ð± Ð°Ð»Ð°ÑĢÐ´ÑĭÒ£
ĠÐ±Ð°Ð»Ð°Ð»Ð°ÑĢ Ð¼ÐµÐ½
Ñģ Ð¾Ð¼
a u
Ñı ÒĽ
ĠÐ¶Ð°ÑĥÐ°Ð¿ ÒĽÐ°
ĠÐ´ÓĻ Ð»Ñĸ
ÐŁ ÐµÑĤÐµÑĢÐ±ÑĥÑĢÐ³
Ð´ÐµÐ½ ÐµÒ£
Ð´Ðµ Ð³i
Ðķ Ð¼
ĠÐ°ÑģÑĤ ÑĭÐ½Ð´Ð°ÒĵÑĭ
ĠÐ¡ Ð¡Ðł
ĠÐ±Ð»Ð¾Ð³ Ñĭ
ĠÐ¢ Ð¸Ð¼
ĠÐ´ÐµÑĢÐµÐº ÐºÓ©Ð·
ĠÑĨ Ð¸ÑĢ
ĠÐ¿ÐµÑĢ ÑĸÑĪ
ĠÐ¾ÑģÑĭÐ½ Ñĭ
ĠÐ¾ÒĽÑĭ Ð´Ñĭ
ÑĸÒ£ Ð´Ðµ
ĠÒĽÐ°Ñģ ÑĸÑĢ
ĠÐ¢Ò¯ÑĢ ÐºÑĸ
ÐµÐº ÐºÐµ
ĠÐľ Ð°Ð¼
ÐŃ Ð»ÐµÐºÑĤÑĢ
ĠÑģÐ¾Ð½ Ð°Ñĥ
ÒļÒ± ÒĽÑĭÒĽÑĤÑĭÒĽ
ĠÐºÓ©Ð¼ÐµÐº ÐºÐµ
S T
Ð± Ð°ÑĤÑĭÑģ
Ð¾Ð»Ð¾Ð³ ÑĤÐ°ÑĢ
ĠÐ¡ Ð°ÑıÑģÐ¸
Ðĺ Ðľ
ĠÑģÐ¾Ò£ ÑĭÐ½Ð°Ð½
ĠÐ¢ Ò±Ð»
ÑĤÐ°Ð¼ ÑĭÑĢ
ĠÐ¶Ð°ÑĢ ÒĽÑĭÑĢ
ÐĽ ÐĲÐĿ
Ð¼ ÑĭÑģÑĭ
ĠÐ± ÑĸÐ»Ñĸ
Ð´ Ò¯Ð½Ð¸
ĠÐ¿Ð» Ð°ÑģÑĤ
ĠÐ¼ÐµÐºÑĤÐµÐ¿ ÑĤÐµÐ³Ñĸ
ĠÑģÐ°Ð» Ð°ÒĵÐ°
ĠÐºÓ©Ò£ÑĸÐ» ÑĸÐ½
Ð¼Ð°ÑĤ ÐµÑĢÐ¸Ð°Ð»
ĠÒĽÐ¾ÑĢÒĵÐ°Ð» Ð°ÑĤÑĭÐ½
Ð¿ Ð¸Ð½
ĠÐ±Ð°Ð»Ð°Ð±Ð°ÒĽ ÑĪ
Ð¸Òĵ Ð°ÑĤ
ĠÐ¶ ÓĻÐ´Ñĸ
Ðĸ Ñĸ
ĠÐļÐ¾ÑĢ Ð¾Ð»ÑĮ
Ġ0 4
ĠÐ¸ ÐµÐ¼
ĠÑĢÐµÐº Ð¾Ð½ÑģÑĤÑĢÑĥÐºÑĨÐ¸Ñı
ĠÐºÓ©ÑĢÑĸÐ½ Ð³ÐµÐ½
ÑĸÐ»Ñĥ ÑĸÐ½
ĠÐĲÐ£ÐĶ ÐĲÐĿ
ĠÐ°Ð»Ð³ÐµÐ±ÑĢ Ð°
ĠÐºÐ¸ ÑĸÐ¼Ð´ÐµÑĢ
ĠÑģ Ò±Ð¼
ĠÐºÑĸÐ¼ Ð½ÑĸÒ£
Ð´ÐµÑĤ ÑĸÐ¿
ĠÒĵÐ°Ð»ÑĭÐ¼ Ñĭ
ĠÐ¶Ò¯Ð¹ ÑĢÑĸÐº
ĠÑĤÐ°Ð¿ Ð¿Ð°Ð¹
ĠÐ« Ð±ÑĭÑĢÐ°Ð¹
ĠÓĻÒ£Ð³ÑĸÐ¼ÐµÐ»ÐµÑģ Ñĥ
Ðļ Ó©Ð·
ÐĳÐ°Ð» Ð°ÒĵÐ°
ĠÑĤÒ±ÑĢÐ°ÒĽÑĤÑĭ Ð»ÑĭÒĽ
ĠÒ±ÒĽ ÑĭÐ¿ÑĤÑĭ
ĠÐ½ Ð°ÒĽÑĭÐ»
âĢ¦ Â»
ĠÓĺÐ» Ð¸ÑħÐ°Ð½
ĠÐ±ÐµÑĢ Ð¼ÐµÐº
ĠÑģÑĭÑĢ ÑĭÐ½
Ġ !
ĠÐ°Ð¶ÑĭÑĢ Ð°ÑĤÐ°
ĠÐºÐ°Ð±Ð¸Ð½ ÐµÑĤ
ÐºÑĸÐ½ ÑĪÐµÐº
ÑĪÑĸÐ»ÑĸÐº ÑĤÐµÐ½
ÐĺÐ½ Ð²ÐµÑģÑĤÐ¸
ĠÐĿÐ¸Ðº Ð¾Ð»
Ð±Ð°Ð¹Ð»Ð°Ð½ÑĭÑģ ÑĤÑĭ
ĠÒĽÐ°Ð¹ ÒĵÑĭ
ĠÐ±Ð°Ð¹Ð»Ð°Ð½ÑĭÑģ ÑĭÐ½
ĠÐ´ Ð°ÑģÑĤÐ°Ð½
ĠÒĽÐ°ÑĢÐ¶ÑĭÐ»Ð°Ð½ Ð´ÑĭÑĢ
Ðº Ð³
ĠÓ©Ò£ÑĸÑĢ Ð´ÐµÐ³Ñĸ
ĠÐŀ ÐĳÐĽ
ĠÐµÐ³Ñĸ ÑģÑĤÑĸÐº
ÑĤÐµÐ³ Ð¶ÐµÐ¹
â ĸ
ĠÐ¼ÓĻÑĢÑĤÐµ Ð±
ĠÑĤÐµÑħÐ½Ð¾Ð»Ð¾Ð³Ð¸Ñı Ð»Ð°ÑĢÑĭ
ĠÐ´Ð¸Ð· Ð°Ð¹Ð½
ĠÑĤÑĸÐ»Ñĸ Ò£
ĠÐ°Ð²ÑĤÐ¾ÑĢ Ð´ÑĭÒ£
ĠÐ°Ð¹Ð½Ð°Ð»ÑĭÑģ Ñĥ
ĠÑĤ Ð³
Ñı Ð·
ĠÐ¶Ð°Ð½ Ð´Ð°ÑĢÒĵÐ°
Ð» Ð°Ð·
ĠÐ³ Ð¾ÑĢÐ¼Ð¾Ð½
Ðľ ÑĸÐ½Ð´ÐµÑĤÑĤÑĸ
ĠÑĤÒ¯Ð¹ Ðµ
ĠÐ¾ÒĽÑĭÑĤÑĥ ÑĪÑĭÐ»Ð°ÑĢ
Ð°Ð½ Ð±Ð°Ð¹
ĠÐµ ÑĥÑĢÐ¾Ð¿Ð°Ð»ÑĭÒĽ
ĠÐ¶Ò±Ð¼ÑĭÐ» Ð´ÑĭÑĢÑĥ
Ġ0 2
ĠÐºÐµÐ´ÐµÑĢÐ³Ñĸ Ð»ÐµÑĢ
ĠÐ¶ÐµÐºÐµÑĪÐµÐ»ÐµÐ½ Ð´ÑĸÑĢÑĥ
ĠÐ±Ð°ÑģÒĽÐ°ÑĢÐ¼ Ð°ÑģÑĭÐ¼ÐµÐ½
1 50
ÒĽÐ¾ÑģÑĭÐ¼ÑĪ Ð°ÒĵÐ°
m p
ÐºÑĸÐ½ Ñĸ
ÐµÐºÑģ Ó©Ð·
ĠÐ·Ð°Ð¼Ð°Ð½ Ð½ÑĭÒ£
Â» :
ÑĸÐ¼ ÑģÑĸÐ·
ĠÑģ ÑĭÐ¹ÑĭÐ¼
ĠÐķÑĢ ÑĤÑĸÑģ
ĠÐ°ÑĥÑĭÑĢÑģÑĭÐ½ Ñĥ
ÐºÐµÑģ ÑĸÐ½Ðµ
Ñģ Ð°Ð»ÑĭÒĽ
ĠÐ°ÑĤ Ð°ÒĵÑĭÐ½
Ñģ Ð°Òĵ
ĠÐ°Ð¹Ð½Ð°Ð»ÑĭÑģ ÑĭÐ¿
Ð¸ÐµÐ² ÑĤÑĸÒ£
Ð¼Ð° Ð´
ĠÐ¢ ÑĸÐ·
ĠÐ¶Ð°Ð¿ Ð¾Ð½
ĠÐ¼ÐµÑĤ Ð¾Ð´
ĠÐĳÐ°Ñģ Ð¿Ð°ÑģÓ©Ð·
ĠÐµÑĤÑĸ ÑģÑĤÑĸÐº
Ð¾Ð² ÑĤÑĭ
ĠÑģÑĤÐ°Ð½ Ñģ
Ð³ÑĸÑĪ ÑĤÑĸÐº
Ð¾ÑģÐºÐ¾Ð¿ Ð¸Ñı
ĠÐ¾Ð±ÑĬÐµÐºÑĤÑĸ Ð»ÐµÑĢÑĸÐ½Ðµ
ÐĶ ÐµÐ³ÐµÐ½Ð¼ÐµÐ½
ÐŃ Ðŀ
Ð» ÑĸÐ½ÑĪÐµ
Ð¢ Ð¾ÒĽ
ĠÐ¡Ð¾ ÒĵÑĭÑģ
Ð¼ÑĭÐ· Ð´Ð°
ĠÐľ ÐµÐ¼
ĠÐµÐºÑĸ Ð³Ðµ
ĠÐĵÐµ Ð¾Ð³ÑĢÐ°ÑĦÐ¸Ñı
ÐµÑĤ Ðµ
ĠÐ±ÑĸÐ»ÑĸÐ¼ Ð¼ÐµÐ½
Óĺ Ð´ÐµÐ±Ð¸
ĠÐł Ð°ÑħÐ¼ÐµÑĤ
Ð°Ñģ ÑģÐ°
ÐµÐ¹ Ðº
ĠÐ°ÑĢÐ´Ð°Ð³ÐµÑĢ Ð»ÐµÑĢ
ĠÒĽÒ±Ð» ÑĪÑĭÐ»ÑĭÒĽ
ÐµÑģ iÐ½
ÐĨÐĿ ÐĶÐķ
ĠÐ¥Ð°Ð»ÑĭÒĽ ÑĤÑĭÒ£
ĠÑĤÒ±Ð»Òĵ Ð°Ð»ÑĭÒĽ
Òļ ÐľÐ£
Ð±Ð°Ñģ ÑĤÑĭ
ĠÑģÑĥÑĢ ÐµÑĤÑĸÐ½
Ðŀ ÒĵÐ°Ð½
ĠÐ¶ÑĭÐ»Ð´Ð°ÑĢ Ð´Ð°
ĠÐ¶ÐµÒ£ÑĸÐ»Ð´ÑĸÐº ÑĤÐµÑĢ
ÒĽÐ°Ð½ ÑĪÐ°
ĠÒ¯Ð· ÑĸÐ»ÑĸÑģ
ÑĢÐµÑģ ÑģÐ¸Ñı
ĠÐ±Ð¾Ð¹ ÒĵÑĭ
ÐľÐµÐºÑĤÐµÐ¿ ÑĤÐµÐ½
ĠÑģÐ°Ð¿ Ð°ÑģÑĭÐ½ÑĭÒ£
ĠÐ´Ð¸Ð´Ð° ÐºÑĤÐ¸ÐºÐ°Ð»ÑĭÒĽ
Ð¾ÑĢ ÑĤÐ°Ð½
Ġ1 10
Ġ20 30
Ð·Ð° ÑĨ
ĠÐ¢Ð¾ÑĢ ÒĵÐ°Ð¹
ĠÑħÐ°Ð±Ð°ÑĢÐ»Ð°Ð¼ Ð°Ð½Ñĭ
ĠÐ½Ò¯Ðº ÑĤÐµ
ĠÐĺ Ð±Ð½
ĠÐ¾ÑĢÑĤ Ð°ÑģÑĭÐ½Ð°
Ð¾Ð» Ð»Ð°ÑĢ
ĠÐ±ÐµÐ»Ð³ÑĸÐ» ÐµÐ³ÐµÐ½
ĠÐĶ Ð¸ÑĢÐµÐºÑĤÐ¾ÑĢ
ĠÐºÐµÑĪÐµÐ½ ÑĸÐ½ÑĸÒ£
Ñį ÑĢÐ¾
ĠÐ¢ Ðŀ
ĠÐºÐ¾Ð¼Ð¼ ÑĥÐ½Ð¸
ĠÐ·ÐµÑĢ ÐµÐ½
Ð´ÐµÐ» ÑĮ
ĠÒ¯Ð¹ Ð»ÐµÑĢÐ´ÑĸÒ£
ÒĽÐ°ÑĤÑĭÐ½Ð°Ñģ ÑĤÐ°ÑĢ
ĠÑĢ Ð°ÒĽ
ĠÐľ ÐµÐ½Ñĸ
ĠÒĽÐ¾Ð»Ð´Ð°Ð½ ÑĥÑĪÑĭÐ»Ð°ÑĢ
ĠÐ±ÑĸÑĢÐ»ÐµÑģÑĤÑĸÐº ÑĤÐµÑĢ
ÑģÐ°ÑĢ Ð°Ð¿
Ðĵ ÐķÐĿ
ĠÒĽÑĭÐ·Ð¼ÐµÑĤÐºÐµÑĢ Ð´ÑĸÒ£
Ð»ÐµÑĥ Ð³Ðµ
ĠÐ°ÑĤ Ð°ÑĥÒĵÐ°
ĠÑĤÓ© Ð½Ð´ÑĸÑĢ
ĠÑĪÐµÑĪ ÐµÐ´Ñĸ
ÑĭÐ» Ð¼Ð°Ð¹
ÐµÑĢ Ð´ÑĸÒ£
200 4
ĠÐĺÑĤÐ°Ð» Ð¸Ñı
ĠÐĳÐ°Ñģ ÑĤÐ°Ð¿ÒĽÑĭ
Ð¿ ÑģÐ¸ÑħÐ¾Ð»Ð¾Ð³Ð¸ÑıÐ»ÑĭÒĽ
ĠÑĤÑĸÐ· Ð±ÐµÑģÑĸÐ½
ĠÑģÒ±Ð¹ ÑĭÒĽÑĤÑĭÒĽ
Ð»ÐµÐ½ Ñĥ
ÐŀÑģÑĭ Ð´Ð°Ð½
ĠÑģÓĻÑĤ ÑĤÐµÐ½
ĠÓ©Ð½ÑĸÐ¼ ÑĸÐ½
Ð± ÓĻÑĢÑĸ
Ġ6 2
Ð¸Ð¼ Ð¸ÑıÐ»ÑĭÒĽ
ĠÐķ Ð¶ÐµÐ»Ð³Ñĸ
ĠÐ¶ÐµÐ¼ ÑĸÑģÑĤÑĸ
ĠÐ¾ÑĢÐ½Ð°Ð»Ð°ÑģÑĤÑĭÑĢ ÑĭÐ»ÒĵÐ°Ð½
ĠÑĸÐ· Ð´ÐµÐ³ÐµÐ½
ĠÐ¼ Ð°Ð½Ñģ
Ðľ Ð¾Ð»
or ld
ĠÐ´Ð¾Ð» Ð»Ð°ÑĢÑĭ
ĠÐĸÐŀ Ð¡ÐŁ
Ðµ Ð³ÐµÑĢ
ĠÑĤÑĥ Ð´Ñĭ
Ġ and
ĠÑĤÐ¾ÒĽ ÑĤÐ°Ð¿
ĠÐ¶Ò±Ð¼ÑĭÑģ ÑĤÐ°
ĠÐ´Ò¯Ð½Ð¸ ÐµÐ½Ñĸ
ĠÐ¡Ð°Ñĥ Ð´
Ð¼ Ð°ÑĥÑģÑĭÐ¼
Ġ6 7
ĠÐ°ÑģÑĭÑĢ ÑĭÐ»ÑĭÐ¿
ĠÒ±Ð· Ð°Ð¼Ð°Ð¹
ĠÐ£ÐºÑĢÐ°Ð¸ Ð½
on e
ĠÐ¼Ð°ÑĢÐ°Ð¿Ð°ÑĤ ÑĤÐ°Ñĥ
ÑĤÑĤÑĭÒĽ ÑĤÐ°Ñĥ
Ðº Ð¾Ð»Ð¾Ð³Ð¸ÑıÐ»ÑĭÒĽ
Ð¥ Ð°Ð½
ĠÐ´Ò¯Ð½Ð¸ ÐµÐ½ÑĸÒ£
Ð¶ÑĭÐ¼ Ð´ÑĭÒĽ
Ġ8 7
Ġ ..
ĠÐ¼Ð°ÑĢ ÑĪ
ĠÐ½ ÑĭÑĪ
ĠÐ´Ð°Ñĥ ÑĭÑģÑĤÑĭ
ĠÒ±Ð½ Ð°ÑĤ
ĠT V
ĠÐĳ ÑĸÐ»
ÐĲÒĽ ÑĪÐ°
ĠÐ¶Ð°ÑĢÑĤÑĭÐ¶ÑĭÐ»Ð´Ñĭ ÒĵÑĭ
ÐµÐº ÑĤÑĸÐº
ĠÐ¾Ð¿ÐµÑĢÐ°ÑĨÐ¸Ñı Ð»Ð°ÑĢÐ´Ñĭ
ĠÒĽÐ°Ð±ÑĸÐ»ÐµÑĤÑĤÑĸ Ð»ÑĸÐ³ÑĸÐ½
ĠÐ» Ð¸Ð½Ð³Ð²
ĠÐ¡ Ð°Ð½ÐºÑĤ
Ðµ ÐµÐ²
ĠÐ¸Ð½ÑĤÐµÐ³ÑĢ Ð°ÑĨÐ¸Ñı
ĠÐ¶ÑĥÑĢÐ½Ð°Ð»Ð¸ÑģÑĤ Ð¸ÐºÐ°
ĠÐļ Ò¯Ð¹
ĠÒĽÐ°Ð±ÑĭÐ» Ð´Ð°Ð¼
ĠÐ±Ð°ÒĵÐ´Ð°ÑĢÐ»Ð°Ð¼ Ð°Ð»Ð°ÑĢÐ´ÑĭÒ£
ĠÑĤÑĸÐ» Ð´ÐµÑĢÑĸÐ½
ĠÐĳÐ°Ð¹ ÒĽÐ°Ñĥ
ĠÐĲÒĽÑģ Ñĥ
Ð¢ Ð¢Ð«Òļ
ÑĸÒ£ ÑĸÑĪÐºÐµ
ÑĨ Ð¸Ð´
Ò¯ ÐºÐµÐ½
ĠÑģÐ°ÒĽ ÑĤÐ°Ð¹Ð´Ñĭ
ĠÐŃ Ð»ÐµÐºÑĤÑĢ
ĠÑĭÒĽ Ð¿Ð°Ð»Ñĭ
ĠÐºÐ¾Ð½ÑĨ ÐµÑĢ
ĠÐ±Ð°Ð» Ð°Ð»Ñĭ
ĠÑĤÐµÑĢ ÑĸÐ½ÑĸÒ£
ĠÑĤÑĢÐ°Ð½ÑģÑĦ ÐµÑĢÑĤ
ĠÑĤÒ¯ÑģÑĸÐ½ Ð³ÐµÐ½
ĠÐ· Ð°Ð»Ñĭ
Ð³ ÐµÐ¼
ĠÑĤÒ¯ Ð³ÐµÐ½
Ð£ Ð°ÒĽÑĭÑĤ
ĠÐ¿Ð¾ ÑĤÐµÐ½
ĠÐļÒ¯Ð½ Ñĸ
ĠÐ±ÐµÑĤ ÐºÐµ
ĠÑĤ Ð°ÑıÒĽ
ĠÐ¸Ð½Ð´ÐµÐº ÑģÑĸ
Ð¶ Ð¾ÒĵÐ°ÑĢÑĭ
ĠÐºÐ¾Ð½Ñģ ÑĥÐ»
ĠÐµÐ³ÐµÐ¼ÐµÐ½ Ð´ÑĸÐº
ĠÐ¥ Ð°Ð¼
ĠÒļÐ°Ð¿ ÑĪÐ°ÒĵÐ°Ð¹
u st
Òĵ ÑĭÐ»ÑĭÐ¼Ð¸
Òļ ÑĭÐ»Ð¼ÑĭÑģÑĤÑĭÒĽ
ĠÒļ Ò±Ñģ
ĠÐ°ÑĤÑĭ Ð¼
ÒĽ Ð°ÑĤÑĭÑģ
ĠÐ¡ÓĻ Ð»ÐµÐ¼
ĠÐ¼Ðµ ÑĪÑĸ
ĠÐ¤ÐµÐ´ÐµÑĢ Ð°ÑĨÐ¸ÑıÑģÑĭÐ½ÑĭÒ£
ĠÐ¶Ð°Ð· ÑĭÒ£ÑĭÐ·
Ð°Ð½ Ð°Ð»Ð°ÑĢÐ´ÑĭÒ£
ĠÐºÓĻÑģ i
ĠÑģÐµÐ½ ÐµÐ¼ÑĸÐ½
ĠÒĽÐ°Ð·ÑĭÐ½ Ð°Ð»ÑĭÒĽ
ĠÐ´Ð¸Ð°Ð³Ð½Ð¾ÑģÑĤ Ð¸ÐºÐ°
ĠÐºÐµ Ñĥ
Ð¸Ðº ÑĢÐ¾
ĠÐ°ÑĤÑĭ Ð¼ÐµÐ½
ĠÐĲÑģÑģÐ°Ð¼Ð±Ð»ÐµÑı ÑģÑĭ
p aÒĽ
ÑĭÑĤ ÑĤÑĭ
ĠÓ¨ ÐºÑĸÐ½ÑĸÑĪÐºÐµ
Ñĸ ÑģÑĤÐµ
ĠÓ©Ð·Ð³ÐµÑĢ ÑĤÑĸÐ»Ð³ÐµÐ½
ÐµÑĥ Ð»ÐµÑĢ
ĠÐ°ÐºÑĤÑĸ Ð»ÐµÑĢÑĸ
Ð³Ðµ Ñĥ
ĠÐ°ÑģÑĤ ÑĭÐ½Ð°Ð½
Ó¨ ÑĤÐµ
Ð°ÑĪ ÐµÐ²
n ik
Ð¨ ÐĨ
ÑĤÐµÐ» ÑĥÑĸ
m in
ĠÓ©Ð·Ð³ÐµÑĢÑĸÑģÑĤÐµÑĢ Ð´Ñĸ
ÐĲÐ¹ Ð¼Ð°ÒĽ
N ews
ÐľÐµÐ¼Ð»ÐµÐºÐµÑĤ ÑĤiÐº
ĠÐ°ÑĢÐ½ Ð°ÑģÑĭ
Ð´ÐµÑĢ i
ÑĮ Ðµ
ĠÑģ Ñİ
ĠÒ±Ð¹ÑĭÐ¼ ÑĭÐ½Ð°
ÑĤÐµÐ½ ÑĸÐ¿
Ġt aÒĽ
ĠtaÒĽ paÒĽ
ĠÑģÐ°Ð½ Ð°Ñĥ
ĠÐ¼ÐµÐºÑĤÐµÐ¿ ÑĤÐµÑĢÑĸ
Òļ ÑĭÑģÒĽÐ°
Ð¡ Ð°Ð¿
ĠÐ°Ð¹Ð½Ð°Ð» ÑĥÑĭ
ĠÐĹ Ð¸ÑıÑĤ
ĠÐ´Ò¯Ð½Ð¸ ÐµÑģÑĸ
ÐµÑĤÑĸÐ½ ÑĪÑĸ
ĠÐļÐ¾Ð¼ Ð¿ÑĮÑİÑĤÐµÑĢ
ĠÐ½ ÐµÐ¹
ĠÐ»Ð°ÑĥÐ°Ð· ÑĭÐ¼Ð´ÑĭÒĽ
ÑĭÒĵ ÑĭÐ¼
ĠÐ°ÑıÒĽ ÑĤÐ°Ñĥ
Ñģ Ñģ
ĠÐ±Ð¾Ð» ÑĭÒ£ÑĭÐ·
ĠÐ¢Ó©ÑĢÐ°Òĵ Ð°ÑģÑĭ
ĠÐ¼Ð¸Ð½Ð¸ÑģÑĤÑĢ Ð»ÑĸÐº
a i
ĠÑĤÒ¯ÑģÑĸÑĢ ÑĸÐ»ÑĸÐ¼
ĠÑĤÓĻÑĢÐ±Ð¸ ÐµÐ»ÐµÐ¿
ĠÑģ Ò¯Ð½
Ðº Ð¼
Ò° ÐĳÐ¢
ĠÒĵÐ¸Ð±Ð° Ð´Ð°ÑĤ
ĠÐ¶Ð°ÑģÐ°Ñĥ Ñĭ
ÑĭÐ» Ð°ÑĢÐ´ÑĭÒ£
ÒļÐ°ÑĢ Ð¶ÑĭÐ»ÑĭÒĽ
Ī Ĵ
ĠÑĪÐ°ÑĢÑĤ ÑĤÑĭÒ£
ĠÐł ÑĥÐ´Ð½ÑĭÐ¹
ÐĺÐ½ ÑĤÐµÑĢ
ĠÐ¿Ð¾ÑĢÑĤ ÑĦ
ĠÐºÐµÐ»ÑĸÑģ ÑĸÐ¼Ð´Ñĸ
Ð°ÑĤ Ð¸ÐºÐ°Ð»ÑĭÒĽ
ĠÒļ Ð°ÑĤ
ÑĭÐ» Ð¼Ð°Ð¹ÑĤÑĭÐ½
ĠÐ² Ð¾Ðº
Òļ Ð°Ð¶
ĠÐ½Ð¾ÑĢÐ¼ Ð°Ð»Ð°ÑĢÑĭ
ÑĭÑĪ ÒĽÐ°Ð½
ĠÐ¾ÑĢ Ð´Ð°ÑģÑĭ
ĠÐ· Ð°Ð¹
Óĺ Ñĥ
ĠÐ½ÓĻÑĢÑģ ÐµÐ³Ðµ
ĠÐŁÐ°ÑĢ Ð¸Ð¶
ĠÐ¶Ð°Ð·Ñĥ ÑĪÑĭÑģÑĭ
ĠÐ¶ ÑĭÐ¼
Ð´ Ñİ
ĠÒĽÑĭÐ·Ð¼ÐµÑĤ ÑĤi
ĠÐĲÐ¹ Ð¼Ð°ÒĽ
ĠÒĽÐ°Ð» Ð¼Ð°Ð¹
ĠB aq
ĠÐ¨ Ð°ÒĵÑĭÐ½
ĠÐ´ÓĻÑĢÑĸÐ³ÐµÑĢ Ð»ÑĸÐº
ÐĲ Ð¼ÐµÑĢ
ÐĽÐĨ Ðľ
ĠÐĳÓ© Ð»ÑĸÐ¼
Ð¼ ÐµÑĥÑĸ
ĠÐ¶ÐµÑĢ Ð»ÐµÑĢÐ³Ðµ
Ð°ÒĽ ÑĤÑĭÒ£
ÐºÑĸ ÑĤÐ°Ð¿
ĠÒĽÐ°Ð¹ ÑĤ
Ð°ÒĽ ÑĤÐ°Ð½
ĠÐºÐµÐ·ÐµÒ£ Ð½ÐµÐ½
ĠÐ±ÐµÑĢÑĥ ÑĪÑĸÐ»ÐµÑĢÐ´ÑĸÒ£
ĠÒĽÒ±Ð¶ Ð°ÑĤÑĤÑĭ
ÑĤÐ°ÑĢ Ð°Ð»ÑĭÒĽ
ÐµÑĤÑĸÐ½ Ñĸ
ĠÐ¶Ð°ÑĢÑĤÑĭ ÑģÑĭ
Ð¦Ð¸ÑĦÑĢ Ð»ÑĭÒĽ
ĠÐľ Ð¸
Ð¾Ð¼ ÓĻÐ´ÐµÐ½Ð¸
ĠÐ² Ð°Ð³Ð¾Ð½
ĠÐ¾ÑĢÑĭÐ½Ð´Ð°Ð» Ð´Ñĭ
ĠÑģÓĻÐ¹ÐºÐµÑģ ÑĤÐµÐ½Ð´ÑĸÑĢÑĥ
Ð±ÑĥÐ» Ð°ÑĤÐ¾ÑĢ
ĠÐ°ÐºÐ°Ð´ÐµÐ¼ Ð¸Ðº
ĠÑĢ ÐµÐºÑĤÐ¾ÑĢÑĭ
ĠÑĤÒ±ÑĢÒĵÐ°Ð½ ÑĭÐ½
ĠÐ°Ð¹ Òĵ
ÐĻ Ð¾ÑĢÐº
ĠÐ¿Ð°Ð¹ Ð´Ð°Ð»
Ð¨ÐµÑĤÐµÐ» Ð´ÑĸÐº
ĠÑĤÒ¯Ð·ÐµÑĤÑĥ Ð»ÐµÑĢ
ĠÐ¢Ð¾Ð» ÑĭÒĵÑĭÑĢÐ°ÒĽ
ĠÐº ÑĭÐ·
Ñģ ÐµÐ¹Ð½
Ð¾Ð±Ð» ÑĭÑģÑĤÑĭÒĽ
ĠÐ¢ Ð¾Ð¼
ĠÐľÐ°ÒĽ Ð°ÑĤÐ°ÐµÐ²
Ġ $
ÑĪ Ð°ÒĽÑĤÑĭ
Ð°Ñĥ ÒĽÐ°ÑĤ
ĠÑģ Ð¾Ð¹
ĠÐĳÑĸÑĢ Ð½ÐµÑĪÐµ
ĠÐ´Ð°Ð½ Ð°ÑģÑĭ
ĠÓĺÐļ ÐĨÐľ
ĠÐĳÒ± ÒĽÐ°ÑĢ
ÐŀÑĢÑĤÐ°ÒĽÒĽÐ¾ÑĢ Ð´Ð°
ĠÒļ Ð¸
ÑĤ Ð¾Ð²
ĠÑģÐ°Ð¹Ð» Ð°Ð½Ð´Ñĭ
ĠÐĺÐ½ Ð´ÑĥÑģÑĤÑĢ
Ð°Òĵ Ð°ÑĤÑĤÑĭ
Ð°Ð»Ð°Ñĥ Ð°ÑĤÑĤÑĭ
Ð»Ñı ÑĨÐ¸ÑıÐ»ÑĭÒĽ
ĠÑģÐ¾ÑĤ ÑĤÐ°
Ġ0 7
ĠÐĲÑĢ ÑĭÑģÑĤÐ°Ð½
ĠÑĤÑĢ Ð°ÐºÑĤÐ¾ÑĢ
ĠÑĤÐµ Ð¶
ĠÒĽ Ð¸ÑĢ
ĠÑĪÐµ ÑĪÐµ
ĠÐ¼ Ð°Ð´Ð°ÒĽ
ĠÐºÐµÑĤ ÑĸÐ¿ÑĤÑĸ
ÑĥÑĪ ÑĸÐ½ÑĸÒ£
Ġ <
ĠÑģ ÑĭÐ±
Ð± ÑĸÐ»
Ġ6 6
Ñĥ Ð°ÒĽÑĭÑĤ
Ð¼ ÑĥÐ·
ĠÓ©Ð¼ÑĸÑĢ Ð´Ñĸ
Ð°Ñı Ð½Ñĭ
ÑĪ iÐº
ĠÓ©Ð½ÐµÑĢÐºÓĻÑģÑĸ Ð±
ĠÒĽÒ±ÒĽÑĭÒĽ ÑĤÐ°ÑĢÐ´Ñĭ
ĠÐ¥ Ð¸Ð¼Ð¸Ñı
ĠÐĶ Ð¸Ð¼Ð°ÑĪ
Ð³ ÑĸÑĢÑĥ
Ð¾ÒĽ ÑĥÑĪÑĭ
ĠÑĤÐ°Ð± ÑĭÑģÒĽÐ°
Ðĸ ÐµÑĤÑĸ
ĠÑģÐ°Ð» Ð´Ð°ÑĢÑĭ
ĠÐºÑĸÐ¼ Ð³Ðµ
ĠÑĤÒ¯ Ð±ÑĸÑĢ
ĠÐĵ ÐµÑĢ
ĠÐ±Ó©Ð»ÑĸÐ¼ Ð´ÐµÑĢÑĸ
Ð¢ÓĻÑĥÐµÐ»ÑģÑĸÐ·Ð´ÑĸÐº ÑĤÑĸÒ£
Ð±Ð°Òĵ Ð°Ð»Ð°Ñĥ
.Â» ;
ĠÐ·Ð°Ò£ Ð´Ð°ÑĢÑĭÐ½Ð°
ĠÑĤÑĥÒĵÑĭÐ· Ð°Ð´Ñĭ
ĠÒļ Ð°
ĠÐĺ ÐĿ
ĠÒĽÐ°ÑĢÐ¶ÑĭÐ» Ð°Ð¹
ĠÓĻÐºÐµÐ» ÑĥÑĸ
ĠÐºÓ©ÑĢ ÐµÐ¼ÑĸÐ·
ĠÐ± Ð°ÑıÒĵÑĭ
ĠÐļ Ò¯Ð·
ĠÑĪÐ°ÑĢ ÑĪ
Ð½ Ð¾Ð³Ð¾ÑĢ
ĠÒĵÐ°Ð¶ Ð°Ð¿
ĠÑģÑĤÑĢÐ°ÑĤÐµÐ³ Ð¸Ñı
Ð³ÑĸÐ» Ð´ÑĸÑĢ
ĠÒ±Ð¹ÑĭÐ¼ Ð´Ð°ÑĢÐ¼ÐµÐ½
ĠÐ´ÓĻÑĢ ÑĥÐ¼ÐµÐ½
Ð¢ ÐµÑģÑĤ
ĠÐºÐ¾Ð½ ÑĤÑĢ
ĠÑĪÐ°ÑĢ ÑĤÑĭÐ½
Ð³ÐµÐ±ÑĢ Ð°
Ġ h
Ð°Ñħ ÑģÑĤÐ°Ð½
ĠÑģÑĤÑĥÐ´ÐµÐ½ÑĤ ÑĤÑĸÐº
ÓĺÐ´Ñĸ ÑģÑĤÐµÐ¼ÐµÐ»ÑĸÐº
ĠÑĥÓĻ ÐºÑĸÐ»Ñĸ
ĠÐ´Ò¯Ð½Ð¸ÐµÑĤ Ð°Ð½ÑĭÐ¼
Ð°ÑĤ Ð¸Ñı
ĠÐºÐµÑģ Ñĥ
ĠÓĻÐ¹ ÑĤÐµÑĥÑĸÑĢ
ĠÐ·ÐµÑĢÑĤÑĤÐµÑĥ Ð´ÑĸÒ£
Ð´ÑĭÑĢ ÑĭÒĽ
ĠÐļÐ°Ð·Ð°Ñħ ÑģÑĤÐ°Ð½Ð°
ĠÒĽÐ¾ÑĢÒĵÐ°Ñĥ Ð´Ñĭ
ĠÐºÑĸÑĤÐ°Ð¿ ÑĤÐ°ÑĢÐ´Ñĭ
ĠÑĪ ÐµÐ³Ñĸ
ÑħÐ°Ð½ Ð°Ð´Ð°
Ñģ ÑĸÐ»
ĠÑģÐ°Ð½ Ð´Ð°ÑĢÐ´Ñĭ
ÐļÓ©Ðº ÑĤÐµÐ¼
ĠÐºÓ©Ð¼ÐµÐº ÑĪÑĸ
ÑĤÑĸÐ» ÑĥÐ´Ðµ
ĠÐķÑģ ÑĸÐ¼
ÑĪ Ð¸
ĠÐľÒ±ÑħÐ°Ð¼ ÐµÐ´
Q azaq
ĠÐ¶Ð¾Ð» Ð´Ð°Ð½
ÑĪ ÑĭÒĽÑĤÑĭ
Ð¶ ÐµÐ»ÑĤÐ¾ÒĽÑģÐ°Ð½
ĠÐµÐ¼ Ð´ÐµÑĥÐ³Ðµ
ĠÐ»Ð°ÑĥÐ°Ð·ÑĭÐ¼ ÒĵÐ°
ĠÑĤÐµÐ»ÐµÐ°ÑĢÐ½ Ð°ÑģÑĭÐ½ÑĭÒ£
ÐµÐ» Ð»
ĠÐ¶Ð°ÑĢÑĤÑĭ ÑģÑĭÐ½Ð´Ð°
ĠÐĲÒļ ÐŁÐĲÐłÐĲÐ¢
ĠÐķÑģ ÑĸÐ»
Ð¢Ó© Ð¼ÐµÐ½
ĠÐ· Ð°
ÐµÐ» Ð³ÐµÐ½
ÐºÐ¾Ð½ ÑĤÐ°ÐºÑĤÐµ
Ð¥ Ð°Ð»
ĠÐ±ÐµÐ»ÑģÐµÐ½Ð´Ñĸ Ð»ÑĸÐ³Ñĸ
ĠÐ¢Ó© ÑĢÑĤ
ĠÐ±ÐµÐ¹Ð½ ÐµÐ±
ĠÐ´ÐµÐ¿Ð¾Ð· Ð¸ÑĤ
Óĺ Ðļ
Ðľ Ð°Òĵ
ĠÑĢÒ±ÒĽÑģÐ°ÑĤÑĭÐ½ ÑģÑĭÐ·
Ð´i Ð³iÐ½
ĠÑģÐ°Ð¹Ð» Ð°Ð½ÒĵÐ°Ð½
ÑģÑĤÐ°Ð½ Ð´ÑĭÒĽ
ĠÐ¾ÑĢ Ð°Ð¼Ð°Ð»
ĠÑĤ ÑĭÐ»
ĠÐķÑĢ ÐºÑĸÐ½
Ġ12 5
ÑĸÑĢ Ñĸ
ĠÐºÓ©ÑĢ Ð´ÑĸÐº
Ð¾ÑĢ Ð½
ÐĶÐ¾Ñģ ÑĤÑĭÒĽ
ÐµÐ½Ð½ Ð°Ð´Ð¸Ð¹
ĠÑģÐ°ÒĽÑĤÐ°Ð» ÑĥÑĭ
ĠÐ¼ÐµÐ¹ Ð»ÑĸÐ½ÑĪÐµ
ÑĤÑĸ Ð»ÑĸÐ¿
ĠÑģÐ°Ð± ÑĭÑĢ
ĠÐ±ÑĸÑĢÑĸÐº ÐºÐµÐ½
Ð¾Ð³ÐµÐ½ Ð´ÑĸÐº
ĠÐ°ÑĥÑĭÑĢ Ð°ÑĤÑĭÐ½
ĠÐ¿Ð°Ð¹ÑĭÐ· Ð´Ñĭ
Ð´ÐµÐ¼ Ñĸ
Ñı ÒĵÐ½Ð¸
ĠÑģÐµÑĢ Ð¿
ĠÑĦÑĥÐ½ÐºÑĨÐ¸Ñı Ð»Ð°ÑĢÑĭÐ½
ĠÐ¾ÑĢÑĭÐ½ Ð´Ð°Ð¹ÑĤÑĭÐ½
ĠÐ±ÐµÐº ÐµÑĢ
ĠÒĽÐ¾Ñģ ÑĭÐ½Ð´Ñĭ
ĠÑĢÓĻÐ¼ÑĸÐ· Ð´ÐµÑĢÑĸ
ĠÑĪÑĥ Ð¼Ð°ÒĽ
ĠÑģÓ©Ð· ÑĸÐ½ÐµÐ½
ÐľÒ¯ Ð³ÐµÐ´ÐµÐº
Ðŀ ÑĤÑĭÑĢ
ĠÐºÓ©Ð¼Ðµ Ð³Ñĸ
Ñģ Ò±ÑĢ
ÐµÐ» iÐº
ĠÓ©Ð·Ð³ÐµÑĢ Ð´Ñĸ
Ð¿ ÐµÐ´Ñĸ
ĠÐ´Ðµ Ñĥ
ÐĶÐĲ ÐĻ
ĠÒĽÐ°ÑĢ Ð°Ð´Ñĭ
ĠÐºÐµÐ» Ð¼ÐµÐ³ÐµÐ½
Ðļ Ð¾Ð»
ĠÐ°ÑģÑĭÑĢ ÑĭÐ¿
ĠÐ± Ð°ÑıÑĥ
ĠÐ¨Ð°Ð» ÒĽÐ°ÑĢ
ĠÐŀ ÐłÐ¢
ĠÑģÑĤÐ° Ð´Ð¸Ð¾Ð½
ĠÐŁ Ð°Ð½
ĠÑĥÑĩÐ°ÑģÐº ÐµÐ»ÐµÑĢÑĸÐ½ÑĸÒ£
ĠÐľÒ± ÒĽÐ°Ð½
ĠÑĤÓ©Ð¼ÐµÐ½ Ð´Ðµ
Ð¾ÑĢÐ² ÐµÐ³
ĠÑĥÐ°ÒĽÑĭÑĤÑĭ Ð»Ñĭ
ĠÑĤÓĻÑĥÐµÐ»ÑģÑĸÐ· Ð´ÑĸÐ³Ñĸ
ĠÐ¾Ð¹ ÑĭÐ½Ð´Ð°
ĠÑĩÐµÐ¼Ð¿Ð¸Ð¾Ð½ Ð°ÑĤÑĭÐ½Ð´Ð°
ÓĺÐ»ÐµÐ¼ Ð´ÑĸÐº
ÑĭÑĢÐ°Ñĥ ÒĽÒ±Ð»
ĠÐ±ÑĸÑĢ ÑĸÐ½ÑĸÒ£
ĠÐ°Ñģ ÑĤÑĢ
ĠÐ¿ ÐµÑĪ
ĠÑĪÐ°ÑĢ Ð°ÑģÑĭ
ĠÐ±ÐµÑĢÑĥ Ð´ÐµÐ½
ÑĭÑģ ÑĭÐ·
ÒļÒ± Ð´Ð°Ð¹
Óĺ Ð¡
ÐļÐ¾Ð½ ÑģÑĤÐ¸ÑĤÑĥ
ĠÐ¿ÑĢÐµÐ¿Ð°ÑĢ Ð°ÑĤÑĤÐ°ÑĢ
ÐµÐ¼ Ðµ
ÐŀÐ½ Ð»Ð°Ð¹Ð½
ÐļÓ©Ðº ÑĪÐµÑĤÐ°Ñĥ
ĠÐ¶Ð¾ÒĽ Ð¿ÑĭÐ½
ĠÑģÒ¯ÑĢ ÐµÑģÑĸ
Ð¾Ð¼ ÐµÐ½
ĠÐ±Ð¾Ð» Ð°Ð¼ÑĭÐ½
ĠÐ¡ ÑĥÑĢ
Ó¨ Ðļ
ĠÐĹ Ð°ÑĢ
ĠÐ±Ñİ ÑĢÐ¾
ĠÐ¶Ò¯Ð³ÑĸÑĢ ÑĸÐ¿
ĠÐ½ Ð°Ð³
ĠÓ©Ð½Ð´ÑĸÑĢÑĥ ÑĪÑĸÐ»ÐµÑĢ
ĠÐµÑģ ÑĸÐ¼Ð´ÐµÑĢ
Ð¨ Ð«ÐĽ
Ð¼ ÑĸÐ½Ð´
Ð¡ ÑĤ
ÐµÐ¶Ò¯Ð· Ñĸ
ĠÑĪ ÑĤÐ°Ð±
Ð´Ð°Ð¼ Ð°Ð»Ñĭ
Ó¨ Ò£
ÐĸÒ±Ð¼ÑĭÑģ Ð¿ÐµÐ½
ĠÐ±Ð¸Ð» ÐµÑĤ
ĠÑĤÒ±Ð¶ÑĭÑĢÑĭÐ¼Ð´Ð°Ð¼ Ð°ÑģÑĭ
ĠÐ¾ÑĢÐ½Ð°Ð»Ð°Ñģ ÑĥÑĭ
ĠÐļ Ð»
ĠÐ¾ÑĢÐ³Ð°Ð½ Ð´Ð°ÑĢÐ¼ÐµÐ½
ĠÐ°Ð»Ð³ÐµÐ±ÑĢ Ðµ
ĠÐ¶Ð°Ñĥ Ð°Ð±Ñĭ
ĠÒļ Ð°Ð»ÒĵÐ°Ð½
Ð³ Ð¸ÑıÐ»ÑĭÒĽ
ĠÒļ Ð°Ð´ÑĭÑĢ
ĠÑĤ Ð°ÑĤÐ°ÑĢ
ĠÐ½Ð¾ÑĢÐ¼ Ð°Ð»Ð°ÑĢ
ĠÐ°Ð¹ Ð¼Ð°ÒĵÑĭÐ½Ð´Ð°ÒĵÑĭ
ĠÐ±Ð¾Ñı Ñĥ
Ðº Ò¯
ĠÑĤÐ¾Ð¹ Ñĭ
ĠÐ¢ Ð°Ð½
ĠÐ¼Ð°ÒĽ ÑĤÐ°
Ð¼Ð°ÒĵÐ°Ð¼Ð±ÐµÑĤ Ð¾Ð²
ÑĭÐ¼ Ð°Ð»Ñĭ
ÐĲ ÐºÐ°Ð´ÐµÐ¼
ÐµÒ£ Ð´Ñĸ
Ð¢ Ó©Ð»
Ðł ÐĲ
ĠÒĽÒ±ÑĢÐ°Ð» Ð´Ð°ÑĢÐ´ÑĭÒ£
Ð´i Ð³i
ÐĲÒĽ ÐºÓ©Ð»
ĠÐ±Ð¸ÑĸÐº ÐºÐµ
Ġ18 0
Ñ Ķ
Ġ6 8
ĠÐĹÐ°Ò£ Ð´Ð°
ĠÐ°ÑģÑĭÑĢ ÑĭÐ»ÑĥÐ´Ð°
ĠÐºÒ¯Ð» Ð»Ñĸ
ĠÑģÐ°ÑĥÐ°Ð» Ð½Ð°Ð¼Ð°
Ðº ÑĤÑĸ
ĠÒĽÐ°ÑģÑĤÐµÑĢ Ð»Ñĸ
ĠÐ°ÑĥÐ´Ð°ÑĢ Ð°Ð´Ñĭ
ĠÐĳÐ°Òĵ Ð°Ð»Ð°Ñĥ
ĠÐ±ÐµÐ¹Ð½ ÐµÑģÑĸÐ½
ĠÑĢÐµÐ´Ð°ÐºÑĨÐ¸Ñı Ð½ÑĭÒ£
ĠÐ¿ÑĭÑģ ÑĭÒĽÑĤÐ°Ñĥ
ĠÐ¾Ð¹ÑĭÐ¼ ÑĪÐ°
ĠÐ·Ð°Ò£Ð½Ð°Ð¼ Ð°ÑģÑĭÐ½ÑĭÒ£
ĠÐºÒ¯Ð½ ÑĸÐ¼ÐµÐ½
ĠÒĽÐ¾Ð»Ð´Ð°Ð½ ÑĭÐ»ÑĭÐ¿
ÒĽÐ¾Ñģ ÑĭÐ¼ÑĪÐ°
ĠÐ±Ó© ÑĤÐµÐ½
ĠÐ¢ Ó¨
ĠÐºÐ°Ð´ÑĢ Ð»Ð°ÑĢÐ´Ñĭ
ĠÐĳÑĸÐ· Ð´Ðµ
Ð¿ Ð¸ÑĢ
ĠÑģÐ°Ð» Ð°Ð¼ÑĭÐ·
ÐŀÐĽ ÐŀÐĵ
ĠiÑģ ÐºÐµ
ĠÐºÐµÑĤ ÑĥÐ³Ðµ
ĠÐ¼ Ð°Ð¹Ñĭ
ĠÐµÐ» Ð´ÐµÑĢÐ³Ðµ
ĠÑģÑĤÐ°Ð½Ð´Ð°ÑĢÑĤ ÑĤÐ°ÑĢÑĭ
ĠÑĦÐ¾ÑĢÐ¼ Ð°ÑĤ
ĠÑģ Ð¾Ð²
Ò°ÑģÑĤÐ°Ð· Ð´Ð°ÑĢÒĵÐ°
200 3
ĠÐ½ÐµÑģÐ¸ ÐµÐ»ÑĸÐº
Ñģ ÐºÐµÐ½
ĠÒĽÐ°ÑģÐ¸ ÐµÑĤÑĸÐ½
ĠÐ¼ÓĻÐ»ÑĸÐ¼ Ð´ÐµÐ³ÐµÐ½
Ð¸Ð»Ð¾ ÑĤÑĤÑĭÒĽ
Ð°Ð´Ñĭ Ð±
ÐļÐµ ÑĪÐµ
g mail
ĠÐ¶Ð°Ð»Òĵ Ð°ÑģÑĭÐ¿
ĠÐĲÐ¼Ð°Ð½ Ð³ÐµÐ»Ð´Ñĸ
ĠÓĻÐ»ÐµÑĥ ÐµÑĤÑĸ
ĠÐ°ÒĽÑģÐ°ÒĽ Ð°Ð»
Ñħ Ð°Ð¹
ĠÑĤÐµÑħÐ½Ð¾Ð»Ð¾Ð³Ð¸Ñı ÑģÑĭÐ½
ĠÑĤÐ°ÑĢ Ð°ÑĤÑĭÐ¿
Ðķ Ð»ÑĸÐ¼ÑĸÐ·Ð´Ðµ
ÐĳÐ°Ð» Ð°Ð»Ð°ÑĢÐ´Ñĭ
) -
ĠAl l
ĠÐľÐµÐºÑĤÐµÐ¿ ÐºÐµ
ĠÑĸÑĪ ÑĸÐ¼Ð´ÑĸÐº
ÑĸÑģÑĤÐµÑĢ Ð´Ñĸ
ĠÐĹ Ð°Ð¼Ð°Ð½
ĠÐ°Ð¼ Ð±ÑĥÐ»Ð°ÑĤÐ¾ÑĢ
ĠÐ¡ÓĻ ÑĤÐ±Ð°ÐµÐ²
ĠÑĤÐ°ÑĢÑĤÑĭÐ» Ð´Ñĭ
ĠÐ¿ÑĢÐµ Ð¿Ð°ÑĢÐ°ÑĤ
Ð² Ð¾ÑĢ
ĠÐ¶Ð°Ð· Ð°ÑģÑĭÐ½
ĠÑĤÐ¾Ð¿ Ð¿ÐµÐ½
ĠÐ¨ Ð¾ÒĽ
Ġ y
ĠÐĶ Ð°Ð»Ð°
ÒĽÐ°ÑĤÑĭÐ½Ð°Ñģ ÑĤÑĭ
ĠÐ¡ ÑĤÐµÐ¿
ĠÐ¼Ð°Ð» Ð´ÑĭÒ£
ÑĢÐµÐº ÐµÑĤ
ĠÐ» ÐµÐ³Ñĸ
ÑĤÐµÑĢÐ°Ð¿ Ð¸Ñı
ĠÐºÐµÑĤ ÑģÐµÐº
ĠÐĸÐ°Ð½ Ð°ÑĢ
Ðľ Ò±ÑĢ
ĠÒĽÑĭÐ·Ð¼ÐµÑĤÐºÐµÑĢÐ»ÐµÑĢ ÑĸÐ¼ÐµÐ½
ĠÑĥÐ°ÒĽÑĭÑĤ ÑĤÑĭÒ£
Ñĭ Ð±ÐµÐº
ĠÒĽÐ¾Ð½Ð´ÑĭÑĢ ÒĵÑĭÐ»Ð°ÑĢ
ĠÑĤÐ¸ iÑģÑĤi
Ñħ Ð°
ĠÐĲÐ» Ð¼Ð°ÑĤ
ĠÐļÐµÐ½ ÐµÑģ
ĠÒĽÐ°Ð±ÑĸÐ»ÐµÑĤÑĤÑĸ Ð»ÑĸÐº
ĠÐĲÑĥÑĢ Ñĥ
ĠÒ±Ð½ Ð°Ð¹Ð´Ñĭ
Ðº ÑĸÐ½Ðµ
Ġma in
ĠÐ°Ð· Ð°ÑĤ
ĠÐľ Ð¸Ñħ
ÑĪÐµÐº ÐµÐ¹
Ð°Ð´Ð°Ð¼ Ð³ÐµÑĢÑĪÑĸÐ»ÑĸÐº
ĠÓĺÐ¹ ÑĤÐ¿ÐµÑģÐµ
ÐĲÐ»Ð»Ð° Ò»
ĠÐ½Ð°ÑĥÒĽÐ°Ñģ ÑĤÑĭÒ£
Ð¼ Ð¸ÑĢÐ°
ĠÑħÐ°Ð±Ð°ÑĢÐ»Ð°Ñģ ÑĭÒ£ÑĭÐ·
ĠÑĪ Ð°Ñĥ
ĠÐĸÐ°Ð· ÑĥÑĪÑĭÐ»Ð°ÑĢ
ĠÐ°Ð»Ðº Ð¾Ð³Ð¾Ð»ÑĮ
ĠÐĳÑĸÑĢÑĸÐ½ÑĪÑĸ Ð´ÐµÐ½
Ġ Ñľ
ĠÐ½Ð°Ð¼ ÑĭÑģÑĭÐ½
ĠÐĲÑħÐ¼ÐµÑĤ Ð¾Ð²
ÐĳÐ°Òĵ Ð°Ð»Ð°Ñĥ
ĠÐ³ Ñĥ
ĠÐ± Ð°Ð½
Ð´Ð°ÑĢ Ð¼Ð°Ð½
Ð¼ÑĸÐ· Ð´ÐµÐ³Ñĸ
ĠÑĤÒ±ÑĢÒĵÐ°Ð½ Ð´Ð°
ĠÐ´ÓĻÑģÑĤÒ¯ÑĢ Ñĸ
ĠÐ±ÑĸÑĢÐµÑĥ Ð´ÑĸÒ£
ĠÐ¼ÐµÒ£Ð³ÐµÑĢ ÑĥÑĸ
ĠÐ¶ÐµÑĤÐµÐº ÑĪÑĸÐ»ÑĸÐº
ĠÒĽÒ±Ð±ÑĭÐ» ÑĭÑģÑĤÑĭÒ£
ĠÑģ Ð°Ð¼Ð¼Ð¸ÑĤ
ĠÐ°ÑĤÒĽÐ°ÑĢ ÑĭÐ»ÑĭÐ¿
ĠÑĤÐµÐ» ÐµÐºÐ¾Ð¼
ĠÐĸÐ°ÑĢ Ð»ÑĭÒĵÑĭÐ¼ÐµÐ½
ĠÑĪÑĭÒĵÑĭÐ½ Ð´Ð°ÑĢÑĭÐ½
Ð´ÐµÑĢ ÐµÐº
ÐµÑĥ Ð´Ðµ
ĠÐ°ÑĪ ÑĤÑĭÒĽ
Ðľ ÐķÐĿ
Ð¶ÑĭÐ¼ Ð°Ð»Ñĭ
ÑĭÒ£ Ð¼ÐµÐ½
Ð° ÑĨÐ¸Ð¾Ð½
ĠÑĪ Ð°Ò»Ð°ÑĢ
Ð¾Ð» Ð¸Ðº
Ó¨Ð· Ð±ÐµÐºÑģÑĤÐ°Ð½
ĠÑĪÐ°Ð»Ð´ÑĭÒĽ ÒĽÐ°Ð½
ÐµÐ¹Ð½ÐµÑĤ Ð°ÒĽÑĭ
ĠÑĤÐ¾Ð¿ ÑĤÐ°ÑĢÒĵÐ°
ĠÐºÐµÐ·Ð´ÐµÑģ ÑĥÑĸÐ½Ðµ
ĠÐ´ÓĻÑĢÑĸÐ³ÐµÑĢ Ñĸ
Ġ ÑĭÒ£ÒĵÐ°Ð¹
Ð»i Ð³i
ĠÐł Ðļ
ĠÐ´Ð°Ð¹ÑĭÐ½Ð´Ð°Ð» ÑĭÐ¿
ĠÐ±Ò¯ ÑĤÑĸÐ½
Ð´ÐµÑĢ Ð»ÑĸÐº
ĠÐ¶ ÑĸÐ¿
ĠÑģÐ¾Ð» Ð°ÑĢ
ĠÐºÒ¯ÑĢ ÑĸÑĪ
ĠÐ°Ñĥ Ð¼Ð°ÒĵÑĭÐ½Ð°
ĠÐĶÐ¾Ñģ ÑĤÑĭÒĽ
ĠÐ± Ð¸Ð·
Òĵ Ð°Ð¶Ð°Ð¹ÑĭÐ¿
ĠÐµ Ð·
ĠÐ¼Ð°ÑĢ Ðº
ĠÓĺÐºÑĸÐ¼ ÑĪÑĸÐ»ÑĸÐº
ĠÑĥÐ½Ð¸Ð²ÐµÑĢÑģÐ¸ÑĤ ÐµÑĤÑĤÑĸÒ£
ĠÐ¶Ð°ÒĵÐ´Ð°Ð¹ Ð»Ð°ÑĢÑĭÐ½
ĠÐ±Ð°Ð» Ð°Ð½
Ð¾Ðº ÐºÐµÐ¹
ĠÐ¿ÑĢÐ¾Ð³ÑĢ ÐµÑģÑģ
ĠÐĲÐ»Ð¼Ð°ÑĤÑĭ ÒĵÐ°
ĠÑĤÐ°Ò£ ÒĵÐ°Ð»
ĠÑģÐ¿ Ð¸ÑĢ
ĠÐ¼Ð°Ð¼Ð°Ð½ Ð´ÑĭÒĵÑĭÐ½ÑĭÒ£
ĠÑħÐ°ÑĤ ÑĪÑĭ
ĠÐ³Ð¸Ð´ ÑĢÐ¾
ÑĤÑĤÐ°ÑĢ ÒĵÐ°
ÑĢ Ð¸ÑĤ
ĠÑĤÐ¾Ð¿ ÑĤÐ°ÑĢÐ´ÑĭÒ£
ÑĥÑħÐ³Ð°Ð» ÑĤÐµÑĢ
ÑĦ ÑĤÐ¸
ĠÑĢÓĻÑģÑĸÐ¼ ÑĸÐ½Ðµ
âĨ Ĳ
ĠÐ¼ÓĻ Ð·
ĠÐºÐ¾Ð» Ð»ÐµÐº
Ð¶Ð°Ð¹ Ð»Ð°ÑĢ
ĠÑĤÓĻÐ¶ÑĸÑĢÐ¸Ð±Ðµ Ð»Ñĸ
ĠÐ±Ò±ÑĢÑĭÐ½ Ð½Ð°Ð½
ÑĤÐµÐ»ÑĮ ÑģÑĤÐ²Ð¾
ĠÒĽÑĭÑĢÐºÒ¯Ð¹ÐµÐº ÑĤÐµÐ³Ñĸ
ĠÐºÓ©Ð¿ÑĪÑĸÐ»ÑĸÐº ÐºÐµ
ĠÑĢ Ð°Ñħ
ĠÓĻÑĢÐµÐºÐµÑĤ ÑĸÐ½Ðµ
Ð¼Ð° ÑħÐ°Ð½
Ð¸Ð´ Ð¸
ĠÐ±Ð°ÒĵÐ°Ð»Ð°Ñĥ Ð´ÑĭÒ£
y z
ĠÑĢÐµÑĦÐ¾ÑĢÐ¼ Ð°Ð»Ð°ÑĢ
ĠÐ¡Ð°Ð¹ÑĤ ÒĽÐ°
ĠÐ¶Ð¸ ÑĭÐ½Ð´Ð°
ÐĳÐ¸ÑĭÐ» ÒĵÑĭ
ĠÑģÐ¾ÒĵÑĭÑģ ÒĽÐ°
ÐµÐ½ Ðµ
ĠÐĸÑĭÐ» ÑĭÐ¾Ð¹
ĠÐ¶Ò±Ð¼Ñģ Ð°Ð»ÒĵÐ°Ð½
ĠÑģÒ¯Ð¹ ÐµÐ¼ÐµÐ»
Ġ0 8
ĠÒĽÐ¾Ð» Ð´Ñĭ
ĠÐ±ÑĸÐ» ÐµÐ¼
ĠÐĺÐ· ÑĢÐ°Ð¸Ð»ÑĮ
ÐĳÐĲ ÐķÐĴ
ĠÑĦ Ð¸
Ð±Ð°Ð» Ð°Ð»Ð°ÑĢÐ´Ñĭ
ĠÐ¶Ð¾ Ò£
ĠÐ¥Ð¥ ÐĨ
ÑĭÐ· ÑĪÐ°
ĠÐĸ Ò¯Ð¹
ÐĹ Ðĺ
ĠÐ°Ð¹ Ð»
ĠÒĽÐ°ÑĥiÐ¿ ÑģiÐ·
ĠÓ© ÐºÑĸÐ½ÑĸÑĪ
ÑĤi Ð»
Ð¼Ð°Ð» Ð°Ñģ
ĠÑħÐ¸ÑĢÑĥÑĢÐ³ Ð¸ÑıÐ»ÑĭÒĽ
ĠÐ¶Ð°Ñĥ Ð°Ð±ÑĭÐ½
ĠÐ¼Ð°ÒĽÑģÐ°ÑĤÑĭ Ð¼ÑĭÐ·
Ð´Ð°ÑĢ Ð´Ð°ÒĵÑĭ
ĠÒĽÐ°ÑĤÑĭÐ½Ð°Ñģ ÑĤÐ°ÑĢÑĭÐ½
ĠÑģÐ¾Ð½ ÑĪÐ°Ð»ÑĭÒĽÑĤÑĭ
ĠÐºÐ¾Ð½ ÑģÑĤÑĢÑĥÐºÑĨÐ¸Ñı
ÑĤÐµÑħÐ½ Ð¸ÐºÐ°
ĠÒĽÐ°Ð¹ÑĢÐ°ÑĤ ÐºÐµÑĢÐ»ÐµÑĢÑĸ
ĠÐ¶Ð°ÑĤÑĤÑĭÒĵÑĥ Ð»Ð°ÑĢÑĭÐ½ÑĭÒ£
ĠÒĽÐ°Ð¼ÒĽÐ¾ÑĢ ÑĪÑĭÐ»ÑĭÒĽ
ĠÑģÐ¾ÑĤ ÑĭÐ½ÑĭÒ£
Ġ12 6
ĠÑĪ ÑĤ
ĠÒĽÐ°ÑĢÐ°Ð¼ Ð°Ð¹
ĠÐ¿ÑĢÐ¾ÑĦÐ¸Ð» Ð°ÐºÑĤÐ¸ÐºÐ°Ð»ÑĭÒĽ
ĠÐ°Ð± Ð·Ð°ÑĨ
ÐºÐµÐ» ÐºÑĸ
ĠÐ°ÑĢÑĤ ÑĭÐ½Ð°Ð½
ĠÐ±ÐµÐºi ÑĤÑĥ
ĠÐ¼ÓĻÐ·ÑĸÑĢ Ñĸ
ĠÒĵÐ°ÑĪ ÑĭÒĽ
od ay
ĠÐ¾ ÑĦÐ¸ÑĨ
ĠÑĤÐ°Ò£Ð´Ð°Ñĥ Ñĭ
Ð± Ð°Ð»Ð°Ð»Ð°ÑĢ
ĠÓĻÑĢ i
ĠÐ¶Ð°Ð±Ð´ÑĭÒĽ ÑĤÐ°ÑĢÐ´Ñĭ
ĠÐĹ ÐµÑĢ
ĠÒļÐł ÐĹ
Ó¨Ð· ÐµÐ½
ĠÑĤÑĭÒĵÑĭÐ· Ð´ÑĭÒĵÑĭ
ÐľÓĻÑģ ÐºÐµÑĥ
ĠÐļ Ð°Ð±
ĠÐ°ÑĥÐ´Ð°Ð½ Ð´Ð°ÑĢÑĭÐ½Ð´Ð°
Ð°Ò£ ÐºÐµÑģ
ĠÐĲÒĽ ÑĪÐ°
ĠÒ¯Ð»Ð³ÐµÑĢ Ð³ÐµÐ½
Ðľ Ò±ÒĽ
ĠÑĦÐ°ÐºÑĤÐ¾ÑĢ Ñĭ
ĠÑĤÐµÑĢÐ¼Ð¸Ð½ Ð°Ð»
Ð¼ÐµÐ½ ÑĤÑĸ
ĠÒĽÒ±ÑĢ ÑĥÐ´Ñĭ
ĠÐ¼ Ð¸Ð»
d ar
ĠÑĢ Ð°Ð·Ñĭ
ÐµÑģ ÑĤÑĢ
ĠÐ°ÑĢ Ð¼Ð°Ð½Ñĭ
p ort
ĠÐ°Ð½ÑĭÒĽ ÑĤÐ°ÒĵÐ°Ð½
Ð±Ð°Ð½ Ð¾Ð²
ĠÒĽÐ¾ÑĢÒĵ Ð°Ð¹ÑĤÑĭÐ½
ĠÒļÐ°Ð·Ð°ÒĽÑģÑĤÐ°Ð½ Ð½Ð°Ð½
ĠÐ±Ò±Ð· ÒĵÐ°Ð½
ĠÐµÑĢ ÐºÑĸÐ¼ÐµÐ½
ĠÐ¼ÐµÑĢÐµÐ¹ÑĤÐ¾Ð¹ ÑĭÐ½Ð°
Ð´ Ð°Ð³ÐµÑĢÑĸ
ĠÐ¨ ÐµÑĢ
Ð¾ÑĢÑĤ Ð°Ð»ÑĭÒĽ
ĠÑģÒ±ÑĢÐ°Ð½ÑĭÑģ ÒĽÐ°
ĠÐ°Ð²ÑĤÐ¾Ð¼Ð°ÑĤÑĤÐ°Ð½ Ð´ÑĭÑĢÑĭÐ»ÒĵÐ°Ð½
ĠÒļÒ±ÑĢ Ð°Ð¼Ð°
ĠÐ±ÐµÑĢÑĥÑĪÑĸ Ð³Ðµ
Ðķ Ð¶ÐµÐ»Ð³Ñĸ
ĠÒĽÑĭÐ»Ð¼ÑĭÑģ ÑĤÐ°ÑĢ
ĠÐļÐµÒ£ ÐµÑģÑĸ
ÑħÐ°Ð½ Ð°ÑģÑĭ
ĠÓĻÐ½ Ð´ÐµÑĢÑĸ
Òĵ ÑĭÐ½Ð´Ð°ÒĵÑĭ
ĠÓ¨ ÐĿ
Ġ7 9
ĠÐ´Ò¯Ð½Ð¸Ðµ Ð´ÐµÐ½
ĠÐ¾Ð±ÑĬÐµÐºÑĤÑĸ Ð»ÐµÑĢÑĸÐ½ÑĸÒ£
e v
ĠÐŃ Ð»ÐµÐºÑĤÑĢÐ¾Ð½Ð´ÑĭÒĽ
Ð¨ÑĭÐ¼ÐºÐµÐ½ÑĤ ÑĤÐµ
Ð°Ñı Ð´Ñĭ
Ðĸ ÐµÐ´ÐµÐ»
ÑĦÐµÑĢ ÐµÐ½
ĠÐ¼ Ð¸ÑĤ
ĠÑĪ Ð°ÑĤÑĭÑĢ
ÑĤÒ¯ÑģÑĤÑĸ Ð³ÑĸÐ½Ð´Ðµ
ĠÐķÑĢ ÑĤÐµ
ĠÐ¿Ð°ÑĢÑĤ Ð¸ÑıÐ½ÑĭÒ£
ĠÐ¶ÑĭÑĢ ÑĭÐ½
Ò£Ð³Ñĸ Ð¼
ĠÑįÐ² Ð¾Ð»Ñİ
ĠÐĸ ÐĲÐ¡
ĠÐ°Ð³ÑĢÐ¾ Ó©Ð½ÐµÑĢÐºÓĻÑģÑĸÐ¿ÑĤÑĸÐº
ĠÐ¶Ð°Ð¹ ÑĭÐ»ÑĭÐ¼
Ð¾Ð² ÑģÐºÐ¸Ð¹
ĠÑĤÐ¾Ð» ÑĥÑĭÐ½Ð°
Ġ1 01
Ġ7 7
ĠÐ½Ð°ÑĢÑĭÒĽ ÑĤÐ°
ĠÒĽÑĭÐ·Ð¼ÐµÑĤ Ð¿ÐµÐ½
ĠÑģÒ¯Ð¹ Ð³ÐµÐ½
Ð°ÒĵÐ°Ð½ Ñĭ
ĠÐµÐ»ÑĸÐ¼ÑĸÐ· Ð³Ðµ
ĠÐ°ÑĥÑĭÑģÑĤÑĭÑĢ ÑĥÒĵÐ°
ĠÓ©Ð½Ð´ÑĸÑĢ ÑĸÐ¿
ÐĲÐ¹ ÑĤ
ĠÐ´Ð°Ð¼Ñĭ ÑĤÐ°
ĠÑĤÓĻÑĥ Ð»ÑĸÐ³ÑĸÐ½Ðµ
ĠÐ°Ð´Ð°Ð¼ Ð´Ð°ÑĢÑĭÐ½ÑĭÒ£
ĠÒ±ÑģÑĭÐ½ÑĭÑģ ÑĤÐ°ÑĢÑĭÐ½
ĠÐłÐµÑģ Ð¼Ð¸
ĠÓ©Ð· ÑĸÐ¼ÐµÐ½
ÐµÐ¹ Ð±Ð¾Ð»
ĠÐ¡ÓĻÑĢ ÑģÐµÐ½
ÑģÑĤÐ°Ð½ Ð½ÑĭÒ£
Ðºi ÑĪ
ÑĭÑģÑĤÐ°ÑĢ ÑĭÐ½Ð°
ĠÐ²Ð¸ÑĢÑĥ Ñģ
ĠÒĽÐ°Ð¶ÐµÑĤÑĤÑĸ Ð³Ñĸ
ĠÐ¿ÑĸÐºÑĸÑĢ Ð»ÐµÑĢÑĸÐ½
Ðĸ ÑĥÑĢÐ½Ð°Ð»
ĠÑĤÐ°Ð½ ÑĭÐ»Ð´Ñĭ
Ñĩ Ð¸Ð½
Ð³ Ð¾
ĠÐ±ÐµÐ»Ð³Ñĸ Ð»ÐµÐ¿
Ð¼ Ð°Ð»Ð°ÑĢÑĭ
ĠÐĳ Ð°Ð±
ÒļÒ±ÑĢ Ð¼ÐµÑĤ
Ð· Ñİ
? Â»,
Ġ7 4
ĠÓĻ Ð´ÐµÐ¹
Ðľ ÐĲ
ĠÐ¼Ò¯ Ð¹
Ð¡Ð¾Ð½ Ð´Ð°
Ð¢ Ðµ
ĠÐĲ ÑĪ
Óĺ Ð·ÑĸÑĢ
ĠÐ¸ ÐµÑģÑĸÐ½ÑĸÒ£
ĠÐ¸Ð½ÑģÐ¿ ÐµÐºÑĤÐ¾ÑĢ
ĠÑĤÑĭÑĢ ÑĭÑģÑĤÑĭ
Ð°Ñĥ Ð´Ð°
ĠÑĤÒ¯ ÑĤÑĸÐ½
ĠÒĽÐ°Ð»ÑĭÐ¿ ÒĽÐ°
ĠÑĪÐ°Ò£ ÑĭÑĢ
ÐµÐ½ ÑĸÐ¿
ĠÐ± ÐµÑĤÑĤÑĸÒ£
ĠÐ¶Ð°ÑĤÑĤÑĭ Òĵ
ĠÐ±Ó©Ð»ÑĸÐ¼ Ð´Ðµ
ĠÒ¯Ð½ Ð´Ñĸ
ĠÒĽÑĭÑĪ ÒĽÑĭÐ»Ñĭ
Ð°Ñĥ Ð¼Ð°ÒĽÑĤÑĭÒĽ
ĠÒļ ÑĭÑĤÐ°Ð¹Ð´Ð°
ÐĲ Ð·Ð¸Ñı
ĠÐ·Ð°Ò£Ð½Ð°Ð¼ Ð°ÑģÑĭÐ½
ĠÑĤÐ¾Ð¿ ÑĤÐ°ÑģÑĤÑĭÑĢ
ÐµÐ»ÐµÑĢ Ð´ÐµÐ½
ĠÐµ Ð³ÑĸÐ·
ĠÑģÐ°ÑĤ ÑĥÒĵÐ°
Ð¶ ÑĥÑĢÐ½Ð°Ð»
ĠÐĳ ÐµÑĤ
ĠÐ±Ð°ÑģÑĪÑĭÐ»Ð°ÑĢ ÑĭÐ½Ð°
o ur
ĠÐķÐ» ÑĪÑĸÑģÑĸ
ĠÐ¶Ò¯ÑĢ ÑĸÑģ
ĠÐĲÐ¼Ð°Ð½ Ð¶Ð¾Ð»Ð¾Ð²
ĠÒ° Ð·Ð°ÒĽ
E N
ĠÑĪÐ°ÑĢÑĥÐ°ÑĪÑĭÐ»ÑĭÒĽ ÑĤÑĭÒ£
ĠÐ¢Ó©Ð» ÐµÐ³ÐµÐ½
ĠÐ°ÑĢ ÑĥÑĭ
ĠÐºÒ¯Ð½ Ð´ÐµÑĢÑĸÐ½ÑĸÒ£
ÑĢÐ¾Ð¼ ÑĤÐ°Ñĥ
? "
Ġ 00
Ġ5 9
ĠÐ¼ÐµÑĢÐ·ÑĸÐ¼ ÑĸÐ½ÐµÐ½
ĠÐ±Ó©Ð»ÑĸÐ¼ÑĪ ÐµÑģÑĸ
Ð¾ÑģÐ¾ÑĦ Ð¸Ñı
ĠÐļ ÑĥÑĢ
Òĵ ÑĭÐ»ÑĭÐ¼
ĠÐ±ÐµÑĢ iÐ»Ð³ÐµÐ½
ĠÑĤÐµÑĢÐµÐ· Ðµ
ĠÐŀ Ð±
Ð°ÒĵÐ°ÑĤ Ð°Ð¹
ĠÓ©Ð½Ð´ÑĸÑĢÑĸÑģ ÑĸÐ½ÑĸÒ£
ÑĭÒĽ ÑĤÐ°ÒĵÑĭ
ĠÐ±Ð°ÑģÒĽ Ð°Ð»Ð°ÑĢÑĭ
ĠÐ¼Ð°Òĵ ÑĭÐ½Ð°Ð½Ñĭ
cri pt
ĠÐ±Ð°ÑĢ ÑĭÑģÑĭÐ½
ĠÐ±Ð¸Ð»ÑĸÐº ÐºÐµ
Ðļ ÐµÐ¹ÑĸÐ½
ÒĵÐ°Ð½ Ð½Ð°Ð½
ĠÐŁ ÓĻ
Ð¸Ð» ÐµÐ²
ĠÐ±Ð°Ð»Ð°Ð»Ð°ÑĢ ÑĭÐ½
ĠÐ¶Ð°ÑĤ Ð°Ð¼ÑĭÐ·
ĠÐµÑĢ ÑĸÐ½
Ð°Ð¹ÑĤ Ð°Ð´Ñĭ
ĠÐ±Ð°Ð¹ÒĽ Ð°Ð¿
ÐĲÒĽÑĤÓ©Ð±Ðµ Ð´Ðµ
ĠÑĭÒĽÐ¿Ð°Ð» ÑĭÐ½
ĠÒĽÐ°Ð» Ð°ÑģÑĭÐ½
ĠÑĦ Ð¸Ð½
Ð¡ ÑĸÐ»
ĠÑĤ ÐµÑĤÑĸ
ĠÐ±ÐµÐ¹ÑĸÐ¼ Ð´ÐµÑĥ
ÑĪ ÑĸÐ½Ñĸ
ÑĤÐµÑĢ iÐ½
av a
ĠÒ® Ð·Ð´ÑĸÐº
ÐµÐ¹ Ñħ
ĠÑĸÑģÑĤÐµÑĥ Ñĸ
ĠÑģÐµÑĢÑĸÐºÑĤÐµÑģ ÑĤÑĸÐ³Ñĸ
ĠÐ±Ð°ÑĢ ÑĪ
ĠÐ¼Ð¾ Ð´ÐµÐ»Ñĸ
ĠÑĤÑĸÐ·ÑĸÐ¼ ÑĸÐ½Ðµ
ĠÐµÐ½Ð³ÑĸÐ· ÑĸÒ£ÑĸÐ·
ĠÐŁ ÐµÑĤÑĢ
ĠÑĤÐ°Ð¿ÑģÑĭÑĢÐ¼ Ð°Ð»Ð°ÑĢÑĭÐ½
Ð¸Ðº Ð°ÑĤÐ¸Ð²ÑĤÑĸÐº
P h
ĠÐº iÑĢ
ĠÐ°Ð¹ ÑĤÐ°Ð¼ÑĭÐ½
ĠÑĤÑĸÐ» ÐµÐ´Ñĸ
ĠÐµÐ½Ð³ÑĸÐ· ÑĸÐ¿
ĠÐļ Ð°Ñħ
ĠÐ¨ ÐµÐº
Ð´Ð°Ð½ ÑĥÑĭ
ÐĶÐµÐ½ Ð¸Ñģ
ĠÐ¼Ò¯Ð´Ð´Ðµ ÑģÑĸÐ½
ĠÓ¨ ÑģÑĸÐ¼Ð´ÑĸÐº
ĠÑģÐ°Ð± Ð°ÒĵÑĭÐ½Ð´Ð°
Ðŀ Ð´Ð°Ð½
ĠÑĤÓĻÐ¼ Ð°Ð¼
ĠÐĶÐ°Ð¼ Ñĥ
ÑĭÒĽ ÑĤÐ°Ð¿
ĠÐ°ÑĢ Ð´Ð°Ð³ÐµÑĢÑĸ
ĠÐļÓ¨ Ðł
ĠÐĸÒ±Ð¼ Ð°Òĵ
Ð° ÑĪÐ°
ĠÐ¶Ð°Ð½ ÑĭÐ½
ĠÐºÐµÐ·ÐµÒ£ Ð½ÑĸÒ£
ĠÑĤÐ°Ò£Ð´Ð°Ñĥ ÒĵÐ°
ÑĤ ÑĤÑĸÒ£
ĠÐ»Ð°ÑĥÐ°Ð·ÑĭÐ¼ Ð´Ð°ÑĢÒĵÐ°
ĠÑģÐµÐ·ÑĸÐ¼ ÑĤÐ°Ð»
ĠÑģ ÑĭÐ¼
Òĵ ÑĭÒ£ÑĭÐ·
ĠÐ½Ò±ÑģÒĽÐ°Ñĥ Ð»ÑĭÒĽ
ÐŀÐĽÐŀÐĵ ÐĺÐ¯
i on
ĠÐ¶Ð°Ð± Ð°Ð¹Ñĭ
ĠÐºÒ¯Ð½ i
ĠÐ¿Ñĥ Ð±Ð»
ĠÑģÒ±ÑħÐ±Ð°ÑĤ ÑĭÐ½Ð´Ð°
ĠÐŀÑĤÐ°Ð½ ÑĭÐ¼ÑĭÐ·Ð´ÑĭÒ£
ĠÐĸÐ°ÑĢÐ±Ð¸ Ð¼Ð°
ĠÑģÐ¸Ð¿Ð°ÑĤ ÑĤÐ°Ñĥ
ÑĭÑģ ÑĤÐ°ÑĢÑĭ
ÐĲ ÐĶÐ«
ĠÓĻÑĢÐµÐº ÐµÑĤÑĤÐµÑĢÑĸ
ĠÐ¿ÑĢÐ¾Ð±Ð»ÐµÐ¼ Ð°Ð»Ð°ÑĢ
ĠÒ° ÑĢ
ĠÐºÐµÒ£ÐµÑģ ÑĪÑĸÑģÑĸ
ĠÐ°Ð²Ð¸ Ð°ÑĨÐ¸Ñı
ĠÐ¸ ÑĸÑģ
Ð±ÐµÐº ÑĤÑĸÒ£
ĠÐ¶ÐµÑĤÑĸÐ»Ð´ÑĸÑĢÑĥ Ð³Ðµ
Ð¢ Ð«Ò¢
Ġ8 2
ÐĺÐ½ ÑĦÐ¾ÑĢÐ¼Ð°ÑĤÐ¸ÐºÐ°
ÑĤÑĸÐº ÑĤÑĸ
ĠÐ´ÐµÑģ ÐµÒ£
Ð»Ð¸ ÐµÐ½ÑĤ
ĠÑĤÐ¸Ð³ÑĸÐ· ÐµÑĤÑĸÐ½
ĠÑĤ ÐµÑģ
ĠÑģÑĤÑĥÐ´ÐµÐ½ÑĤ ÑĤÐµÑĢÑĸÐ½ÑĸÒ£
Ġ14 0
ĠÐ´Ð°ÒĵÐ´Ñĭ ÑģÑĭÐ½
ĠÐµÑģÐµÐ¿ ÑĤÐµÐ»Ð³ÐµÐ½
ĠÐ¿Ð°ÑĢ Ð°ÒĵÑĭ
Ðº Ð¾Ð»
ĠÑĥ ÓĻÐ¶
ĠÐĸÐĲÒ¢ ÐĲ
Ñģ ÑĭÒĽÑĤÑĭ
Ðľ Ð°Ð¹
ĠÐ§ ÐµÐ¼Ð¿Ð¸Ð¾Ð½
ĠÐ¶Ò± Ð±
ĠÒ±Ñı ÑĤ
Ð½ Ñĥ
ĠÓ©ÑĤÐµÐ¼ Ð°ÒĽÑĭ
ĠÒĽÐ°Ð» Ð´ÑĭÒĽÑĤÐ°ÑĢ
ĠÑĪÐµÑĪÑĥ ÑĪÑĸ
ĠÒĽÐ¾Ð»Ð´Ð°Ð½ ÑĭÐ»Ñĥ
ĠÐŃ Ð»ÐµÐºÑĤÑĢÐ¾Ð½Ð´Ñĭ
ĠÒ±ÑģÑĭÐ½ ÑĥÒĵÐ°
ĠÑĢÒ±ÒĽÑģ Ð°ÑĤÑĭ
ĠÐ±Ð°ÒĵÐ´Ð°ÑĢÐ»Ð°Ð¼ Ð°Ð»Ð°ÑĢÑĭÐ½ÑĭÒ£
ĠÑģÓ©Ð· Ð´ÑĸÐ³Ñĸ
Ð¢Ð°Ð»ÒĽÑĭÐ» Ð°Ñĥ
Ð¼ ÓĻÑģ
Ð¢ Ðł
ĠÐĿÐ°Ð·Ð°ÑĢÐ±Ð°ÐµÐ² ÒĽÐ°
Ð¢ Ñĥ
ĠÐ¶ÐµÐº ÐµÐ¼ÐµÐ½ÑĪÑĸÐº
ĠÒ° ÐĽ
ĠÓĻÐ»ÐµÐ¼ ÑĸÐ½Ðµ
ĠÐ°Ð»ÒĽ Ð°ÑģÑĭ
ĠÐ´Ð°ÑģÑĤÐ°ÑĢ ÑħÐ°Ð½
ĠÑĥ ÐµÐ·
ÓĻÑĥ Ð»
Ð°Ð¼ ÑĭÑģ
ĠÒļÒ±ÑĢ Ð¼Ð°Ð½
ĠÒĽÐ¾Ð» Ð´Ð°
ĠÐ¾ÒĽ ÑĭÐ»Ð´Ñĭ
ĠÐĶÐ°Ð½ Ð¸ÑıÑĢ
ÐĶ Ò±ÑĢÑĭÑģ
ĠÐ°ÑĥÑĭÑĤ ÒĽÑĥ
Ð¸Ñģ Ðº
ĠÐ´ÐµÐ¼ÐµÐº ÑĪÑĸ
ĠÐ¼ÐµÐºÐµÐ½ Ð´ÐµÑĢ
Ð±Ò± Ð·
ĠÓĻÐ· iÑĢ
Ðļ Ð°Ð´ÑĢ
ÑĪ ÑĭÐ¼ÐµÐ½
Ð°ÑģÑĤ Ð¸ÐºÐ°
ĠÑĤÓĻÐ¶ÑĸÑĢÐ¸Ð± ÐµÐ½Ñĸ
ĠÒļÐ°Ð» Ð°Ð»ÑĭÒĽ
ÒĽÐ°ÑĤÑĭÐ½Ð°Ñģ ÑĤÐ°
ĠÐĳ ÐķÐł
ĠÑģÓ©Ð¹ ÑĤÑĸÐ¿
ÒļÑĭÐ· ÑĭÒĽÑĤÑĭ
ĠÐ°Ð¹ Ð¼Ð°ÒĵÑĭÐ½ÑĭÒ£
Ñĸ ÑģÑĤÐµÐ½
ĠÐ¼ÐµÐ· Ð³ÑĸÐ»Ñĸ
ĠÐĸ Ð¸Ð½
ĠÒĽÐ°ÑĤ Ð°Ð»
ÐļÐ¾Ð¼ Ð¿ÑĮÑİÑĤÐµÑĢ
ĠÐµÒ£Ð±ÐµÐº Ð°ÒĽÑĭ
ĠÐ°Ð» Ð°ÑĪ
ĠÓĺ Ð´ÐµÐ±Ð¸
ĠÒļ Ð°Ð±ÑĭÐ»
ĠÐļ Ó©Ð»
ÐŀÐ±Ð» ÑĭÑģÑĤÑĭÒ£
I n
ÒĵÑĭÐ» Ð°ÑĢÐ´ÑĭÒ£
Ðĸ ÐµÐ¼ÒĽÐ¾ÑĢÐ»ÑĭÒĽ
ĠÑģÓ©Ð· Ð´ÐµÐ½
ĠÓ¨ ÐĹ
ĠÒĽÐ°ÑģÐ¸ ÐµÑĤÑĤÐµÑĢÐ´Ñĸ
ĠÑĤÐ¾Ð¿ ÑĤÐ°
ĠÐ¾ÑĢÐ³Ð°Ð½ Ð´Ð°ÑĢÑĭÐ½Ð´Ð°
ĠÑĪ Ñĸ
199 9
Ð¾Ð½ Ð¾Ð´Ð°
ĠÒĽÑĭÑĢ Ñĭ
ĠÐ¡Ò¯Ð»ÐµÐ¹Ð¼ÐµÐ½ Ð¾Ð²
ĠÐºÓ©Ð¼Ðµ Ð³ÑĸÐ½
Ð» ÓĻ
ĠP h
ĠÑĤÐµÐ»ÐµÐ°ÑĢÐ½ Ð°ÑģÑĭ
ÐĿ Ð«Ò¢
ĠÐ¨ ÑĭÒĵÐ°ÑĢ
ÐĳÐ¸Ð·Ð½ÐµÑģ ÑĤÑĸÒ£
ĠÑĪÑĭÒĵÐ°ÑĢÐ¼ Ð°Ð»Ð°ÑĢÑĭÐ½
ĠÐºÐµÐ·Ð´ÐµÑģ ÑĥÐ´Ðµ
ĠÒĽÐ¾Ð½ ÑĭÑģÑĤÐ°Ð½
t h
ĠÐ°Òĵ Ð°ÑģÑĭ
ĠÒĽÐ°ÑĢÐ°ÑģÑĤÑĭÑĢ ÑĭÐ¿
ÐµÐ± ÐµÑĢ
ĠÑĤÐ°ÒĽÑĭÑĢÑĭÐ¿ ÑĤÐ°ÒĵÑĭ
ĠÐĹ Ð°Ð¹
ĠÐ¿ÑĢÐ¾ÑĨ ÐµÑģÑĸÐ½Ðµ
ĠÐ´Ð¸Ñģ Ðº
Sk ip
ĠÐ¶ÑĭÐ» Ð´ÑĭÒĵÑĭÐ½
ĠÑģÑĥÑĢÐµÑĤ ÑĪÑĸ
Ð¼ ÑĸÑģ
ĠÑĢÐµÑģ ÑĥÑĢÑģ
M L
ĠÐĲÐ» ÒĵÐ°ÑĪ
ĠÑģÐµÑĢÐ² Ð¸Ñģ
ÑĤÐµÑĢ Ð´iÒ£
Ðĺ Ð¼
Ò£ Ðµ
ĠÒļ ÑĭÑĢÑĭÐ¼
ĠÑģÑĥ Ð´Ð°
ĠÑĤÒ±ÑĢÒĵÑĭÐ½ Ð´Ð°ÑĢÑĭÐ½Ð°
ĠÑĤÐ¾ÒĵÑĭÐ· ÑĭÐ½ÑĪÑĭ
ĠÑģÐ¸Ð½Ð´ÑĢÐ¾Ð¼ Ñĭ
ĠÐºÐµÐ»ÑĸÑģ ÑĸÐ¼Ð´ÐµÑĢ
ĠÑģÑĭÐ· ÑĭÒĽ
ÐĨ V
ĠÐºÒ¯ÑĢÐµÑģ Ñĥ
ÑħÐ°Ð½ Ð°Ð»Ð°ÑĢ
ĠÒ¯ÑĢ ÐµÐ¹
ĠÓ©ÑĤÐºÑĸÐ· ÐµÑĤÑĸÐ½
Ð¢ Ð°Ð±
ĠÑĤÐ°Ð½ÑĭÑĤ ÒĽÐ°Ð½
ÑĭÐ· Ð´ÑĭÒĽ
ÐĲÐ² ÑĤÐ¾
a st
Ð°ÑĢ ÑĭÐ½
ĠÐ±Ð¾Ð» ÑĮ
ĠÐ¾ Ð´Ð°
ÓĻÐ· Ð·Ð°ÑĤ
Ð¾Ðº ÑĢÐ¸Ð½
Ð°Ð± Ð¾Ð»
ĠÑĤÐ¾ÒĽÑĤÐ°ÑĤ Ð°
ĠÐ¶Ð°Ð½ ÑĭÐ½Ð°
ĠÑģÐ°Ð½ Ð°ÑĤÑĤÑĭ
Ð°ÑĤ ÐµÑĢ
Ð¼ Ð°Ðº
ĠA r
ĠÐ¼ÐµÑĪÑĸÑĤ ÑĸÐ½ÑĸÒ£
ĠÐ¿ÓĻÐ½ Ð´ÐµÑĢÑĸÐ½ÑĸÒ£
ĠÓ©Ð·ÐµÐºÑĤÑĸ Ð»ÑĸÐ³Ñĸ
ĠÒĽÐ¾Ð¹ ÑĭÐ»ÑĭÐ¿
ĠÐ°Ð¿ ÑĤÐ°Ð»ÑĭÒĽ
ĠÐµÐºÑĸ Ð¶Ð°ÒĽÑĤÑĭ
ÐľÓĻÑģ ÐµÐ»ÐµÐ½
ĠÐºÐµÐ· ÑĸÐ½ÐµÐ½
ĠÐķ Òļ
ĠÐ¶Ð°Ð» Ð´Ð°Ñĥ
ÑĤÑĭ ÒĵÑĭÐ½Ð°
ĠÐ¼ Ð¸Ð³
ĠÐºÐµÐ» ÐµÐ¼ÑĸÐ·
ĠÐ¶Ð°Ð± Ñĥ
ut nik
Ð¡ Ðĺ
Ġ19 86
ĠÐ¶Ð°Ð· Ð´Ð°
ĠÑĤÓĻÑĢÐ±Ð¸ ÐµÐ½ÑĸÒ£
ĠÐŀ Ðļ
ĠÐ±Ð°ÑĢ ÑĥÒĵÐ°
Ġ7 3
Ð°Ð² Ð»ÐµÐ½
ĠÐºÑĸÑĤÐ°Ð¿ ÑĤÑĭÒ£
ĠÐ´ÐµÐ³ÐµÐ½ Ð³Ðµ
S S
ĠÐ¶ÑĭÑĢ Ñĭ
ĠÐŀÐ½ Ð»Ð°Ð¹Ð½
Ð¢ Ð°Ñģ
ĠÐ¿ÑĢÐ¾Ð±Ð»ÐµÐ¼ Ð°
ĠÐ¶Ð¸Ò» Ð°Ð·
ĠÑĤÐµÐ»ÐµÐ´Ð¸ Ð´Ð°ÑĢ
ĠÓ©Ð½ Ð´iÑĢ
ĠÐ¿ÑĢÐ¸Ð½ÑĨÐ¸Ð¿ Ñĸ
Ð¢Ð°Ð±Ð¸Òĵ Ð°ÑĤ
ÐµÐ»ÐµÑĢ ÑĸÐ¼ÐµÐ½
ĠÑĦ Ð°ÑĢÐ¼Ð°ÑĨÐµÐ²
ĠÐ¿Ð°Ð¹Ð´Ð°Ð»Ð°Ð½ ÑĥÑĪÑĭ
ĠÐ¶Ò¯ Ð½
ĠÑģÐ°Ð¿Ð°ÑĢ Ð¼ÐµÐ½
ÐµÑĤÐµÑĢÐ¸Ð½Ð°ÑĢ Ð¸Ñı
ÑĭÐ½Ð°Ð½ Ð´Ð°Ð¹
ÐµÐ² ÑĩÐµÐ½ÐºÐ¾
ÐļÐµÐ· Ð´ÐµÑģÑĥ
ĠÐŃ Ð½
ÑģÒ¯ÑĢ Ð³ÑĸÐ½
Ð´Ðµ Ò£Ð³ÐµÐ¹
ĠÐ±ÐµÑĢ Ð³Ñĸ
Ñİ Ð¼Ð¸Ð½
ĠÐ¡ ÑĭÑĢÑĤ
ĠÓĻÐºÐµÐ» ÐµÑĤÑĸÐ½
ĠÐ¶Ð°ÑĢ ÒĵÑĭÐ»ÑĭÒĽ
Ð½Ð°Ð¼ Ð°Ð»ÑĭÒĽ
ĠÐ¢Ò¯ ÑģÑĸÐ½
ĠÑģÐ°ÒĵÐ°ÑĤ ÒĽÐ°
ĠÐ°ÑģÐ¿Ð°Ð¿ ÑĤÐ°ÑĢ
Ð¼ Ò±ÑĢ
ĠÐ¼Ò¯ÑĪ ÐµÐ»ÐµÑĢÑĸÐ½Ðµ
ÑĥÐ¿ Ð±Ð»
ĠÐ°Ð¹ ÑĤÐ°Ñģ
ĠÐ°Ðº Ðº
ÐĶÐ°Ð¼ Ñĥ
ĠÐµ Ð»ÑĸÐº
Ñį Ð¿Ð¸
Ð³ÐµÑĢ Ð»ÐµÑĢÐ´ÑĸÒ£
ĠÐĲÐ» Ð´ÑĭÐ¼ÐµÐ½
ĠÐŀ Ñģ
ÐĺÐ½ ÑĤÐµÑĢÐ½ÐµÑĤ
ĠÒĽÐ°Ð· ÑĭÐ»Ð°ÑĢ
ĠÐĸÐ°ÒĽ ÑĭÐ¿
ĠÑĦÐ¸Ð»ÑĮÐ¼ Ð´ÐµÑĢ
ĠÐĲÑı Ð³Ó©Ð·
ÑĢ Ð°Ð³
ĠÐľ ÐµÐ´Ð¸ÑĨÐ¸Ð½Ð°
ĠÐ± Ð°Ð±Ñĭ
ĠÐłÐµÑģ ÑĥÐ¿Ð±Ð»
ÓĺÐ¹ ÐµÐ»
ĠÐ±ÑĸÐ» Ð´ÑĸÐ¼
ĠÑĤÐ°Ð» Ð°Ð½ÑĤ
ĠÐ¶Ò¯Ð¹ ÐµÐ»ÐµÑĢÑĸÐ½
ĠÐµÑĤ ÐºÑĸÐ·
ĠÐ´ÐµÐ½ ÐµÐ½ÑĸÒ£
ÒĵÑĭÐ» ÑĤ
20 01
ĠÐ±Ð°ÑĢ Ð»ÑĭÒĵÑĭÐ½Ð°
ÐĲÑĥ ÑĭÑĢ
ĠÐ»Ð°ÑĥÐ°Ð·ÑĭÐ¼ Ð´Ð°ÑĢÑĭÐ½Ð°
ĠÑĤÐ°ÑĢ ÑĤÑĭÑģ
ĠÓ©Ð½ÐµÑĢ Ð´ÑĸÒ£
ĠÐ¶Ð°Ñĥ Ð»Ð°Ð¿
ĠÑĢÑĥ Ñģ
ĠÒĵÐ°Ð»Ð°Ð¼ Ð´ÑĭÒĽ
ĠÐ¼Ò±ÑĢÐ°Òĵ Ð°ÑĤÑĤÐ°ÑĢ
Ð¾Ð½Ð¾Ð´Ð° ÑĤÐµÐ»ÑĮÑģÑĤÐ²Ð¾
ĠÑģÐ¿Ð¾ÑĢÑĤ Ð¿ÐµÐ½
C ÑĤÑĢÐ°ÑĤÐµÐ³Ð¸Ñı
ÑĥÑĩ Ð¸Ð½Ð³
Ñĭ Ð´ÑĭÑĢ
ĠÑĪÐµÐ¶ÑĸÑĢ Ðµ
Òĵ Ð°ÑĢÑĭ
ĠÐ¶Ð°ÑĢÐ¸ÑıÐ»Ð°Ñĥ ÒĵÐ°
ĠÒĽÐ°Ð½ Ð´Ñĭ
ĠÑģÑĤÐ°Ð½Ð´Ð°ÑĢ ÑĤÑĤÑĭ
ĠÐ°ÑĢÐ½Ð°Ð» ÑĭÐ¿
ĠÐ¢ ÐµÒ£
ĠÐºÐµÑĤÐºÐµÐ½ ÑĸÐ½
ĠÐķÐ»Ð±Ð°Ñģ ÑĭÐ¼ÑĭÐ·
ĠÐľ ÐµÐ´
ĠÐ¶ÐµÑĤÑĸÑģÑĤÑĸÐº ÑĤÐµÑĢÐ³Ðµ
ĠÐ¶Ð°Ð½ÐºÒ¯Ð¹ ÐµÑĢ
ĠÒ¯Ð¹Ð»ÐµÐ½ Ñĥ
ĠÑĪÑĭÐ½ ÑĭÐ¼ÐµÐ½
ÑģÑĤ Ð°ÒĵÑĭ
ĠÐ¶ÑĸÐ±ÐµÑĢ ÑĸÐ»Ð´Ñĸ
ĠÐ« Ð½
ĠÐ¢ÐµÐ¼ÑĸÑĢ ÑĤÐ°Ñĥ
ĠÐ¾ÑĢÑĤÐ°Ð»ÑĭÒĽ ÑĤÐ°Ð½Ð´ÑĭÑĢÑĭÐ»ÒĵÐ°Ð½
ÑĢÐ¸ÑģÑĤ Ð¸Ð°Ð½
ĠÒĽÐ°Ð· Ð±
ĠÑģÐ°ÑĢ Ð°Ð¹ÑĭÐ½Ð´Ð°
Ð± ÐµÐ·
Ð°Ñĥ Ð´ÑĭÒ£
ĠÑģÑĤÐ¸ Ð»
ĠÐ¡ ÑĤÐ°Ð½Ð´Ð°ÑĢ
Ñı ÑĤÑĭÐ½
Ð¿ÐµÐ½ ÑĸÒ£
ĠÐĹÐ°Ðº Ð¾Ð½Ð¾Ð´Ð°ÑĤÐµÐ»ÑĮÑģÑĤÐ²Ð¾
ĠÐµÑģ ÑĸÐ³ÑĸÐ½
ĠÑįÐºÑģÐº ÑĥÑĢÑģ
Ð¾ÑĢ ÑĦ
ÐļÐ¾ÑĢ Ð¿Ð¾ÑĢÐ°ÑĤÐ¸Ð²ÑĤÑĸÐº
ĠÑĤÒ¯Ð· ÐµÑĤ
ÐĲÐ·Ð°Ð¼ Ð°ÑĤÑĤÐ°ÑĢÐ´Ñĭ
ĠÑħ Ð°ÑĤÑĭ
ĠÐ±Ð°Ñģ ÑĤÐ°ÑĢ
ĠÐĿ Ð°ÒĽÑĤÑĭ
ĠÐĿ ÑĥÑĢ
ĠÐļÐ°Ñħ Ð°ÑģÑĤÐ°Ð½
ĠÐłÐµÑģÑĥÐ¿Ð±Ð» Ð¸ÐºÐ¸
ĠÑģÐ°Ð» Ð¼Ð°ÒĽÑĤÑĭ
ÑĸÑĪ ÐºÐµÐ½ÑĤÐ°Ð¹
ĠÑĤÐ°Ð» Ð´Ð°Ð¿
Ð¿Ð»Ð°Ð½ ÑĤÐ°ÑĨÐ¸Ñı
ĠÐĽ ÐµÐ½Ð¸Ð½
ĠÐ²ÐµÐ» Ð¾Ñģ
ĠÐ³Ð°Ð· ÐµÑĤÑĤÐµÑĢ
ĠÑģÐ¸Ð³ Ð½Ð°Ð»
o int
ĠÐĳÐµÑĢ ÑĸÐ»Ð³ÐµÐ½
Ð°Ð½ Ð³
Ð¢ Ðĳ
Ð¸ÑĦ Ð¼ÐµÑĤ
ĠÒ±ÒĽÑģ Ð°Ð¹Ð´Ñĭ
ĠÐ´Ð°Ò£ ÒĵÑĭÐ»
ĠÒĽÐ¾Ñģ ÑĭÒ£ÑĭÐ·
ÑĢÑĤ Ò¯ÑĢÐ»Ñĸ
ĠÑĪÑĭÒĵÐ°ÑĢÐ¼Ð° ÑĪÑĭÐ»ÑĭÒĵÑĭÐ½
ĠÐ° ÑīÑĭ
ÑģÑĤÐµÑĢ ÑĸÐ½
ĠÑĪÐµÑĪ ÑĸÐ¼Ð´Ñĸ
ĠÐºÐµÐ¼ Ðµ
ĠÐ±ÐµÐ¹ÑĸÐ¼ Ð´ÐµÐ»
ĠÐľÓĻ Ò£Ð³ÑĸÐ»ÑĸÐº
ĠÑģÐ°Ð¿Ð°ÑĢ ÒĵÐ°
Ġ6 1
ĠÐ¾ ÑĤÐ°Ñĥ
ĠÐºÒ¯ ÑĤÑĸÐ»ÑĥÐ´Ðµ
ĠÐ¢ÓĻÑĥÐµÐ»ÑģÑĸÐ· Ð´ÑĸÐ³ÑĸÐ½ÑĸÒ£
Ðľ Ð°ÒĵÐ°Ð½
ĠÐ°Ð»Ð¼ Ð°Ð´ÑĭÐ¼
ĠÑĸÑģÑĤÐµÑĢ Ð´Ñĸ
ĠÐ°Òĵ Ð°Ð¼ÑĭÐ·
ĠÑĤÐ°Ð½ÑĭÑģ ÑĤÑĭÑĢÑĭÐ¿
ĠÑĪÐ°Ñĥ ÑĭÐ¿
ĠÐ´ÐµÐ¿ÑĥÑĤ Ð°ÑĤÑĤÐ°ÑĢ
ÐĽ Ð¾Ð³
ĠÒ¯Ð¹ Ð»ÐµÑĢÑĸ
ĠÑĪÑĭÒĵÐ°ÑĢ ÑĭÐ»ÑĭÐ¼
ÑĭÐ» Ñĭ
Ð´ Ð¸Ð½Ð°
ĠÑģÐµÐ±ÐµÐ¿ ÑĤÐµÐ½
ÑĭÐ½ Ð½ÑĭÒ£
Ð¢ Ð¢ÐĨ
ĠÐ¼Ð¾Ð½ ÑĤÐ°Ð¶
Ð¾Ð±Ð°Ð² Ð¸ÑĤÑĮ
at e
ÑĤÓ© ÑĢÑĤ
ĠÒļ Ð°ÑĥÐ»
ĠÑĪÐµÑĤÐµÐ» Ð´Ðµ
ĠÐ¿ÐµÑĢ Ð½
ĠÐ¾ÑĤÑĭÑĢ ÑĭÒ£ÑĭÐ·
ĠÐ¿ Ð¾Ð²
ĠÐĴ ÐºÐ¾Ð½ÑĤÐ°ÐºÑĤÐµ
ÒĵÑĭÐ» Ð°ÑĢÑĭ
ĠÐ¼ÐµÑĤÐ°Ð»Ð»ÑĥÑĢÐ³ Ð¸Ñı
ĠÑĤÐ°Ð¿ÑģÑĭÑĢ Ð°Ð¼ÑĭÐ½
ĠÑģ ÐºÑĢ
ĠÓ©ÑģÑĸÐ¼Ð´ÑĸÐº ÑĤÐµÑĢÐ´ÑĸÒ£
ĠÐ¼iÐ½ Ð´ÐµÑĤÑĤÐµÑĢ
Ð±ÐµÑĤ ÑĤÐµ
ĠÓ©ÑĤÑĸÐ½ÑĸÑĪ ÑĤÑĸ
3 00
ĠI T
ĠÐºÑĸÑģÑĸ Ð³Ðµ
ĠÐ´Ð¸Ð°Ð³Ð½Ð¾ÑģÑĤ Ð¸ÐºÐ°Ð»ÑĭÒĽ
ĠÐµÑĢÐµÐºÑĪÐµ Ð»ÑĸÐ³ÑĸÐ½
ĠÐ» Ð¸ÑĢ
ĠÐ£ Ð¸ÐºÐ¸Ð¿ÐµÐ´
ĠÒĽÑĥ ÑĭÑģÑĭ
ĠÐŀÑĢ Ð¼Ð°Ð½
ĠÐ¢ Ð¾Ð¹
ĠÒļÐ¾ÑĢ ÒĽÑĭÑĤ
ÐĳÐµÑĢ ÑĸÐ»Ð³ÐµÐ½
ĠÐ¡ Ð¾Ò£
Ð°Ð¹Ð» Ð°Ð¿
ĠÑģ ÑĤÐ°ÑĢ
Ó© Ðº
ĠI ÐĨ
-- --
ÑĦ Ð°Ð²
ĠÐ¿ÐµÐ½ Ð´Ðµ
ÑĭÐ» ÑĭÑģÑĭ
ĠÓ©Ð· ÑĸÐ¼Ðµ
ĠÒĽÐ°Ð»Ð´ÑĭÒĽ ÑĤÐ°ÑĢÐ´Ñĭ
ĠÒĽÐ°Ð¹ ÒĵÑĭÐ»Ñĭ
ĠÐ¼ÑĭÑģ ÑĭÒĽ
Ð½ Ð°ÑĥÑĢÑĭÐ·
ĠÓĻÐ·ÑĸÑĢÐ»ÐµÐ½ Ð´Ñĸ
ĠÑįÐ»ÐµÐ¼ÐµÐ½ÑĤ ÑĤÐµÑĢÑĸÐ½
ĠÐ¶ÐµÑĤ Ð¿ÐµÐ¹
ĠÑĤÓ©Ð¼ÐµÐ½ Ð´ÐµÐ¹Ð´Ñĸ
ĠÒ¯ÑĢÐ´ÑĸÑģ ÑĸÐ½Ð´Ðµ
ĠÐµÒ£Ð± ÐµÐ³ÑĸÐ½Ð´Ðµ
ĠÐ¼ÓĻÐ»ÑĸÐ¼ Ð´ÐµÐ¼Ðµ
ĠÐºÓ©Ð· ÑĸÐ¼
Ð¸Ð»Ð¸ Ñī
Ð¼ Ð°Ò£ÑĭÐ·
ĠÒĽÒ±Ð½Ð´Ñĭ Ð»ÑĭÒĵÑĭ
ĠÐµÒ£Ð±ÐµÐº ÑĤÑĸÒ£
ĠÐ¼Ð°ÑĢÑĪ ÑĢÑĥ
ĠÐºÐµÐ»Ðµ ÑĪÐµÐ³Ñĸ
ĠÐ´Ð°ÒĵÐ´Ñĭ Ð»Ð°Ð½Ð´ÑĭÑĢÑĥ
Ð°Ð¹ Ð½Ð°Ð»
Ð³Ñĥ Ð¼Ð°Ð½
ĠÐ±Ò±Ð» Ð°Ð¹
ĠÑģÐ¾Ð½ ÑĪÐ°
Ġ6 9
ĠÐ±Ð°ÒĵÐ°Ð»Ð°Ð½ Ð°Ð´Ñĭ
Ð¸Ð»Ð» Ð¸Ð¾Ð½
ĠÑĤÒ¯ÑĢ ÑĤ
Ðķ ÑĥÑĢÐ¾Ð¿
Ð¼ Ð°Ð»ÑĭÒĽ
Ð¿ ÐµÑģÐµ
om e
ÐĳÐ°Ð»Ð°Ð»Ð°ÑĢ ÒĵÐ°
ÑĭÒ£ Ð½ÑĭÒ£
ÐĸÐ°ÑĥÐ°Ð¿ ÐºÐµÑĢ
Ð» Ð½
ĠÐ¿ÑĢÐ¾ÑĨÐµÑģ ÑĤÐµÑĢ
ĠÑģÑĭÐ½ ÑĭÐ±
Òĵ Ð°Ñģ
ĠÒ±Ð¹ÑĭÐ¼ Ð´Ð°ÑĢÐ´Ð°
ĠÐºÐµÑĤÑĤÑĸ Ð¼
ĠÐĺÐ¼ Ð¿Ð»Ð°Ð½ÑĤÐ°ÑĨÐ¸Ñı
ÒĽÐ°ÑĤ ÐµÑĢ
ĠÑģÐ°ÒĽ ÑĤÐ°Ð½
ĠÐ°Ð²ÑĤÐ¾Ð±Ñĥ ÑģÑĤÐ°ÑĢ
ĠÑĤÑĸÐ» Ð´ÐµÑģ
ĠÒĽÐ°Ð±ÑĸÐ» ÐµÑĤ
ÐĻ Ð«ÐĿ
K azakh
ĠÓĻ Ð´
ĠÑįÐº ÑģÑĤÐµÑĢ
ĠÑĤÐ¾Ð¼ Ð´ÑĭÒĽ
ĠÐºÓ©Ð¼ ÐµÐºÑĤÑĸ
ĠÐ¡Ð¸ÑĢ Ð¸Ñı
ĠÐ¶ i
ĠÐ· Ð°Ð¿
ĠÐ±Ñĸ ÑĤÑĸÐ¼
Ð¢ ÑĢÐ°Ð½Ñģ
ĠÐ± ÐµÐ¹ÑĸÐ½
Ð¹ÑĢ ÑĭÒĽ
ÐµÐ´ Ð¸ÑĤÐ¾ÑĢ
ĠÐºÑĸÑĤÐ°Ð¿ ÑĤÑĭ
ĠÐºÒ¯Ð¹ ÑĸÐ½
Ð°Ð» Ð¼Ð°Ð¹Ð´Ñĭ
ÐµÑĢÐµÐº ÑĪÐµ
ĠÑĤÐ¸ÑĸÑģ Ð¿ÑĸÐ·
ĠÐ¿Ð°ÑĢÐ°ÒĽÑĪ Ð°ÑģÑĭÐ½Ð´Ð°
Ð°Ð»Ð°ÑĢ ÑĭÐ¼ÑĭÐ·Ð´ÑĭÒ£
Ð¶ ÑĸÑĢ
ĠÐµÐ½Ð³ÑĸÐ·Ñĥ Ð´Ñĸ
ĠÐ±Ð¾Ð¹ ÑĭÐ½
199 1
ĠÐĿ ÐµÑģ
! "
ĠÐ¸Ð½ÑĤÐµÐ»Ð»ÐµÐº ÑĤÑĥÐ°Ð»Ð´ÑĭÒĽ
ĠÐºÓĻÑģiÐ¿ ÐºÐµÑĢÐ»iÐº
ĠÐķ Ð»ÑĸÐ¼ÑĸÐ·
ĠÐ°ÑĢÑĤÑĥ Ñĭ
ĠÐ±ÐµÐ· Ð´ÐµÑĢÑĸÐ½ÑĸÒ£
ĠÑĤÐµÒ£ÑĸÐ· Ñĸ
ĠÑĸÑĪÑĸÐ½ Ð°ÑĢÐ°
ĠÑĤÐ°ÑĥÐ°ÑĢ Ð´Ñĭ
ĠÐ¾Ð±ÑĬÐµÐºÑĤÑĸ Ð»ÐµÑĢÑĸ
d er
ĠÑģÐµÐ±ÐµÐ¿ ÑĤÐµÑĢ
ĠÑĤÐ¾ Ò£
ĠÐ±Ð°ÑıÐ½ Ð´Ð°Ð´Ñĭ
ĠÐľÐµÐ¹ ÑĢÐ°Ð¼
Ð¾Ð½ Ð°
ĠÐĵ Ð¾Ð»
ĠÐ¼Ð¸Ð»Ð»Ð¸Ð¾Ð½ Ð½Ð°Ð½
ĠÓĺÐ»ÐµÐ¼ Ð´Ðµ
Ð¾ÑĢ Ð´Ð°Ð½ÑĭÒ£
ÐĶ Ð¶
Ð¸ Ð°ÑĤ
ĠÐĹÐ¸ÑıÑĤ ÐºÐµÑĢÐ»ÑĸÐº
Ð°ÒĽ Ð°Ñģ
ĠÒĽÐ°Ð±ÑĭÐ»Ð´Ð°Ñĥ Ñĭ
ĠÐ¼Ð°ÑĪÐ¸Ð½ Ð°Ð»Ð°ÑĢ
ĠÐľ Ð°ÑĪ
ĠÐ³Ð°Ð· Ð±ÐµÐ½
ĠÐ¶Ð°ÑĥÐ°Ð¿ ÑĤÐ°ÑĢÑĭ
i f
ĠÑĸÐ·Ð´ÐµÐ½ ÑĸÑģ
ĠÐ± ÐµÑģÑĸ
ĠÑĤ Ð¸Ð¼
Ð¡Ð¾ Ð´Ð°Ð½
ĠÐ¶Ð°Ð½ Ð´Ð°Ð½Ð´ÑĭÑĢÑĥ
Ð¶Ð°ÒĵÐ°ÑĢ Ð¼Ð°Ð¹
ĠÐļÐ¾Ð¼ Ð¼ÐµÐ½ÑĤÐ°ÑĢÐ¸Ð¹
Ñģ Ð¸Ð²ÑĤÑĸ
ĠÑĤÒ¯Ð± ÑĸÐ½Ð´Ðµ
Ð´Ñĥ Ðº
ĠÐ°Ð»ÑĥÑĪÑĭÐ»Ð°ÑĢ ÒĵÐ°
ÓĻÑĢÐµÐº ÐµÑĤÑĸÐ½
ĠÓĺÐ¹ ÐµÐ»Ð´ÐµÑĢ
ĠÐ´Ð°Ð¼ÑĭÑĤÑĥ Ð´Ð°
ĠÐ°ÑĢ Ð°ÑģÑĭÐ½Ð°
ĠÐ¶Ð¸Ð½Ð°ÒĽ ÑĤÐ°Ð»ÑĭÐ¿
ĠÐļÓ©ÑĢ ÐºÐµÐ¼
ĠÐ¿ÑĭÑĪ Ð°ÒĽ
ĠÐ°Ñģ ÑģÐ°Ð¼Ð±Ð»ÐµÑı
ÑĪÐ°ÑĢ Ð°Ð»Ð°ÑĢÐ´ÑĭÒ£
Ð¼ÓĻ Ð»ÑĸÐ¼
Ð³Ñĸ ÑĤÑĥ
ÒļÒ± Ð¶
ĠÒ¯Ð½ Ð´ÐµÑĥ
ĠÒĽÐ°ÑĢ Ð°Ð»ÒĵÐ°Ð½
ĠÐ½Ð°ÑĢ ÑĭÒĵÑĭÐ½Ð´Ð°ÒĵÑĭ
ĠÑģÒ±ÑĢÐ°ÒĽÑĤÐ°ÑĢ ÑĭÐ½Ð°
Ð¾ÑĢ Ð¸Ñı
ĠÐ±Ó© Ð»ÑĸÐ³ÑĸÐ½Ðµ
ĠÐ·Ð°Ð¼Ð°Ð½ ÒĵÐ°
ĠÐºÒ¯ÑĪ ÑĤÐµÑĢÑĸ
Ð¼Ò±Ð½ Ð°Ð¹
ĠÑĸÑĢÐ³ ÐµÑĤ
Ð² ÐµÐ½
ÐºÐµÐ½ Ð´ÑĸÑĢ
ĠÑĪÑĭÐ½ Ð´ÑĭÒĽÑĤÑĭ
ĠÐ³ÐµÐ½ ÐµÑĤÐ¸ÐºÐ°Ð»ÑĭÒĽ
ĠÐ¶ÓĻ Ð±ÑĸÑĢ
ÐĿ ÐĲÐĽ
ĠÐ¼Ð°Ð·Ð¼Ò±Ð½ Ð´Ð°ÒĵÑĭ
ĠÐĳÐµÐ¹Ð½ ÐµÑĥ
ĠÒĽÐ°ÑĢ Ð¿ÑĸÐ½Ðµ
ĠÓ©ÐºÑĸÐ» Ð´ÑĸÐº
ÐĶ Ð¾Ð»Ð»Ð°ÑĢ
ĠÐ¶ÐµÑĤÐºÑĸÐ· ÑĸÐ»Ð´Ñĸ
ĠÐ¶Ò¯ Ð³ÑĸÑĢÑĥ
ÑĤ iÐ½
ĠÒĽÐ¾ÑĢ ÑĪÐ°Ñĥ
ĠÐ±Ð°Ð¹ÒĽ Ð°ÒĵÐ°Ð½
ÐľÒ± ÑħÑĤÐ°ÑĢ
ĠÐ¡ Ð¾Ð²ÐµÑĤ
Ð¿Ðµ ÑĨ
ĠÒĽÐ¾ÑĢ ÑĭÑĤ
ĠÐ³ÑĢÐ°Ð½ ÑĤÑĤÐ°ÑĢ
ĠÑĤÓ© Ð»ÐµÐ½Ð³ÐµÐ½
ĠÑģÐ°Ð¹ÑĤ ÑĭÐ½Ð°Ð½
ÒĽÐ°ÑĢ Ð°Ð¶Ð°ÑĤ
ĠÐĵ ÑĢÑĥÐ·Ð¸Ñı
ĠÒĽÑĭÐ» ÑĭÒĽ
ĠÓ©Ð·Ð³ÐµÑĢ Ð³ÐµÐ½
ĠÐĸ Ð°Òĵ
ĠÒĽÑĭÐ·ÑĭÒĽ ÑĤÑĭÑĢ
ĠÐ¼ÓĻ Ð¹
Ò¯Ð» ÐºÑĸ
ĠÑĤÐµÒ£ÑĸÐ· ÑĸÐ½ÑĸÒ£
ĠÐ¶ÐµÐ»ÑĸÑģ ÑĸÐ½
Ðµ Ð»ÑĸÐ¼
ĠÐºÐ°ÑĢ ÑĤÐ¾Ð¿
Ð°Ð¸ Ð»
ĠÐ´Ð¾ ÑģÑĭ
ĠÐºÒ¯ Ð»ÑĸÐ¿
ĠÓ©ÐºÑĸÐ» Ð´ÐµÑĢÑĸÐ½Ðµ
b er
Ġ @
ĠÐ· Ð°ÑĤÑĤÑĭ
Ð¸ Ð´ÐµÑĢ
ĠÐ¶Ð¾Ð± Ð°ÒĵÐ°
ÓĺÐ¹ ÐµÐ»Ð´ÐµÑĢ
ĠÑĪÐµÑĤ ÐµÐ»Ð´ÐµÑĢ
ĠÒ® ÐºiÐ¼ÐµÑĤ
ĠÐ¾ÑĢÑĤÐ°Ð»ÑĭÒĽ ÑĤÑĭÒ£
ÑĪ ÑĭÒĵÐ°ÑĢ
ĠÐ¿ÑĢÐ¾Ð±Ð»ÐµÐ¼ Ð°Ð»Ð°ÑĢÐ´Ñĭ
ÐĴ Ð°Ð»ÑİÑĤÐ°
ĠÐĳ Ñĥ
ĠÒĽÐ¾ÑĢÑĭÑĤÑĭÐ½Ð´Ñĭ Ð»Ð°Ñĥ
ĠÐ¼Ð°ÑĥÑģÑĭÐ¼ ÑĭÐ½Ð´Ð°
Ðľ Ð¢Ð£
Ð¼ÓĻ ÑĤÐµÐ»
ĠÐĲÐ¼ÐµÑĢ Ð¸ÐºÐ°ÑģÑĭ
ĠÐ¾Ò£ÑĤÐ°Ð¹Ð» Ð°Ð½Ð´ÑĭÑĢÑĥ
Ð¸ Ð°Ð´Ð°
ÐµÐº ÑĤÑĥÑĢ
ĠÐļ Ð¾
ÒĽÐ° Ð´Ð°Ð¼
ĠÐºÓ©Ð»ÐµÐ¼ ÑĸÐ½Ðµ
ĠÐ¶ÐµÐ¼ÒĽÐ¾ÑĢÐ»ÑĭÒĽ Ð¿ÐµÐ½
ĠÐĲÐ·Ð¸Ñı Ð½ÑĭÒ£
ÑĤÐµÐ½ Ñĸ
ĠÐ±Ó©Ð»Ð¼ ÐµÑģÑĸ
ÑĦ ÑĦ
ÑħÐ°Ð½ Ð°ÒĵÐ°
ĠÑĤÒ±ÑĤÑĭÐ½ ÑĥÑĪÑĭÐ»Ð°ÑĢÐ´ÑĭÒ£
Ò± Ò£
Ð°Ð² Ð¸Ð»ÑĮ
Ò®ÐºÑĸÐ¼ ÐµÑĤ
Ð°Ðº ÑĤÐµÑĢ
ĠÒļÐ¾ Ò£
Ð°Ð½ Ð´Ð°ÑĢ
ÑħÐ°Ð½ Ð°Ð»ÑĭÒĽ
ĠÐ¶Ð¾ÒĵÐ°Ð» ÑĤÑĥ
ĠÐŀÒĽ ÑĥÑĪÑĭ
ĠÐ±Ó©Ð»ÑĸÐº ÑĤÐµÑĢÑĸ
ĠÐ¾Ð¹Ð»Ð°Ñĥ ÒĵÐ°
Ð¾Ð¼ Ð°
ĠÐ¶ÑĭÐ» Ð´Ð°ÒĵÑĭ
ĠÒĽÐ°ÑĤ ÐµÐ»ÐµÑģ
ĠÐ·Ð°Ð¼Ð°Ð½ ÑĭÐ½Ð´Ð°
ÐķÑĢÐºÑĸÐ½ ÒĽÐ°Ð»Ð°
ĠÐ±Ð°ÑģÒĽÐ°ÑĢ Ð°ÑĤÑĭÐ½
ĠIS BN
ĠÐĸ ÐĲÐł
ĠÐ¶ÐµÐºÐµ ÑĪÐµ
ĠÒĽÐ°ÒĵÐ°Ð· Ð´Ð°ÑĢÑĭÐ½
ĠÐ°Ð² Ð°ÑĢ
ĠÐĳ ÑĢÐ°Ð·Ð¸Ð»
ĠÐµÑģÑĤ ÐµÐ½
ĠÐ³Ðµ Ð¾Ð»Ð¾Ð³Ð¸ÑıÐ»ÑĭÒĽ
ĠÐ°Ð· Ð°ÑĤÑĤÑĭÒĽ
ĠÓĻ ÑĪÐµÐºÐµÐ¹
ĠÐĸÐ¾Ð» Ð´Ð°Ñģ
ÐĺÐ¡Ð¢ Ðł
Òļ Ð°ÑĪ
Ġ9 7
ĠÒĽÐ¾ÑĢ ÒĽ
Ðĳ Ò°Ò°
ĠÐķ Ð¡Ðķ
ĠÐºÐµÐ¼ Ð¿ÑĸÑĢ
ĠÐ±Ò±Ð· ÑĭÐ¿
ĠÑĤÐ°Ð¿ ÑĪÑĭÐ»ÑĭÒĵÑĭ
ÐµÐ³ ÑĸÐ½Ð´ÐµÐ³Ñĸ
ĠÐ¼ÐµÐºÐµÐ¼ÐµÐ»ÐµÑĢ Ð´Ðµ
Ð°ÑĢ Ð½Ð°
ĠÐ´ Ð¸ÑĦ
ĠÐ¤ Ð¾ÑĢÑĥÐ¼
ÑĨ ÐµÑĢÑĤ
ĠÐ¶ÐµÑĤÑĸÑģÑĤÑĸÐº ÐºÐµ
ĠÐºÐ¸ Ð³ÐµÐ½
ĠÐłÐķÐ¡ÐŁÐ£ÐĳÐĽÐĺÐļ ÐĲÐ¡Ð«ÐĿÐ«Ò¢
ÒĽÐ¾ÒĵÐ°Ð¼ Ð´ÑĭÒĽ
Ð´ ÑĭÐ½ÑĭÒ£
ĠÐ¡ Ð°Ð¹Ð»Ð°Ñĥ
ĠÑģÐ¾ÒĵÑĭÑģ ÑĤÐ°Ð½
ĠÑĢÐµ ÑĨÐµÐ¿
ĠÐ·Ð¸Ñı Ð½Ñĭ
ÑĭÒ£ÑĭÐ· Ð´Ð°
ĠÐ°Òĵ Ð°Ð¼
ĠÐķÑĢ Ð¶Ð°Ð½
ĠÐ¨ ÑĭÒĵÐ°ÑĢÐ¼Ð°ÑĪÑĭÐ»ÑĭÒĽ
ĠÓĻÑģÐµÑĢ Ð»Ñĸ
ĠÐ¶Ò¯ÑĢÐµÐ³Ñĸ Ð¼
ĠÐ¶ÐµÑĢ ÑĸÐ½ÐµÐ½
Ð½Ð¸ Ð¹
ĠÐ´Ð¸Ð°Ð³Ð½Ð¾ÑģÑĤ Ð¸Ðº
Ðľ Ð°Ð»
Ðļ Ðĵ
an t
ĠÐºÑĥÓĻÐ»Ð°Ð½ Ð´ÑĭÑĢÑĭÐ»ÒĵÐ°Ð½
ĠÐ±Ð°Ñģ ÑĤÑĭÒĽ
ĠÐ¶ÑĥÑĢÐ½Ð°Ð» ÑĭÐ½ÑĭÒ£
Ð¸ÑĨ ÐµÐ½
ĠÐ¡Ð°Ð» ÑĤÐ°Ð½
Ð¼ ÐµÐ¼Ð»ÐµÐºÐµÑĤ
ĠÑĤÒ¯ÑģÑĸÑĢ ÐµÐ´Ñĸ
ĠÑĪÐ°ÒĽ ÑĤÐ°
Ð¢ ÓĻÑĢÐ±Ð¸ÐµÐ»ÑĸÐº
ĠÒĽÐ¾ÑĢÒĵÐ°Ñĥ ÑĪÑĭ
ĠÐµÑģÑĸÐ¼ ÑĸÐ½
ĠÐ±Ð°Òĵ ÑĭÐ½Ð´ÑĭÑĢ
ĠÐ¾Ð¹Ð½ Ð°Ð¹Ð´Ñĭ
ÐµÐº ÐµÐ¹
ĠÐľ ÐĺÐĿ
ĠÑĤÓĻÑĢÐ±Ð¸ ÐµÑģÑĸÐ½Ðµ
ĠÐ°Ð¹ ÑĭÐ½Ð´Ð°ÒĵÑĭ
ĠÑĤÑĥ Ð´ÑĭÑĢÐ°ÑĤÑĭÐ½
ĠÒĽÐ°ÑĤÑĭÐ½Ð°Ñģ ÒĽÐ°
ĠÒĽÐ¾ÑĢ ÐµÐºÑĤÐµÐ½
[...]
