{"<s>":0,"<pad>":1,"</s>":2,"<unk>":3,"<mask>":4,"!":5,"\"":6,"#":7,"$":8,"%":9,"&":10,"'":11,"(":12,")":13,"*":14,"+":15,",":16,"-":17,".":18,"/":19,"0":20,"1":21,"2":22,"3":23,"4":24,"5":25,"6":26,"7":27,"8":28,"9":29,":":30,";":31,"<":32,"=":33,">":34,"?":35,"@":36,"A":37,"B":38,"C":39,"D":40,"E":41,"F":42,"G":43,"H":44,"I":45,"J":46,"K":47,"L":48,"M":49,"N":50,"O":51,"P":52,"Q":53,"R":54,"S":55,"T":56,"U":57,"V":58,"W":59,"X":60,"Y":61,"Z":62,"[":63,"\\":64,"]":65,"^":66,"_":67,"`":68,"a":69,"b":70,"c":71,"d":72,"e":73,"f":74,"g":75,"h":76,"i":77,"j":78,"k":79,"l":80,"m":81,"n":82,"o":83,"p":84,"q":85,"r":86,"s":87,"t":88,"u":89,"v":90,"w":91,"x":92,"y":93,"z":94,"{":95,"|":96,"}":97,"~":98,"¡":99,"¢":100,"£":101,"¤":102,"¥":103,"¦":104,"§":105,"¨":106,"©":107,"ª":108,"«":109,"¬":110,"®":111,"¯":112,"°":113,"±":114,"²":115,"³":116,"´":117,"µ":118,"¶":119,"·":120,"¸":121,"¹":122,"º":123,"»":124,"¼":125,"½":126,"¾":127,"¿":128,"À":129,"Á":130,"Â":131,"Ã":132,"Ä":133,"Å":134,"Æ":135,"Ç":136,"È":137,"É":138,"Ê":139,"Ë":140,"Ì":141,"Í":142,"Î":143,"Ï":144,"Ð":145,"Ñ":146,"Ò":147,"Ó":148,"Ô":149,"Õ":150,"Ö":151,"×":152,"Ø":153,"Ù":154,"Ú":155,"Û":156,"Ü":157,"Ý":158,"Þ":159,"ß":160,"à":161,"á":162,"â":163,"ã":164,"ä":165,"å":166,"æ":167,"ç":168,"è":169,"é":170,"ê":171,"ë":172,"ì":173,"í":174,"î":175,"ï":176,"ð":177,"ñ":178,"ò":179,"ó":180,"ô":181,"õ":182,"ö":183,"÷":184,"ø":185,"ù":186,"ú":187,"û":188,"ü":189,"ý":190,"þ":191,"ÿ":192,"Ā":193,"ā":194,"Ă":195,"ă":196,"Ą":197,"ą":198,"Ć":199,"ć":200,"Ĉ":201,"ĉ":202,"Ċ":203,"ċ":204,"Č":205,"č":206,"Ď":207,"ď":208,"Đ":209,"đ":210,"Ē":211,"ē":212,"Ĕ":213,"ĕ":214,"Ė":215,"ė":216,"Ę":217,"ę":218,"Ě":219,"ě":220,"Ĝ":221,"ĝ":222,"Ğ":223,"ğ":224,"Ġ":225,"ġ":226,"Ģ":227,"ģ":228,"Ĥ":229,"ĥ":230,"Ħ":231,"ħ":232,"Ĩ":233,"ĩ":234,"Ī":235,"ī":236,"Ĭ":237,"ĭ":238,"Į":239,"į":240,"İ":241,"ı":242,"Ĳ":243,"ĳ":244,"Ĵ":245,"ĵ":246,"Ķ":247,"ķ":248,"ĸ":249,"Ĺ":250,"ĺ":251,"Ļ":252,"ļ":253,"Ľ":254,"ľ":255,"Ŀ":256,"ŀ":257,"Ł":258,"ł":259,"Ń":260,"Ð°":261,"Ñĭ":262,"ĠÐ":263,"Ðµ":264,"Ð½":265,"ÑĤ":266,"ÑĢ":267,"Ñĸ":268,"Ð»":269,"Ñģ":270,"Ð´":271,"ÒĽ":272,"Ð¼":273,"Ñĥ":274,"Ðº":275,"Ð¾":276,"Ð°ÑĢ":277,"Ð°Ð":278,"Òĵ":279,"Ð¸":280,"Ò£":281,"Ð°Ð½":282,"Ð°Ð»":283,"ĠÐ±":284,"ÑĭÐ½":285,"ĠÐ¶":286,"ÑĪ":287,"Ð·":288,"ÐµÑĢ":289,"Ð³":290,"ĠÒĽ":291,"ĠÑĤ":292,"Ð¿":293,"ÐµÐ½":294,"ÑĸÐ½":295,"Ð´Ñĭ":296,"Ð°Ñģ":297,"Ò±":298,"ÓĻ":299,"ĠÐº":300,"Ó©":301,"ÑĤÑĭ":302,"Ð°Ð¹":303,"ÐµÑĤ":304,"Ò¯":305,"ĠÑģ":306,"ĠÐ¼":307,"Ð±":308,"ÑĭÐ»":309,"Ð¹":310,"Ð´Ð°":311,"Ð´Ñĸ":312,"Ð°ÒĽ":313,"Ð°ÑĤ":314,"ĠÐ¾":315,"ÑĭÒĽ":316,"ÐµÐº":317,"Ð¾Ð»":318,"Ð°Ñĥ":319,"ÑĤÑĸ":320,"ĠÐ´":321,"Ð´Ðµ":322,"Ð»Ñĸ":323,"ÑĭÑģ":324,"ÐµÑģ":325,"ÑĭÒ£":326,"Ñı":327,"Ð°Ð¼":328,"ĠÐµ":329,"Ð°Ð·":330,"ÑĸÑĢ":331,"Ð°Òĵ":332,"Ð³Ñĸ":333,"Òļ":334,"ÐµÐ»":335,"ÐµÐ¼":336,"ĠÓ©":337,"ÑģÑĤ":338,"ÑĭÐ·":339,"ÑĭÐ¼":340,"ÒĵÐ°Ð½":341,"Ð¸Ñı":342,"ÑĤÐ°ÑĢ":343,"Ð´Ð°ÑĢ":344,"Ò±ÑĢ":345,"ÓĻÐ½":346,"Ð¾ÑĢ":347,"ÒĵÐ°":348,"ÑĸÐ»":349,"Ñħ":350,"ÑĭÐ½Ð´Ð°":351,"ĠÑĪ":352,"ÒĵÑĭ":353,"ĠÐºÓ©":354,"ÑĸÐ¼":355,"Ð°Ð¿":356,"ĠÓĻ":357,"ÑĭÐ¿":358,"Ð¶":359,"ÓĻÐ½Ðµ":360,"ÑĸÐ·":361,"ĠÐ¶ÓĻÐ½Ðµ":362,"Ð³Ðµ":363,"ÑĸÒ£":364,"ÑĭÐ½ÑĭÒ£":365,"ĠÐ±Ð¾Ð»":366,"ÐĲ":367,"ĠÒļ":368,"Ð°Ð±":369,"ÑĭÑĢ":370,"Ð²":371,"ĠÐ¿":372,"Â»":373,"Ð°Ð»ÑĭÒĽ":374,"ĠÐĲ":375,"ÐµÐ¹":376,"ÑĤÐµÑĢ":377,"ĠÐ°Ð»":378,"Â«":379,"ĠÐ½":380,"Ð´ÑĭÒ£":381,"Ð¾Ð½":382,"Ð³ÐµÐ½":383,"Ð°Ð´Ñĭ":384,"âĢ":385,"ĠÒ¯":386,"Ð¸Ðº":387,"Ð°Ò£":388,"ĠÐ±Ð°Ñģ":389,"ÑĤÑĭÑĢ":390,"Ò±Ð»":391,"ĠÐĳ":392,"Ð´Ð°Ð½":393,"ÑĭÐ½Ð°":394,"ÐµÑĤÑĤÑĸ":395,"ĠÐ´Ðµ":396,"ÑĥÑĢ":397,"Ð»Ð°ÑĢ":398,"ÑĤÐµ":399,"Ð´ÐµÑĢ":400,"Ò¯ÑĢ":401,"Ð°Ð·Ð°ÒĽ":402,"ÑĸÐ½Ð´Ðµ":403,"Ð»ÑĭÒĽ":404,"ĠÐ¾ÑĢ":405,"ĠÂ«":406,"ÑĨ":407,"ĠÐ°ÑĢ":408,"ĠÐ¶ÑĭÐ»":409,"ÑģÑĤÐ°Ð½":410,"Ġ2":411,"Ð°Ð»Ð°ÑĢ":412,"ÑĸÐ½ÑĸÒ£":413,"Ð»ÑĸÐº":414,"Ð¾Ð¹":415,"Ð¸Ð½":416,"ÑĪÐ°":417,"ÑĦ":418,"Ð°Ð»Ñĭ":419,"ĠâĢ":420,"ĠÐ¼ÐµÐ½":421,"Ð´ÑĭÒĽ":422,"ĠÐ¡":423,"ĠÐ°":424,"ĠÐºÐµ":425,"ÑĤÑĥ":426,"ÑĸÑģ":427,"ĠÐ±ÑĸÑĢ":428,"Ð°ÑģÑĭ":429,"Ġ1":430,"Ð±Ð»":431,"Ð¡":432,"ĠÐľ":433,"ĠÑĢ":434,"ÑĤÑĭÒĽ":435,"Ð¾Ð¼":436,"ÑģÑĭ":437,"ĠÐ°Ñĥ":438,"Ð°ÑĤÑĭ":439,"Ð»ÐµÐº":440,"ĠÐ±ÐµÑĢ":441,"Ġ(":442,"Ð´Ð°Ð¹":443,"ÒĽÐ°":444,"ÑĸÐ½Ðµ":445,"ÑĪÑĭÐ»":446,"ĠÒ±":447,"Ð´ÑĸÒ£":448,"ĠÐ°Ð¹":449,"ÑĸÐ¿":450,"Ðĳ":451,"Ð»ÑĸÐ¼":452,"ĠÒĽÐ°Ð»":453,"ĠÐŀ":454,"ÐºÐµÐ½":455,"ĠÓ©Ð·":456,"Ð½ÑĭÒ£":457,"ÑĤÐ°Ð½":458,"ĠÒĽÐ°ÑĢ":459,"ĠÐĸ":460,"Ðľ":461,"Ð¢":462,"ÑĪÑĸ":463,"Ð°Ð·Ð°ÒĽÑģÑĤÐ°Ð½":464,"ĠÒĽÑĭÐ·":465,"Ð»ÐµÑĢ":466,"Ò±Ð¼":467,"ÑĤÐ°":468,"ÐµÑĤÑĤÑĸÐº":469,"Ð°ÑĤÑĭÐ½":470,"ĠÐºÓ©ÑĢ":471,"01":472,"ĠÐ¢":473,"ĠÐļ":474,"ĠÐ±Ð°ÑĢ":475,"ÐµÒ£":476,"ĠâĢĵ":477,"ÐµÐ¼Ð»ÐµÐº":478,"Ð¼ÐµÐ½":479,"Ð¼ÐµÑĤ":480,"ÑĭÒĵ":481,"Ð´ÐµÐ½":482,"Ð¾Ñģ":483,"ĠÐ·":484,"ÐµÑĥ":485,"Ð³ÑĸÐ·":486,"Ġ-":487,"ÑĨÐ¸Ñı":488,"ĠÐ±Ð¾Ð¹":489,"ĠÐºÒ¯":490,"ĠÑħ":491,"ĠÐ°ÑĤ":492,"Ðķ":493,"ÑĤÑĭÒ£":494,"ÐµÐ´Ñĸ":495,"ĠÑĤÑĥÑĢ":496,"ÓĻÑĢ":497,"ÑĭÐ½ÑĪÐ°":498,"ĠÐ¶Ò±Ð¼":499,"ĠÐ¶Ð°Ñģ":500,"ÑĢÑĥ":501,"ĠÐ¸":502,"ĠÒĽÒ±ÑĢ":503,"Ð¾Ð²":504,"ÓĻÑģ":505,"ĠÒ¯ÑĪ":506,"Ð´Ð°Ð¼":507,"Ð¿Ð°ÑĢ":508,"ĠÒĽÒ±":509,"Ðļ":510,"Ð½Ð°Ð»":511,"ĠÑĤÑĥÑĢÐ°Ð»Ñĭ":512,"Ðŀ":513,"Ñį":514,"ĠÐ¾ÒĽ":515,"Ð¾Ð³":516,"ÐºÐµ":517,"ĠÐ±Ð¾Ð¹ÑĭÐ½ÑĪÐ°":518,"ĠÒĽÑĭÐ·Ð¼ÐµÑĤ":519,"ĠÐ¶Ò±Ð¼ÑĭÑģ":520,"ÐµÑĤÑĸÐ½":521,"ÑĮ":522,"Óĺ":523,"Ð°Ð¹Ð»":524,"ÒĽÐ°Ð½":525,"ÐºÑĸ":526,"ĠÐł":527,"ĠÐºÐµÐ»":528,"Ð´ÑĸÐº":529,"Ðł":530,"ĠÑĤÒ¯":531,"Ðĸ":532,"ÑĭÑĤ":533,"ĠÒļÐ°Ð·Ð°ÒĽÑģÑĤÐ°Ð½":534,"ÐµÐ¼Ð»ÐµÐºÐµÑĤÑĤÑĸÐº":535,"ÑĭÑģÑĭ":536,"ĠÒ¯ÑĪÑĸÐ½":537,"ÒĽÐ°ÑĢ":538,"ĠÐºÐµÐ·":539,"ĠÐ±Ð°Òĵ":540,"..":541,"ĠÑģÐ°Ð»":542,"ĠÑĤÒ±ÑĢ":543,"ĠÒĽÐ¾Ð»":544,"ĠÐ¶Ð¾":545,"ĠÑĸ":546,"ÐµÑģÑĸ":547,"ĠÐ¶Ò¯":548,"Ġ201":549,"ÐºÐµÑĢ":550,"ĠÐ±Ó©":551,"ÐµÐ»ÐµÑĢ":552,"ÐĿ":553,"ĠÐ°Ñģ":554,"Ð°ÒĵÐ°Ð½":555,"ĠÐ°ÒĽ":556,"Ð¸ÐºÐ°Ð»ÑĭÒĽ":557,"ĠÐ¶Ò¯ÑĢ":558,"Ð³ÐµÑĢ":559,"Ð´Ð°Ñĥ":560,"ĠÐķ":561,"ĠÐ¾Ð±Ð»":562,"ĠÐ´Ð°":563,"ÑĭÐ½Ð´Ð°ÒĵÑĭ":564,"ÐĨ":565,"Ð¿Ñĥ":566,"ÑĤÐ°Ð»":567,"ÑĤÑĸÐº":568,"ĠÑį":569,"ĠÓ©ÑĤ":570,"ÑĸÐº":571,"ÐºÑĸÐ¼":572,"ĠÐ½Ðµ":573,"ÑģÐµÑĤ":574,"ÑĤÐ°Ð¼":575,"ĠÐ¼Ò¯":576,"ÑĭÐ¼ÐµÐ½":577,"Ó©Ð·":578,"ÑĸÐ»ÑĸÐ¼":579,"ĠÐµÑģ":580,"ĠÐºÓ©ÑĢÑģÐµÑĤ":581,"Ð°ÑĤÑĤÐ°ÑĢ":582,"ĠÑĤÐ°ÑĢ":583,"ĠÒĽÐ¾ÑĢ":584,"ÐµÐ²":585,"ĠÐ°Ð´Ð°Ð¼":586,"ÂŃ":587,"ÑĪÑĭÐ»Ð°ÑĢ":588,"Ð³ÑĸÐ½":589,"Ð°ÑģÑĭÐ½ÑĭÒ£":590,"ĠÐºÒ¯Ð½":591,"ÐµÐ´":592,"ÑĤÐ¸":593,"ĠÒĵ":594,"00":595,"ÑģÑĭÐ½":596,"ÐµÐ·":597,"ĠÑĦ":598,"Ð¿ÑĥÐ±Ð»":599,"ÑĤÐ°Ñĥ":600,"ÐµÑģÐ¿ÑĥÐ±Ð»":601,"Ð°Ð±ÑĭÐ»":602,"ÐºÑĸÐ½":603,"Ð±Ð¸":604,"ĠÐ´ÐµÐ¿":605,"ÐĶ":606,"Ð´Ð°ÒĵÑĭ":607,"ĠÐĲÐ»":608,"ÐµÐ¹ÑĸÐ½":609,"Ð«":610,"ĠÓĻÑĢ":611,"ĠÐ¼ÐµÐ¼Ð»ÐµÐºÐµÑĤÑĤÑĸÐº":612,"ÑĪÑĭ":613,"ÑĥÒĵÐ°":614,"Ð¸ÑĤ":615,"ĠÐ±Ð°Ð»":616,"Ó¨":617,"ĠÑĤÒ¯ÑĢ":618,"ÑĪÐµ":619,"ÐµÐ¿":620,"ĠÒ":621,"ĠÐ¶Ð°Òĵ":622,"ĠÑĤÒ¯Ñģ":623,"ĠÐ¾ÑĤÑĭÑĢ":624,"ĠÐ¶Ð°ÑĢ":625,"ĠÑģÐ¾":626,"Ð»ÐµÑĥ":627,"ÑĭÐ½Ð°Ð½":628,"Ð»ÐµÐ¼":629,"Ñİ":630,"Ð°Ð¹Ð´Ñĭ":631,"ĠÐ¿Ð°Ð¹":632,"Ð°Ð¶":633,"ĠÑĥ":634,"ĠÑĪÐ°ÑĢ":635,"ĠÓĺ":636,"ÐµÑģÐµ":637,"ĠÐ¶ÐµÑĢ":638,"ĠÑĤÓ©":639,"ĠÐ¼ÐµÐº":640,"Ð°ÑģÑĤÑĭÑĢ":641,"ĠÐ¶ÐµÑĤ":642,"ĠÐ¶Ð°Ò£":643,"ĠÐ±ÐµÑĢÑĥ":644,"ĠÑĤÐ°Ð»":645,"ĠÐŁ":646,"ÑĥÑĭ":647,"ĠÐ³":648,"ÐµÑģÐ¿ÑĥÐ±Ð»Ð¸Ðº":649,"Ð°Ñı":650,"ÐµÑĢÐµÐº":651,"ĠÐĿ":652,"Ð´Ð°Ð»":653,"ĠÐ¶Ð¾Ð»":654,"ÑĤÑĭÐ½":655,"Ð°Ð½Ñĭ":656,"ĠÐ´Ð°Ð¼":657,"ĠÓ©Ð½":658,"ĠÐµÑĢ":659,"ĠÒĽÐ¾":660,"ÑĭÐ»ÑĭÐ¼":661,"ĠÐ°Ð½":662,"Ð¸Ñħ":663,"Ð¾Ð»Ð¾Ð³":664,"ĠÑĤÐ¾":665,"Ð¹ÑĭÐ¼":666,"ĠÐĶ":667,"Ð°ÑĪ":668,"Ð»Ð°Ð¼":669,"ĠÑĸÑģ":670,"Ð¸ÑıÐ»ÑĭÒĽ":671,"ĠÑĪÑĭÒĵ":672,"ĠÑĸÑĪ":673,"Ð°Ð½ÑĭÑģ":674,"Ð¸Ð¼":675,"ĠÐ±Ð¾Ð»ÑĭÐ¿":676,"ĠÐłÐµÑģÐ¿ÑĥÐ±Ð»Ð¸Ðº":677,"Ð»Ñĭ":678,"ÓĻÑĥ":679,"ĠÐ±ÑĸÐ»ÑĸÐ¼":680,"ĠÐºÐ¾Ð¼":681,"Ð°ÒĵÑĭ":682,"ÐĽ":683,"ÑĢÐ¾":684,"ĠÒ¯Ð¹":685,"ĠÐµÐ¼":686,"Ð±ÐµÐº":687,"ĠÐ¾ÒĽÑĥ":688,"Ð½Ñĭ":689,"ÑĤÑĸÒ£":690,"Ð°ÑĤÑĭÑģ":691,"Ð½Ð¸":692,"ĠÐ°ÑĥÐ´Ð°Ð½":693,"ÒĽÑĭÐ»":694,"ÑĤÐ°Ð¿":695,"ĠÒĽÐ°Ð¹":696,"ĠÐ¼ÓĻ":697,"ĠÑĤÐµ":698,"ÒĽÑĭ":699,"ĠÐ¾Ð¹":700,"Ġ3":701,"Ð°Ðº":702,"ĠÐµÐ»":703,"ĠÐ´ÐµÐ³ÐµÐ½":704,"ÐµÑĤÑĤÐµÑĢ":705,"Ð°ÑĢÑĭ":706,"Ð¿Ð°ÑĢÐ°ÑĤ":707,"Ð±Ð°":708,"ĠÑĤÑĸÐ»":709,"ĠÐµÒ£":710,"Ó©Ð½":711,"Ð°ÑģÑĭÐ½Ð´Ð°":712,"ĠÐ°Ð·":713,"ĠÐ±ÐµÐ»":714,"Ð´Ð°ÑĢÑĭ":715,"ĠÐ¶Ð°Ð·":716,"ÐµÐ±":717,"Ð¸Ð·":718,"ĠÐ¼Ð°ÒĽ":719,"ĠÐ±Ò±Ð»":720,"ĠÐ¶Ð°ÒĵÐ´Ð°Ð¹":721,"ÑģÑĸÐ·":722,"ĠÐ¨":723,"Ð°Ð½ÑĭÒ£":724,"iÐ½":725,"ĠÐ¸Ð½":726,"ÐŁ":727,"ÑĸÐ½Ð´ÐµÐ³Ñĸ":728,"ÑĭÐ±":729,"Ð¿ÐµÐ½":730,"Ð¸ÑģÑĤ":731,"ÐµÐ³Ðµ":732,"Ð½Ð°Ð»ÒĵÐ°Ð½":733,"Ð°Ð³":734,"ĠÐ±Ð¾Ð»Ð°Ð´Ñĭ":735,"Ð¸Ð»":736,"ÑĤÐ°ÑĢÑĭ":737,"ĠÓĻÐºÑĸÐ¼":738,"ÐµÐ¼ÐµÑģÐµ":739,"ĠÐ¾ÑĢÑĭÐ½":740,"Ð´ÑĸÑĢ":741,"ÑħÐ°Ð½":742,"ĠÐ½ÐµÐ³ÑĸÐ·":743,"ĠÐ¶Ð°ÑĤ":744,"Ð¸ÐºÐ°":745,"ÒĵÐ°Ð»":746,"ÑĭÐ»ÒĵÐ°Ð½":747,"ÑĤÐµÑĥ":748,"ĠÑĤÐ¸":749,"ĠÐ°ÑĢÐ½Ð°Ð»ÒĵÐ°Ð½":750,"ĠÐ±Ð°ÑģÒĽÐ°ÑĢ":751,"Ð¨":752,"ĠÐ¾Ð»Ð°ÑĢ":753,"ĠÒ±Ð¹ÑĭÐ¼":754,"ĠÐ¶Ð°Ð»":755,"Ð¼ÐºÑĸÐ½":756,"Ð°Ð²":757,"Ð°Ð±Ð°ÒĽ":758,"ÐºÑĸÐ·":759,"ÑĭÑĤÑĥ":760,"ÒĵÑĭÐ½":761,"ĠÒĽÐ°ÑĤÑĭÑģ":762,"ĠÑģÓ©Ð·":763,"ĠÐ±Ð°Ð¹Ð»":764,"ÑĤÑĤÑĭÒĽ":765,"Ð°ÑģÑĭÐ½":766,"ÑĸÐ½ÐµÐ½":767,"ÐµÐºÐµ":768,"ĠÐ¶Ò¯ÑĢÐ³ÑĸÐ·":769,"ĠÐ¾Ð±Ð»ÑĭÑģ":770,"ĠÐ±ÑĸÐ»":771,"Ð¼ÑĸÑĢ":772,"ĠÒĽÐ°Ð¼":773,"Ð°Ð¼Ð°Ð½":774,"ĠÒĽÐ¾Ñģ":775,"ĠÒĽÐ°Ð±ÑĭÐ»":776,"ÑĪÑĭÐ»ÑĭÒĽ":777,"ĠÑĢÐµÑĤ":778,"ĠÐ¼Ò¯Ð¼ÐºÑĸÐ½":779,"ÑĤÐ¾ÑĢ":780,"Ð¼Ð°Ð½":781,"Ð»Ð°Ð½":782,"Ð°ÒĽÑĤÑĭ":783,"ÒĵÐ°Ð¼":784,"ĠÐµÐ¼ÐµÑģ":785,"Ðĺ":786,"ĠÐ°Ð»Ñĥ":787,"ĠÐ¶ÑĭÐ»Ñĭ":788,"ÑģÑĤÐµÑĢ":789,"Ð°ÒĵÐ°":790,"ĠÐ½ÐµÐ¼ÐµÑģÐµ":791,"ĠÐ»":792,"Ð»ÑĸÐ³Ñĸ":793,"ĠÐĳÒ±Ð»":794,"ĠÐ·Ð°Ò£":795,"ĠÒĽÐ°Ð½":796,"Ġ\"":797,"ÐµÑĤÑĸ":798,"ÑĤÐµÐ¿":799,"ÑģÐ°ÑĤ":800,"Ð¼Ð°":801,"ÑĤÑĢ":802,"ĠÒ±Ð»":803,"ÐºÐ¾Ð½":804,"ĠÐ¾Ð½ÑĭÒ£":805,"ĠÑĪÑĭÒĵÐ°ÑĢ":806,"ÑĭÐ½Ð´Ñĭ":807,"ĠÒĽÐ°Ð·Ð°ÒĽ":808,"ÒļÐ°Ð·Ð°ÒĽÑģÑĤÐ°Ð½":809,"ĠÐ¾Ð±Ð»ÑĭÑģÑĭ":810,"ÑĸÐ·Ð´ÑĸÒ£":811,"ĠÐ±Ð°Ð¹Ð»Ð°Ð½ÑĭÑģ":812,"ĠÐºÓ©Ð¿":813,"ĠÐ¶Ó©Ð½":814,"ĠÒĽÐ¾Ð»Ð´Ð°Ð½":815,"Ñĩ":816,"ĠÐ¾ÑģÑĭ":817,"ÑģÐ°":818,"Ð±ÑĸÑĢ":819,"ĠÒĽÐ°ÑĤ":820,"ÑĭÐ¼ÑĭÐ·":821,"ÑĤÐµÐ½":822,"ĠÑħÐ°Ð»ÑĭÒĽ":823,"ÒĽÑĭÐ»Ñĭ":824,"Ò¯Ð¹":825,"ĠÐ¼Ò±":826,"ĠÐºÐµÑĢÐµÐº":827,"ÑĸÐ»Ð³ÐµÐ½":828,"ĠÑĤÓĻÑĢ":829,"ÒĽÐ¾ÑĢ":830,"ĠÓ¨":831,"ÑħÐ½":832,"ĠÐ¶Ò¯Ð¹":833,"ĠÐµÐ½":834,"201":835,"...":836,"ĠÐ¾ÑĢÑĤ":837,"ĠÐ±Ð¾Ð»ÒĵÐ°Ð½":838,"ĠÑģÐ°ÒĽ":839,"Ð¸ÑĢ":840,"Ð°ÑĨÐ¸Ñı":841,"Ð¸Ñģ":842,"ĠÐ¾Ð»":843,"ÑĸÐ¼Ð´Ñĸ":844,"ÐµÑĪ":845,"ÓĻÑģÑĸÐ¿":846,"ĠÑĤÐ¾Ð»":847,"ĠÐ°Ð½ÑĭÒĽ":848,"ĠÐ¶Ð°ÒĽ":849,"ĠÑģÐ°Ð½":850,"Ð°ÒĽÑĭÑĢ":851,"Ġ5":852,"ÐºÐ¾Ð½Ð¾Ð¼":853,"ĠÐ¼ÓĻÑģ":854,"ĠÐ±Ð°ÒĵÐ´Ð°ÑĢ":855,"ĠâĢĶ":856,"ĠÐ¶ÑĭÐ»Ð´ÑĭÒ£":857,"Ð¼ÐµÑĤÑĤÑĸÐº":858,"ĠÑģÐ°Ð¹":859,"ĠÐµÐºÐµÐ½":860,"ĠÒ¯Ð»":861,"Ð´ÐµÑĢÑĸ":862,"ĠÐºÐµÐ·Ð´Ðµ":863,"ĠÑģÐ¾Ð½":864,"Ð¼Ð°ÒĽ":865,"ĠÑĤÐ°Ð±":866,"Ð»ÑĸÑģ":867,"ĠÐ¶Ð°Ð½":868,"ÐµÐ¹Ð´Ñĸ":869,"Ð»ÑĸÐºÑĤÑĸ":870,"ĠÐ°ÑĢÒĽÑĭÐ»Ñĭ":871,"ĠÑģÓĻ":872,"ÒĽÑĭÒĽ":873,"ĠÐ´ÐµÐ¹ÑĸÐ½":874,"Ð¿Ð¾ÑĢ":875,"Ð½ÑĸÒ£":876,"Ð°Ò£ÑĭÐ·":877,"ĠÒĽÐ°Ð¶":878,"ÑĸÐ¼ÐµÐ½":879,"ĠÐ¶Ð°Ò£Ð°":880,"Ð¸Ð¿":881,"Ð´ÑĭÑĢ":882,"Ð°ÒĽÑĭÑĤ":883,"ÑĤÑĸÐ½":884,"ÑĥÐ³Ðµ":885,"Ð»ÐµÑĥÐ¼ÐµÑĤÑĤÑĸÐº":886,"ĠÐ°ÒĽÐ¿Ð°ÑĢÐ°ÑĤ":887,"ĠÐ°ÑģÑĭÑĢ":888,"ĠÐ¶Ð°Ñĥ":889,"ĠÐ°ÑĥÑĭÐ»":890,"Ġ4":891,"ĠÐ¶Ò¯Ð·":892,"Ð±Ð°ÐµÐ²":893,"ĠÐ±ÐµÐ»Ð³Ñĸ":894,"ÐµÐ½ÑĤ":895,"Ð´Ð°Ð»Ð°Ð½":896,"Ð´ÐµÐ³Ñĸ":897,"ĠÐ±Ó©Ð»ÑĸÐ¼":898,"ÐµÑĢÑĤ":899,"Ð±Ð°Ñģ":900,"Ġ19":901,"ĠÑĤÐ°Ð¿":902,"ĠÒĽÐ¾Ð¹":903,"ÐºÐµÑģ":904,"Ð°Ð±Ð°ÑĢ":905,"Ð¾Ð»Ð¾Ð³Ð¸Ñı":906,"Ð¸Ð°Ð»":907,"Ð£":908,"ĠÐºÓ©Ð·":909,"Ò°":910,"ĠÐĺ":911,"ĠÐºÐµÒ£":912,"ĠÐ±Ò±":913,"ĠÒ°":914,"ÒĽÑģ":915,"Ð¾ÑģÐ¿Ð°ÑĢ":916,"ĠÑģÑĥ":917,"ÑģÐµÑĢ":918,"ĠÐ±Ð°ÒĵÐ´Ð°ÑĢÐ»Ð°Ð¼":919,"Ð»ÑĸÐ¿":920,"ÐµÐ³":921,"Ð´Ð°ÑĢÐ´ÑĭÒ£":922,"ĠÐ¼ÓĻÑģÐµÐ»":923,"ĠÐ¥":924,"ĠÑĤÑĥ":925,"ÑĤÑĭÑĢÐ°Ñĥ":926,"Ð¿Ñĭ":927,"ĠÐ¶ÐµÐºÐµ":928,"ĠÐ¿Ð°Ð¹Ð´Ð°Ð»Ð°Ð½":929,"ĠÒĽÐ°Ð·":930,"Ð°ÑģÑĤÑĭÑĢÑĥ":931,"ÑĤÐ¾":932,"ĠÑĤÐµÒ£":933,"Â»,":934,"âĦ":935,"ĠÐ¶ÐµÐ¼":936,"ÑĤÐµÑĢÑĸ":937,"âĦĸ":938,"ĠÐ¶Ð¾ÑģÐ¿Ð°ÑĢ":939,"ĠÒĵÑĭÐ»ÑĭÐ¼":940,"Ð´ÐµÑĥ":941,"ĠÐ¶Ð¾ÒĽ":942,"ÑĤÐ°Ñģ":943,"ĠÐ²":944,"ĠÐ°Ð·Ð°Ð¼":945,"ÐĲÐ»":946,"ĠÑģÒ±ÑĢ":947,"ĠÓ©Ð¼ÑĸÑĢ":948,"ÑĥÐ»":949,"ĠÐ°Ñı":950,"Ð´ÑĭÑĢÑĥ":951,"Ð³Ð°Ð½":952,"ĠÑĤÐ°ÑĢÐ¸Ñħ":953,"Ð°Ð´":954,"ĠÐłÐµÑģÐ¿ÑĥÐ±Ð»Ð¸ÐºÐ°ÑģÑĭÐ½ÑĭÒ£":955,"ĠÒĽÒ±ÒĽÑĭÒĽ":956,"ÑĭÒĵÑĭ":957,"ÐĹ":958,"ÐµÐ¶":959,"ĠÑħÐ°Ð±Ð°ÑĢ":960,"ÑĸÐ½Ð´":961,"ĠÐ°Ð¹ÑĤ":962,"ÑĪÑĸÐ»ÑĸÐº":963,"ĠÑĤÒ±":964,"Ð¿Ð°Ð½":965,"ĠÐ¿ÑĢÐ¾":966,"ÑģÑĭÐ·":967,"ÒĽÐ¾ÑĢÐ»ÑĭÒĽ":968,"Ð°Ð´Ð°":969,"ĠÐ¶ÑĭÐ»ÒĵÑĭ":970,"ĠÒĽÐ¾ÒĵÐ°Ð¼":971,"ĠÑģÑĭÐ½":972,"ĠÑģÐ°Ñı":973,"ĠÐµÑģÐµÐ¿":974,"ĠÐºÐµÐ¹ÑĸÐ½":975,"ĠÓĻÐ»ÐµÑĥÐ¼ÐµÑĤÑĤÑĸÐº":976,"ĠÐ±Ð¸":977,"ÑĥÐ°":978,"ÐºÑĸÐ»":979,"ÑĤÑĭÐ»":980,"ĠÐ±Ð°ÑģÒĽÐ°":981,"ĠÐºÐµÑĤ":982,"Ð»ÐµÑĢÑĸ":983,"Ð¸ÑĨ":984,"Ð°Ð¹ÑĤÑĭÐ½":985,"ÑĢÐµÐ·":986,"ĠÐ±Ð¾Ð»Ð´Ñĭ":987,"Ð»Ð°Ñĥ":988,"Ð°ÑģÑĭÐ·":989,"Ð°ÑĢÐ°Ð»ÑĭÒĽ":990,"ĠÒĽÐ°Ñĥ":991,"ÑĸÐ»ÐµÑĤÑĸÐ½":992,"ĠÐºÐ¾Ð½":993,"ĠÐ¡Ð¾Ð½":994,"ĠÑĤÐµÑħÐ½":995,"Ð±Ðµ":996,"ĠÐ°Ð¿":997,"ĠÓ©ÑĤÐºÑĸÐ·":998,"ÒĵÐ°Ð½Ð°":999,"ÑĤi":1000,"Ð¼Ð°ÑĤÑĭ":1001,"ĠÑĤÐµÐº":1002,"ĠÑĤÐµÑĢ":1003,"ĠÐ¶ÐµÐ¼ÒĽÐ¾ÑĢÐ»ÑĭÒĽ":1004,"Ð¸ÑģÑĤÑĢ":1005,"ĠÑģÐ¾Ð»":1006,"ĠÐ¾ÑĢÐ³Ð°Ð½":1007,"ĠÐ°Ðº":1008,"ĠâĦĸ":1009,"ĠÒĵÐ°Ð½Ð°":1010,"ĠÒĽÐ°Ð±ÑĭÐ»Ð´Ð°Ñĥ":1011,"ĠÒ±ÑģÑĭÐ½":1012,"ĠÑģÐ¾Ò£":1013,"ĠÑĪÐµÑĪ":1014,"ĠÐ¼ÑĸÐ½Ð´":1015,"ĠÑĤÒ±Ð»":1016,"Ð°Ð¹Ñĭ":1017,"ÑĸÐ»Ð´Ñĸ":1018,"ĠÐ±Ó©Ð»":1019,"ĠÑĥÐ°ÒĽÑĭÑĤ":1020,"Ð°Ð¹Ð»Ð°Ñģ":1021,"ÑĤÑĸÐ¿":1022,"ĠÑĤÑĸÑĢ":1023,"ĠÐ¶Ð¾Òĵ":1024,"Ð½Ð°Ð½":1025,"Ð´ÐµÐ½Ð¸":1026,"Ð±ÐµÑĢ":1027,"Ð´Ð°ÑĢÐ´Ñĭ":1028,"ÑģÑĭÑĢ":1029,"ĠÐ¼ÐµÐ¼Ð»ÐµÐº":1030,"ÑĭÑĪ":1031,"ÑĭÐ±Ð°Ð¹Ð»Ð°Ñģ":1032,"ĠÒĽÐ°Ð»ÑĭÐ¿":1033,"Ð°Ð·Ð°ÑĢ":1034,"ÑĭÒ£ÑĭÐ·":1035,"ĠÐ±Ð°Ð»Ð°Ð»Ð°ÑĢ":1036,"Ð°ÑģÑĭÐ½Ð´Ð°ÒĵÑĭ":1037,"ĠÐµÐºÑĸ":1038,"ĠÐĨ":1039,"ÑĸÑģÑĸ":1040,"Ð¸Ð´ÐµÐ½":1041,"Ð°Ñħ":1042,"ĠÐ¼Ð°ÑĤ":1043,"ĠÐ°ÑĪ":1044,"ĠÑĤÐ°Ð±ÑĭÐ»":1045,"ĠÐĵ":1046,"ĠÐ±Ð°ÑģÒĽÐ°ÑĢÐ¼":1047,"ĠÐ¼Ð¸Ð½":1048,"Ð¾Ð¿":1049,"ÑĤÑĭÑĢÑĥ":1050,"Ġ6":1051,"ÑĭÐ»Ð´Ñĭ":1052,"ĠÐ¶Ð°ÑĥÐ°Ð¿":1053,"Ð´ÐµÐ»":1054,"ÐµÑģÑĸÐ½":1055,"Ð°ÑĤÑĤÑĭ":1056,"ĠÑĤÒ±ÑĢÒĵÑĭÐ½":1057,"Ð¼Ðµ":1058,"ĠÐ±Ð°Ð¹Ð»Ð°Ð½ÑĭÑģÑĤÑĭ":1059,"ĠÑģÐ°Ð±Ð°ÒĽ":1060,"ĠÐ¼ÐµÐºÑĤÐµÐ¿":1061,"ĠÑĤÓĻÑĥ":1062,"ÑĸÐ»ÐµÑĢ":1063,"Ó©Ð»":1064,"Ð°ÑĦ":1065,"ĠÐ¿ÐµÐ½":1066,"Ġ7":1067,"Ð¾Ðº":1068,"ĠÐŀÐ»":1069,"ĠÐĳÑĸÑĢ":1070,"ÑĤÐ¸Ð¶":1071,"ĠÐµÑĤ":1072,"ÐµÐ»ÐµÑĢÑĸ":1073,"Ð±Ð°Ð¹":1074,"ÑĥÑĪÑĭÐ»Ð°ÑĢ":1075,"ĠÑįÐºÐ¾Ð½Ð¾Ð¼":1076,"ĠÐºÓ©ÑĪ":1077,"Ð¥":1078,"Ð°Ð¹ÑĭÐ½":1079,"ĠÐĲÒĽ":1080,"ÓĻÑĤÐ¸Ð¶":1081,"ĠÐ°Òĵ":1082,"ĠÐ¾Ð½":1083,"ĠÐºÓĻÑģÑĸÐ¿":1084,"ÐµÐºÑĤÑĸ":1085,"ĠÓ©Ð·Ð³ÐµÑĢ":1086,"Ð¹ÐºÐµÑģ":1087,"Ð´ÐµÐ¹":1088,"ÑĢÐµÐ·Ð¸Ð´ÐµÐ½":1089,"Ð»Ð°ÑĢÑĭ":1090,"ĠÑĤÒ¯ÑģÑĸÐ½":1091,"ĠÐ´Ð°Ð¼ÑĭÑĤÑĥ":1092,"ÑĢÑĤ":1093,"Ð°ÑĤÑĭÑĢ":1094,"Ð¸Ð¾Ð½":1095,"ÐµÑģÑĤ":1096,"ÑĤÐ°ÑĢÐ´ÑĭÒ£":1097,"ĠÑĪÐ°ÑĢÑĥÐ°":1098,"ĠÐ¶Ò¯Ð·ÐµÐ³Ðµ":1099,"ĠÐ±Ð°ÑģÑĪ":1100,"ÑĸÐ¼Ð´ÐµÑĢ":1101,"ÑĤÐ°ÑĢÑĭÐ½":1102,"ĠÐ´Ð°Ð¼Ñĥ":1103,"ÐĲÑĤÑĭÑĢÐ°Ñĥ":1104,"Ð°Ð¼ÑĭÐ·":1105,"ÒĽÑģÐ°Ð½":1106,"ÑĤÑĭÐ¿":1107,"Ðĵ":1108,"ÐµÑĢÐ¸Ð°Ð»":1109,"ĠÐµÑĤÑĥ":1110,"ĠÑĤÐ°Ò£":1111,"ĠÑĸÑĪÐºÑĸ":1112,"Ġ2018":1113,"ĠÓ©Ñģ":1114,"ĠÒĽÐ°ÑĤÐ°ÑĢ":1115,"ÑĸÒ£ÑĸÐ·":1116,"ÑĤÒ¯":1117,"Ð¼ÐµÐº":1118,"ÑĤÐ°ÑĢÐ´Ñĭ":1119,"Ð°Ð»Ð°ÑĢÑĭ":1120,"ĠÐºÒ¯Ð½Ñĸ":1121,"ĠÑģÓĻÐ¹ÐºÐµÑģ":1122,"ĠÑĤÐ¾Ð¿":1123,"ĠÐ¶Ð¸Ð½":1124,"ĠÓĻÐ´Ñĸ":1125,"ÑĤÐ°ÒĵÑĭ":1126,"ÑĸÑĪ":1127,"ĠÐºÐµÐ»Ð³ÐµÐ½":1128,"ÑĤÐµÐ¼":1129,"ÐºÐµÐ»":1130,"Ð»ÐµÐ½":1131,"Ð´i":1132,"ÒĵÑĭÑģ":1133,"ÒĵÐ°ÑĪ":1134,"ĠÒĽÒ±ÑĢÑĭÐ»":1135,"ĠÐ±Ð°ÑĢÐ»ÑĭÒĽ":1136,"ÐµÐ»Ñĸ":1137,"ĠÓ©Ð»":1138,"Ð°Ð»Ð°Ñĥ":1139,"Ð°ÑĤÑĭÐ¿":1140,"ÑĤÐ°Ð¹":1141,"ÐµÐ»Ð´ÐµÑĢ":1142,"ĠÐ¶Ð°ÑĤÒĽÐ°Ð½":1143,"ĠÒĽÐ°ÑĢÑģÑĭ":1144,"ĠÒļÐ°ÑĢ":1145,"ÑĤÑĸÑĢ":1146,"ĠÐĹ":1147,"ÐµÐºÑĸ":1148,"ĠÐµÐ´Ñĸ":1149,"Ð¸Òĵ":1150,"ĠÐ±Ò±ÑĢ":1151,"ĠÐ±Ò¯":1152,"ĠÐ¶Ð¾Ð±":1153,"ĠÐ½ÓĻÑĤÐ¸Ð¶":1154,"Ð¾ÑĢÐ¼":1155,"ĠÒ®":1156,"Ð³ÐµÐ¹":1157,"ĠÐ±Ð¾Ð»Ð¼":1158,"ĠÐ¶Ò¯ÑĢÐ³ÑĸÐ·Ñĥ":1159,"Ð°ÑģÑĭÐ½Ð°":1160,"ĠÑĤÐ°Ð¿ÑģÑĭÑĢ":1161,"Ð½Ðµ":1162,"ÑģÑĭÐ½ÑĭÒ£":1163,"ĠÐµÒ£Ð±ÐµÐº":1164,"ĠÐ´ÓĻ":1165,"ÑĥÑĸ":1166,"ÑĤÐ°Ð»ÒĵÐ°Ð½":1167,"ÑĸÐ¼ÑĸÐ·":1168,"ĠÐ°Ð»Ð¼":1169,"Ġ8":1170,"ĠÐ·ÐµÑĢÑĤ":1171,"ÑĭÐ»Ð°Ð´Ñĭ":1172,"ÑĪÑĸÐ»ÐµÑĢ":1173,"ĠÑģÐµÐ½":1174,"ĠÐ¶Ð¾ÒĵÐ°ÑĢÑĭ":1175,"ĠÓĻÐ´Ðµ":1176,"Ð³ÑĸÐ½ÑĸÒ£":1177,"19":1178,"ĠÒ±Ð¹ÑĭÐ¼Ð´":1179,"Ð¾Ð»Ð¾Ð³Ð¸ÑıÐ»ÑĭÒĽ":1180,"Ð°Ð»ÒĵÐ°Ð½":1181,"ĠÑĸÑģÑĤ":1182,"ĠÑĤÐ°Ð»Ð´Ð°Ñĥ":1183,"ĠÐ°Ð²":1184,"ĠÒĽÐ°Ð±":1185,"ÒĽÑĭÐ½":1186,"ĠÑģÐ°Ñĥ":1187,"ÒĵÐ°Ñĥ":1188,"ĠÐµÐ½Ð³ÑĸÐ·":1189,"ĠÐ°Ð¹Ð½Ð°Ð»":1190,"ĠÐ±Ð¾Ð»ÑģÐ°":1191,"âĢĿ":1192,"ĠÒĽÒ±Ð¶":1193,"Ð¿Ð¾ÑĢÑĤ":1194,"ÑĸÐ½ÑĪÑĸ":1195,"ÑģÐ°Ñĥ":1196,"Ġ/":1197,"Ġ20":1198,"ĠÒ±ÑģÑĤ":1199,"ĠÐ¶Ó©Ð½ÑĸÐ½Ð´ÐµÐ³Ñĸ":1200,"Ð±Ñĸ":1201,"Ð°ÑĢÑĤ":1202,"ĠÑĸÑĪÑĸÐ½Ð´Ðµ":1203,"ÑģÐµÐ½":1204,"ĠÐ¼Ð°Ò£ÑĭÐ·":1205,"ĠÐºÑĸÑĢ":1206,"ĠÐ¶Ñĸ":1207,"ĠÐ±Ð°Ð¹":1208,"ÑĥÐ½":1209,"ĠÐ±Ð°ÒĵÑĭÑĤ":1210,"ĠÐ¶Ð°ÑģÐ°Ñĥ":1211,"Ð°ÒĽÑĭÐ»":1212,"ÑĸÐ»ÐµÐ´Ñĸ":1213,"Ð»Ð°ÑĢÐ´ÑĭÒ£":1214,"ĠÐ´ÐµÐ½":1215,"ĠÒĽÐ°Ð¶ÐµÑĤ":1216,"ĠÐ°ÑĤÒĽÐ°ÑĢ":1217,"ĠÐ¼ÑĭÒ£":1218,"ĠÑĤÓĻÑĢÐ±Ð¸":1219,"ĠÐłÐµÑģÐ¿ÑĥÐ±Ð»Ð¸ÐºÐ°ÑģÑĭ":1220,"ĠÐ°Ð»ÑĭÐ¿":1221,"ÑĢÐ°Ð½":1222,"Ð¸Ð´":1223,"20":1224,"ĠÐµÑĢÐµÐº":1225,"Ð´Ð°ÑĢÑĭÐ½ÑĭÒ£":1226,"ÑĥÑĪÑĭ":1227,"ÑĸÐ»Ñĸ":1228,"ĠÐ°ÑĢÐ½":1229,"ĠÓĻÐ»ÐµÐ¼":1230,"ĠÐºÓ©ÑĢÑģÐµÑĤÑĥ":1231,"ĠÐ¼ÓĻÐ»ÑĸÐ¼":1232,"ĠÐ¾Ð»Ð°ÑĢÐ´ÑĭÒ£":1233,"ĠÐľÒ±":1234,"ĠÐ¼Ð°Ð¼Ð°Ð½":1235,"ĠÐ¶Ð°Ð»Ð¿Ñĭ":1236,"Ð°Ð»Ð°ÑĢÐ´Ñĭ":1237,"ÑģÑĸ":1238,"Ð¾Ð·":1239,"ĠÐ¾ÑĢÑĤÐ°":1240,"ĠÓ©ÑĤÐµ":1241,"Ó©ÑĢ":1242,"ÓĻÑĢÑĸ":1243,"ĠÑĤÐ°ÒĽÑĭÑĢ":1244,"Ġ200":1245,"ĠÑĤÐ¸ÑĸÑģ":1246,"ÑģÑĭÐ½Ð´Ð°":1247,"ĠÐºÐµÐ·ÐµÒ£":1248,"ĠÐ¼ÐµÐºÐµÐ¼":1249,"Ò£Ð³ÐµÐ¹":1250,"ĠÐºÑĸ":1251,"Ð´ÑĸÐ³Ñĸ":1252,"ÑĤÐ°Ð¼Ð°ÑģÑĭÐ·":1253,"Ð¸Ð²":1254,"Ð°Ð¼Ð°":1255,"Ð¼ÑĭÑģ":1256,"kz":1257,"ĠÑģÐ°Ð¿":1258,"ÑĭÒĽÑĤÑĭ":1259,"Ð¸ÑıÑģÑĭ":1260,"ÑģÐº":1261,"Ð°ÒĵÑĭÐ½":1262,"ÓĻÐ¶":1263,"ĠÐ°Ð»Ð´":1264,"ĠÐ°ÑĢÑĤ":1265,"ĠÑĢÐµÑģ":1266,"ĠÐ´ÐµÒ£Ð³ÐµÐ¹":1267,"Ð´ÑĭÒĽÑĤÐ°Ð½":1268,"Ð´Ð°ÑĢÒĵÐ°":1269,"ÐĴ":1270,"ĠÓ©Ð½ÐµÑĢ":1271,"ĠÐ½ÐµÐ³ÑĸÐ·Ð³Ñĸ":1272,"ĠÑĤÐ°Ð½":1273,"ÑĸÑĢÐ³Ñĸ":1274,"Ġ2017":1275,"ĠÒĽÐ°Ð¼ÑĤÐ°Ð¼Ð°ÑģÑĭÐ·":1276,"ĠÐ±ÑĸÐ·":1277,"ĠÐ°Ð»ÒĵÐ°Ð½":1278,"Ð°ÑĢÐ°":1279,"ĠÐ¾ÑĤÑĭÑĢÑĭÐ¿":1280,"Ò¯Ð½Ð¸":1281,"ÑģÑĭÐ»":1282,"Ð»ÐµÐºÑĤÑĢ":1283,"ĠÒĽÐ°ÑĢÐ¶":1284,"ÑĸÐ¼Ñĸ":1285,"ÑģÐµ":1286,"ĠÐ±Ð¾Ð»Ð°ÑĤÑĭÐ½":1287,"ĠÒļÐ°Ð·Ð°ÒĽ":1288,"ÒĴ":1289,"Ð»ÐµÑģ":1290,"ĠÐ¼Ð°ÑĤÐµÑĢÐ¸Ð°Ð»":1291,"ÐµÐ¹Ð½":1292,"Ð°ÑĤÑĭÐ½Ð°Ñģ":1293,"Ð°ÑĤÑĤÐ°ÑĢÐ´Ñĭ":1294,"ĠÑĤÒ±Ð»Òĵ":1295,"ĠÐĲÐ»Ð¼Ð°ÑĤÑĭ":1296,"ĠÐ¼ÐµÑĢ":1297,"Ð¾Ð´":1298,"ĠÑĤÐ¾Ð»ÑĭÒĽ":1299,"ÑĭÒĵÑĭÐ½":1300,"Ð¾ÑĤ":1301,"Ġ10":1302,"ĠÐ¤":1303,"Ð´Ð°ÑĢÑĭÐ½":1304,"Ġ9":1305,"ĠÓ©ÑĤÐºÐµÐ½":1306,"ĠÐ±ÐµÑĤ":1307,"ĠÐµÑĢÐµÐºÑĪÐµ":1308,"ÑĤÑĸÐ»":1309,"ĠÑĤÐ°Ð±ÑĭÐ»Ð°Ð´Ñĭ":1310,"ĠÐ¼ÓĻÐ´ÐµÐ½Ð¸":1311,"Ð´ÑĸÑĢÑĥ":1312,"Ð°Ð½Ðº":1313,"Ð°Ð»Ð°ÑĢÐ´ÑĭÒ£":1314,"Ð»Ð°ÑĢÐ´Ñĭ":1315,"ÐµÑģÑĸÐ½ÑĸÒ£":1316,"ÐµÑĢÑģ":1317,").":1318,"ĠÐ¾ÑĢÐ½Ð°Ð»":1319,"ĠÑĤÐ°Ñģ":1320,"ĠÐ°ÑĥÐ´Ð°Ð½Ñĭ":1321,"ĠÓ©Ò£":1322,"ÑĤÐµÑĢÐ´ÑĸÒ£":1323,"ĠÑĤÐ°Ñĥ":1324,"Ð¸Ð½Ð³":1325,"ĠÐŃ":1326,"ĠÐŀÑģÑĭ":1327,"ĠÐ¼Ð¸Ð½Ð¸ÑģÑĤÑĢ":1328,"ĠÑĢÐµÑĤÑĸÐ½Ð´Ðµ":1329,"ÑģÑĤÐ°Ð½Ð°":1330,"ĠÐ¶Ð°ÑĢÐ¸Ñı":1331,"Ð°Ð»Ð°":1332,"Ð°Ð»Ð´Ñĭ":1333,"ÑĤÒ¯Ñģ":1334,"ĠÑħÐ°Ð»":1335,"ĠÒļÐ°Ð·":1336,"ÑģÐ°ÑĤÑĭ":1337,"Ð¾Ð²Ð°":1338,"ĠÐ±Ð°ÑģÑĤÐ°Ð¿":1339,"ĠÐ¼ÐµÐ´":1340,"Ð¸Ð¹":1341,"ĠI":1342,"ĠÐĴ":1343,"ĠÒĽÐ¾ÑĢÒĵÐ°Ñĥ":1344,"ĠÐ¾Ð½Ñĭ":1345,"Ó©Ð¹":1346,"ÐºÐµÑĢÐ»ÐµÑĢ":1347,"ĠÑģÑĭÐ±Ð°Ð¹Ð»Ð°Ñģ":1348,"ĠÑĤÐ°Ð»Ð°Ð¿":1349,"ĠÐ¶ÐµÒ£":1350,"ĠÒĽÐ°ÑĤÑĭÑģÑĤÑĭ":1351,"ÑĭÐ¼Ð´Ñĭ":1352,"Ð¶Ð°Ð½":1353,"ĠÐºÓ©ÑĢÑģÐµÑĤÑĸÐ»ÐµÑĤÑĸÐ½":1354,"ÑĥÑĢÑģ":1355,"ÑĤÐµÑģ":1356,"ÐĲÒĽ":1357,"),":1358,"ÑĤÐµÑĢÐ´Ñĸ":1359,"ĠÑģÑĭÐ½ÑĭÐ¿":1360,"iÐ»":1361,"ÒļÐ°Ð·Ð°ÒĽ":1362,"ÐĲÐł":1363,"ÑĭÑĤÑĭÐ½Ð´Ñĭ":1364,"ĠÐ¼Ð°ÒĽÑģÐ°ÑĤ":1365,"ÐµÐ³ÐµÐ½":1366,"Ð´ÐµÐ¼":1367,"ĠÒ±Ð»ÑĤÑĤÑĭÒĽ":1368,"ÐµÑĦ":1369,"ÐŃ":1370,"ÐµÑĤÑĸÐ½ÑĸÒ£":1371,"ĠÑģÑĤÐ°Ð½":1372,"ĠÐ¾ÑĢÐ½":1373,"ĠÐ¿ÑĢ":1374,"ĠÐ°Ð»Ð°Ð´Ñĭ":1375,"ĠÐºÒ¯ÑĢ":1376,"Ð½ÐµÐ½":1377,"ĠÑģÐ°ÒĽÑĤÐ°Ñĥ":1378,"ÑĭÑģÑĭÐ½ÑĭÒ£":1379,"ĠÐ¶Ð¸":1380,"ĠÓĻÐ´ÐµÐ±Ð¸":1381,"ĠÒĽÑĥ":1382,"ĠÑĤÐ°Òĵ":1383,"Ð°ÑĤÑĤÑĭÒĽ":1384,"Ò®":1385,"ĠÐ¾ÑĤ":1386,"ĠÐ¾ÒĽÑĭÑĤÑĥ":1387,"ĠÐ¾Ð¹ÑĭÐ½":1388,"ÐµÑĤÑĤÑĸÒ£":1389,"ĠÐ£":1390,"ÑĸÐºÑĸÑĢ":1391,"Ð°Ð»ÑĭÒĵ":1392,"Ð´Ð¶":1393,"ĠÐ±Ñĸ":1394,"ÑĭÐ½Ð´Ð°Ñĥ":1395,"ĠÑģÐ¾Ð½Ð´Ð°Ð¹":1396,"ĠÐ°ÑĥÑĢÑĥ":1397,"ÑĭÑĢÑĤ":1398,"ĠÐ¾ÒĽÑĥÑĪÑĭÐ»Ð°ÑĢ":1399,"ĠÐºÐµÐ»ÑĸÑģ":1400,"ÐµÐ½ÑĸÒ£":1401,"ÑĤÐµÑĢÑĸÐ½":1402,"ĠÐºÐ»":1403,"ĠÐ±Ð°ÑģÒĽÐ°ÑĢÐ¼Ð°ÑģÑĭ":1404,"ĠÐºÐµÐ·Ð´ÐµÑģ":1405,"Ð¾Ð³ÑĢ":1406,"ÑĪÑĭÐ»ÑĭÒĵÑĭ":1407,"ĠÐºÐµÐ»ÐµÐ´Ñĸ":1408,"ĠÒĽÐ°Ð½Ð´Ð°Ð¹":1409,"ĠÒļÐł":1410,"ÒĵÑĭÐ·":1411,"ÐºÐµÑĥ":1412,"ÑĸÑģÑĤÐµÑĢ":1413,"ĠâĢľ":1414,"ĠÒ¯Ð»ÐºÐµÐ½":1415,"ĠÐºÐµÐ·ÑĸÐ½Ð´Ðµ":1416,"ĠÒĵÑĭÐ»ÑĭÐ¼Ð¸":1417,"Ð°ÒĽÑĤÐ°ÑĢ":1418,"ĠÐ±ÐµÐºÑĸ":1419,"ĠÓĻÑģ":1420,"ÑĬ":1421,"ÐµÐ¹ÑĤÑĸÐ½":1422,"Ð»ÑĸÐ³ÑĸÐ½":1423,"ĠÒĽÒ±ÑĢÐ°Ð»":1424,"Ð¿ÐµÑĢ":1425,"ÐķÐ¡":1426,"ĠÐ±Ò±ÑĢÑĭÐ½":1427,"ĠÑįÐº":1428,"Ð°ÒĵÐ°ÑĤ":1429,"ĠÐºÓ©Ð¼ÐµÐº":1430,"ĠÒĽÒ±ÑĢÐ°Ð¼":1431,"ĠÐ¶Ð°ÒĽÑģÑĭ":1432,"ĠÐºÐµÑĪ":1433,"ÑģÑĸÐ·Ð´ÑĸÐº":1434,"ĠÐĲÒļ":1435,"Ð´Ð°Ð¿":1436,"ĠÐ¼ÐµÐ¼Ð»ÐµÐºÐµÑĤ":1437,"ĠÐ±ÑĸÑĢÑĸ":1438,"ĠÐ±Ð¾Ð»ÑĥÑĭ":1439,"ĠÒĽÐ¾ÑĢÑĭÑĤÑĭÐ½Ð´Ñĭ":1440,"ĠÐºÒ¯ÑĪ":1441,"ĠÑĤÐµÒ£Ð³Ðµ":1442,"ĠÐ°Ð»Ð´Ñĭ":1443,"Ð¼ÑĭÐ·":1444,"ÑĤÐºÐµÐ½":1445,"ĠÐ¶ÐµÑĤÐºÑĸÐ·":1446,"ĠÐ±Ð°ÒĽÑĭÐ»":1447,"Ð½Ð°":1448,"ÑģÐ¸":1449,"ĠÓĻÐ¹":1450,"ĠÐ·ÐµÑĢÑĤÑĤÐµÑĥ":1451,"ĠÐ³Ð°Ð·":1452,"ÐµÐ»ÑĸÐº":1453,"ĠÐ¶Ð°ÑĤÑĭÑĢ":1454,"ÑĨÐ¸ÑıÐ»ÑĭÒĽ":1455,"in":1456,"ÑģÑĤÐ¸":1457,"Ð°Ð¹ÑĤ":1458,"Ð°Ð»Ð°ÑĢÑĭÐ½":1459,"ĠÑĤÒ¯ÑĢÐ´Ðµ":1460,"Ð¸ÑĨÐ¸Ð½":1461,"âĢĵ":1462,"ĠÐºÓ©Ð»ÐµÐ¼":1463,"ĠÐ±Ñİ":1464,"Ð°Ð»ÑĭÒĽÑĤÐ°ÑĢ":1465,"Ð´ÐµÑĢÑĸÐ½":1466,"ÑĤÐ°Ð¼Ð°":1467,"ÐĳÒ±Ð»":1468,"ĠÑĤÒ¯ÑĢÐ»Ñĸ":1469,"ĠÑģÐµÐ±":1470,"Ð³i":1471,"ĠÑĤÑĸÐ»Ñĸ":1472,"ĠÐĽ":1473,"ĠÑĤÓ©Ð¼ÐµÐ½":1474,"ÑĤÒ¯ÑģÑĤÑĸÐº":1475,"ÒĵÐ°ÑĪÒĽÑĭ":1476,"Ð°ÑĤÑĥ":1477,"ĠÐŁÑĢÐµÐ·Ð¸Ð´ÐµÐ½":1478,"Ò£Ð³Ñĸ":1479,"Ò¯Ð»":1480,"ĠÒĽÐ°Ñģ":1481,"ÑĤÐµÐ»":1482,"ĠÒĽÐ°Ð»Ð°ÑģÑĭ":1483,"Ð»ÑĭÒĵÑĭ":1484,"ĠÐ¾Ðº":1485,"ĠÐ¿ÓĻÐ½":1486,"ĠÐ´Ò¯Ð½Ð¸":1487,"Ð°Ð·Ð°ÑĢÐ±Ð°ÐµÐ²":1488,"ĠÓ©ÑĤÑĤÑĸ":1489,"ĠÓ©Ð½Ð´ÑĸÑĢ":1490,"ÑģÐ¸Ñı":1491,"ÒĽÑĤÑĭ":1492,"ÑģÑĤÐ°ÑĢ":1493,"ÐµÑĢÑĸ":1494,"ĠÒĽÐ°Ð»Ð°Ð¹":1495,"ĠÑħÐ°Ð±Ð°ÑĢÐ»":1496,"iÑĢ":1497,"ĠÑģÑĤÐ°Ð½Ð´Ð°ÑĢ":1498,"Ð¤":1499,"ÑĤÐ°Ð´Ñĭ":1500,"ĠÑı":1501,"ĠÓĻÑĢÑĸ":1502,"Ð°ÑĢÐ»ÑĭÒĽ":1503,"Ò±ÑĢÑĭÑģ":1504,"ĠÐ¼ÐµÑĢÐ·":1505,"ĠÑĤÓĻÑĥÐµÐº":1506,"Ð¸Ð·Ð¼":1507,"ÐĲÐĿ":1508,"ĠÒĽÐ°Ð¹ÑĤÐ°":1509,"ÐµÐ½Ñĸ":1510,"ĠÒĽÐ°Òĵ":1511,"ĠÐ·Ð°Ò£Ð´Ñĭ":1512,"Ð°ÑģÑĭÑĢ":1513,"ĠÐ¾Ð±Ð»ÑĭÑģÑĤÑĭÒĽ":1514,"ĠÑĸÑģÐºÐµ":1515,"ĠÐ±Ò±Ð·":1516,"Ð½ÐµÑĢ":1517,"Ð¼Ð°Òĵ":1518,"ÐºÐ°":1519,"Ġ...":1520,"ĠÑħÐ°Ð»ÑĭÒĽÐ°ÑĢÐ°Ð»ÑĭÒĽ":1521,"ÑĭÑģÒĽÐ°":1522,"ĠÑĪÐµÐº":1523,"ĠÓ©ÐºÑĸÐ»":1524,"Ð°ÒĽÑĭ":1525,"ĠÐĳÐ°Ñģ":1526,"ĠÐ¼Ò¯Ð¼ÐºÑĸÐ½Ð´ÑĸÐº":1527,"ĠÓĻÑģÐµÑĢ":1528,"ĠÐµÑĪ":1529,"ĠÓĻÐºÑĸÐ¼Ñĸ":1530,"ĠÐºÐµÐ¹":1531,"ĠÑģÐ°ÑĤÑĭÐ¿":1532,"ÐµÐºÑĤÐ¾ÑĢ":1533,"Ð°ÑĥÑĭ":1534,"Ð±ÑĬ":1535,"ĠÐ±Ð°ÑģÒĽÐ°ÑĢÑĥ":1536,"ÑĭÑģÑĭÐ½Ð´Ð°":1537,"ÐĳÐ°Ñģ":1538,"ĠÐ¶Ð°ÒĵÐ´Ð°Ð¹Ð´Ð°":1539,"ÐµÐ»ÐµÐ½":1540,"Ð±Ð°ÑģÑĭ":1541,"ĠÒĽÐ°ÑĥÑĸÐ¿":1542,"Ð°Ò£Ð°":1543,"ĠÐ¿Ð°Ð¹Ð´Ð°":1544,"ÑģÑĤÐ¸ÑĤÑĥ":1545,"ĠÐ¾ÐºÑĢÑĥ":1546,"ĠÐ±ÐµÑĢÐµÐ´Ñĸ":1547,"ÐµÐ´Ð°Ð³":1548,"ĠÐ°ÑĤÑĤÑĭ":1549,"Ð½Ð¸Ð²":1550,"er":1551,"ÑĭÐ»ÑĭÐ¿":1552,"ÑĤÐ¸Ð²":1553,"ÐµÐ´Ð°Ð³Ð¾Ð³":1554,"ĠÐŀÑĢ":1555,"Ð¼Ò±":1556,"ÐµÑģÑĸÐ½Ð´Ðµ":1557,"Ò¢":1558,"Ð·Ð¸Ñı":1559,"ÑĤÐµÐ´Ñĸ":1560,"Ò±Ð»Ñĭ":1561,"Ð±ÑĭÐ»":1562,"ĠÐºÓ©ÑĤÐµÑĢ":1563,"10":1564,"ĠÒĽÑĭÑĢ":1565,"Ð½Ð¸Ð²ÐµÑĢÑģ":1566,"ÐºÑĸÐ½ÑĪÑĸ":1567,"ĠÐ°ÑĤÐ°":1568,"ĠÐ°ÑģÑĭÑĢÑĥ":1569,"ĠÐºÑĸÑĤÐ°Ð¿":1570,"ĠÑģÐµÑĢ":1571,"ÐľÐµÐ¼Ð»ÐµÐºÐµÑĤÑĤÑĸÐº":1572,"ĠÐ±Ó©Ð»ÑĸÐ¼Ñĸ":1573,"ÒĵÑĭÐ»":1574,"Ð´ÐµÑĤ":1575,"ĠÐĲÑĢ":1576,"ĠÐ±Ð°ÑģÑĤÑĭ":1577,"ĠÐ¼Ð»":1578,"ĠÐ±ÑİÐ´Ð¶":1579,"ĠÐ°ÑĤÑĭÐ½Ð´Ð°ÒĵÑĭ":1580,"ĠÐ¼Ò±Ð½":1581,"Ð´Ð°Ñģ":1582,"Ġ15":1583,"on":1584,"Ð°Ð¹Ð´Ð°":1585,"Ð°Ð»Ð°Ð´Ñĭ":1586,"ĠÑģÐ¿Ð¾ÑĢÑĤ":1587,"ÑĪÐ°ÑĢ":1588,"ĠÐ¶Ò±Ð¼ÑĭÑģÑĤÐ°ÑĢ":1589,"ĠÑĤÓĻÑĥÐµÐºÐµÐ»Ð´ÐµÑĢ":1590,"Ġ_":1591,"ÐĲÐĽ":1592,"ĠÐ¾ÑĢÐ½Ð°Ð»Ð°Ñģ":1593,"ĠÐ±ÑĸÐ·Ð´ÑĸÒ£":1594,"Ò»":1595,"Ð°Ð»ÑĮ":1596,"ĠÑĤÑĸÐ·":1597,"ĠÐ°ÑĢÐ°ÑģÑĭÐ½Ð´Ð°":1598,"ĠÐ¡Ð¾Ð»":1599,"ĠÐķÐ»":1600,"Ð½Ð¸Ð²ÐµÑĢÑģÐ¸ÑĤ":1601,"ĠÑĸÐ·":1602,"Ð°Ð¹Ð»Ñĭ":1603,"Ð°ÑĥÑĢ":1604,"ÑĤÑĤÐ°ÑĢ":1605,"Ġ2016":1606,"ÑĭÐ¹":1607,"ĠÐ¾Ò£":1608,"ÑĥÑĭÐ½":1609,"Ð½Ð¾":1610,"ĠÐ°ÑĥÑĭÐ»Ð´ÑĭÒĽ":1611,"iÐ¼":1612,"ÑĪÑĸÑģÑĸ":1613,"ĠÑģÓ©Ð¹":1614,"ĠÐĲÐ¹":1615,"ÑĥÑĭÐ½Ð°":1616,"ĠÐľÐµÐ¼Ð»ÐµÐºÐµÑĤÑĤÑĸÐº":1617,"Ð½Ð°Ð¼":1618,"ĠÒ±ÑĢ":1619,"ĠÐ±Ð°Ð¹ÒĽ":1620,"Ð³ÑĸÐ»ÑĸÐºÑĤÑĸ":1621,"Ð»Ð°":1622,"ĠÑįÐ»ÐµÐºÑĤÑĢ":1623,"ĠÐ±Ð°ÒĽÑĭÐ»Ð°Ñĥ":1624,"ĠÒ°Ð»":1625,"ĠÐ±ÑĸÑĢÑĸÐ½ÑĪÑĸ":1626,"Ð»ÑĮ":1627,"an":1628,"ĠÐ¼Ò±ÒĵÐ°Ð»":1629,"ĠÐ´Ð°Ð¹ÑĭÐ½":1630,"ĠÐ¼Ð°Ò£ÑĭÐ·Ð´Ñĭ":1631,"ÐºÑĨÐ¸Ñı":1632,"ĠÐ¼ÓĻÐ½":1633,"ÐĲÒļ":1634,"ĠÑĤÐµÐ»":1635,"ĠÒĽÑĭÐ»":1636,"ÓĻÐ¶ÑĸÑĢ":1637,"ĠÐ¿Ð°Ð¹Ð´Ð°Ð»Ð°Ð½Ñĥ":1638,"ĠÑĢÑĥ":1639,"ĠÐ°ÑĥÐ´Ð°Ð½Ð´ÑĭÒĽ":1640,"ÐµÑģÐµÐ¹":1641,"ĠÑĪÑĭÐ½":1642,"ĠÑĤÓ©ÑĢ":1643,"ĠÐºÐµÑģÑĤ":1644,"Ð»Ð°ÑĢÑĭÐ½":1645,"ĠÐ¶ÑĸÐ±ÐµÑĢ":1646,"ĠÐ±ÐµÐ»Ð³ÑĸÐ»Ñĸ":1647,"ĠÑģÐ¾ÑĤ":1648,"ĠÐ¶ÐµÐ»":1649,"ĠÐµÑģÐºÐµÑĢ":1650,"ĠÒ±Ð·":1651,"ĠÐĿÒ±ÑĢ":1652,"ĠÒĽÐ¸":1653,"ĠÓĻÐ½":1654,"ĠÑģÐ°ÑĢ":1655,"ĠÓĻÐ»":1656,"ÓĻÐ¶ÑĸÑĢÐ¸":1657,"Ġ,":1658,"ÑģÑĸÐ½":1659,"âĢ¦":1660,"Ð·ÑĸÑĢ":1661,"Ġ[":1662,"ÑĤÑĸÑĢÑĥ":1663,"Ð´ÐµÑĢÑĸÐ½ÑĸÒ£":1664,"Ð¸ÑĦ":1665,"ĠÒĽÐ°ÑĢÐ°Ð¹":1666,"ĠÐ°ÑĥÐ´Ð°ÑĢ":1667,"Ð¼ÑĭÐ½":1668,"Ð´ÐµÑĢÐ´Ñĸ":1669,"Ð°Ð»ÑĭÒĵÑĭ":1670,"Ð»Ð°Ð¹":1671,"ĠÐķÑĢ":1672,"Ð½ÐµÑģ":1673,"ĠÐļÓ©":1674,"Ð¼Ð¸":1675,"ÑĤÑĥÐ´ÐµÐ½":1676,"ĠÑģÒ¯Ð¹":1677,"ĠÒĽÐ°Ð¶ÐµÑĤÑĤÑĸ":1678,"ĠÐ¿ÑĢÐ¾ÑĨ":1679,"ÒĵÐ½Ð¸":1680,"ĠÑĤÐµÑħÐ½Ð¾Ð»Ð¾Ð³Ð¸Ñı":1681,"ĠÑĦÐ¸Ð»":1682,"ĠÐ´ÐµÐ¹Ð´Ñĸ":1683,"ĠÒļÒ±ÑĢ":1684,"ÑĤÐµÐ³Ñĸ":1685,"ĠÐºÐ¾Ð¼Ð¼":1686,"ĠÓĻÑĢÐµÐº":1687,"ÑĭÐ·ÑĭÐ»":1688,"ĠÒĽÐ¾ÒĵÐ°Ð¼Ð´ÑĭÒĽ":1689,"ĠÑģÑĸÐ·":1690,"ĠÑĸÑĢ":1691,"Ò±Ñģ":1692,"Ð»ÐµÑĢÑĸÐ½":1693,"ĠÐ´ÐµÐ´Ñĸ":1694,"Ġ0":1695,"ÑĤÐ°Ð½Ð´ÑĭÑĢÑĥ":1696,"ĠÐ±ÑĸÑĢÐ³Ðµ":1697,"ÒĵÑĭÐ½Ð°":1698,"Ð°Ð½Ð´":1699,"ĠÑįÐºÐ¾Ð½Ð¾Ð¼Ð¸ÐºÐ°Ð»ÑĭÒĽ":1700,"ĠÐºÐµÐ¼":1701,"ĠÐºÐ¾ÑĢ":1702,"ĠÐ¿Ð°ÑĢ":1703,"ĠÐ¶Ð°Ð¹":1704,"ĠÐ¼ÐµÐ´Ð¸ÑĨÐ¸Ð½":1705,"Ð¿Ð°Ð½Ð¸Ñı":1706,"ÑĤÐ¾Ð¼":1707,"ĠÐ±Ð°ÑģÑĪÑĭÑģÑĭ":1708,"ĠÐ±Ð°Ð»Ð°":1709,"ÑĤÐµÐ³ÐµÐ½":1710,"ÑĥÑĤ":1711,"ĠÐ¿ÑĸÐºÑĸÑĢ":1712,"iÐº":1713,"Ð¼ÐµÑĤÑĤÑĸ":1714,"Ð°ÑĤÑĭÐ»":1715,"ÑģÐ°ÒĽ":1716,"ÑĸÑģÑĤÑĸÐº":1717,"ĠÑģÐ¸Ð¿":1718,"ĠÓ©Ð·Ñĸ":1719,"Ð°Ð½Ð´Ñĭ":1720,"ÓĻÑĥÑĸÑĢ":1721,"ĠÑĤÐ°Ð¼":1722,"ÑĭÐ½ÒĵÐ°Ð½":1723,"ĠÐ±Ð°Ð½Ðº":1724,"ĠÒĽÐ°ÑĤÑĭÐ½Ð°Ñģ":1725,"ÑĥÐ¼":1726,"ĠÒ±Ð¹ÑĭÐ¼Ð´Ð°ÑģÑĤÑĭÑĢÑĥ":1727,"ĠÓ©Ð·ÑĸÐ½":1728,"ĠÒĽÐ°Ð»Ð°":1729,"ÑģÐ°ÑĥÐ»ÑĭÒĽ":1730,"ÑĭÐ»Ð°ÑĤÑĭÐ½":1731,"ĠÑģÐ¸Ñı":1732,"ÑĥÐ·":1733,"ĠÒĵÐ°ÑģÑĭÑĢ":1734,"ĠÑģÑĥÑĢ":1735,"Ò±ÒĽ":1736,"ĠÓ¨Ð·":1737,"ÐµÑģÑĸÐ½Ðµ":1738,"Ð¾Ð³ÑĢÐ°ÑĦ":1739,"Ð³ÑĸÐ½Ðµ":1740,"ĠÑĤÐ¾ÒĽÑģÐ°Ð½":1741,"ĠÑĤÓĻÑĥÐµÐºÐµÐ»Ð´ÐµÑĢÑĸÐ½Ðµ":1742,"Ð¿Ð°ÒĽ":1743,"ĠÒĽÐ°Ð»ÑĭÐ¿ÑĤ":1744,"ĠÐ¾ÑĤÑĭÑĢÒĵÐ°Ð½":1745,"ĠÑĤÐ°Ð±Ð¸Òĵ":1746,"ĠÑĪÐµÑĤ":1747,"Ġ12":1748,"ĠÐ¼Ðµ":1749,"Ð°ÑĤÐ¸Ð²":1750,"ĠÐ´Ò±ÑĢÑĭÑģ":1751,"ĠÑģÑĭÐ¹":1752,"ĠÑĤÐ°ÒĽÑĭÑĢÑĭÐ±":1753,"ar":1754,"ĠÐ¼Ò±ÑĢ":1755,"ÒļÐ°Ð·":1756,"12":1757,"ti":1758,"ÑĢÐ°ÑĤ":1759,"ĠÐ°Ð¹ÑĤÑĥ":1760,"ÐµÑģÐ¿ÑĥÐ±Ð»Ð¸ÐºÐ°Ð»ÑĭÒĽ":1761,"ĠÐ´ÑĸÐ½":1762,"Ð´ÐµÑĢÐ´ÑĸÒ£":1763,"ĠÒļÐ¾":1764,"ĠÐ´ÐµÐ¼":1765,"ĠÑĪÑĭÒĽ":1766,"ĠÐ°ÑĢÐ½Ð°Ð¹Ñĭ":1767,"ĠÐ½ÑĭÑģ":1768,"ÑĤÑĤÑĭ":1769,"ĠÒ¯Ð¹ÑĢ":1770,"ÑĤÐ¾ÒĽÑģÐ°Ð½":1771,"ĠÓ©Ð·ÑĸÐ½ÑĸÒ£":1772,"ĠÑģÐ¸ÑıÒĽÑĤÑĭ":1773,"ĠÑĪÐ°ÒĽÑĭÑĢ":1774,"ĠÑĤÐ°Ð½ÑĭÑģ":1775,"Ð±Ð¾Ð»":1776,"ĠÐ½Ð°ÒĽÑĤÑĭ":1777,"ÑħÐ°Ð½Ð¸":1778,"ĠÒ¯Ð·":1779,"ÑĭÑģÑĤÐ°ÑĢ":1780,"ĠÓ©Ð·Ð³Ðµ":1781,"ĠÐ¿Ð¾":1782,"ÐºÒ¯Ð¹":1783,"Ð°Ð»Ð¿Ñĭ":1784,"ĠÐ·Ð°Ð¼Ð°Ð½":1785,"18":1786,"ÑĤÑĥÐ´ÐµÐ½ÑĤ":1787,"ÑĪÑĭÑģÑĭ":1788,"ĠÐ¼ÑĸÐ½Ð´ÐµÑĤÑĤÑĸ":1789,"ÑĤÓ©":1790,"2018":1791,"ĠÐ°ÑıÒĽ":1792,"ĠÑĸÑģÑĤÐµÑĢ":1793,"ĠÐŀÐ½ÑĭÒ£":1794,"ĠÒ¯ÐºÑĸÐ¼":1795,"ĠÓ©ÑĢ":1796,"Ð°ÑĥÑĢÑĭÐ·":1797,"Ġ18":1798,"Ð»ÐµÑĤ":1799,"ÐĻ":1800,"ĠÒĽÐ¾Ð·":1801,"ĠÒĽÐ°Ð»ÒĵÐ°Ð½":1802,"ÑĤÐ°Ð»Ð´Ñĭ":1803,"ĠÐ±Ò¯Ð³ÑĸÐ½":1804,"50":1805,"ĠÑĤÐ¸ÑĸÐ¼Ð´Ñĸ":1806,"ÑĢÐ¸":1807,"ĠÐºÐµÒ£ÐµÑģ":1808,"ÑģÑĤÐµÐ¼":1809,"ĠÑģÐ°Ð½Ñĭ":1810,"ĠÒ±ÑĪ":1811,"Ð½ÐµÑĪÐµ":1812,"Ð°Ð·Ñĭ":1813,"ĠÑĦÐ°Ðº":1814,"ÐµÐ¼ÑĸÐ·":1815,"ĠÓĻÑģÐºÐµÑĢ":1816,"ĠÒĽÐ¾Ð½":1817,"ĠÓĻÐºÑĸÐ¼ÑĸÐ½ÑĸÒ£":1818,"ĠÐºÐµÑģÑĤÐµÑģÑĸ":1819,"ĠÐ¾Ð±Ð»ÑĭÑģÑĭÐ½ÑĭÒ£":1820,"âĢĶ":1821,"ĠÑĪÐ°ÑĢÑĥÐ°ÑĪÑĭÐ»ÑĭÒĵÑĭ":1822,"Ġ2015":1823,"Ò¯Ð½":1824,"Ð´ÑĸÐ³ÑĸÐ½":1825,"ĠÐ¶Ò¯ÑĢÐ³ÐµÐ½":1826,"ĠÐ¼Ò¯ÑĪ":1827,"ĠÒĴ":1828,"ÑģÐ¸Ñħ":1829,"ÐµÐ±Ñĸ":1830,"ĠÐ¶Ð°ÑĢÑĤÑĭ":1831,"ÑĭÐ»ÑĭÒĽ":1832,"Ð¾Ò£":1833,"Ð¼ÑĸÐ·":1834,"ĠÒĽÐ°ÑĢÐ°":1835,"Ð°Ð»Ð°Ð»Ð°ÑĢ":1836,"ÐµÐ³Ñĸ":1837,"st":1838,"Ò±Ð»ÑĤÐ°Ð½":1839,"ÉĻ":1840,"ĠÐ±Ð°ÑĢÑĭÑģÑĭÐ½Ð´Ð°":1841,"ĠÐ¶Ð°Ð±":1842,"or":1843,"ÐºÑĸÑĪ":1844,"ĠÐµÐ»ÑĸÐ¼":1845,"ĠÐ¼Ð°ÒĽÑģÐ°ÑĤÑĭ":1846,"Ð¾ÑĢÑĭÐ½":1847,"ÐĲÑĥ":1848,"ĠÑģÐ°ÑıÑģÐ°ÑĤ":1849,"ÑģÐ¿":1850,"ĠÑĤÓĻÐ¶ÑĸÑĢÐ¸":1851,"ĠÐĳÑĸÑĢÐ°ÒĽ":1852,"ĠÒĽÐ¾Ð»Ð´Ð°Ñĥ":1853,"ĠÑĤÐ¾ÒĽ":1854,"17":1855,"ĠÐ¸Ðµ":1856,"ĠÐ¼Ð°":1857,"ĠÒĽÐ¾Ð»Ð´Ð°Ð½Ñĥ":1858,"ĠÐ±Ð°ÑģÑĪÑĭÑģÑĭÐ½ÑĭÒ£":1859,"ĠÐ°Ð»ÑĥÒĵÐ°":1860,"ÐµÐ»ÐµÑĥ":1861,"ĠÐĲÑģÑĤÐ°Ð½Ð°":1862,"ĠÑĥÐ½Ð¸Ð²ÐµÑĢÑģÐ¸ÑĤ":1863,"ĠÑģÑĸÐ»":1864,"ÑĤiÐº":1865,"ÒĵÐ°Ð¹":1866,"ÐºÐµÐ¼":1867,"ĠÐ¶ÑĭÐ»ÒĵÐ°":1868,"ĠÐ¼ÓĻÑģÐµÐ»ÐµÐ»ÐµÑĢ":1869,"ĠÑĤÐµÐºÑģÐµÑĢ":1870,"ĠÐłÐµÑģÐµÐ¹":1871,"ĠÐĿÐ°Ð·Ð°ÑĢÐ±Ð°ÐµÐ²":1872,"ĠÐ¶ÐµÐ¼ÒĽÐ¾ÑĢÐ»ÑĭÒĽÒĽÐ°":1873,"__":1874,"ĠÒļÒ±":1875,"ÑĤÐµÑĢÐ³Ðµ":1876,"ĠÒĽÒ±Ð½":1877,"ĠÐ¾ÒĵÐ°Ð½":1878,"Ð³ÑĸÐ½Ð´Ðµ":1879,"ĠÑĤÒ±ÑĢÒĵÐ°Ð½":1880,"ÑģÑĭÐ¼":1881,"Ò¯ÑĢÐ»Ñĸ":1882,"ĠÐ¥Ð°Ð»ÑĭÒĽ":1883,"ĠÐºÒ¯Ð¹":1884,"Ð¸Ð·Ð½ÐµÑģ":1885,"ĠÒĽÑĭÐ·Ð¼ÐµÑĤÑĸ":1886,"ĠÐ¶ÐµÑĢÐ³ÑĸÐ»ÑĸÐºÑĤÑĸ":1887,"ĠÓ©Ð»ÐµÒ£":1888,"ÑĥÐ»ÑĮ":1889,"ĠÐ¿Ð°Ð¹ÑĭÐ·":1890,"Ð²ÐµÑģ":1891,"Ð´ÐµÑģ":1892,"ĠÐ¼ÐµÐºÐµÐ½":1893,"ĠÐ°Ð¹ÑĤÒĽÐ°Ð½":1894,"ĠÐºÐ¸":1895,"ĠÐ°ÑĪÑĭÐ»":1896,"ĠÐºÓ©Ò£":1897,"ĠÒĽÐ°ÑģÐ¸":1898,"Ð°Ð»ÑĭÐ¼":1899,"Ð´Ð°ÑĢÑĭÐ½Ð°":1900,"11":1901,"ĠÐµÐºÐµÐ½ÑĸÐ½":1902,"ÐķÐł":1903,"ÑĪÑĸÐº":1904,"ĠÐ°Ð´Ð°Ð¼Ð½ÑĭÒ£":1905,"Ð»Ð°Ð½ÒĵÐ°Ð½":1906,"ĠÑģÐµÐ·":1907,"ĠÐµÑĤÐµÐ´Ñĸ":1908,"Ð»Ð°ÑĢÑĭÐ½ÑĭÒ£":1909,"Ð¾ÒĽ":1910,"Ò±Ð¼ÑĭÑģ":1911,"ĠÐ±Ð¾Ñģ":1912,"ÐĳÑĸÑĢ":1913,"ĠÐ±Ð°ÒĵÐ°Ð»Ð°Ñĥ":1914,"ĠÐºÐµÐ»Ðµ":1915,"ĠÐ¶Ð¾ÑģÐ¿Ð°ÑĢÑĭ":1916,"ĠÐºÓ©ÑĢÑĸÐ½":1917,"ĠÑħÐ°ÑĤ":1918,"ĠÐ´ÓĻÑĢ":1919,"ĠÐ¼Ð°ÑĢ":1920,"ĠÐ¼Ð°Ð·":1921,"ĠÐ´ÐµÑĢÐµÐº":1922,"ÐµÐºÑģ":1923,"ĠÑħÐ°Ð»ÒĽ":1924,"Ġ199":1925,"ĠÐ±ÑĸÐ»Ð´ÑĸÑĢ":1926,"ÑĭÐ¼ÑĪÐ°":1927,"ÐµÐ³ÑĸÐ·":1928,"ĠÑĢÐµ":1929,"ÑĤÐ°ÒĵÐ°Ð½":1930,"ÐµÐ¼ÐµÐ½":1931,"ÐµÐ¼Ð»ÐµÐºÐµÑĤ":1932,"en":1933,"ĠÐ¿Ð¾ÑĢ":1934,"ĠÐ¿ÐµÐ´Ð°Ð³Ð¾Ð³":1935,"ĠÑĪÑĭÒĵÐ°ÑĢÐ¼Ð°":1936,"ÑģÑĤÑĢ":1937,"Ð´ÑĭÒĵÑĭ":1938,"Ó©Ð»ÑĪ":1939,"ĠÑĤÐ°ÒĵÑĭ":1940,"ĠÐ½Ð°ÑĢ":1941,"ĠÐµÐºÑĸÐ½ÑĪÑĸ":1942,"ĠÐ°Ð»ÒĵÐ°ÑĪÒĽÑĭ":1943,"ĠÓ©Ò£ÑĸÑĢ":1944,"Ð¿Ð°Ð¹":1945,"ÐºÐµÑĢÐ»ÑĸÐº":1946,"Ð±ÑĬÐµÐºÑĤÑĸ":1947,"ĠÐ´ÓĻÐ»":1948,"Ð±Ð°ÑĤ":1949,"ĠÐ´ÐµÐ¹ÑĸÐ½Ð³Ñĸ":1950,"Ð«ÐĿ":1951,"ĠÑģÒ¯ÑĢ":1952,"ĠÐ°Ð¹ÑĭÑĢ":1953,"ĠÒļÐ°Ð·Ð°ÒĽÑģÑĤÐ°Ð½Ð½ÑĭÒ£":1954,"ÑĨÐ¸Ð¾Ð½":1955,"Ð°ÑĥÒĵÐ°":1956,"ĠÐ±ÐµÐ¹":1957,"ĠÐ¾ÑĢÑĭÐ½Ð±Ð°Ñģ":1958,"ĠÒĽÐ°Ð·ÑĸÑĢÐ³Ñĸ":1959,"Ð°ÑģÑģ":1960,"ĠÑĤÐ°ÑĢÐ¸ÑħÑĭ":1961,"ÒĽÑĭÐ·":1962,"ĠÐ¶Ò¯Ðº":1963,"ĠÐŀÒĽ":1964,"ĠÒ°Ð»ÑĤÑĤÑĭÒĽ":1965,"ĠÑģÑĭÑĢÑĤ":1966,"ÑĤÐ°ÑĢÒĵÐ°":1967,"Ð¸ÑģÑģÐ¸Ñı":1968,"ĠÐ±ÑĸÑĢÐ½ÐµÑĪÐµ":1969,"Ð¡Ð°Ð±Ð°ÒĽ":1970,"ÒĵÑĭÑĢ":1971,"ĠÐĹÐ°Ò£":1972,"Ð¿Ð°Ñģ":1973,"ÐĲÐ¡":1974,"ĠÑĭÒĽ":1975,"Ð«Òļ":1976,"Ò¯Ð³ÑĸÐ½":1977,"ĠA":1978,"ĠÐ±ÐµÐ»ÑģÐµÐ½":1979,"ÑĪÑĭÐ½":1980,"Ð°ÑĥÑģÑĭÐ¼":1981,"ĠÓ©Ð½ÑĸÐ¼":1982,"Ð°ÑĤÐµÐ³":1983,"Ð¾ÑĢÐ´Ð°":1984,"Ð¸Ð»Ð»":1985,"2017":1986,"ÑĢÐ°Ð¼":1987,"ÐļÓ©":1988,"Ð»Ð¾":1989,"Ð¸Ð´Ðµ":1990,"ÑĦÐµÑĢ":1991,"ÑģÑĭÐ½Ð´Ð°Ð¹":1992,"ÑĥÑģ":1993,"ĠÐºÐµÐ»ÑĸÐ¿":1994,"ĠÓ©ÑĤÑĸÐ½":1995,"ĠÐ±Ð¾Ð»Ñĥ":1996,"Ð°ÑĪÐ°ÒĽ":1997,"ÑĤÐ°ÑĤ":1998,"Ð¸Ðµ":1999,"Ð»ÑĸÐ³ÑĸÐ½ÑĸÒ£":2000,"ĠÑĤÐ°Ð¿ÑģÑĭÑĢÐ¼":2001,"Ð¡Ð¾Ð½":2002,"ĠÐ°ÑıÑģÑĭÐ½Ð´Ð°":2003,"Ð½ÐµÑĢÐ³":2004,"ÐŀÒĽ":2005,"ĠÐ°ÑĥÑĭÑĢ":2006,"Ð»Ð°ÑĢÒĵÐ°":2007,"Ð¶ÑĭÐ¼":2008,"16":2009,"ĠÒĽÒ±Ð»":2010,"ĠÑģÐ¸Ð¿Ð°ÑĤ":2011,"ĠÑģÐ°Ð¹ÑĭÐ½":2012,"Ð±ÐµÑĤ":2013,"Ð´ÐµÐ¿":2014,"al":2015,"Ð¸Ð³":2016,"ĠÒĽÒ±Ð¶Ð°ÑĤÑĤÐ°ÑĢ":2017,"ĠÓĺÑĢ":2018,"Ð¼Ð°Ð¹":2019,"14":2020,"ĠÐ´ÓĻÑĢÑĸ":2021,"ĠÐ¼ÐµÑĤ":2022,"Ð¼Ð°ÒĵÐ°Ð½":2023,"ÐµÑĤÑĤÐµÑĢÑĸ":2024,"ĠÐ°Ð´Ð°Ð¼Ð´Ð°ÑĢ":2025,"Ð¼Ñĸ":2026,"ĠÐ½ÑĭÑģÐ°Ð½":2027,"Ð°ÑıÐ½":2028,"ĠÑĤÐ°Ð±ÑĭÑģ":2029,"ÓĻÑģÑĸ":2030,"ĠÐ¢Ò¯ÑĢ":2031,"ĠÓ©Ð·Ð³ÐµÑĢÑĸÑģÑĤÐµÑĢ":2032,"ÑĤÑĭÐ»ÒĵÐ°Ð½":2033,"Ð°ÑĤÑĥÑĢ":2034,"ĠÑģÐµÐ±ÐµÐ¿":2035,"ÐºÑĥÑĢÑģ":2036,"ĠÐĲÑĥ":2037,"Ð¸ÐµÐ²":2038,"ÑĸÐ¿ÑĤÑĸ":2039,"ĠÑĭÐ½":2040,"ĠÑģÑĤÑĥÐ´ÐµÐ½ÑĤ":2041,"ĠÐ¡Ð¾Ð½Ð´ÑĭÒĽÑĤÐ°Ð½":2042,"ĠÐ´Ð°Ñĥ":2043,"ĠÒĽÒ±ÑĢÑĭÐ»ÑĭÐ¼":2044,"ĠÐ°ÑĪÑĭÒĽ":2045,"ĠÐ±ÐµÑĢÐµÑĤÑĸÐ½":2046,"iÒ£":2047,"ĠÒ±Ð¹ÑĭÐ¼Ð´Ð°ÑģÑĤÑĭÑĢ":2048,"ĠÐ°Ð³":2049,"ĠÒĽÑĭÑģ":2050,"ĠÑĪÐµÑĪÑĸÐ¼":2051,"ÑĤÑĤÑĸ":2052,"ĠÒ¯ÑģÑĤ":2053,"ÐµÑģÑģ":2054,"ĠÒ¯Ð½":2055,"Ð°Ò£ÑĤÐ°ÑĢ":2056,"ĠÑĤÒ±ÑĢÐ°ÒĽÑĤÑĭ":2057,"ĠÐ±ÐµÑĢÑĸÐ»Ð³ÐµÐ½":2058,"Ġ25":2059,"ĠÐ±ÐµÑĢÐ³ÐµÐ½":2060,"ÑĤÐµÐ¼Ðµ":2061,"ĠÐµÐ½Ð³ÑĸÐ·Ñĥ":2062,"30":2063,"Ð°ÑģÐ°":2064,"ĠÂ»":2065,"ÑĪÑĭÐ½ÑĭÒ£":2066,"ĠÐ¼Ð°ÒĽÑģÐ°ÑĤÑĭÐ½Ð´Ð°":2067,"Ð±ÐµÐ½":2068,"ĠÐ°ÑĢÑĤÑĤÑĭÑĢÑĥ":2069,"ÑĤÓ©Ð±Ðµ":2070,"ÐµÑĤÐºÐµ":2071,"ĠÐ¶ÑĭÐ»Ð´Ð°Ð½":2072,"ĠÐ¼Ó©Ð»ÑĪ":2073,"ĠÑģÐ°ÒĵÐ°ÑĤ":2074,"ĠÐ°ÑĢÐ°ÑģÑĭÐ½Ð´Ð°ÒĵÑĭ":2075,"Ġ14":2076,"Ð´Ð°ÒĵÐ°Ð½":2077,"ĠÒĽÐ°Ð»ÑĭÐ¿ÑĤÐ°Ñģ":2078,"ÑĥÐ´Ð°":2079,"ĠÒĽÑĭÐ»Ð¼ÑĭÑģ":2080,"ĠÐ°Ð¹ÑĤÑĭÐ¿":2081,"ÑĭÒĵÑĭÐ½Ð°":2082,"ĠÒĽÐ°ÑĢÐ¶Ñĭ":2083,"ĠC":2084,"ĠÑĤÑĥÒĵÐ°Ð½":2085,"ĠÐ±ÑĸÑĢÐ°ÒĽ":2086,"ĠÒĽÐ°Ð±ÑĸÐ»":2087,"25":2088,"ĠÐºÐ¾Ð¼Ð¿Ð°Ð½Ð¸Ñı":2089,"ÑĤÐ°Ð»Ð°Ð´Ñĭ":2090,"ĠÐ°Ð·Ð°Ð¼Ð°ÑĤÑĤÐ°ÑĢÐ´Ñĭ":2091,"ÑĭÑģÑĤÑĭÑĢ":2092,"ĠÒĵÐ¾Ð¹":2093,"Ġ16":2094,"ĠÒĽÒ±ÑĢÑĭÐ»ÑĭÑģ":2095,"15":2096,"ĠÓĻÐ·ÑĸÑĢ":2097,"ĠÑģÐ°Ð¹ÑĤ":2098,"ĠÒ¯Ð»Ð³Ñĸ":2099,"ĠÐ°ÑĤÐ°Ð¿":2100,"Ð°Ð¼ÐµÐ½":2101,"ĠÐµÑĢÐµÐ¶":2102,"ĠÐ°ÒĽÐ¿Ð°ÑĢÐ°ÑĤÑĤÑĭÒĽ":2103,"ĠÐ¾Ð»Ð°ÑĢÐ´Ñĭ":2104,"ÑĸÐ½ÐµÐ´Ñĸ":2105,"ĠÐ±ÐµÑģ":2106,"Ġ30":2107,"ÐµÐ¼Ð°ÑĤ":2108,"ĠÐ¾ÑĢÐ½Ð°Ð»Ð°ÑģÒĽÐ°Ð½":2109,"ÒļÒ±ÑĢ":2110,"ÑĥÐ±":2111,"ĠÒĽÑĭÐ·Ð¼ÐµÑĤÑĤÐµÑĢ":2112,"ĠÒĽÐ¸ÑĭÐ½":2113,"ÐĳÑĸÐ·":2114,"ĠÐ°ÒĽÑĭÐ½":2115,"ĠÒĽÐ°":2116,"Ð°ÐµÐ²":2117,"ĠÐºÓ©Ðº":2118,"ĠÐ¼ÐµÐ´Ð¸ÑĨÐ¸Ð½Ð°Ð»ÑĭÒĽ":2119,"ÐºÐ¾Ð½Ð¾Ð¼Ð¸ÐºÐ°Ð»ÑĭÒĽ":2120,"ĠÑģÐ¾Ò£ÒĵÑĭ":2121,"ĠÐ¼Ð°Ð·Ð¼Ò±":2122,"ĠÐ°Ð»Ð´ÑĭÐ½":2123,"ĠÑģÐ°Ð»Ð°ÑģÑĭÐ½Ð´Ð°ÒĵÑĭ":2124,"ĠÐĺÐ½":2125,"ĠÑĢÐµÑģÐ¼Ð¸":2126,"ÐµÐ½ÑĤÑĸ":2127,"Ð°Ð»Ð´ÑĭÒĽ":2128,"ĠÐ°Ð·Ð°Ð¼Ð°ÑĤÑĤÐ°ÑĢ":2129,"ÑĭÑĤÐ°Ð¹":2130,"ĠÐ±ÐµÐºÑĸÑĤÑĥ":2131,"ĠÑģÒ±ÑĢÐ°ÒĽ":2132,"ĠÑĪÑĭÒĽÒĽÐ°Ð½":2133,"ĠS":2134,"Ð·Ð°Ð¼":2135,"ÑĭÑģÑĤÑĭÒĽ":2136,"ĠÑģÐ°ÑıÑģÐ¸":2137,"ÑģÐ°ÑĢ":2138,"Ð»ÐµÐ½Ð³ÐµÐ½":2139,"ĠÐ¾Ð´Ð°Ð½":2140,"ĠÐ¾ÑĢÑĤÐ°Ð»ÑĭÒĵÑĭ":2141,"ĠÐ°Ð¿Ð¿Ð°ÑĢ":2142,"ĠÓĻÒ£Ð³Ñĸ":2143,"ĠÐ´Ð¸":2144,"le":2145,"ĠÒĽÐ°Ð¼ÑĤÑĥ":2146,"ÑĥÑĢÐ½Ð°Ð»":2147,"ĠÐ±ÐµÑĢÐ´Ñĸ":2148,"ĠÐ°Ð¹Ð¼Ð°ÒĽ":2149,"ĠÑĤÒ¯ÑĢÑĸ":2150,"ÑĥÐ´Ñĭ":2151,"ÒĵÑĭÐ¼":2152,"ĠÑĤÓĻÑĢÑĤÑĸ":2153,"ĠÐ¼ÐµÑĢÐµÐº":2154,"ÒļÐ°ÑĢ":2155,"ĠÐľÐµÐ½":2156,"ÐĨÐĨ":2157,"Ð¸ÑĤÐ¾ÑĢ":2158,"ĠÑįÐ»ÐµÐºÑĤÑĢÐ¾Ð½":2159,"Ð¸Ð¼ÑĭÐ»":2160,"ÒĽÒ±":2161,"Ð°ÑĤÑĤÑĭÒ£":2162,"ÐµÐ»ÑĮ":2163,"Ð»ÐµÑĢÐ´ÑĸÒ£":2164,"ÓĻÐ»":2165,"ĠÓĻÑģÐºÐµÑĢÐ¸":2166,"ĠÐºÐµÑĤÐºÐµÐ½":2167,"Ð°Ð»ÑĭÒĵÑĭÐ½Ð´Ð°":2168,"ÑĥÐ´Ðµ":2169,"ĠÑĤÐµÐ¼":2170,"ĠÐ¾ÑĢÑĤÐ°Ð»ÑĭÒĽ":2171,"Ð°ÑĥÐ°Ð·":2172,"ÑĤÐ¸ÐºÐ°Ð»ÑĭÒĽ":2173,"ĠÑĥÐ°ÒĽÑĭÑĤÑĤÐ°":2174,"ĠÑĤÐ°ÒĽÑĭÑĢÑĭÐ¿":2175,"ÐºÑĥÑĢ":2176,"ĠÐ±ÐµÐ»ÑģÐµÐ½Ð´Ñĸ":2177,"Ð¼Ð¸Ð½":2178,"ÑĭÐ¼Ð°Ð»":2179,"Ð´Ð°Ð¹Ð´Ñĭ":2180,"ĠÑĪÐ°ÑĢÑĥÐ°ÑĪÑĭÐ»ÑĭÒĽ":2181,"ĠÐ¶Ò¯Ð¹ÐµÑģÑĸ":2182,"Ð²ÐµÑģÑĤÐ¸":2183,"ÑĪÑĭÒĽ":2184,"Ð¿Ðµ":2185,"Ð°ÑĨÐ¸ÑıÐ»ÑĭÒĽ":2186,"Ġ17":2187,"Ġ.":2188,"ÐĲÐ»Ð¼Ð°ÑĤÑĭ":2189,"ĠÐºÒ¯ÑĢÐµÑģ":2190,"ĠÐ½Ò±Ñģ":2191,"Ð°Ð»Ð°ÑĢÒĵÐ°":2192,"ĠÐ¼ÑĭÐ½Ð°":2193,"Ð¹ÑĤÐºÐµÐ½":2194,"Â».":2195,"ĠÑĤÐ°ÑĥÐ°ÑĢ":2196,"ĠÐ¿Ð¾Ð»":2197,"ĠÐĲÑĤÑĭÑĢÐ°Ñĥ":2198,"ÓĻÐ¼":2199,"ĠÒĽÐ°Ð»ÑĭÐ¿ÑĤÐ°ÑģÑĤÑĭÑĢÑĥ":2200,"ĠÐ±Ð¾Ð¹Ñĭ":2201,"ĠÒĽÐ°Ð·Ð°ÒĽÑģÑĤÐ°Ð½":2202,"ĠÒĽÐ°ÑĢÑĭÐ¼":2203,"Ð°ÑĤÐ¾ÑĢ":2204,"ĠÐ¶Ð°Ð»Òĵ":2205,"ÐµÒ£Ð³ÐµÑĢ":2206,"ĠÑıÒĵÐ½Ð¸":2207,"ĠÐ¼Ð»Ð½":2208,"ĠÐĸÐ°ÑĢ":2209,"Ġ--":2210,"ÑĥÑĪÑĭÐ»ÑĭÒĽ":2211,"Ð¸Ð½Ð°ÑĢ":2212,".,":2213,"ĠÐ¶ÐµÑĢÐ´Ðµ":2214,"ÐµÐºÑĤÐµÐ¿":2215,"ĠÐºÓ©Ò£ÑĸÐ»":2216,"ĠÐ»Ð°ÑĥÐ°Ð·":2217,"ÐºÐµÐ»Ð³ÐµÐ½":2218,"ĠÐ¼Ð¾Ð½":2219,"ÑĭÒĵÑĭÑģ":2220,"ÐĲÑĢ":2221,"ÑĤÑĸÐ³Ñĸ":2222,"ĠÑģÐ°Ð»ÑĭÒĽ":2223,"ĠÐĸÐ¾Ð»":2224,"Ð¾Òĵ":2225,"ÑĤÐµÑĢÐ½":2226,"ÑĸÑĢÑĥ":2227,"ĠÐ¶ÐµÐ»ÑĤÐ¾ÒĽÑģÐ°Ð½":2228,"Ð¾Ð±":2229,"ĠÐºÐµÑģ":2230,"ĠÒĽÐ°ÑĢÐ°Ð¿":2231,"Ġ11":2232,"ĠÐ°Ð½ÑĭÒĽÑĤÐ°Ñĥ":2233,"ÑĤÐµÒ£":2234,"Ð´Ð°ÑĢÑĭÐ½Ð´Ð°":2235,"ÐŀÑģÑĭ":2236,"ĠÓ©ÑĤÐºÑĸÐ·Ñĥ":2237,"ĠÐºÐµÐ»Ð´Ñĸ":2238,"ÑĤÐ°Ð½Ñĥ":2239,"Ð°Ð¼ÑĭÑĢ":2240,"iÐ½Ð´Ðµ":2241,"ĠÐºÓ©Ð±":2242,"ĠÐ¼Ð°ÑĥÑģÑĭÐ¼":2243,"Ð´ÐµÑĢÐ³Ðµ":2244,"Ġ100":2245,"ĠÑħÐ°Ð±Ð°ÑĢÐ»Ð°Ð¹Ð´Ñĭ":2246,"ĠÒ±ÑģÑĤÐ°Ð·":2247,"ÐĿÒ±ÑĢ":2248,"ĠÐºÓ©Ð¿ÑĤÐµÐ³ÐµÐ½":2249,"Ġ13":2250,"ĠÐ±Ó©Ð»ÑĸÑģ":2251,"ÑĭÐ»ÑĥÑĭ":2252,"Ð¸Ð´ÐµÐ¾":2253,"Ð´ÐµÐ»Ñĸ":2254,"ĠÐºÐ¾Ð¼Ð¸ÑģÑģÐ¸Ñı":2255,"Ð¹ÑĤÐºÐµÐ½Ñĸ":2256,"tt":2257,"ĠÑģÐ°Ð¹Ð»":2258,"ĠÐŀÐ»Ð°ÑĢ":2259,"ÓĻÑĥÐµÐ»":2260,"ÐºÓĻÑģÑĸÐ¿":2261,"Ð»ÐµÑĢÐ´Ñĸ":2262,"Ó¨Ð·":2263,"Ð¼ÐµÐ¹":2264,"ÐľÒ±":2265,"Ð¸ÑĢÐµÐºÑĤÐ¾ÑĢ":2266,"Ð±Ð°ÑĢ":2267,"ĠÐ¼ÐµÐºÑĤÐµ":2268,"ĠÐºÐµÐ»ÑĸÑģÑĸÐ¼":2269,"Ð¸ÑĨÐ¸Ñı":2270,"ÐºÐµÐ½ÑĤ":2271,"Ð°ÒĵÐ°Ð½Ð´Ð°":2272,"ÑĤÐµÑĢÑĸÐ½ÑĸÒ£":2273,"Ð¼ÐµÐ¹Ð´Ñĸ":2274,"Ð´ÐµÐ»Ð³ÐµÐ½":2275,"ÐķÐ¢":2276,"ĠÐ¿Ð°ÑĤ":2277,"Ò¯Ð·":2278,"ĠÐ°Ð¿Ð¿Ð°ÑĢÐ°ÑĤÑĭ":2279,"ÒĽÐ°ÑĤ":2280,"ĠÐ½ÓĻÑĢ":2281,"ĠÐ±Ó©Ð»ÑĸÐ½":2282,"ĠÐ¿ÑģÐ¸Ñħ":2283,"Ð»Ð°Ð¿":2284,"ĠÐºÐ¾Ð¼Ð¸ÑĤ":2285,"ÐºÑĸÑĢ":2286,"ĠÑĤÓĻÑĥÐµÐ»":2287,"ÑĭÒĵÑĭÐ½ÑĭÒ£":2288,"ĠÐ°ÑģÑĤÐ°Ð¼":2289,"ĠÐ¾ÑĢÑĭÐ½Ð´Ð°Ð»":2290,"ĠÐŀÑĤÐ°Ð½":2291,"ĠÐ¾Ð½Ð´Ð°":2292,"ĠÑĤÐ¾Ð±":2293,"ĠÐļÐ¾Ð½":2294,"ĠÐ½ÐµÐ³ÑĸÐ·ÑĸÐ½Ð´Ðµ":2295,"iÐ·":2296,"az":2297,"ĠÐºÐµÑĢ":2298,"ÓĻÐ´ÐµÐ½Ð¸":2299,"ĠÑĤÒ±ÑĢÐ°Ð´Ñĭ":2300,"Ð°Ð»ÑĭÐ¿":2301,"ĠÒĽÐ¾Ð·ÒĵÐ°Ð»":2302,"ÑĭÑģÐ°Ð»Ñĭ":2303,"Ð¼ÑĸÐ½":2304,"ĠÑĤÑĭÒ£":2305,"ĠÐ±ÑĸÑĢÐ»ÐµÑģ":2306,"di":2307,"ÑģÒ±Ð»ÑĤÐ°Ð½":2308,"ĠÒĽÐ°Ð»Ð°ÑģÑĭÐ½ÑĭÒ£":2309,"ĠÐ¼ÐµÒ£Ð³ÐµÑĢ":2310,"ĠÒĽÐ°Ò£ÑĤÐ°ÑĢ":2311,"ĠÐ°ÐºÑĤÑĸ":2312,"ĠÐ°Ð½ÑĭÒĽÑĤÐ°Ð¼Ð°":2313,"ĠÐķÐ³ÐµÑĢ":2314,"Ð°Ð·Ð°":2315,"ĠÐ¾ÑĢÑĭÑģ":2316,"ĠÑĪÑĭ":2317,"ĠÐ¾ÐºÑĢÑĥÐ³Ñĸ":2318,"ĠÑĤÓĻÑģ":2319,"ĠÑģÑĤÐ°Ð½Ð´Ð°ÑĢÑĤÑĭ":2320,"ĠN":2321,"ĠÐŁÑĢÐµÐ·Ð¸Ð´ÐµÐ½ÑĤÑĸ":2322,"ĠÐĳÑĸÐ·":2323,"Ð¸Ð¼Ð¿":2324,"ĠÑĪÐ°ÑĢÑĤ":2325,"Ð´ÑĭÒĽÑĤÐ°ÑĢ":2326,"13":2327,"ÐĲÐ¹":2328,"ĠÐ¼ÓĻÐ´ÐµÐ½Ð¸ÐµÑĤ":2329,"ĠÑģÐµÐº":2330,"ÑĮÑİ":2331,"Ð±Ð°Ð¿":2332,"ÑĪÑĸÐ»ÑĸÐ³Ñĸ":2333,"ÐºÓ©":2334,"ĠÐºÓĻÑģÑĸÐ¿Ð¾ÑĢÑĭÐ½":2335,"Ð¿Ð°ÑĢÑĤÐ°Ð¼":2336,"ĠÑĤÓ©ÑĢÐ°Òĵ":2337,"Ð¸Ð¾":2338,"ĠÒĽÐ¾ÑģÑĭÐ¼ÑĪÐ°":2339,"ĠÐ¸Ð½ÑģÑĤÐ¸ÑĤÑĥ":2340,"ÒĵÑĭÑĪ":2341,"ĠÐ¶Ðµ":2342,"ÑĥÐ½Ð°Ð»":2343,"ĠÐ±ÐµÐ¹Ð½":2344,"ÓĻÑĢÐµÐº":2345,"ĠÐĳÑĸÐ»ÑĸÐ¼":2346,"ÐµÑĢÐ»ÑĸÐº":2347,"Ð½Ð¾Ð²":2348,"ĠÑĪÐµÑĤÐµÐ»":2349,"ĠÑĤÐµÐ³ÑĸÐ½":2350,"ÐķÐ»":2351,"ĠÐºÐ¾ÑĢÐ¿Ð¾ÑĢ":2352,"ĠÐºÐ¾Ð¼Ð¿":2353,"ĠÐķÑĥÑĢ":2354,"Ð°Ð»Ð°ÑĢÑĭÐ½ÑĭÒ£":2355,"ĠÒĽÑĭÐ·Ð¼ÐµÑĤÐºÐµÑĢ":2356,"ĠÑĢÑĥÑħÐ°Ð½Ð¸":2357,"ĠÐ¸Ð¼":2358,"ĠÐ¡Ð¾Ð½ÑĭÐ¼ÐµÐ½":2359,"ĠÑĤÐ°ÑĢÐ¸ÑħÐ¸":2360,"ÑĤÑĢÐ°ÑĤÐµÐ³":2361,"ĠÐ±Ð°ÒĵÐ´Ð°ÑĢÐ»Ð°Ð¼Ð°ÑģÑĭ":2362,"ĠÒĵÐ°Ð»ÑĭÐ¼":2363,"ĠÒĽÑĭÐ·Ð¼ÐµÑĤÐºÐµÑĢÐ»ÐµÑĢ":2364,"ĠÑģÐ°ÑĥÐ´Ð°":2365,"ĠÐ¼Ð¸Ð»Ð»":2366,"Ð¸Ð½Ð°":2367,"ĠÐ¶Ñĥ":2368,"Ð°ÒĵÐ°Ð½Ð´Ñĭ":2369,"ÑĤÐ°Ð¹Ð´Ñĭ":2370,"Ġ:":2371,"ĠÑĩ":2372,"II":2373,"ĠÐ·Ð°Ò£Ð½Ð°Ð¼":2374,"Ð¹ÑĢ":2375,"ĠÒĽÐ°Ð»Ð°Ð»ÑĭÒĽ":2376,"ĠÐ°Ð»Ð°":2377,"ÑĸÐ»ÑĸÐ¿":2378,"Ð°Ð¹ÑĭÐ¼":2379,"Ð¿Ð°ÑģÓ©Ð·":2380,"ĠÐºÑĥ":2381,"ĠÐľÒ±Ð½":2382,"200":2383,"ĠÐ¾Ð¿ÐµÑĢ":2384,"ĠÑĢÐµÑĦ":2385,"ĠÐ±Ð¸Ð·Ð½ÐµÑģ":2386,"ĠÐ¼ÓĻÑģÐµÐ»ÐµÐ»ÐµÑĢÑĸ":2387,"ĠÐ¼Ð°Ð»":2388,"ÒĽÑĭÑĢ":2389,"ĠT":2390,"ĠÓ©Ð·Ð°ÑĢÐ°":2391,"Ð¸ÑıÐ½ÑĭÒ£":2392,"ĠÒĽÐ°ÑĢÐ°Ð¶":2393,"ÑĥÐ´ÑĭÒ£":2394,"ĠÐ¶Ð°ÑģÐ°Ð»ÒĵÐ°Ð½":2395,"Ò±ÒĽÑģÐ°ÑĤ":2396,"ĠÑĨ":2397,"ĠÑĢÐµÑģÐ¿ÑĥÐ±Ð»Ð¸ÐºÐ°Ð»ÑĭÒĽ":2398,"Ð°Ð¹ÑĭÐ½Ð´Ð°Ñĥ":2399,".)":2400,"ĠÑĤÒ¯ÑģÐºÐµÐ½":2401,"ĠÐ°Ð»Ð°ÑĤÑĭÐ½":2402,"Ð³ÑĸÑĤ":2403,"ĠÐ½Ð¾ÑĢÐ¼":2404,"ĠÒĽÒ±ÒĽÑĭÒĽÑĤÑĭÒĽ":2405,"ÒĽÐ°Ð¹":2406,"ĠÐµÑĤÑĸÐ¿":2407,"ÑĥÐ°ÑĢ":2408,"ÑĭÐ·ÑĭÐ»Ð¾ÑĢÐ´Ð°":2409,"ÑĭÐ¼ÑĭÐ·Ð´ÑĭÒ£":2410,"Ð¾ÑĦ":2411,"Ð½Ð´Ñĸ":2412,"ĠÐĲÐ·Ð¸Ñı":2413,"ĠÑĪÐ°Ð¼":2414,"ĠÒĽÐ°Ð»Ð°ÑģÑĭÐ½Ð´Ð°":2415,"ÑĥÐ½Ð°Ð»Ð´ÑĭÒĽ":2416,"ĠÐ¶Ð°ÒĵÐ´Ð°Ð¹Ð»Ð°ÑĢ":2417,"ÑĤÑĸÐ»Ð³ÐµÐ½":2418,"ÑĢÑĤÐ°Ð»ÑĭÒĽ":2419,"ÑĤÐ°ÑĢÑĭÐ½ÑĭÒ£":2420,"ĠÐĲÒļÐ¨":2421,"ÑĭÑģÑĭÐ½":2422,"ÐµÐ»ÐµÑĢÑĸÐ½":2423,"il":2424,"ĠÐ·Ð¾ÑĢ":2425,"ĠÑģÒ¯":2426,"ĠÐŁÑĢÐµÐ·Ð¸Ð´ÐµÐ½ÑĤ":2427,"ĠÐ¿Ð°ÑĢÑĤ":2428,"ĠÑĤÐµÑħÐ½Ð¸ÐºÐ°Ð»ÑĭÒĽ":2429,"ÐĲÐ¢":2430,"ĠÑĤÓ©Ð»ÐµÐ¼":2431,"Ð±ÑĭÑĢ":2432,"Ð¥Ð°Ð»ÑĭÒĽ":2433,"ÒĽÐ°Ñģ":2434,"om":2435,"ĠÐ¶Ð°ÑģÐ°Ð¿":2436,"ĠÒĽÐ°ÑĢÐ°ÑģÑĤÑĭÑĢ":2437,"ĠÐ±Ðµ":2438,"ĠÐ°Ð»ÑĭÐ½ÒĵÐ°Ð½":2439,"ĠÒļÐ¾ÑĢ":2440,"ĠÐ°Ð²ÑĤÐ¾Ð¼":2441,"ĠÐ¶Ð°Ò£Ð°Ð»ÑĭÒĽÑĤÐ°ÑĢ":2442,"ÐĲÑģÑĤÐ°Ð½Ð°":2443,"Ð¡Ð¢":2444,"Ð³ÐµÐ»":2445,"ÑĤÐ°ÑĨÐ¸Ñı":2446,"Ð¡Ð°Ð±Ð°ÒĽÑĤÑĭÒ£":2447,"ĠÐµÐ½Ð´Ñĸ":2448,"ĠÒĽÐ°Ð±ÑĭÐ»Ð´Ð°Ð½":2449,"ĠÐ¶Ó©Ð½ÑĸÐ½Ð´Ðµ":2450,"Ð´Ñĥ":2451,"ĠÑĢÒ±ÒĽÑģÐ°ÑĤ":2452,"ĠÐķÒ£":2453,"Ð°Ð²Ð»Ð¾":2454,"ĠÐ¸Ð½ÑĦ":2455,"ĠÐ´Ð¸ÑĢÐµÐºÑĤÐ¾ÑĢ":2456,"Ð¾Ð»ÑĮ":2457,"ĠÐºÐ¾Ð½ÐºÑĥÑĢÑģ":2458,"ÐµÐ´Ð¶":2459,"ĠÒĽÐ°ÑĪ":2460,"Ð´ÑĢ":2461,"Ð°Ð½Ð°":2462,"ĠÑĤÑĸÐº":2463,"ĠÐ¼ÓĻÐ»ÑĸÐ¼ÐµÑĤÑĤÐµÑĢ":2464,"ÒĵÐ°Ð·Ñĭ":2465,"ĠÐĲÐ½":2466,"ĠÐ´ÓĻÑģÑĤ":2467,"ĠÐ¶ÐµÐ»Ñĸ":2468,"ĠÐºÓ©Ð»ÑĸÐº":2469,"ĠÒ±Ð»ÑĤ":2470,"Ð°Ð²Ð»Ð¾Ð´Ð°ÑĢ":2471,"ĠÐ¼Ð°ÒĽÐ°Ð»":2472,"ĠÐ³Ðµ":2473,"ĠÐºÐµÐ¹Ð±ÑĸÑĢ":2474,"ÑĤÐ°Ð¼Ð°ÑģÑĭ":2475,"ĠÑħÐ°Ð½":2476,"ĠÓĻÑĢÐ±ÑĸÑĢ":2477,"ĠÐ°ÑĢÐ°Ð»":2478,"ĠÐ¾ÑĢÑĭÐ½Ð´Ð°Ñĥ":2479,"ÑĪÐµÐº":2480,"ĠÐ±Ð¾Ð»ÑģÑĭÐ½":2481,"ĠÐĳÐ°Ð»":2482,"ĠÐ´Ð°Òĵ":2483,"ĠÑĤÐ°Ð»ÒĽÑĭÐ»":2484,"ÑĸÐ¼Ð´ÑĸÐº":2485,"ÐµÑĤÑĥ":2486,"ĠÐ¶ÑĭÐ»Ð´Ð°ÑĢÑĭ":2487,"ĠÒĽÒ±ÑĢÑĥ":2488,"Ð°ÑĤÐ¸Ð²ÑĤÑĸÐº":2489,"Ð°Ð¸":2490,"ĠÐ¶Ð°Ð¹Ð»Ñĭ":2491,"ĠÐ°ÑģÐ°":2492,"ÐµÑĦÐ¾Ð½":2493,"ĠÑĦÑĥÐ½":2494,"Ò±ÑĢÑĤ":2495,"Ð°ÒĵÑĭÐ¼":2496,"ĠÐ½Ð°Ð·Ð°ÑĢ":2497,"ĠÑĤÐ°ÑĢÐ°Ð¿":2498,"ĠÐ´ÐµÐ½ÑģÐ°ÑĥÐ»ÑĭÒĽ":2499,"Ð»ÑĭÒĵÑĭÐ½":2500,"ĠÐ°Ð¹ÑĤÑĤÑĭ":2501,"Ð°Ð±Ñĭ":2502,"ĠÒĽÐ°ÑĤÑĭÑģÑĥ":2503,"ĠÐ´ÐµÐ¿Ð°ÑĢÑĤÐ°Ð¼":2504,"ĠÐ¿ÑĢÐµÐ·Ð¸Ð´ÐµÐ½":2505,"ĠÑĤÑĸÑĢÐºÐµÑĥ":2506,"Ð¶ÑĭÐ»":2507,"ĠÐ¾ÑģÑĭÐ½Ð´Ð°Ð¹":2508,"24":2509,"ÐµÐ½ÑĨÐ¸Ñı":2510,"ĠÒ¯Ð·Ð´ÑĸÐº":2511,"ÑĸÐ»Ð´Ðµ":2512,"ĠÓĻÐºÑĸÐ¼ÑĪÑĸÐ»ÑĸÐº":2513,"Ð¼Ð°ÑĤ":2514,"ĠÑĤÐ°ÑĢÑĤÑĥ":2515,"ĠÐ¶Ð¾Ð»Ð´Ð°ÑĢÑĭ":2516,"ÑĭÒĵÑĭÐ¼ÐµÐ½":2517,"ĠÐºÑĸÐ¼":2518,"Ð¾Ð²ÑĤÑĭÒ£":2519,"Ð¿Ð°Ð»":2520,"ĠÐ°Ð»Ð°Ò£":2521,"ÐµÐ¹Ð½ÐµÑĤ":2522,"ĠÓĻÐ¹ÐµÐ»":2523,"Ð°ÑĥÑĭÑĢ":2524,"ĠÑĥÓĻ":2525,"Ó©Ð·Ñĸ":2526,"ÐķÐĿ":2527,"ĠÑģÓ©Ð·Ð´ÐµÑĢ":2528,"ÐľÐµÐ½":2529,"ĠÐ¾ÑĢÐ°Ð¹":2530,"Ġ2014":2531,"Ð°Ð¼ÑĭÐ½":2532,"ÒĵÑĭÐ½ÑĭÒ£":2533,"ĠÒĽÑĭÐ·Ð¼ÐµÑĤÑĤÑĸ":2534,"ĠÑĤÒ¯ÑģÑĸÐ½ÑĸÐº":2535,"ĠÐľÓĻÑģ":2536,"ĠÐ¶ÑĥÑĢÐ½Ð°Ð»":2537,"ĠÑĸÑĢÑĸ":2538,"Ð¼Ð°Ð¹Ð´Ñĭ":2539,"ĠÐĸÐ°Ò£Ð°":2540,"ĠÐ¼Ð°Ò£ÑĭÐ·Ñĭ":2541,"ĠÑĸÑģÑĤÐµÑĥ":2542,"ĠÐºÐ¾ÑĢÐ¿Ð¾ÑĢÐ°ÑĨÐ¸Ñı":2543,"Ð±ÑĢ":2544,"ĠÒĽÐ°Ð·Ð°Ð½":2545,"ÒĽÐ¸Ð¼ÑĭÐ»":2546,"ÒĵÐ°Ð½Ð´Ð°":2547,"ĠÐºÐµÐ¿":2548,"ĠÐ¼ÐµÐ½ÑĸÒ£":2549,"ĠÒĽÐ¾ÑĢÑĭÑĤÑĭÐ½Ð´ÑĭÑģÑĭ":2550,"ÐŀÑĢ":2551,"Ð¾Ð±Ð¸":2552,"ÐķÐ¡ÐĨ":2553,"Ð¯":2554,"ĠÐ¸Ð´Ðµ":2555,"ÐµÐ¼ÑĸÐ½":2556,"ĠÐ¶Ð°ÑĤÐ°Ð´Ñĭ":2557,"Ð¸Ð´Ð°":2558,"ĠÐ¾ÑĢÑĭÐ½Ð±Ð°ÑģÐ°ÑĢÑĭ":2559,"ĠÐ°ÑĤÑĭ":2560,"ĠÑĢÐµÐ´Ð°":2561,"ĠÐ±ÑĸÐ»ÑĸÐºÑĤÑĸ":2562,"ĠÐºÐµÑĪÐµÐ½":2563,"ĠÐºÐµÐ»ÑĤÑĸÑĢ":2564,"ĠÑĤÐ°ÒĽ":2565,"ĠÒ®ÐºÑĸÐ¼":2566,"ÑĥÑĪÑĭÐ»Ð°ÑĢÐ´ÑĭÒ£":2567,"ĠÐ½Ð°ÑĥÑĢÑĭÐ·":2568,"ĠÐºÐ°Ð·":2569,"ĠÐ¾ÑĢÑĭÐ½Ð´Ð°":2570,"ÑģÐ»Ð°Ð¼":2571,"ÑıÑĢ":2572,"ĠÑģÐ¾Ð½ÑĭÐ¼ÐµÐ½":2573,"ÒĽÐ°ÑĤÑĭÐ½Ð°Ñģ":2574,"ÑĤÐ°ÑĢÐ»ÑĭÒĽ":2575,"Ð°ÑĤÑĢ":2576,"ĠÐ½ÓĻÑĤÐ¸Ð¶ÐµÐ»ÐµÑĢÑĸ":2577,"ÒĽÐ°Ñĥ":2578,"ÐµÐ»ÐµÐ¹":2579,"ĠÐĳÒ±":2580,"ÐĺÐ½":2581,"ÐµÐ³ÑĸÐ·Ð³Ñĸ":2582,"ĠÒĽÑĭÐ·Ð¼ÐµÑĤÑĸÐ½":2583,"ĠÐ¡ÑĸÐ·":2584,"ĠÐµÑĤÐµÑĤÑĸÐ½":2585,"Ð»Ð¾Ð¼":2586,"ĠÑįÐ½ÐµÑĢÐ³":2587,"Ð¼Ð°Ð½ÒĵÐ°Ð·Ñĭ":2588,"ĠÂ":2589,"ĠÑĤÑĭÑģ":2590,"ĠÐ±Ð°ÑģÑĤÐ°Ð´Ñĭ":2591,"ĠÓĺÐ±":2592,"ÑĪÐ°ÒĵÐ°Ð½":2593,"iÐ½iÒ£":2594,"ĠÑįÐºÐ¾Ð½Ð¾Ð¼Ð¸Ðº":2595,"ÐºÒ¯Ð¹ÐµÐº":2596,"ĠÐ´ÐµÑĢ":2597,"Ò£ÑĤÒ¯ÑģÑĤÑĸÐº":2598,"ww":2599,"ĠÐ¶ÐµÐº":2600,"ĠÐ·Ð¸Ñı":2601,"ĠÐ±Ò¯Ð³ÑĸÐ½Ð³Ñĸ":2602,"ĠÐ¼Ó©Ð»ÑĪÐµÑĢ":2603,"ĠÓĻÑĢÑĸÐ¿":2604,"ĠÒĽÒ±Ð½Ð´Ñĭ":2605,"ĠÐºÓ©ÑĢÑģÐµÑĤÑĸÐ»Ð³ÐµÐ½":2606,"ĠÐ¶Ð¾Ð»Ñĭ":2607,"ĠÐ¼Ð¾Ð»":2608,"ĠÐºÐµÑĤÑĤÑĸ":2609,"ĠÐ¶ÑĭÑĢ":2610,"....":2611,"ĠÐĲÑģ":2612,"ĠP":2613,"ĠÐļÐµÒ£":2614,"Ġ//":2615,"ĠÐ½ÐµÑģ":2616,"ÑĭÒĵÑĭÐ¿":2617,"ĠÐĲÐ±Ð°Ð¹":2618,"ĠÐļÐ¾Ð¼":2619,"ĠÐ±Ð°ÑģÑĤÐ°Ñĥ":2620,"ĠÑĤÒ¯Ð·":2621,"ÑĥÑĢÑģÑĤÐ°ÑĢ":2622,"ĠÐ±Ð°ÑģÑĪÑĭÐ»Ð°ÑĢ":2623,"ĠÑĤÐµÐºÑģÐµÑĢÑĥ":2624,"Ð¶Ð°Ð¹":2625,"ĠÒĽÐ°Ð·Ð°ÒĽÑģÑĤÐ°Ð½Ð´ÑĭÒĽ":2626,"ÑħÐ°Ð½Ð°":2627,"ĠÓ©ÑĤÑĸÐ½ÑĸÑĪ":2628,"Ð¶ÐµÑĤ":2629,"ĠÐµÐ»Ð´ÑĸÒ£":2630,"ĠÐ¸Ð½Ð²ÐµÑģÑĤÐ¸":2631,"ĠÒĽÐ°Ð»Ð´Ñĭ":2632,"ĠW":2633,"ĠÓ©Ð½Ð´ÑĸÑĢÑĸÑģ":2634,"ĠÐľÐľ":2635,"ÑĭÐ¼Ð´ÑĭÒĽ":2636,"ÑĭÑģÑĤÑĭ":2637,"ÓĻÑģÑĸÐ±Ð¸":2638,"ĠÑģÒ±ÑĢÐ°ÒĽÑĤÐ°ÑĢ":2639,"ĠÑĪÐ°ÒĵÑĭÐ½":2640,"ĠÐĨÐĨ":2641,"ĠÐ°Ð·Ð°Ð¼Ð°ÑĤÑĤÑĭÒĽ":2642,"Ð°Ð»Ð°Ð¹":2643,"ĠÐ±Ð°ÑģÒĽÐ°ÑĢÐ¼Ð°ÑģÑĭÐ½ÑĭÒ£":2644,"ĠÑĦÐ¾ÑĢÐ¼":2645,"ĠÑħÐ°Ð»ÑĭÒĽÑĤÑĭÒ£":2646,"ÑĤÑĭÐ¼Ð°ÒĽ":2647,"Ð°ÑĢÐ´ÑĭÒ£":2648,"ĠÐ¼ÑĥÐ·":2649,"ĠÐ½Ð°":2650,"ĠÐ°Ð»Ð¼Ð°Ð¹":2651,"Ġi":2652,"ĠÒĽÒ±Ð¶Ð°ÑĤ":2653,"ĠÑģÐ¾ÒĵÑĭÑģ":2654,"ĠÑĤÒ¯ÑģÑĸÑĢ":2655,"Ð¾Ð±Ð¸Ð»ÑĮ":2656,"ÐĲÐĹ":2657,"Ð»ÐµÑĢÑĸÐ½ÑĸÒ£":2658,"ÐµÑı":2659,"ÐĸÐ°Ñģ":2660,"ÐķÑĢ":2661,"ÑĭÐ»ÑĭÑģ":2662,"ÓĻÑĢÐ±Ð¸":2663,"ĠÐ¶ÐµÑĤÐµÐº":2664,"ĠÐºÓ©Ð»ÐµÐ¼Ñĸ":2665,"at":2666,"Ð¶Ñĭ":2667,"ĠÐºÓ©ÑĢÑģÐµÑĤÐºÑĸÑĪ":2668,"ĠÐ¶Ð°ÑģÐ°ÒĵÐ°Ð½":2669,"Ð´Ð°ÒĽ":2670,"ÐµÐ¼Ð¿":2671,"ĠÐ´ÓĻÑĢÐµÐ¶":2672,"Ð¶ÑĭÐ»Ð´Ñĭ":2673,"ÑģÑĤÐµÐ¼ÐµÐ»ÑĸÐº":2674,"ĠÐ°Ð¿Ð¿Ð°ÑĢÐ°ÑĤ":2675,"ÑĭÐ¼ÐºÐµÐ½ÑĤ":2676,"ĠÐ±Ð¾":2677,"ĠÐ°Ð²ÑĤÐ¾ÑĢ":2678,"ĠÐºÐµÐ»ÐµÑģÑĸ":2679,"ĠÐ±Ð°ÒĵÐ´Ð°ÑĢÐ»Ð°Ð¼Ð°Ð»Ð°ÑĢ":2680,"ÑĭÒĽÑĤÑĭÒĽ":2681,"Ð¾Ð³ÑĢÐ°ÑĦÐ¸Ñı":2682,"ĠÐ¶Ð°Ð·Ñĥ":2683,"ĠÓĻÑĥ":2684,"ik":2685,"ĠÐ±Ð¾Ð»Ð°":2686,"ĠÒ±Ð¼":2687,"ÒļÐł":2688,"ĠÐ¯":2689,"ÑĥÑĸÐ½Ðµ":2690,"ĠÐ°ÒĽÑĪÐ°":2691,"ÐĸÐ°Ò£Ð°":2692,"ĠÐ°Ð±":2693,"ĠÑģÑĭÑĢ":2694,"ĠÐ±Ð°ÑĤÑĭÑĢ":2695,"ÑıÐ½":2696,"ÐķÐ¡Ð¢":2697,"Ð¸ÑħÐ°ÑĤ":2698,"ĠÑĤÒ¯ÑĢÐ»ÐµÑĢÑĸ":2699,"ĠÑĪÑĭÒĵÐ°ÑĢÑĥ":2700,"ĠÒĽÐ¾Ñİ":2701,"Ð´ÑĸÐ³ÑĸÐ½ÑĸÒ£":2702,"ĠÐĳÐ°ÑĢÐ»ÑĭÒĽ":2703,"ÐĳÑĸÐ»ÑĸÐ¼":2704,"ĠÐ¶ÐµÒ£ÑĸÐ»":2705,"ĠÓĻÐ´ÑĸÑģÑĤÐµÑĢ":2706,"ÑĸÐ½ÑĪÐµ":2707,"ÑĭÐ»Ñĥ":2708,"Ġ50":2709,"ĠÑĤÐµÐ»ÐµÑĦÐ¾Ð½":2710,"ÑĤÑĭÑģ":2711,"ĠÐ¶Ð¸ÑĭÐ½":2712,"Ð¸Ð¿Ð»Ð¾Ð¼":2713,"ĠÑģÐ°ÑĢÐ°Ð¿":2714,"ĠÐ¾ÑĢÐ½Ñĭ":2715,"ĠÐ¶Ð¸Ð½Ð°ÒĽ":2716,"ĠÑĤÐ¸ÑĸÑģÑĤÑĸ":2717,"ÐĶÐĲ":2718,"ĠÐ±ÐµÑĢÑĸ":2719,"ÒĵÐ°Ð´Ñĭ":2720,"ÑĭÑģÑĭÐ½Ð°":2721,"ĠÐµÐ»Ð´ÐµÑĢ":2722,"ĠÓ©Ð½Ð´ÑĸÑĢÑĥ":2723,"ĠÑĤÐ°ÒĽÑĭÑĢÑĭÐ±Ñĭ":2724,"ÐºÐ¾Ð¼":2725,"ĠÐĲÐ»Ð»Ð°":2726,"Ð°ÑģÑĤÐ°Ð½":2727,"Ð°ÑĥÑĪÑĭÐ»Ð°ÑĢ":2728,"ĠÐ°Ð¹ÒĽÑĭÐ½":2729,"ĠÒļÐ°Ð¹":2730,"ÐºÑĸÑģÑĤÐ°Ð½":2731,"23":2732,"ĠÐ°ÑĢÑĤÑĭÒĽ":2733,"ÑĤÐµÑĢÐ½ÐµÑĤ":2734,"ĠÐ¶Ð°ÑģÑĤÐ°ÑĢ":2735,"Ð¡ÑĭÐ±Ð°Ð¹Ð»Ð°Ñģ":2736,"ĠÐ´ÓĻÑĢÑĸÐ³ÐµÑĢ":2737,"ĉĊ":2738,"ĠÐ°Ð¼":2739,"ĠÐµÑĢÐµÐºÑĪÐµÐ»ÑĸÐº":2740,"ĠÓ©ÑĤÑĥ":2741,"ĠÐºÑĥÓĻ":2742,"ĠÐ¼Ð°Ð¼ÑĭÑĢ":2743,"ĠÑĤÒ±ÑĢÐ°ÑĤÑĭÐ½":2744,"ĠÑģÑĥÑĢÐµÑĤ":2745,"Ð°ÑģÑĤ":2746,"Ð¶Ð°ÑĢ":2747,"ĠÐķÑģ":2748,"ĠÐ¼ÐµÑĢÐ·ÑĸÐ¼":2749,"Ġ24":2750,"ĠÒĽÐ°ÒĵÐ°Ð·":2751,"ĠÐ¶Ò±Ð¼ÑĭÑģÑĤÐ°ÑĢÑĭ":2752,"ĠÑĤÒ¯ÑģÑĤÑĸ":2753,"Ð°ÑģÑĭÐ½Ð°Ð½":2754,"ĠÑĤÑĸÐ»ÑĸÐ½Ð´Ðµ":2755,"ÐµÐ¹ÑĤ":2756,"ĠB":2757,"ĠÐ±Ð°":2758,"ĠÐ¾ÒĽÐ¸":2759,"ÐĸÐ°Ð»Ð¿Ñĭ":2760,"ĠÒ¯ÐºÑĸÐ¼ÐµÑĤ":2761,"ĠÒ±Ð·Ð°ÒĽ":2762,"ĠÑĤÐµÐ¾ÑĢ":2763,"ÐµÐ¼Ð¿Ð¸Ð¾Ð½":2764,"ĠÑĪÑĭÒĽÑĤÑĭ":2765,"ĠÐĶÐµÐ½":2766,"es":2767,"ĠÑĤÓĻÐ¶ÑĸÑĢÐ¸Ð±":2768,"ĠÐ¶Ò±":2769,"ĠÑĤÐµÑĢÐµÒ£":2770,"ÐµÐ»ÐµÑĢÑĸÐ½ÑĸÒ£":2771,"ĠÒ¯Ð¹ÑĢÐµÐ½":2772,"ĠÐ·Ð°ÑĤÑĤÐ°ÑĢ":2773,"27":2774,"Ð¼ÐµÑĢ":2775,"ĠÓ©Ð½ÑĸÐ¼Ð´ÐµÑĢ":2776,"ĠÐ¼Ð°Ð·Ð¼Ò±Ð½":2777,"ĠÑĤÓĻÑĢÐ±Ð¸Ðµ":2778,"ĠÒĽÐ¾ÑĢÒĵÐ°Ð»":2779,"Ð¼Ð°ÒĵÑĭ":2780,"ÐºÐµÑĤ":2781,"ĠÐ±ÑİÐ´Ð¶ÐµÑĤ":2782,"ÐµÑĤÑĤÐµÑĢÑĸÐ½":2783,"ĠÐ¼ÑĸÐ½Ðµ":2784,"Ð°Ð»Ð°ÑĤÑĭÐ½":2785,"ĠÐ±ÓĻÑĢÑĸ":2786,"iÐ¿":2787,"ÒĵÑĭÑĢÑĥ":2788,"ĠÑģÑĸÐ»ÑĤÐµÐ¼Ðµ":2789,"ÑĭÑĢÑĭÐ¼":2790,"ĠÐ±ÑĸÐ»Ñĥ":2791,"ĠÓĻÐ»Ñĸ":2792,"ĠÐ¶Ð°ÒĽÑĭÐ½":2793,"ĠÐ¢Ð°ÑĢ":2794,"ĠÐµÑģÐµÐ±":2795,"ĠÐ·ÐµÐ¹Ð½ÐµÑĤ":2796,"ÒļÐ¾":2797,"ĠÑĤÐ°":2798,"ÑĭÑĢÐ°ÒĽ":2799,"ÑĤÐµÑħÐ½":2800,"ÐºÑĢ":2801,"ĠÑģÓĻÑĥÑĸÑĢ":2802,"ĠÐ°Ð»Ð´ÑĭÐ½Ð´Ð°":2803,"ÑĤÐ°ÑĢÑĭÐ½Ð°":2804,"ÒĽÐ°ÑĪ":2805,"ÑģÑĭÐ½Ð°":2806,"ÐĲÒĽÐ¿Ð°ÑĢÐ°ÑĤ":2807,"ĠÐ±ÑĭÐ»":2808,"Ð¸ÑıÑģÑĭÐ½ÑĭÒ£":2809,"ĠÐºÐ¾Ð´":2810,"ĠÑįÐºÐ¾Ð½Ð¾Ð¼Ð¸ÐºÐ°":2811,"ĠÑģÑĭÑĢÑĤÒĽÑĭ":2812,"ĠÐ¶Ð°ÒĵÑĭÐ½Ð°Ð½":2813,"ĠÐ¶Ò±Ð¼ÑĭÑģÐ¿ÐµÐ½":2814,"Ð°ÑģÑĤÑĭ":2815,"ÐķÑģ":2816,"Ð¼ÐµÐ³ÐµÐ½":2817,"ÑĤÒ¯ÑĢÐ»Ñĸ":2818,"ĠÑĤÓ©ÑĢÑĤ":2819,"ĠÐ°Ð³ÐµÐ½ÑĤ":2820,"ĠÐ¶Ð°ÑĢÑĭÒĽ":2821,"Ð»Ð°Ð½Ð´ÑĭÑĢÑĥ":2822,"ĠÐºÐ¾Ð»":2823,"ĠÐ¼ÐµÐ¹":2824,"ĠÐ°ÑģÐ¿":2825,"28":2826,"000":2827,"ĠÓĺÐ»":2828,"ĠÑĤÓ©Ð»ÐµÑĥ":2829,"ĠÐ¶Ð¸Ñĸ":2830,"ĠÐĸÐµÑĢ":2831,"ĠÐ±Ó©Ð»ÑĸÐ¼ÑĸÐ½ÑĸÒ£":2832,"ĠÐ¼ÓĻÐ»ÑĸÐ¼ÐµÑĤ":2833,"ĠÑĤÐ¾Ð¹":2834,"ĠÐ°ÒĽÑĪ":2835,"Ð°ÑĥÐ°Ð¿":2836,"ĠÐ´Ð¾Ð»":2837,"ĠÑĢÐµÑĤÑĤÐµÑĥ":2838,"ĠÑĤÒ¯Ð¹":2839,"Ð°Ð¹ÑĭÒĽ":2840,"Ð¼Ð°ÒĵÑĭÐ½Ð´Ð°":2841,"Ð°Ð»ÑĭÑģ":2842,"Ð´ÑĭÐ·":2843,"ĠÐ±Ð°ÑģÐ¿Ð°ÑģÓ©Ð·":2844,"ÑĤÑĭÐ¼Ð°ÒĽÑĤÐ°Ñģ":2845,"Ð»ÐµÑĢÑĸÐ½Ðµ":2846,"ĠÐ¾ÑĤÐ±Ð°Ñģ":2847,"Ð°ÑĢÒĵÑĭ":2848,"ĠF":2849,"ÑģÐµÐº":2850,"ĠÑģÐ°Ð»Ñĥ":2851,"ÑĦÐµÑĢÐµÐ½ÑĨÐ¸Ñı":2852,"ÐµÐ»ÐµÑĢÐ´Ñĸ":2853,"ĠÐ°ÒĽÑĭÐ»":2854,"26":2855,"\",":2856,"ĠÑĤÓĻÑĢÐ±Ð¸ÐµÐ»ÐµÑĥ":2857,"ÑĸÐ¼Ð½ÑĸÒ£":2858,"ĠÐ±ÐµÑĢÑĸÐ»ÐµÐ´Ñĸ":2859,"ÒļÒ±":2860,"ĠÐŀÐ½":2861,"ÐµÐ»Ð³Ñĸ":2862,"ĠÐ±Ð¾Ð»Ð¼Ð°Ð¹Ð´Ñĭ":2863,"ĠÓĻÑĢÐµÐºÐµÑĤ":2864,"ÑįÐºÐ¾Ð½Ð¾Ð¼Ð¸ÐºÐ°Ð»ÑĭÒĽ":2865,"ĠÐĸÐ°Ð½":2866,"ĠÐ»Ð°ÑĥÐ°Ð·ÑĭÐ¼":2867,"Ó©Ò£":2868,"ĠÐĿÒ±ÑĢÑģÒ±Ð»ÑĤÐ°Ð½":2869,"ÐĽÐĨ":2870,"ĠÐ¶ÑĭÐ»Ð´Ð°ÑĢ":2871,"ĠÐ°ÑĤÐ°Ñĥ":2872,"ĠM":2873,"ĠÑĪÑĭÒĵÐ°ÑĢÐ¼Ð°ÑĪÑĭÐ»ÑĭÒĽ":2874,"ÑģÑĤÐ°Ð½Ð°Ð¹":2875,"ĠÒ¯ÑĢ":2876,"ÑģÑĭÐ»Ð°Ð¹":2877,"ĠÐĲÐ´Ð°Ð¼":2878,"ĠÑĤÓĻÑĢÑĤÑĸÐ¿":2879,"ĠÐ°Ð²ÑĤÐ¾":2880,"ĠÐ±Ð°ÑıÐ½":2881,"ĠÒĽÐ¾ÑģÐ°":2882,"Ð¿Ð°":2883,"ÐķÐļ":2884,"ĠÑģÑĤÑĢÐ°ÑĤÐµÐ³":2885,"ĠÐºÒ¯Ð½Ð´Ðµ":2886,"ĠÑĥÑĩ":2887,"ĠÒĽÐ°Ð·ÑĸÑĢ":2888,"oo":2889,"ĠÑĤÐ°Ò£Ð´Ð°":2890,"ĠÑĤÒ±Ð»ÒĵÐ°Ð»Ð°ÑĢÐ´ÑĭÒ£":2891,"ĠÐ¶Ð°ÑĥÐ°Ð¿ÐºÐµÑĢ":2892,"Ð¾Ð»ÑĭÒĽ":2893,"Ð«ÐĽ":2894,"ma":2895,"ĠÐĳÐ°Ð¹":2896,"ĠÐľÐ°ÒĽ":2897,"Ð»Ð°Ð¼ÐµÐ½ÑĤ":2898,"ĠÐ°ÑĥÐ´Ð°Ð½ÑĭÐ½ÑĭÒ£":2899,"Ð´ÐµÐº":2900,"ÑĭÐ½ÑĭÐ¿":2901,"ĠÐĸÑĭÐ»":2902,"Ò±Ð»Ð´ÑĭÐ·":2903,"40":2904,"ÐµÑĤÐµÑĢ":2905,"ĠÐ¶Ð°Ð·ÑĭÐ»ÒĵÐ°Ð½":2906,"Ð°ÑĤÑĤÐ°ÑĢÑĭ":2907,"Ġt":2908,"ĠÓ©Ò£Ð´ÐµÑĥ":2909,"ĠÐ¶Ð°Ð±Ð´ÑĭÒĽ":2910,"ĠÐ¿Ð°Ð¹Ð´":2911,"ÑĭÐ»Ð°ÑĢ":2912,"ĠÒĽÐ°Ð½Ð°":2913,"ĠÐ¾Ð±ÑĬÐµÐºÑĤÑĸ":2914,"ÑģÐ°Ð¼":2915,"ĠÐ¶ÑĭÐ»Ð´ÑĭÒĽ":2916,"ÐµÒ£ÑĸÐ·":2917,"ĠÒļÑĭÑĤÐ°Ð¹":2918,"ĠÓĻÒ£Ð³ÑĸÐ¼":2919,"ĠÑĪÐµÐ±":2920,"ÐĲÐ·Ð°Ð¼":2921,"ĠÑĤÐ°Ð±Ð¸ÒĵÐ¸":2922,"ÐµÐ»ÐµÑģ":2923,"ĠÐ±ÓĻÑĢ":2924,"Ð¸Ð¼Ð°ÑĢ":2925,"Ð»ÑĸÐ³ÑĸÐ½Ðµ":2926,"ĠÒĽÐ°ÑĤÑĤÑĭ":2927,"ĠÑģÓĻÑĥ":2928,"ÑĭÒĵÐ°Ð½":2929,"ÑĥÑĪ":2930,"ĠÐ±Ò¯ÐºÑĸÐ»":2931,"ĠÐ¶Ð°ÑĢÑĤÑĭÐ¶ÑĭÐ»Ð´Ñĭ":2932,"ĠÐ¶Ð°Ò£ÒĵÑĭÑĢÑĥ":2933,"ĠÐºÓ©Ð·ÒĽÐ°ÑĢ":2934,"ĠÑĤÑĭÐ½":2935,"ÒļÐŀ":2936,"ĠÐ¶Ð°Ð¿":2937,"ĠÑĭÒĽÐ¿Ð°Ð»":2938,"ÐĲÐľ":2939,"ĠÑĪÑĭÒĵÑĭÐ½":2940,"ĠÐ¼Ò¯Ð»ÑĸÐº":2941,"Ð½Ð°Ð¼Ð°":2942,"ÑħÐ°Ð¼":2943,"ĠÐ¶ÑĸÐ³ÑĸÑĤ":2944,"ÑĤÐ°Ð»ÑĭÐ¿":2945,"ÐľÐ°ÒĽ":2946,"ĠÓ©ÑĤÐµÐ´Ñĸ":2947,"ĠÐºÓĻÑģÑĸÐ±Ð¸":2948,"ÐµÑĤÑĢ":2949,"ĠÒĽÐ°ÑĢÐ°ÑĪÐ°":2950,"ÑĢÐµÐº":2951,"ÑĸÑĢÐµÑģÐµ":2952,"ĠÑĪÑĭÒĵÑĭÐ¿":2953,"ÒĽÒ±Ð»":2954,"Ġ23":2955,"ĠÐĸÐ°Ñģ":2956,"ĠÐ±ÐµÑĢÑĸÐ¿":2957,"ÑĥÐ»ÑĮÑĤ":2958,"ÒĵÑĥ":2959,"ĠÐ¶Ð°ÑĤÑĤÑĭ":2960,"%-":2961,"ĠÒĽÐ°ÒĵÐ¸Ð´":2962,"ĠÓĻÐ»ÐµÑĥ":2963,"Ð¾Ð»Ð°":2964,"ĠÐºÐµÐ»ÐµÑĤÑĸÐ½":2965,"ĠÑĤÒ±Ð»ÒĵÐ°Ð»Ð°ÑĢ":2966,"ĠÒ±Ð»Ñĭ":2967,"ĠÑĤÓĻÑģÑĸÐ»":2968,"ÓĻÐ¹":2969,"ĠÑħÐ°Ð±Ð°ÑĢÐ»Ð°Ð¼":2970,"Ð«Ò¢":2971,"ĠÐ°ÑĥÑĭÐ·":2972,"ĠÐ¡Ð¾Ð½Ð´Ð°Ð¹":2973,"Ð¨Ð¡":2974,"ĠÐ°Ð»ÑĤÑĭÐ½":2975,"ĠÑģÐ¾Ð¼":2976,"ĠÐºÐ°ÑĢ":2977,"ĠÑĭÐ½ÑĤÑĭÐ¼Ð°ÒĽÑĤÐ°Ñģ":2978,"ĠÐļÐķÐ¡Ð¢":2979,"ĠÐ±Ð°ÒĵÑĭÑĤÑĤÐ°Ð»ÒĵÐ°Ð½":2980,"ĠÐ±iÑĢ":2981,"Ð´ÑĸÐ¼":2982,"29":2983,"ĠÐļÐķÐ¡Ð¢ÐķÐ¡ÐĨ":2984,"ĠÐŁÐ°ÑĢ":2985,"ĠÐµÐ»ÑĸÐ¼ÑĸÐ·":2986,"Ð¸Ð½Ðµ":2987,"Ð´ÑĭÒĵÑĭÐ½Ð°":2988,"Ð¸Ð¼Ð¿Ð¸":2989,"Ð¡Ð°Ð¹ÑĤ":2990,"ÐµÒ£Ð±ÐµÑĢ":2991,"Ð¸ÑģÑĤÑĸÐº":2992,"ĠÐ±Ð¾Ð»Ð°ÑĪÐ°ÒĽ":2993,"Ð°Ð½Ð´ÑĭÑĢÑĥ":2994,"tion":2995,"ĠÑĤÑĸÐ»ÑĸÐ½":2996,"ĠÐ¶Ð°Ò£Ð°Ð»ÑĭÒĽ":2997,"ĠÐ±Ò±Ð¹ÑĢ":2998,"ĠÐ¿ÐµÐ´Ð°Ð³Ð¾Ð³Ð¸ÐºÐ°Ð»ÑĭÒĽ":2999,"ĠÐ°Ð¹Ð½Ð°Ð»ÑĭÑģ":3000,"ĠÐ¼Ð¸Ð»Ð»Ð¸Ð¾Ð½":3001,"ĠÑĪÑĸÐ»Ð´Ðµ":3002,"ĠÐ¨ÑĭÒĵÑĭÑģ":3003,"ĠÐ±Ð°Ð·":3004,"ÐĸÐµÑĢ":3005,"ÒĽÑĭÐ¼":3006,"ĠÑĩÐµÐ¼Ð¿Ð¸Ð¾Ð½":3007,"ĠÐ¶ÓĻÑĢ":3008,"ĠÐ¼ÓĻÑĢ":3009,"ÑĤÐµÑĢÑĸÐ½Ðµ":3010,"ĠÐ°ÑĤÒĽÐ°ÑĢÑĥÑĪÑĭ":3011,"ĠÐ¼Ò±Ð½Ð´Ð°Ð¹":3012,"ĠÐ¿Ð»":3013,"Ð¸ÐºÐ°ÑģÑĭ":3014,"ÐµÐ³ÑĸÐ½Ð´Ðµ":3015,"ĠÒĽÐ°Ð»Ð´ÑĭÑĢ":3016,"iÐ½Ðµ":3017,"ĠÐ¶Ò¯ÑĢÐ³ÑĸÐ·ÑĸÐ»Ð³ÐµÐ½":3018,"Ð»ÐµÑĢÐ³Ðµ":3019,"ĠÑģÐ°Ð±":3020,"Ġ2013":3021,"ĠÐ°Ð´Ð°Ð¼Ð´Ð°ÑĢÐ´ÑĭÒ£":3022,"ÑĨÐ¸ÑıÑģÑĭ":3023,"ĠÒļÐ°Ð·Ð°ÒĽÑģÑĤÐ°Ð½Ð´Ð°":3024,"ÑĮÐ¼":3025,"Ñī":3026,"ri":3027,"ĠÐ¼ÐµÐºÐµÐ¼ÐµÑģÑĸ":3028,"ĠÑĤÐ°Ð¼Ð°ÒĽ":3029,"ĠÑĪÑĭÒĵÐ°ÑĢÐ¼":3030,"ĠÑĤÑĢ":3031,"Ð»Ð´Ðµ":3032,"ĠÐ¼Ò¯Ð´":3033,"Ð¾Ò£ÒĵÑĭ":3034,"ÑĨÐ¸ÑıÐ»Ð°ÑĢ":3035,"ĠÑĤÐ°Ò£Ð´Ð°Ñĥ":3036,"ĠÐ±ÓĻÑģ":3037,"ĠÒĽÒ±ÑĢÑĭÐ»ÑĭÑģÑĭ":3038,"ĠÐ°Ð½Ð°":3039,"Ð°Ð¼Ð±ÑĭÐ»":3040,"ĠÐºÐ»Ð°ÑģÑģ":3041,"ÐĳÒ¯Ð³ÑĸÐ½":3042,"ĠÓ©Ð·ÑĸÐ½Ðµ":3043,"ĠÐºÓ©ÑĪÑĸÑĢ":3044,"ĠÐ¸Ð³ÐµÑĢ":3045,"ĠÐ´ÐµÐ¿Ñĥ":3046,"ĠÓĻÐ´ÑĸÑģ":3047,"ĠÐ´ÐµÐ¹":3048,"ĠÐ¾ÒĽÑĭÐ¿":3049,"ĠÐĳÐ¸":3050,"ĠÐĸÐ¨Ð¡":3051,"ĠÑģÐ°Ð»Ð°ÑģÑĭÐ½Ð´Ð°":3052,"ĠÐ¸Ð´ÐµÑı":3053,"ĠÐ¶Ð°ÑĢÐ¸ÑıÐ»Ð°Ð½ÒĵÐ°Ð½":3054,"Ð½ÐµÐ¼ÐµÑģÐµ":3055,"Ò°Ð»":3056,"ĠÒ¯Ð¹Ð»ÐµÑģ":3057,"ĠÐ¾ÒĽÑĥÑĪÑĭÐ»Ð°ÑĢÐ´ÑĭÒ£":3058,"Ð´Ð¸":3059,"ĠÑĤÑĸÐºÐµÐ»ÐµÐ¹":3060,"ĠÑĤÐµÐ·":3061,"ĠÓĻÐºÐµÐ»":3062,"ĠÐ°ÑĢÐ°Ð»ÑĭÒĵÑĭÐ½Ð´Ð°":3063,"ĠÐ±ÑĸÑĢÐµÑĥ":3064,"Ð°ÒĽÑĭÑĤÑĭ":3065,"ÐĳÐ°Ð»":3066,"Ð´Ð°Ð¹ÑĤÑĭÐ½":3067,"ĠÑĪÐ°ÑĢÐ°Ð»Ð°ÑĢ":3068,"ĠÐĲÐ»Ð°Ð¹Ð´Ð°":3069,"ÑĢÐ´":3070,"ĠÐ¶Ò¯ÑĢÐµÐº":3071,"Ð½Ð¾Ð²Ð°ÑĨÐ¸ÑıÐ»ÑĭÒĽ":3072,"ĠÑģÐ°ÒĽÑĤÐ°Ð½Ð´ÑĭÑĢÑĥ":3073,"ĠÐ°ÑĤÐ°Ð»ÒĵÐ°Ð½":3074,"ĠÒ±ÑĢÐ¿Ð°ÒĽ":3075,"ĠÑĪÐµÒ£Ð±ÐµÑĢ":3076,"Ð¸ÑģÑĤÐµÑĢ":3077,"ĠÒĽÒ±ÑĢÐ°Ð¹Ð´Ñĭ":3078,"ĠÑĤÓĻÑĢÑĤÑĸÐ±Ñĸ":3079,"ĠÐ´ÓĻÐ»ÐµÐ»":3080,"ĠÒĽÐ°ÑĢÐ°Ñĥ":3081,"ĠÐŀÐ»Ð°ÑĢÐ´ÑĭÒ£":3082,"Ð´ÐµÐ³ÐµÐ½":3083,"ĠÐ¡Ð¾":3084,"ĠÒĽÒ±ÒĽ":3085,"ĠÐ±Ð¸ÑĸÐº":3086,"ĠÐķÑĥÑĢÐ¾Ð¿":3087,"Ġ28":3088,"ĠÑģÐ°Ð¹ÑĤÑĭ":3089,"ĠÑħÐ°Ð»ÒĽÑĭÐ½ÑĭÒ£":3090,"Ð´ÑĭÒĵÑĭÐ½":3091,"ĠÐ°Ð¹ÑĭÐ½Ð´Ð°":3092,"ĠÑĦÐ¸Ð·":3093,"ĠÑĪÐµÐºÑĤÐµÑĥ":3094,"ĠÓĻÐ¹ÐµÐ»Ð´ÐµÑĢ":3095,"ĠÐ¢ÓĻÑĥÐµÐ»":3096,"ĠÑĸÑģÑĸ":3097,"ÐķÒ£":3098,"ĠÐľÑĭÑģÐ°Ð»Ñĭ":3099,"ĠÐµÐ³ÐµÑĢ":3100,"ĠÐ¼Ò±Ð½Ð°Ð¹":3101,"ĠÑģÒ±":3102,"ÑĤÐ¿":3103,"ĠÒ±ÒĵÑĭÐ¼":3104,"ĠÐĸÐ°Ð»Ð¿Ñĭ":3105,"ĠE":3106,"Ð°ÑĤÑĤÐ°ÑĢÒĵÐ°":3107,"ĠÐ¿ÑĢÐ¾ÐºÑĥÑĢ":3108,"ĠÐ°Ð¹ÑĭÐ¿":3109,"ĠÐºÐµÐ·Ð´ÐµÑģÑĥ":3110,"ĠÐ°Ò£":3111,"ÑĤÐ°Ð½Ñĭ":3112,"Ð»ÐµÐ¿":3113,"ĠÐºÓ©ÑĢÐ³ÐµÐ½":3114,"ĠÐºÑĥÑĢÑģ":3115,");":3116,"//":3117,"ĠÐ±ÐµÐ»Ð³ÑĸÐ»ÐµÐ½Ð³ÐµÐ½":3118,"ÐµÐ¹ÑĤÑĥ":3119,"Ð°Ð¹ÑĤÑĥ":3120,"ĠÐ¾ÒĽÐ¸Òĵ":3121,"Ð´Ð°ÑĢÐ¼ÐµÐ½":3122,"ÑĭÐ¼ÑĭÐ·Ð´Ñĭ":3123,"ĠÑĤÐ°Ð¼ÑĭÐ·":3124,"ĠÐ¼Ð°ÒĽÑģ":3125,"Ð±ÐµÑģ":3126,"ĠÑĤÑĭÑĢ":3127,"ĠÐ¼Ð»ÑĢÐ´":3128,"ÐµÑĢÑĤÑĤÐµÑĥ":3129,"ÑģÑĤÐµ":3130,"Ð¶Ð¾Ð»":3131,"ĠÐ¾ÑĤÐ±Ð°ÑģÑĭ":3132,"ĠÒĽÐ°ÑĥÑĭÐ¼":3133,"Ġ27":3134,"ĠÒĽÐ°ÑĥÑĸÐ¿ÑģÑĸÐ·Ð´ÑĸÐº":3135,"ĠÑĦÐ°ÐºÑĤÐ¾ÑĢ":3136,"ĠÐ¡ÐµÑĢ":3137,"ĠÐ¶Ð°ÑĥÐ°Ð¿ÑĤÑĭ":3138,"ĠÐ°Ð¹ÑĤÑĥÑĭÐ½ÑĪÐ°":3139,"ÑĤÑĭÒĵÑĭ":3140,"Ð´Ð°ÑĢÐ´Ð°":3141,"ĠÑĤÓĻÐ¶ÑĸÑĢÐ¸Ð±Ðµ":3142,"ĠÐ¼ÐµÐ½ÑĪÑĸÐº":3143,"ĠÐ¼Ð¸Ð½Ð¸ÑģÑĤÑĢÐ»ÑĸÐ³Ñĸ":3144,"Ð¾ÑĤÐ¾":3145,"ĠÓĻÑĢÑĤÒ¯ÑĢÐ»Ñĸ":3146,"ĠÐĲÒĽÑĤÓ©Ð±Ðµ":3147,"Ð°ÑģÑĭÐ¼ÐµÐ½":3148,"ĠÒ±Ð¹":3149,"Ð¿Ð°Ð·":3150,"ĠÐ´ÑĸÐ½Ð¸":3151,"ĠÒĽÑĭÑĢÐºÒ¯Ð¹ÐµÐº":3152,"ÐĿÐµÐ³ÑĸÐ·Ð³Ñĸ":3153,"ÐĲÐĻ":3154,"ĠÓĻÐ´ÐµÐ±Ð¸ÐµÑĤÑĸ":3155,"ÐĨÐĿ":3156,"ÑĭÐ¹ÑĭÐ¼":3157,"Ð¸Ñĩ":3158,"Ð°Ð½Ð´ÑĭÒĽ":3159,"ĠÑģÐ°Ð»ÑĭÑģÑĤÑĭÑĢ":3160,"ÐľÐµÐºÑĤÐµÐ¿":3161,"ĠÐ±Ð°ÑģÑĭÐ¼":3162,"ÑĪÐ°ÒĽ":3163,"Ð¾Ð»Ð´Ð°Ð½":3164,"ÑĸÐºÑĤÑĸ":3165,"ĠÑįÐ»ÐµÐºÑĤÑĢÐ¾Ð½Ð´ÑĭÒĽ":3166,"ĠÐ±Ð¸Ð»ÑĸÐº":3167,"Ġ2012":3168,"ÐľÐµÐ¼Ð»ÐµÐºÐµÑĤ":3169,"ĠÐľÐµÐ¼Ð»ÐµÐºÐµÑĤ":3170,"ĠÒļÐ°ÑĢÐ°ÒĵÐ°Ð½Ð´Ñĭ":3171,"ĠÐ´Ð°ÒĵÐ´Ñĭ":3172,"ĠÒĵÐ¸Ð¼Ð°ÑĢ":3173,"ĠÓ¨Ð¹ÑĤÐºÐµÐ½Ñĸ":3174,"ĠÒ¯Ð½ÐµÐ¼":3175,"Ð°ÒĵÐ´Ð°ÑĢ":3176,"ĠÐ¼ÑĸÐ½Ð´ÐµÑĤ":3177,"Ð±Ð»ÐµÐ¼":3178,"ĠÐŀÑĢÑĤÐ°Ð»ÑĭÒĽ":3179,"ĠÒĽÐ¾Ñı":3180,"ĠÒļÑĭÐ·ÑĭÐ»Ð¾ÑĢÐ´Ð°":3181,"ĠÐµÑĤÐºÐµÐ½":3182,"ÑĥÑĢÐ³":3183,"Ð´ÑĭÑĢÑĭÐ»ÒĵÐ°Ð½":3184,"ĠÐºÐµÐ¹ÑĸÐ½Ð³Ñĸ":3185,"ce":3186,"ĠÐºÐ°Ð´":3187,"ĠÐľÐ°ÑĢ":3188,"ĠÐ¾ÑĢÑĤÐ°Ð»ÑĭÒĵ":3189,"Ð¶Ð°ÒĽÑĤÑĭ":3190,"ÑĤÐ¸Ð²ÑĤÑĸ":3191,"ÐµÐ¼Ð°ÑĤÐ¸ÐºÐ°":3192,"ĠÐ¶Ò¯Ð¹ÐµÑģÑĸÐ½":3193,"Ð°Ð½ÑĤ":3194,"ÒĽÒ±ÑĢ":3195,"ĠÒĽÒ±ÑĤÑĤÑĭÒĽ":3196,"ĠÐŁÐ°Ð²Ð»Ð¾Ð´Ð°ÑĢ":3197,"ĠÐ½Ð°Ñĥ":3198,"ÑĭÐº":3199,"Ð·Ð°ÑĤ":3200,"Ð°Ð½Ð´Ð°":3201,"ĠÐ¼ÑĸÐ½ÐµÐ·":3202,"ĠÒĽÒ±ÑĢÐ¼ÐµÑĤ":3203,"ĠÑĪÐµÑĪÑĥ":3204,"ur":3205,"60":3206,"ĠÐ±Ð°Ð¹ÒĽÐ°Ñĥ":3207,"ĠÐ´Ð°Ð¹ÑĭÐ½Ð´ÑĭÒĽ":3208,"ÑĮÑİÑĤÐµÑĢ":3209,"ÑĤÐ°Ð±":3210,"ĠÑģÐ°ÑıÑģÐ°ÑĤÑĭ":3211,"Ð¢Ð°ÑĢ":3212,"ĠÐ±Ð°ÑĢÑĭÐ¿":3213,"ĠÐ±Ó©Ð»ÑĸÐ³Ñĸ":3214,"ĠÐµÑĤÑĤÑĸ":3215,"ÑĸÐ»Ð´ÑĸÑĢÑĥ":3216,"ĠÐ°Ð¹ÑĤÐ°Ð´Ñĭ":3217,"ĠÐ±Ð°ÑĢÐ»ÑĭÒĵÑĭ":3218,"ÒĵÐ°ÑĢ":3219,"ÒĽÑĭÑĪ":3220,"ĠÐºÒ¯ÑĢÐ´ÐµÐ»Ñĸ":3221,"ÐµÐ¼ÐµÐ¹":3222,"ĠÑħÐ¸Ð¼":3223,"Ġ2011":3224,"ĠÐ±Ó©Ð»ÑĸÑģÑĸÒ£ÑĸÐ·":3225,"ĠÐ°Ð»Ð°ÑģÑĭÐ·":3226,"Ð°Ð½ÑĭÑĪ":3227,"ĠÐºÓ©ÑĢÑģÐµÑĤÐµÐ´Ñĸ":3228,"ĠÑĦÐ¾ÑĢ":3229,"ĠÐ´Ð°ÑıÑĢ":3230,"ĠÑĢÐµÑģÑĥÑĢÑģÑĤÐ°ÑĢ":3231,"ĠÐµÐ»ÑĸÐ¼ÑĸÐ·Ð´ÑĸÒ£":3232,"Ð³ÑĸÑĢ":3233,"ÑĢÐ°ÒĽ":3234,"ÒĽÐ°Ð·":3235,"ĠÒ±Ð¶ÑĭÐ¼":3236,"ÒĵÑĭÑģÑĤÐ°Ñĥ":3237,"ĠÐ¼ÓĻÑģÐµÐ»Ðµ":3238,"ÐĶÐĨ":3239,"ĠÐ±Ð°Ð»Ð°Ð½ÑĭÒ£":3240,"ĠÑĢÐ°Ð´":3241,"ĠÑįÑĤ":3242,"Ð°Ð³ÐµÑĢ":3243,"ĠÐ¿Ð°Ð¹Ð´Ð°Ð»Ð°Ð½ÑĥÒĵÐ°":3244,"ĠÐ¾ÒĽÑĥÑĪÑĭ":3245,"____":3246,"ĠÑģÐ°Ð¹Ð»Ð°Ñĥ":3247,"ĠÐ¼Ð°Ð¹":3248,"ĠÐ¶ÐµÑĤÐºÑĸÐ·Ñĥ":3249,"ÒĵÐ°Ð½Ñĭ":3250,"ĠÐ´Ð°Ð¼ÑĥÑĭ":3251,"ĠÒ°Ð»Ñĭ":3252,"ÑĪÑĸÐ»ÐµÑĢÐ´ÑĸÒ£":3253,"ĠÐ¥Ð°Ð»ÑĭÒĽÐ°ÑĢÐ°Ð»ÑĭÒĽ":3254,"ÐĸÒ±Ð¼ÑĭÑģ":3255,"ĠÐºÑĢ":3256,"ĠÐ¼Ð¾Ð¹":3257,"Ð´Ð°ÑĢÑĭÐ½Ð°Ð½":3258,"ĠÑģÐ¾Ð·":3259,"ĠÓĻÐ´ÐµÐ±Ð¸ÐµÑĤ":3260,"ĠÐĸÐ¾Ð»Ð´Ð°Ñĥ":3261,"ĠÐ¶Ò±Ð¼ÑĭÑģÑĭ":3262,"2016":3263,"ĠÓ©Ð»ÑĪ":3264,"ĠÐĸÐ°Ò£":3265,"ĠÑĤÓ©ÑĢÐ°ÒĵÐ°ÑģÑĭ":3266,"ÐŀÐ»":3267,"ĠK":3268,"ĠÐºÓ©ÑĢÐ¼":3269,"ĠÐ´Ò¯Ð½Ð¸Ðµ":3270,"edi":3271,"ĠÐ¶ÐµÑĤÑĸÐ»Ð´ÑĸÑĢÑĥ":3272,"ĠÑĤÒ¯ÑģÑĸÐ½Ð´ÑĸÑĢ":3273,"Ð°Ð´ÐµÐ¼":3274,"ÐµÐ´ÑĢ":3275,"ĠÐµÐ»Ð´Ñĸ":3276,"Ð¾ÒĵÐ°ÑĢÑĭ":3277,"ĠÑĦÑĥÐ½ÐºÑĨÐ¸Ñı":3278,"ĠÐ´Ð¸Ð¿Ð»Ð¾Ð¼":3279,"ĠÒļÐ°Ð·ÑĸÑĢÐ³Ñĸ":3280,"Ð»ÐµÐºÑĤÑĢÐ¾Ð½":3281,"Ð»Ð°ÒĵÐ°Ð½":3282,"Ð°Ò»":3283,"ĠÑĤÒ±Ð»ÒĵÐ°":3284,"ÐĲÐ´Ð°Ð¼":3285,"ĠÐ°Ð¶":3286,"Ð´Ð°Ð´Ñĭ":3287,"ÑĸÐ»ÑĸÑģ":3288,"ĠÐºÓ©ÑĢÑĸÐ¿":3289,"21":3290,"ĠÓ©ÐºÑĸÐ»Ð´ÐµÑĢÑĸ":3291,"ĠÐ¾Ð¹Ð»Ð°Ñĥ":3292,"ĠÐ¡Ð°Ð±Ð°ÒĽ":3293,"ĠÐ¿ÑĢÐ¾ÑĨÐµÑģ":3294,"ĠÐ¾Ð±Ð»ÑĭÑģÑĭÐ½Ð´Ð°":3295,"ĠÑĤÐ°Ð±Ð¸ÒĵÐ°ÑĤ":3296,"ĠÐ¿ÑĢÐ¾ÑĦ":3297,"am":3298,"ĠÑģÐ°Ð±Ð°ÒĽÑĤÐ°ÑĢ":3299,"ĠÐ¶Ð°ÑģÑĤÐ°ÒĵÑĭ":3300,"ÐµÐ³ÑĸÐ½":3301,"Ð°Ò£ÒĵÑĭÑģÑĤÐ°Ñĥ":3302,"ĠÐ¼Ð¾":3303,"ÑĭÒĽÑĤÑĭÑĢÑĥ":3304,"ĠÐºÐ¾":3305,"ĠÑĥÑĩÐ°Ñģ":3306,"ĠÒ¯Ð»ÐµÑģ":3307,"ĠÐ¼ÐµÐºÐµÐ¼ÐµÐ»ÐµÑĢ":3308,"ÑģÑĭÐ»Ð¼Ð°Ð½":3309,"ĠÐ¶Ð°Ð½ÑĥÐ°ÑĢ":3310,"ĠÑģÓĻÑĤ":3311,"ĠÐ¶Ò¯ÑĢÑĸÐ¿":3312,"Ð°ÑĢÑĤÑĥ":3313,"ÐĳÑĸÐ·Ð´ÑĸÒ£":3314,"ĠÐ«":3315,"ĠÐ¼ÓĻÑĤÑĸÐ½":3316,"ĠÐ±Ð°ÑģÑĤÐ°ÒĵÐ°Ð½":3317,"ĠÒĽÒ±ÒĽÑĭÒĽÑĤÐ°ÑĢÑĭ":3318,"ÑĪÐ°ÑĢÐ°Ð»Ð°ÑĢ":3319,"ĠÐ¶ÑĥÑĭÒĽ":3320,"Ð°Ð»Ð°Ð¼":3321,"ĠÐ¿ÐµÑĢ":3322,"Ò¯Ðº":3323,"ĠÑįÐºÑģ":3324,"ĠÒĽÐ°ÑĢÐ°Ð¼":3325,"ĠÑģÐµÐ¼":3326,"ĠÐºÓ©Ð¼ÐµÐºÑĤÐµÑģ":3327,"ĠÐ´Ð¸ÑĢÐµÐºÑĤÐ¾ÑĢÑĭ":3328,"ĠÑĤÒ±ÑĢÒĵÑĭ":3329,"ĠÒĽÑĭÑģÒĽÐ°":3330,"Ð³iÐ·":3331,"ĠÑĤÐ¾Ð½":3332,"ĠÐ¾Ð»Ð°ÑĢÒĵÐ°":3333,"ĠÐ°ÐºÐ°Ð´ÐµÐ¼":3334,"ĠÐ´ÐµÐ½Ðµ":3335,"ÐµÑĤÑĤÐµÑĢÐ´Ñĸ":3336,"ĠÒĽÒ±Ð±ÑĭÐ»":3337,"ĠÐ±Ð°ÒĵÐ´Ð°ÑĢÐ»Ð°Ð¼Ð°":3338,"Ġ40":3339,"ĠÐºÓ©ÑĢÐºÐµÐ¼":3340,"ÐµÑģÑĸÐ·":3341,"ÑĭÐ½Ñĭ":3342,"ĠÐ°ÑĢÒĽ":3343,"ĠÐ°ÑĥÑĭÑģ":3344,"ĠÐ°Ð´Ð°Ð¼ÒĵÐ°":3345,"ÓĻÐ´ÐµÐ½Ð¸ÐµÑĤ":3346,"ĠÑģÐ°Ð»ÑĭÐ¿":3347,"57":3348,"ÑĤÐ¸ÑĦ":3349,"ÑĸÑģÑĤÑĸ":3350,"ĠÐ½ÓĻÑĤÐ¸Ð¶ÐµÑģÑĸÐ½Ð´Ðµ":3351,"Ð¡Ð¾Ð½ÑĭÐ¼ÐµÐ½":3352,"ÓĻÑĢÐ±Ð¸Ðµ":3353,"ÒļÐ°Ð¹":3354,"ĠÑĤÑĸÐ¿ÑĤÑĸ":3355,"ÐºÐ»":3356,"ĠÑģÐ¾Ð½ÑĭÒ£":3357,"ÑĨÐ¸":3358,"Ð´iÒ£":3359,"ĠÒ¯Ð¼Ñĸ":3360,"ÐºÐµÐ¹":3361,"ĠÐºÐ°ÑĢÑĤ":3362,"ĠÐ¼ÐµÐºÑĤÐµÐ±":3363,"ĠÒ±Ð½":3364,"22":3365,"ĠÐ¾Ð¿ÐµÑĢÐ°ÑĨÐ¸Ñı":3366,"ÐľÓĻ":3367,"Ð±Ð°Ð±":3368,"Ð±Ð°ÑģÑĭÐ½ÑĭÒ£":3369,"ĠÒĽÑĭÐ»Ð¼ÑĭÑģÑĤÑĭÒĽ":3370,"ĠÐ°ÒĽÐ¿Ð°Ð½":3371,"ĠÓĻÐ»ÐµÐ¼Ð´ÑĸÐº":3372,"ĠÐ¶Ò±ÑĢÑĤ":3373,"Ð°Ð»Ñİ":3374,"ĠÒĽÑĭÐ·Ð¼ÐµÑĤÑĸÐ½ÑĸÒ£":3375,"ĠÑĢÐµÐ´Ð°ÐºÑĨÐ¸Ñı":3376,"ĠÑĢÓĻÑģ":3377,"Ð¼Ð°Ð»Ñĭ":3378,"Ð´ÑĥÑģÑĤÑĢ":3379,"ĠÑĤÒ±ÑĤÑĭÐ½":3380,"Ð¦":3381,"ĠÐ°ÑĢÑĤÑĤÑĭÑĢ":3382,"ĠÒĽÐ°Ð´Ð°Ð¼":3383,"ĠÐ°Ð¹ÑĤÑĭÐ»":3384,"ĠÑģÐ°Òĵ":3385,"ĠÑģÐµÐ½ÑĸÐ¼":3386,"ĠÒĽÐ°ÑĢÐ°ÒĵÐ°Ð½Ð´Ð°":3387,"ÑħÐ¼ÐµÑĤ":3388,"ĠÐ¶ÐµÑĢÐ³Ðµ":3389,"ĠĠ":3390,"ttp":3391,"ÐµÑģÐµÐº":3392,"ĠÐ°Ð»ÒĵÐ°ÑĪ":3393,"Ð»Ð°Ð¹Ð½":3394,"http":3395,"ĠÑĤÓĻÐ½":3396,"ĠÐ¼ÓĻÑĢÑĤÐµ":3397,"ÑĪÑĸÐ½ÑĸÒ£":3398,"Ġ26":3399,"ĠÐ¶Ð¾Ð±Ð°ÑģÑĭ":3400,"Ð°ÑĦÐµÐ´ÑĢ":3401,"ĠÑģÑĸÒ£":3402,"âĢľ":3403,"://":3404,"Ð»Ñı":3405,"ÑĪÑĭÐ»Ð°ÑĢÐ´ÑĭÒ£":3406,"ĠÐ´ÐµÐ¿ÑĥÑĤ":3407,"ĠÐ±Ò±ÑĢÑĭÐ½ÒĵÑĭ":3408,"ĠÑģÐ°Ð»Ð°":3409,"ĠÐºÐ¾Ð½ÑĦÐµÑĢÐµÐ½ÑĨÐ¸Ñı":3410,"ĠÐ¼Ð°ÑĪ":3411,"ĠÐ°ÒĵÑĭÐ»":3412,"ĠÐ´Ð¾":3413,"ÐĿÐ°Ð·Ð°ÑĢÐ±Ð°ÐµÐ²":3414,"80":3415,"ĠÐ¿ÑĢÐ¾Ð±Ð»ÐµÐ¼":3416,"ĠÐºÐ¾Ð¼Ð¼ÑĥÐ½Ð°Ð»Ð´ÑĭÒĽ":3417,"ÑĪÑĭÐ»ÑĭÒĵÑĭÐ½":3418,"ĠÒĽÐ°ÑĥÑĸÐ¿ÑģÑĸÐ·":3419,"ĠÑĭÐ½ÑĤÑĭÐ¼Ð°ÒĽÑĤÐ°ÑģÑĤÑĭÒĽ":3420,"ĠÐ±Ò±Ð·ÑĥÑĪÑĭÐ»ÑĭÒĽ":3421,"ĠÒĽÐ°ÑĢÐ¶ÑĭÐ»":3422,"ĠÑĤÐ°Ð»Ð´Ð°ÑĥÐ´Ñĭ":3423,"ĠÐ¾Ð¹Ð½":3424,"ĠÑĭ":3425,"ĠÐ¶ÐµÑĤÑĸÑģÑĤÑĸÐº":3426,"Ð°ÑĤÑĮ":3427,"ĠÑģÑĤÐ°Ð½Ð´Ð°ÑĢÑĤ":3428,"ĠÐ°Ð»Ð´ÑĭÐ¼ÐµÐ½":3429,"ÑĭÑģÑĤÑĭÒ£":3430,"ĠÐĲÑģÑĤÐ°Ð½":3431,"ĠÐ±Ð°Ð»Ð°Ð»Ð°ÑĢÒĵÐ°":3432,"ÐķÐ³ÐµÑĢ":3433,"199":3434,"ĠÐĸÒ±Ð¼ÑĭÑģ":3435,"ÐºÐ¸":3436,"ÐµÐ¹ÑĸÐº":3437,"ĠÓ©ÑĤÑĸÐ¿":3438,"Ð±ÑĬÐµÐº":3439,"ĠÑĤÐ°ÑģÑĭÐ¼Ð°Ð»":3440,"ĠÑģÐµÑĢÑĸÐº":3441,"Ð°Ð»Ð°Ð½":3442,"ĠÑģÒ¯ÑĤ":3443,"ĠÐ¾ÑĤÐ°Ð½":3444,"Ð³ÑĢ":3445,"ÐµÐ´Ð¸":3446,"ÐĲÐ£":3447,"ĠÐµÐ¼Ð´ÐµÑĥ":3448,"Ó©Ð¼ÑĸÑĢ":3449,"ĠÐ±Ð¾Ð»Ð°ÑĢ":3450,"ĠÒ±Ñı":3451,"ĠÐŀÒ£ÑĤÒ¯ÑģÑĤÑĸÐº":3452,"Ð°ÐºÑĤÐ¸ÐºÐ°Ð»ÑĭÒĽ":3453,"Ð»ÐµÑĢÐ´Ðµ":3454,"ĠÐ¼Ò±ÒĵÐ°Ð»ÑĸÐ¼Ð´ÐµÑĢ":3455,"ÐµÐ±ÐµÐ±Ñĸ":3456,"Ð¼Ð¾Ð»Ð°":3457,"ĠÐºÐµÐ·ÐµÐº":3458,"ĠÒĽÐ°ÑĥÐ»":3459,"Ð»ÑĭÒĽÑĤÐ°ÑĢ":3460,"Ġ22":3461,"ol":3462,"ĠÑĢÐµÑģÐ¿ÑĥÐ±Ð»Ð¸Ðº":3463,"ĠÐĳÒ¯Ð³ÑĸÐ½":3464,"ĠÐ°Ð´Ð°Ð¼Ð´Ñĭ":3465,"ĠÐ¶Ð¾ÒĵÐ°Ð»":3466,"ĠÑģÐµÐ±ÐµÐ±Ñĸ":3467,"ĠÒĽÐ°Ð»Ð¿":3468,"ÑģÑĤÐ²":3469,"ĠÐ±ÑĭÐ»Ð°Ð¹":3470,"ak":3471,"ĠÐµÑĢÐºÑĸÐ½":3472,"ĠD":3473,"ÑĸÐ»Ñĥ":3474,"ĠÒ±ÑģÑĤÐ°Ð½":3475,"ĠÐºÐµÐ½":3476,"Ð¢ÐĨ":3477,"ĠÐ±Ð°Ð¿":3478,"ĠÐ¼ÐµÐ¼Ð»ÐµÐºÐµÑĤÑĤiÐº":3479,"ĠÐ°Ð²ÑĤÐ¾Ð¼Ð¾Ð±Ð¸Ð»ÑĮ":3480,"ĠÑģÐ°Ð»ÑĭÐ½":3481,"ĠÐºÐµÐ»ÑĤÑĸÑĢÑĥ":3482,"ĠÒĽÐ¾ÑĢÑĭ":3483,"ÐĲÑĥÑĭÐ»":3484,"ĠÐºÓ©Ð»":3485,"ÐŀÐĽ":3486,"70":3487,"ĠÐ´Ð°Ð¼ÑĥÑĭÐ½Ð°":3488,"ĠÑģÐµÐºÑĸÐ»Ð´Ñĸ":3489,"ĠÑĤÑĸÐ·ÑĸÐ¼Ñĸ":3490,"Ð°ÐºÑĤ":3491,"ĠÒĽÐ°ÑĢÐ¶ÑĭÐ»ÑĭÒĽ":3492,"ĠÑĪÐ¾":3493,"edia":3494,"45":3495,"ĠÒĽÐ°Ð¹ÑĤÐ°Ð»":3496,"Ð°ÑĢÐ´":3497,"ĠÒĽÒ±ÒĽÑĭ":3498,"Ġ21":3499,"Ġ29":3500,"ĠÓĻÐºÑĸÐ¼Ð´ÑĸÐ³ÑĸÐ½ÑĸÒ£":3501,"ĠÐºÐ°Ð¿":3502,"Ð°ÑħÐ°Ð±":3503,"ÑĸÐ»ÑĥÑĸ":3504,"ĠÐ´Ð°Ð¹ÑĭÐ½Ð´Ð°Ñĥ":3505,"ĠÓĻÐº":3506,"ÑģÐºÐ¸Ð¹":3507,"ĠÒĽÐ¾Ð½Ð°ÒĽ":3508,"ĠÒĽÑĭÐ·ÑĭÒĵ":3509,"ĠÓĻÑĢÑĸÐ¿ÑĤÐµÑģ":3510,"ĠÐļÓ©ÑĢ":3511,"Ð´Ð°Ð»ÒĵÐ°Ð½":3512,"ĠÐ§":3513,"ĠÑĤÑĭÐ¹ÑĭÐ¼":3514,"ĠÐ´Ð¸Ð°Ð³":3515,"ĠÐĳÑĸÐ·Ð´ÑĸÒ£":3516,"Ð¸ÑıÑģÑĭÐ½":3517,"ĠÑĤÐ°ÒĵÐ°Ð¹ÑĭÐ½":3518,"ÑĮÐµÑĢ":3519,"Ð°Ð¼Ð°Ð·":3520,"Ð°Ð¹ÑĭÐ¿":3521,"ĠÑģÑĤÐ¸":3522,"ĠÐ¶ÑĭÐ»Ð´Ð°Ð¼":3523,"ÓĺÑĢ":3524,"ĠÐ¶Ò±Ð¼ÑĭÑģÑĭÐ½":3525,"ĠÐ´Ò¯Ð½Ð¸ÐµÐ³Ðµ":3526,"ĠÒļÐ¾ÒĵÐ°Ð¼":3527,"ĠÐ°Ð¹ÑĤÐ°":3528,"ĠÐ´Ð¾Ñģ":3529,"ĠÐ¶Ò¯Ð¹ÐµÑģÑĸÐ½ÑĸÒ£":3530,"ĠÐ¼Ò¯Ð¼ÐºÑĸÐ½Ð´ÑĸÐ³Ñĸ":3531,"ĠÒļÑĭÑĢ":3532,"ĠÐºÒ¯Ð½Ð³Ðµ":3533,"ĠÐ±Ð¸ÑĭÐ»":3534,"ĠÐ¼ÑĭÐ½Ð°Ð´Ð°Ð¹":3535,"ĠÐ¶Ð°ÑģÐ°ÑĥÒĵÐ°":3536,"ÐķÐľ":3537,"ĠÑĤÐ°Ð»Ð´Ð°Ð¼":3538,"Ð³ÑĸÐ»":3539,"Ð±Ð°Ð½":3540,"ĠÐ°ÒĽÐ¿Ð°ÑĢ":3541,"ĠÒĽÐ°Ð¹ÑĤÐ°ÑĢ":3542,"ÐºÑĸÐ»ÐµÑĤÑĤÑĸ":3543,"ÑģÑĭÒ£":3544,"ĠÐ¶ÑĭÐ»Ð´Ð°ÑĢÒĵÐ°":3545,"ĠÐ±Ð°Ð»Ð°Ð»Ð°ÑĢÐ´ÑĭÒ£":3546,"ÑĢÐ¾Ð¿":3547,"re":3548,"ĠÐ¨ÑĭÐ¼ÐºÐµÐ½ÑĤ":3549,"as":3550,"ip":3551,"ĠÐµÑĢÑĤÐµ":3552,"Ð¸Ð½Ð¸ÑģÑĤÑĢ":3553,"ĠÐ¼Ò±ÒĵÐ°Ð»ÑĸÐ¼":3554,"ĠÐºÓ©ÑĪÐµÑģÑĸ":3555,"ĠÐºÐ¾Ð½ÑĨ":3556,"Ð´ÑĭÐ¼":3557,"35":3558,"ĠÐ¶Ð°ÑĢÐ¸ÑıÐ»Ð°Ð½":3559,"ĠÑģÐ°Ð¿Ð°ÑģÑĭÐ½":3560,"ĠÐ¿Ð¾ÑĢÑĤ":3561,"ĠÑĤÓĻ":3562,"ÑĭÐ»ÑĭÐ¼Ð¸":3563,"Ð³Ð°Ð»":3564,"âĢ¢":3565,"ĠÒĽÐ¾Ð¹ÒĵÐ°Ð½":3566,"ĠÐ´ÓĻÑģÑĤÒ¯ÑĢ":3567,"ĠÐ´ÑĭÐ±":3568,"ÑĥÑĤÐ±Ð¾Ð»":3569,"ĠÐĲÐ²":3570,"ĠÐ¼ÐµÐ·":3571,"Ð¼ÐµÐ½ÑĤ":3572,"ĠÑĢÐµÑĦÐµÑĢ":3573,"ĠÓ©ÑģÑĸÐ¼Ð´ÑĸÐº":3574,"ĠÐ¾ÑĢÑĤÐ°ÒĽ":3575,"ĠÑĢÐµÐ¶":3576,"Ò±ÑĢÐ°ÒĽ":3577,"ĠÐ¼Ð°ÒĵÐ°Ð½":3578,"ĠÐ°Ð¹ÑĤÒĽÐ°Ð½Ð´Ð°":3579,"ĠÐµÑģÑĸÐ¼":3580,"ÐŀÐ±Ð»":3581,"ĠÐ¶Ð°Ð·ÑĭÐ¿":3582,"ĠÒĽÐ°ÑĤÑĭÑģÑĥÑĪÑĭÐ»Ð°ÑĢ":3583,"ÑĤÒ±":3584,"ÑĤÐ°Ò£":3585,"ĠÐºÓĻÑģÑĸÐ¿ÐºÐµÑĢÐ»ÑĸÐº":3586,"Ð´ÐµÑĢÑĸÐ½Ðµ":3587,"ĠÐ±ÓĻÑģÐµÐº":3588,"ĠÑĥÐ°ÒĽÑĭÑĤÑĭ":3589,"ĠÑģÑĥÐ±ÑĬÐµÐºÑĤÑĸ":3590,".-":3591,"ĠÓ©Ð·ÑĸÐ½Ð´ÑĸÐº":3592,"ĠÐ±ÐµÑĤÑĸÐ½":3593,"ĠÑĪÐ°Ð±":3594,"ÑĸÐ½Ñĸ":3595,"ĠÐŁÑĢ":3596,"ÒĵÑĭÑģÑĭ":3597,"ĠÑĤÒ¯Ð½":3598,"ĠÐ¢ÐµÐº":3599,"ĠÐ¶ÐµÐ´ÐµÐ»":3600,"ĠÐºÑĸÑģÑĸ":3601,"ĠÒ¯ÑĢÐ´Ñĸ":3602,"ÒĽÐ°ÑĤÐ°ÑĢ":3603,"Ð°ÒĵÑĭÐ½Ð°":3604,"36":3605,"ĠÐ¶Ð°ÑģÒĽÐ°":3606,"ĠÐµÑĤÑĸÐ»":3607,"ĠÐ°ÒĽÐ¿Ð°ÑĢÐ°ÑĤÑĤÑĭ":3608,"ĠÒ±ÑģÑĭÐ½ÑĭÑģ":3609,"ÑĭÐ¼ÑĭÐ·ÒĵÐ°":3610,"ĠÒ±ÒĽÑģ":3611,"Ð»ÐµÐ´Ð¶":3612,"ĠÑĤÑĸÑĢÐºÐµÐ»Ð³ÐµÐ½":3613,"ĠÐ¼ÐµÐ¼Ð»ÐµÐºÐµÑĤÑĤÐµÑĢ":3614,"ĠÐ¶Ð°ÒĵÐ´Ð°Ð¹Ñĭ":3615,"ĠÐ¶Ò±Ð¼ÑĭÑģÑĤÐ°ÑĢÑĭÐ½":3616,"ĠÐ¾ÐºÑĢÑĥÐ³":3617,"ĠÐ¼ÐµÑĢÐ·ÑĸÐ¼Ð´Ñĸ":3618,"ÐĲÑĥÐ´Ð°Ð½":3619,"Ð°ÑĤÐ°":3620,"ĠÑįÐ»ÐµÐ¼":3621,"ĠÐļÐ¾Ð½ÑģÑĤÐ¸ÑĤÑĥ":3622,"Ð¶ÑĭÑĢÑĭÐ¼":3623,"ĠÒļÐ°ÑĢÐ¶Ñĭ":3624,"ĠÐ¸Ð½ÑĤÐµÑĢÐ½ÐµÑĤ":3625,"ĠÐ¼Ð¾Ð½Ð¸ÑĤÐ¾ÑĢ":3626,"ĠÓĻÐ´ÐµÑĤ":3627,"ĠÐ»Ð¸ÑĨ":3628,"ĠÓ©Ð·ÐµÐ½":3629,"ĠÐ¶Ð°ÑģÐ°Ð¹Ð´Ñĭ":3630,"ÑĤÐ¸ÑĦÐ¸Ðº":3631,"ÑĭÒ£ÒĵÐ°Ð¹":3632,"ĠÓĺÐ¹":3633,"de":3634,"Ð°ÑģÑĥ":3635,"ĠÐ¢Ò¯ÑĢÐºÑĸÑģÑĤÐ°Ð½":3636,"ĠÐ¶Ð°ÒĽÑģÐ°ÑĢ":3637,"ĠÐ¶Ð¾Ð±Ð°":3638,"ĠÐºÐ¾Ð¼Ð¼ÑĥÐ½":3639,"Ð¥Ð°Ð»ÑĭÒĽÐ°ÑĢÐ°Ð»ÑĭÒĽ":3640,"ĠÑĸÑģÑĤÐµÑĢÑĸ":3641,"ÐºÑģ":3642,"ÑĥÑħ":3643,"ÐºÐ¾":3644,"ĠÒĽÒ±Ð¶Ð°ÑĤÑĤÐ°ÑĢÐ´Ñĭ":3645,"Ð±ÐµÐºÐ¾Ð²":3646,"ĠÐ°ÒĵÑĭÐ¼":3647,"ÐĶÐ«":3648,"Ð¼ÑĭÑģÑĤÑĭÒĽ":3649,"us":3650,"ÐłÐ¢":3651,"ÐµÑĤÑĸÐ½Ð´Ðµ":3652,"Ġ+":3653,"ÑĤÑĭÐ¼":3654,"47":3655,"ÒļÐ°Ð·ÑĸÑĢÐ³Ñĸ":3656,"ĠÐķÐ½Ð´Ñĸ":3657,"ĠÐ°ÒĵÐ°ÑĪ":3658,"ĠÑĤÒ±ÑĢÑĭÐ¿":3659,"Ð¾ÑģÐ¾ÑĦ":3660,"ĠÐ±ÐµÐ·":3661,"ÒĽÐ¾":3662,"ÑĥÑĪÑĸ":3663,"ĠÒĽÒ±ÑĢÑĭÐ»ÒĵÐ°Ð½":3664,"ĠÐ¼ÐµÑĤÑĢ":3665,"Ð°Ð¹ÑĭÐ½Ð´Ð°":3666,"ĠÑĪÐµÑĤÐµÐ»Ð´ÑĸÐº":3667,"ĠÐ¼Ð¸Ð½ÑĥÑĤ":3668,"ĠÐ°ÑģÑĭÑĢÑĭÐ»Ð°Ð´Ñĭ":3669,"ĠÐļÐµÒ£ÐµÑģ":3670,"ĠÐ¢ÑĸÐ»":3671,"ĠÑĸÐ»":3672,"ĠÐ´ÐµÐ³ÐµÐ½ÑĸÐ¼ÑĸÐ·":3673,"Ð°ÑĤÑĭÐ½ÑĭÒ£":3674,"ÑĨÐ¸Ð¿":3675,"Ð¸ÑĤÐ°Ð»":3676,"ws":3677,"2015":3678,"ĠÐ±Ð¾Ð»Ð¶":3679,"ĠÐºÒ¯Ð½ÑĸÐ½Ðµ":3680,"Ò¯ÑĪ":3681,"ĠG":3682,"ĠÒĽÐ°Ð±ÑĸÐ»ÐµÑĤÑĤÑĸ":3683,"ĠÑģÑĭÐ·":3684,"ĠÐ·ÐµÐ¹Ð½ÐµÑĤÐ°ÒĽÑĭ":3685,"ĠÐ¼ÓĻÑģÐ»":3686,"?Â»":3687,"ĠÐºÓ©Ð·Ð´ÐµÐ»Ð³ÐµÐ½":3688,"ĠÑĢÐ°Ñģ":3689,"ĠÐ¡ÓĻ":3690,"ĠÐ°ÒĵÑĭÐ»ÑĪÑĭÐ½":3691,"ĠÒĽÐ°Ð·Ð°ÒĽÑĤÑĭÒ£":3692,"Ð¡Ð¾Ð»":3693,"Ð°ÑĤÐµÑĢÐ¸Ð°Ð»":3694,"Ð°ÒĵÐ´Ð°ÑĢÐ»Ð°Ð¼":3695,"ĠÐ¶ÐµÑĤÐºÐµÐ½":3696,"ĠÐ±Ð°ÒĵÐ°":3697,"ĠÐ¡ÐµÐ½":3698,"ĠÐ¼ÐµÐ¼Ð»ÐµÐºÐµÑĤÑĤÑĸÒ£":3699,"ĠÒĽÒ±ÒĽÑĭÒĵÑĭ":3700,"ĠÐºÐ¾Ð¼Ð°Ð½Ð´":3701,"ĠÐĸÒ±Ð¼":3702,"ĠÑĤÒ¯ÑģÑĸÐ½Ð´ÑĸÑĢÑĥ":3703,"Ġ60":3704,"Ò¯Ñģ":3705,"ĠÒ®Ð¹":3706,"ĠÐ±ÐµÑĢÑĥÐ³Ðµ":3707,"ÑĥÐ»Ñĭ":3708,"ĠÒ¯ÑĪÑĸÐ½ÑĪÑĸ":3709,"ĠÐ¿ÓĻ":3710,"ÑħÐ°ÑĤ":3711,"ĠÐ±ÐµÐº":3712,"Ð¸ÑĤÐ°ÑĢÐ»ÑĭÒĽ":3713,"ĠÓĻÐºÐµ":3714,"ÑĸÐ¼ÑĸÐ·Ð´ÑĸÒ£":3715,"ÐµÑĥÑĸ":3716,"ĠÒĽÐ¾Ð»Ð´Ð°Ð½ÑĭÐ»Ð°Ð´Ñĭ":3717,"Ð¸ÑıÐ´Ð°":3718,"ĠÐºÓ©Ð»ÑĸÐ³Ñĸ":3719,"Ð°Ð¿Ð°ÑĤ":3720,"ĠÐ½Ò±ÑģÒĽ":3721,"ĠÒ±ÑĪÑĭÑĢ":3722,"ĠÒĽÐ¾ÑĢÒĵÐ°Ð½":3723,"ĠÐ´ÐµÐ¿Ð°ÑĢÑĤÐ°Ð¼ÐµÐ½ÑĤ":3724,"ÐµÑģÑģÐ¾ÑĢ":3725,"Ð¾ÑģÑĭÐ½":3726,"ĠÐ¼ÑĭÑģ":3727,"ĠÐ¶Ð¾ÑģÐ¿Ð°ÑĢÐ»Ð°Ñĥ":3728,"ĠÑĤÐµÒ£ÑĸÐ·":3729,"Ò£ÒĵÑĭÑĪ":3730,"Ð°ÑĥÐ»Ñĭ":3731,"Ð°Ð»Ð»":3732,"ĠÒ¯Ð¼ÑĸÑĤ":3733,"ÐºÑĨÐ¸Ð¾Ð½":3734,"ĠÐ±ÐµÑĢÑĸÐ»Ð´Ñĸ":3735,"ĠÐ¶Ð¾Ñİ":3736,"ĠÐºÐ°ÑĦÐµÐ´ÑĢ":3737,"ĠÐ¼ÓĻÐ¶":3738,"ĠÐ¾ÑĢÐ³Ð°Ð½Ð´Ð°ÑĢ":3739,"ĠÐ¼Ð°Ò£":3740,"ÐµÐ´ÐµÑĢ":3741,"Ð¼ÐµÐ¹ÑĤÑĸÐ½":3742,"Ð¿ÐµÐº":3743,"ĠÒļÑĭÐ·":3744,"ĠÐ¡ÐµÐ±ÐµÐ±Ñĸ":3745,"ĠÐ±ÑĸÑĢÐ´ÐµÐ¹":3746,"Ð°Ð»Ð°Ð¿":3747,"ĠÐ¢Ò±ÑĢ":3748,"ĠÐºÐµÐ·ÐµÒ£Ñĸ":3749,"!Â»":3750,"ĠÑĤÐµÐ°ÑĤÑĢ":3751,"ÑĪÐºÑĸ":3752,"ĠÑĤÐ°Ð»Ð´Ð°Ð¼Ð°Ð»ÑĭÒĽ":3753,"ÑģÐ°Ò£":3754,"KZ":3755,"Ð¾Ð³ÑĢÐ°ÑĦÐ¸ÑıÐ»ÑĭÒĽ":3756,"Ð°Ð´Ð°ÒĵÐ°Ð»":3757,"ĠÐ°Ð»Ð¼Ð°Ð¹Ð´Ñĭ":3758,"ÒĽÐ°Ð½Ð´Ð°Ð¹":3759,"Ð°ÑıÑģÐ¸":3760,"37":3761,"Ò£ÑĸÑĢ":3762,"Â©":3763,"ĠÐ´Ð°ÑĥÑĭÑģ":3764,"ĠÐĳÐ°ÑĤÑĭÑģ":3765,"ĠÒļÐ°Ð»":3766,"ro":3767,"ĠÐµÑģÐµÐ¿ÐºÐµ":3768,"ÑģÑĤÐ°Ð·":3769,"ĠÓ©Ð·ÐµÐºÑĤÑĸ":3770,"ĠÑĤÒ¯ÑģÑĸÐ¿":3771,"ĠÐ¼Ò¯Ð»":3772,"ĠÐķÒ£Ð±ÐµÐº":3773,"Ð±Ð°ÒĽ":3774,"Ð´ÐµÑĢÐ´Ðµ":3775,"iÑģ":3776,"ĠÐ¶Ð¾Ð±Ð°Ð»Ð°ÑĢ":3777,"ĠIn":3778,"Ð³ÐµÐ¼ÐµÐ½":3779,"Ð´Ð¸Ð½":3780,"ĠÐ¶Ò±Ð¼ÑĭÑģÒĽÐ°":3781,"ĠÒļÐ°Ð½":3782,"ĠÒļÐ°Ð·ÑĸÑĢ":3783,"ĠÐ°ÑĤÑĭÐ½":3784,"ĠÐ´ÐµÐ½ÑģÐ°Ñĥ":3785,"ÒĽÐ°ÑĪÐ°Ð½":3786,"Ð¿ÑĢ":3787,"ÑģÑĭÐ½ÑĭÐ¿":3788,"ĠÐ°ÑĪÑĥ":3789,"ĠÑħÐ°Ð»ÒĽÑĭ":3790,"ĠÐ´ÓĻÑĥÑĸÑĢ":3791,"Ð»ÑĸÐºÑĤÑĸÒ£":3792,"ĠÑĤÓĻÑĥÐµÐ»ÑģÑĸÐ·":3793,"ĠÐ±Ð°Ð»Ð°Ð»Ð°ÑĢÐ´Ñĭ":3794,"ÒĵÐ°Ð½ÑĭÒ£":3795,"ĠÐ¢Ó©":3796,"ĠÐºÐ¸Ð½":3797,"ĠÐļÒ¯Ð½":3798,"Ð±Ð°ÐµÐ²Ð°":3799,"ĠX":3800,"Ð°ÑħÑģÐº":3801,"ÑĤÑĸÐ³ÑĸÐ½":3802,"ÐµÑĤÐµÑĢÐ¸Ð½Ð°ÑĢ":3803,"ĠÐ°ÑĥÐ¼Ð°ÒĽ":3804,"ĠÑĪÐ°Ð¹":3805,"ĠÐ³Ð°Ð·ÐµÑĤÑĸ":3806,"Ð¸ÑĦÑĢ":3807,"ÑĤÐµÑħÐ½Ð¸ÐºÐ°Ð»ÑĭÒĽ":3808,"ÐµÐ¶Ò¯Ð·":3809,"ÑĭÐ±Ñĭ":3810,"ÑĤÐ°ÑĤÐ¸ÑģÑĤ":3811,"].":3812,"Ð³ÐµÐ½Ñĸ":3813,"ĠÑĪÑĭÒĵÐ°Ð´Ñĭ":3814,"ĠÐ±Ð°ÑĥÑĭÑĢ":3815,"ĠÐ¶ÑĭÐ»Ð´ÑĭÒĵÑĭÐ½Ð°":3816,"Ð´ÐµÐ¹Ð´Ñĸ":3817,"ÑĤÐ°ÑĢÐ´Ð°":3818,"ĠÐ¼Ò±ÑģÑĭÐ»Ð¼Ð°Ð½":3819,"ÐµÐ´Ð¸ÑĤ":3820,"ĠÒĽÐ°Ð´Ð°ÒĵÐ°Ð»":3821,"ĠÑĤÐµÐ¼ÑĸÑĢ":3822,"Ð¾Ñĩ":3823,"Ð½ÑĭÐ¹":3824,"ÑĥÑħÐ°Ð½Ð¸":3825,"38":3826,"Ð¡Ðł":3827,"ÐµÐºÐµÐ½":3828,"Ð¢Ò¯ÑĢ":3829,"ĠÑĤÐ°ÑĢÐ°Ð¿ÑĭÐ½Ð°Ð½":3830,"ÐĺÐ¯":3831,"ĠÐºÓ©Ð·Ñĸ":3832,"ĠÐ¶Ð°ÑĢÑĤÑĭÐ¶ÑĭÐ»Ð´ÑĭÒĵÑĭÐ½Ð°":3833,"ĠÐ¾ÑĢÐ½ÑĭÐ½Ð°":3834,"ĠÑĤÒ¯ÑģÐµÐ´Ñĸ":3835,"ÒļÐ°Ð·Ð°ÒĽÑģÑĤÐ°Ð½Ð½ÑĭÒ£":3836,"ĠÐ´ÐµÑĢÐµÐºÑĤÐµÑĢ":3837,"ÑĤÑĸÐ·":3838,"ĠÐ¼ÓĻÑģÐµÐ»ÐµÑģÑĸ":3839,"ĠÐµÑĪÐºÑĸÐ¼":3840,"ĠÒĵÐ°ÑģÑĭÑĢÐ´ÑĭÒ£":3841,"Ð¿Ð¸Ñı":3842,"Ð´ÐµÐ´Ñĸ":3843,"ĠÑĢÐµÐ³":3844,"ĠÑģÐµÐ·ÑĸÐ¼":3845,"ĠÐ±Ð°ÑģÑĭÐ¿":3846,"ÐµÐ´i":3847,"ÑĭÒ£ÑĭÐ·ÒĵÐ°":3848,"ĠÒĽÐ¾ÑĢÒĵÐ°Ð»ÒĵÐ°Ð½":3849,"ĠÐ¸Ð½ÑģÑĤÐ¸ÑĤÑĥÑĤ":3850,"ĠÐ±Ð°ÒĽÑĭÑĤ":3851,"Ð»Ðµ":3852,"ĠÐ¼Ð°ÒĵÑĭÐ½":3853,"ĠÐ°ÑģÑĤ":3854,"39":3855,"ÒĴÐ«":3856,"ÒļÑĭÐ·":3857,"ĠÐ±Ð°ÑģÑĪÑĭÐ»":3858,"ĠÒļÐ°Ð·Ð°ÒĽÑģÑĤÐ°Ð½Ð´Ð°ÒĵÑĭ":3859,"ĠÐ¶Ð°Ð½ÑĭÐ½Ð´Ð°ÒĵÑĭ":3860,"ÑĸÑģÑĸÐ½":3861,"Ð½Ð´ÑĸÑĢ":3862,"ĠÐºÓ©Ð¼Ðµ":3863,"ÐĸÑĭÐ»":3864,"ĠÐ±Ð°ÒĵÐ°ÑģÑĭ":3865,"Ð³ÐµÐ´ÐµÐº":3866,"ĠÒĽÒ±ÒĽÑĭÒĽÑĤÐ°ÑĢ":3867,"ĠÐŀÐ¹":3868,"ĠÐ¶Ð¸Ð½Ð°ÒĵÑĭ":3869,"ÂŃÂŃ":3870,"ĠÑĤÓĻÑĢÑĤÑĸÐ±":3871,"Ð¾ÐºÑģ":3872,"im":3873,"ĠÐ±Ð°ÑģÑĭÐ»ÑĭÐ¼":3874,"ĠÒĽÐ¾ÑĢÑĪÐ°ÒĵÐ°Ð½":3875,"Ð¾ÑĢÑĤ":3876,"ĠÐ±Ð¸Ð»":3877,"ĠÒĽÐ°Ð¹ÑĢÐ°ÑĤ":3878,"ĠÐºÐ¼":3879,"ĠÐ¼Ð¸Ð½Ð¸ÑģÑĤÑĢÐ»ÑĸÐ³ÑĸÐ½ÑĸÒ£":3880,"ĠÐ¼ÐµÐºÐµÐ¼ÐµÑģÑĸÐ½ÑĸÒ£":3881,"ĠÐ¼Ð°ÑĤÐµÑĢÐ¸Ð°Ð»Ð´Ð°ÑĢ":3882,"ĠÑģÐµÑĢÑĸÐºÑĤÐµÑģ":3883,"ĠÐ·Ð¸ÑıÐ½":3884,"Ġ70":3885,"ÑĤÑĭÑĢÑĭÐ¿":3886,"ĠÐľÒ±Ð½Ð´Ð°Ð¹":3887,"ĠÐ²Ð¸Ð´ÐµÐ¾":3888,"Ð¸ÑıÒĵÐ°":3889,"Ð°Ð»Ñĥ":3890,"ÒļÐ°Ð»":3891,"ĠÐľÓĻ":3892,"ÐµÑĤÐ¸ÐºÐ°Ð»ÑĭÒĽ":3893,"ĠÐ±ÐµÑĢÐµ":3894,"Ð·Ð°":3895,"ÐĳÐ¾Ð»":3896,"48":3897,"ĠÐķÐºÑĸ":3898,"ĠÐ°Ð»ÑĭÐ½":3899,"ĠÓĻÐ·ÑĸÑĢÐ»ÐµÑĥ":3900,"Ð·Ñĭ":3901,"ÐĵÐĨ":3902,"ĠÑĤÒ±Ð¶ÑĭÑĢÑĭÐ¼":3903,"ĠÐ±ÑĸÐ·Ð³Ðµ":3904,"ĠÐ¿Ð¾ÑĪ":3905,"ĠÐ½ÐµÐ³Ðµ":3906,"ĠÐ¶Ð°Ð·Ð±Ð°":3907,"ĠÐ±Ð°Ð»Ð°Ð½Ñĭ":3908,"ĠÑĤÑĭÒĵ":3909,"ĠÐ¿Ð¾Ð»Ð¸ÑĨÐ¸Ñı":3910,"ĠÒĽÐ°Ð»ÑĭÐ¿ÑĤÐ°ÑģÑĤÑĭÑĢ":3911,"ĠÒļÐ¾ÑģÑĤÐ°Ð½Ð°Ð¹":3912,"ÑĭÐ¼Ñĭ":3913,"ĠÐ±Ó©Ð»Ñĥ":3914,"ĠÐ¼ÐµÐºÑĤÐµÐ±Ñĸ":3915,"ĠÑĤÐ¾Ð»ÑĭÒĽÑĤÑĭÑĢÑĥ":3916,"ĠÑĪÐ°ÑĪ":3917,"Ð»ÑĸÐºÐºÐµ":3918,"ĠÐ´ÐµÐ»":3919,"ĠÑĦÐ°ÐºÑĥÐ»ÑĮÑĤ":3920,"ÓĻÐ´Ñĸ":3921,"ÒĵÐ°Ð¼Ð±Ð°ÑĢ":3922,"ĠÐ°ÑĥÐ°":3923,"ĠÐ±ÐµÐ½":3924,"ĠÐ´Ð°ÑĢ":3925,"Ġ2010":3926,"ĠÒĽÐ°Ð·Ð°ÒĽÑĪÐ°":3927,"ĠÓ©Ð½ÐµÑĢÐºÓĻÑģÑĸÐ¿":3928,"ĠÑįÐºÐ¾Ð»Ð¾Ð³Ð¸ÑıÐ»ÑĭÒĽ":3929,"ĠÑĤÒ±Ð»ÒĵÐ°Ð»Ð°ÑĢÐ´Ñĭ":3930,"ĠÐ±Ð¾Ð»Ð°ÑĪ":3931,"Ð¼Ð°Ñĥ":3932,"ĠÐ½ÑĭÒĵ":3933,"Ð»Ð°ÑĢÑĭÐ½Ð°":3934,"ĠÑĤÑĢÐ°Ð½":3935,"ÑĥÑĢÐµÑĤ":3936,"ĠÐŀÒĵÐ°Ð½":3937,"Ð¶Ð°Ð¹Ñĭ":3938,"ĠÑĤÐ¸Ð³ÑĸÐ·":3939,"ĠÐ½Ó©Ð¼ÑĸÑĢ":3940,"et":3941,"ĠÐ¶Ð¾Ð¹":3942,"ÑĤÐµÑĢÐ¼ÐµÐ½":3943,"Ð±Ò±":3944,"ĠÐ¼Ò±ÒĵÐ°Ð»ÑĸÐ¼Ñĸ":3945,"ÑĢÐ°ÑĦ":3946,"ĠÐ¡Ð°Ð¹ÑĤ":3947,"ĠÑģÐ°Ð»ÑĭÐ½ÒĵÐ°Ð½":3948,"ÑĤÐµÐ¹":3949,"ĠÑĤÐ¾ÒĽÑģÐ°Ð½ÑĭÐ½Ð´Ð°":3950,"Ð¸Ð»ÑĮ":3951,"Ð¿ÐµÐ¹":3952,"ĠÐ¶Ð¾Ð»Ð°ÑĥÑĪÑĭÐ»Ð°ÑĢ":3953,"ĠÑģÓ©Ð¹Ð»":3954,"ÒĽÑĭÒĽÑĤÑĭÒĽ":3955,"ĠÐķÐ»Ð±Ð°ÑģÑĭ":3956,"ÑģÐ°Ð»":3957,"ĠÐ¼ÓĻÐ½Ñĸ":3958,"ÐļÐ¾Ð½":3959,"Ð»ÑĭÒĵÑĭÐ½Ð°":3960,"ÒĽÑĭÑĤÑĥ":3961,"ation":3962,"ĠÐºÑĸÑĢÑĸÑģ":3963,"!!":3964,"Ð±Ð°Ð»":3965,"ÑģÐ°Ð½":3966,"ĠÐ°ÑĪÑĭÐ»Ð´Ñĭ":3967,"ÑĸÐ¼ÑĸÐ·Ð´Ñĸ":3968,"ĠÐ¶Ò±Ð»Ð´ÑĭÐ·":3969,"ĠÐµÑģÐºÐµÑĢÑĤ":3970,"Ðºi":3971,"ĠÑĥÓĻÐºÑĸÐ»ÐµÑĤÑĤÑĸ":3972,"ĠÐ°Ð¶ÑĭÑĢ":3973,"ĠÐºÓĻÑģÑĸÐ¿ÐºÐµÑĢ":3974,"ÑĸÐ»ÑĸÐº":3975,"ÒĽÐ°Ð·Ð°ÒĽ":3976,"ĠÐ±ÑĸÑĤÑĸÑĢ":3977,"ĠÐ¼Ð°ÑĢÐ°Ð¿Ð°ÑĤ":3978,"ĠÐ±Ó©Ð»ÑĸÐ¼ÑĪ":3979,"Ð¿ÑĸÐ½":3980,"ĠÐ°Ð·Ð°Ð¼Ð°ÑĤ":3981,"ÑĤÓĻ":3982,"Ð°Ð±Ð¸Òĵ":3983,"ĠÐ°Ð¼Ð°Ð½":3984,"ĠÒĽÐ°Ð»Ð¿ÑĭÐ½Ð°":3985,"ĠÐºÐµÐ¿ÑĸÐ»":3986,"Ð·ÑĭÑĢ":3987,"ÐĸÐ°ÑĢ":3988,"ĠÐĳÐ¾Ð»":3989,"ÐĶÐµÐ½":3990,"ĠÑģÐ°Ð¿Ð°ÑĢ":3991,"ĠÓ©ÑĤÐµÑĤÑĸÐ½":3992,"ÓĻÑģÑĤ":3993,"ĠÐ±ÐµÑĢÑĥÑĪÑĸ":3994,"ĠÐ±Ó©Ð»ÐµÐº":3995,"ĠÐºÑĸÑĤÐ°Ð¿ÑħÐ°Ð½":3996,"ĠÐ¼ÐµÑħÐ°Ð½":3997,"ĠÐ±ÑĸÐ»ÑĸÐ¼Ð´Ñĸ":3998,"ĠÒļÒ±ÑĢÐ¼Ð°Ð½ÒĵÐ°Ð·Ñĭ":3999,"ÐĳÐ¸":4000,"ÑĢÐµÐ·ÐµÐ½":4001,"ĠÐ¾ÑĤÑĭÑĢÐ°Ð´Ñĭ":4002,"ĠÐ·ÐµÑĢ":4003,"ÑĥÐ¼ÐµÐ½":4004,"ĠÐ¿ÓĻÐ½Ñĸ":4005,"46":4006,"ĠÒĽÐ°ÑĤÑĭÐ½Ð°ÑģÑĤÐ°ÑĢ":4007,"âĢĿ,":4008,"ĠÐµÑģÐºÐµ":4009,"Ð±ÐµÐ»ÑĸÐº":4010,"ĠÐľÓĻÐ´ÐµÐ½Ð¸ÐµÑĤ":4011,"ÑĤÒĽÐ°Ð½":4012,"ĠÓ©ÑĢÑĤ":4013,"ÐľÐµÐ½ÑĸÒ£":4014,"ĠÐ±ÑĸÑĢÐ´ÐµÐ½":4015,"ĠÐĸÐ°Ð¼Ð±ÑĭÐ»":4016,"ĠÐºÐ»ÑĥÐ±":4017,"ĠÑĤÒ±ÑĢÒĵÑĭÐ½Ð´Ð°ÑĢÐ´Ñĭ":4018,"ĠÑĤÐ¾Ð±Ñĭ":4019,"Ð°ÑģÑĭÐ¿":4020,"Ð°ÑģÐ¸ÑħÐ°ÑĤ":4021,"ÑĤÐµÐ½ÑĪÐµ":4022,"ĠÒĽÐ¾Ð¹Ð´Ñĭ":4023,"ĠÑįÐ»ÐµÐ¼ÐµÐ½ÑĤ":4024,"un":4025,"ĠÒĽÑĭÐ·Ð¼ÐµÑĤÐºÐµÑĢÐ»ÐµÑĢÑĸ":4026,"Ð°ÑĪÐ°ÑĢ":4027,"ÑĪi":4028,"ĠÐ°ÑĥÐ¼Ð°ÒĵÑĭÐ½Ð´Ð°":4029,"ĠÐ¸Ð½Ð´ÑĥÑģÑĤÑĢ":4030,"ĠÐ¶Ð°ÑģÐ°Ð´Ñĭ":4031,"ĠÐ¿Ð°":4032,"ÒĽÑĭÐ·Ñĭ":4033,"ĠH":4034,"ĠÑĪÐ°ÒĵÑĭÐ¼":4035,"ĠÐ¶Ð°ÑĤÑĤÑĭÒĵÑĥ":4036,"ĠÑĪÑĭÑĢ":4037,"Ð°Ð½Ð´Ð¸Ð´Ð°":4038,"ĠÐ±ÑĸÑĢÒĽÐ°ÑĤÐ°ÑĢ":4039,"ÑģÐµÐ¼":4040,"ĠÐºÐ¾Ð»Ð»ÐµÐ´Ð¶":4041,"ĠÑĦÐ¾ÑĢÑĥÐ¼":4042,"ÑĭÑģÑĤÐ°Ð½":4043,"ÑĸÑĤÐ°Ð¿":4044,"ĠÑĤÐµÑģÑĤ":4045,"ĠÐ±Ð¾Ð»Ð¼Ð°ÑģÐ°":4046,"77":4047,"ÐµÐ»ÐµÑĢÐ´ÑĸÒ£":4048,"ĠÐķÑĥÑĢÐ¾Ð¿Ð°":4049,"ĠÐ¼Ò¯Ð´Ð´Ðµ":4050,"ĠÐ°Ð»ÒĵÐ°Ð½Ð´Ð°":4051,"ĠÐ°ÑĥÐ´":4052,"ĠÐºÐ¾Ð¼Ð¿ÑĮÑİÑĤÐµÑĢ":4053,"ĠÐ¸Ð³Ñĸ":4054,"ĠÐµÑĤÑĥÐ³Ðµ":4055,"ÑĸÐ·Ð´Ñĸ":4056,"ĠÑįÐ»ÐµÐºÑĤÑĢÐ¾Ð½Ð´Ñĭ":4057,"ĠÐºÐ°Ð·Ð°ÑħÑģÐº":4058,"ĠÑĤÐ°ÑĥÑĭÐ¿":4059,"Ð°ÑĤÒĽÐ°Ð½":4060,"Ð»Ð°Ð´Ñĭ":4061,"ĠÐ´Ð°Ð»":4062,"ĠÐ±Ó©Ð»ÑĸÐ½ÐµÐ´Ñĸ":4063,"Ð±ÑĸÑĤ":4064,"ÐµÐ¼ÑĮÐµÑĢ":4065,"ĠÐ¯ÒĵÐ½Ð¸":4066,"ĠÐ¿ÑĢÐµÐ·Ð¸Ð´ÐµÐ½ÑĤ":4067,"Ð°Ð»Ð°ÑĢÑĭÐ½Ð´Ð°":4068,"ĠÓĻÐ´ÑĸÑģÑĸ":4069,"ĠÐ´Ð¸Ñģ":4070,"ĠÓ©Ð½Ð´ÑĸÑĢÑĸÑģÑĤÑĸÐº":4071,"ÐĳÐ°Ð»Ð°Ð»Ð°ÑĢ":4072,"ĠÐĶÐµÐ½ÑģÐ°ÑĥÐ»ÑĭÒĽ":4073,"49":4074,"ĠÐ±Ð°ÑģÑĭÐ½Ð´Ð°":4075,"ĠÐļÐ¾ÑĢ":4076,"Ó©Ð½ÐµÑĢ":4077,"ĠÓĻÐ»Ð´Ðµ":4078,"ĠÒĽÐ¾Ð¹ÑĭÐ¿":4079,"ĠÐĲÐ·":4080,"ÑĭÐ¼Ð°":4081,"ĠÐ¢Ð°Ð»":4082,"ĠÐĸÐ°ÒĽ":4083,"ĠÐ¿ÑĢÐ¾ÐºÑĥÑĢÐ°ÑĤÑĥÑĢ":4084,"ĠÐĳÐµÑĢ":4085,"ÐºÐ¾Ð¼Ð¼":4086,"ÐĲÒĽÑĤÓ©Ð±Ðµ":4087,"ĠÐ¶Ð°Ð·ÒĵÐ°Ð½":4088,"ÐĳÐ°ÑģÑĤÑĭ":4089,"Ó©ÑģÐ¿":4090,"ĠÑĤÐµÑĢÐ¼Ð¸Ð½":4091,"ÐºÐ¸Ð½":4092,"ĠÐ°ÑĢÑħ":4093,"ÐµÐ»ÐµÐ³ÐµÐ½":4094,"ĠÐ¾ÑĢÐ³Ð°Ð½Ð´Ð°ÑĢÐ´ÑĭÒ£":4095,"Ġ#":4096,"ĠÒĽÐ¾Ð»ÒĵÐ°":4097,"ĠÐ¿Ðµ":4098,"ÐĶÐķ":4099,"ĠÐ½Ð°ÑĢÑĭÒĽ":4100,"ĠÑĤÐ°Ð·Ð°":4101,"ĠÐļÓ©Ð¿":4102,"ÐºÐµÑĢÑĸ":4103,"ĠÐ¼ÐµÒ£Ð³ÐµÑĢÑĥ":4104,"ĠÑĤÐ¾ÑĢ":4105,"ĠÐºÐ¾Ð¼Ð¼ÐµÑĢ":4106,"ĠÐ¶Ð¾ÒĵÐ°ÑĢÒĵÑĭ":4107,"ĠR":4108,"Ò±Ð»Ñĥ":4109,"ĠÑģÐ°Ð¿Ð°Ð»Ñĭ":4110,"ÑĪÑĸÑĤ":4111,"ĠÐ°ÑģÑĤÐ°Ð½":4112,"Ð½Ð¾ÑģÑĤ":4113,"ĠÒĽÐ°ÑĢÑĭÐ·":4114,"ĠÉĻ":4115,"ĠÑģÐ¾Ð½Ð´ÑĭÒĽÑĤÐ°Ð½":4116,"ÐĸÐ°Ò£":4117,"ĠÒĽÐ°Ð¹ÑĭÑĢ":4118,"ĠÐ±Ð°ÒĽ":4119,"ĠÐ±Ð°ÑģÒĽ":4120,"ĠÐ»Ð¸ÑĨÐµÐ½":4121,"ÐĳÐ°ÑĢÐ»ÑĭÒĽ":4122,"ĠÑĤÓ©Ð»":4123,"ÐĲÐ²":4124,"ĠÐºÐ¾Ð¼Ð¸ÑĤÐµÑĤÑĸÐ½ÑĸÒ£":4125,"ĠÐ±Ð¾ÑģÑĤÐ°Ð½":4126,"Ð°ÑħÐ¼ÐµÑĤ":4127,"ÐµÐºÑĨÐ¸Ñı":4128,"ĠÐĳÐ°ÑĢ":4129,"ĠÑģÐµÐ½ÑĸÐ¼Ð´Ñĸ":4130,"ĠÒĽÒ±ÑĢÐ°Ð¼ÑĭÐ½Ð°":4131,"ĠÐ¶Ò¯Ð¹Ðµ":4132,"ĠÐ±Ð°ÑĢÐ°":4133,"ĠÐ¾ÑĢÑĭÐ½Ð±Ð°ÑģÐ°ÑĢ":4134,"ĠÑĪÐµÒ£Ð±ÐµÑĢÑĸÐ½Ð´Ðµ":4135,"ĠÐ±Ð»":4136,"ĠÐ½Ð°ÑĥÒĽÐ°Ñģ":4137,"ĠÒĽÐ¾ÑģÑĥ":4138,"ÑĸÑģÑĸÐ½ÑĸÒ£":4139,"Ó©ÑģÐ¿ÑĸÑĢ":4140,"ĠÐ°ÑĤÐ°Ð»Ð°Ð´Ñĭ":4141,"ÒļÐ¾ÑĢ":4142,"ĠÐ¶ÑĭÐ½":4143,"ĠÐºÒ¯Ð½Ð½ÐµÐ½":4144,"Ð¼Ð°Ð»":4145,"ĠÐŀÐ½Ñĭ":4146,"ĠÒĽÐ°ÑĢÐ°Ð¿Ð°Ð¹ÑĭÐ¼":4147,"Ð³ÐµÑĢÑĸ":4148,"ĠÐ·Ð°ÑĢ":4149,"ĠÑĤÒ¯ÑĢÑĸÐ½Ð´Ðµ":4150,"ĠÐ¿ÑĢÐµÐ·Ð¸Ð´ÐµÐ½ÑĤÑĸ":4151,"it":4152,"ÑĤÐµÐº":4153,"ĠÑĤÐ°Ð½Ñĥ":4154,"65":4155,"ĠÐµÐºÐµÑĥ":4156,"ĠÐ¼ÐµÐºÑĤÐµÐ¿ÐºÐµ":4157,"Ð´Ð°ÑģÑĤÑĭÑĢÑĥ":4158,"ĠÑģÐ°Ð»ÑĤÐ°Ð½":4159,"Ð»Ð¸Ð½":4160,"ĠÐ´ÐµÒ£Ð³ÐµÐ¹Ð´Ðµ":4161,"ÑģÑĭÐ»Ð°Ð¹ÑĪÐ°":4162,"ĠÐ¡Ð¾Ð»ÑĤÒ¯ÑģÑĤÑĸÐº":4163,"ĠÐºÓ©ÑĢÑĸÐ½ÐµÐ´Ñĸ":4164,"ĠÐºÐ¸ÑĸÐ¼":4165,"ĠÒĽÐ°Ð½ÑĪÐ°":4166,"Ð°Ð±Ð¸":4167,"Ò£ÑĭÐ·":4168,"ĠÐ¶Ó©Ð½Ð´ÐµÑĥ":4169,"ĠÑĦÑĥÑĤÐ±Ð¾Ð»":4170,"ĠÐ¿Ð°Ð¹Ð´Ð°Ð»Ñĭ":4171,"ÑĤÒĽÐ°ÑĢ":4172,"ÐĲÐ·Ð°Ð¼Ð°ÑĤÑĤÐ°ÑĢÒĵÐ°":4173,"Ð³ÑĸÐ¼ÐµÐ½":4174,"ĠÐ¶ÐµÑĤÐºÑĸ":4175,"www":4176,"ĠÐºÒ¯Ð·":4177,"ĠÐŁÑĢÐµÐ·Ð¸Ð´ÐµÐ½ÑĤÑĸÐ½ÑĸÒ£":4178,"ĠÒ¯Ð¹ÑĢÐµÑĤÑĥ":4179,"Ð¶ÑĭÐ¼Ð°Ð¹ÑĤÑĭÐ½":4180,"ĠÐºÐ°Ð·Ð°ÑħÑģÐºÐ¾Ð¼":4181,"ĠÐºÐµÐ´ÐµÑĢ":4182,"31":4183,"ĠÐ±ÑĸÑĢÑĸÐº":4184,"ĠÓ©Ð·Ð³ÐµÑĢÑĤÑĥ":4185,"mail":4186,"ÑģÑĥ":4187,"ĠÒĽÐ°Ð»Ð°ÑģÑĭÐ½Ð´Ð°ÒĵÑĭ":4188,"ĠÐ¡ÐµÐ¼ÐµÐ¹":4189,"Ð°Ð»Ð°ÑĢÑĭÐ½Ð°":4190,"ĠÐ´Ð°Ð¼ÑĭÑĤÑĥÒĵÐ°":4191,"ĠÒĽÐ°Ð¼ÑĤÐ¸":4192,"ĠÑįÑĤÐ½":4193,"ÑĪÑĭÐ»Ð°ÑĢÑĭ":4194,"ĠÑĤÑĭÒĵÑĭÐ·":4195,"ĠÐ¶ÐµÒ£ÑĸÐ¼":4196,"ĠÐ°Ð¹ÑĤÑĭÐ»ÒĵÐ°Ð½":4197,"iÐ»iÐº":4198,"ĠÐºÓ©ÑĢÑģ":4199,"ic":4200,"ĠÐºÐµÑĢÑĸ":4201,"ĠÐ±ÐµÐºÑĸÑĤÑĸÐ»Ð³ÐµÐ½":4202,"ÐĨÐľ":4203,"Ð°Ð¼Ñĭ":4204,"Ð¶Ð°Ñģ":4205,"ĠÑĥÐ½Ð¸Ð²ÐµÑĢÑģÐ¸ÑĤÐµÑĤÑĸ":4206,"ĠÐ°ÑĪÑĭÐ¿":4207,"Ð¶Ð°ÑĤ":4208,"ĠÐ¶Ð°ÒĵÐ´Ð°Ð¹Ð»Ð°ÑĢÐ´Ð°":4209,"ĠÑģÐµÐ¼Ð¸Ð½Ð°ÑĢ":4210,"ĠÐºÑĥÑĢ":4211,"Ð»Ð°ÑĤ":4212,"ĠÑģÐ°Ð»ÑĤ":4213,"ĠÐ¶Ð°Ò£ÒĵÑĭÑĢ":4214,"Ð°Ð½ÒĵÐ°Ð½":4215,"ĠÓĻÑģÑĸÑĢÐµÑģÐµ":4216,"ĠÐ°ÑģÑĭÑĢÐ°ÑĤÑĭÐ½":4217,"ĠÐ¿Ð¾ÑĢÑĤÐ°Ð»Ñĭ":4218,"ĠÐºÐ°Ð½Ð´Ð¸Ð´Ð°":4219,"ĠÒĽÒ±ÑĢÐ°Ð¼Ñĭ":4220,"ĠÓ©Ð»ÑĸÐ¼":4221,"ĠÐļÓ©Ðº":4222,"ÑĢÐµÑģ":4223,"Ð¾Ð»Ñİ":4224,"Ð¼Ð°Ð¹ÑĤÑĭÐ½":4225,"ÑĸÐ½Ð³ÐµÐ½":4226,"Ð³ÑĸÑĪ":4227,"ĠÑĪÐµÐ±ÐµÑĢ":4228,"ĠÑĪÐ°ÑĢÑĤÑĭ":4229,"ĠÐ¢Ó©ÑĢ":4230,"Ò°Ð»ÑĤÑĤÑĭÒĽ":4231,"Ð±Ñĥ":4232,"Ð¶ÐµÑĤÑĸÐ¼Ð´Ñĸ":4233,"ÑĤÑĸÐ¼":4234,"ÓĻÐºÑĸÑĢ":4235,"ĠÓ©ÑĢÐºÐµÐ½":4236,"ĠÐ¾ÑĢÑĤÐ°Ð½Ñĭ":4237,"ÐµÑĤÑĸÐ½Ðµ":4238,"ĠÐ³ÑĢÐ°Ð½":4239,"Ð¿Ð¾ÑĢÑĤÑĤÑĭÒĽ":4240,"ÑģÓ©Ð·":4241,"ĠÓĻÐºÑĸÐ¼Ð´ÑĸÐ³Ñĸ":4242,"ÐĲÐĹÐĲÒļ":4243,"ĠÒĽÒ±Ð·ÑĭÑĢ":4244,"Ð´Ð°Ð¼Ð°":4245,"com":4246,"ĠÒ¯Ð¹Ð»ÐµÑģÑĤÑĸÑĢÑĥ":4247,"Ð´ÐµÐ±Ð¸":4248,"ĠÒĽÑĭÐ¼ÑĭÐ·":4249,"ĠÒļÐ°Ð·Ð°ÒĽÑĪÐ°":4250,"ĠÐ±Ð°ÑģÑĤÐ°Ð¼":4251,"Ð¶ÐµÐ½":4252,"ĠÑĤÐµÑħÐ½Ð¾Ð»Ð¾Ð³Ð¸ÑıÐ»Ð°ÑĢ":4253,"ÑĸÒ£ÑĸÐ·Ð´Ñĸ":4254,"Ð´Ð°ÑĢÑĭÐ¼ÐµÐ½":4255,"ÐµÑĤiÐ½":4256,"ĠÒĽÐ¾ÑĢÑĭÑĤÑĭÐ½Ð´ÑĭÐ»Ð°ÑĢÑĭ":4257,"ÑĩÐ°ÑĤÑĮ":4258,"Ð°Ð¼Ð¼":4259,"89":4260,"05":4261,"ÑĪÐ°Ð»ÑĭÒĽ":4262,"ĠÐ´ÐµÒ£Ð³ÐµÐ¹Ñĸ":4263,"Ð»ÑĸÐ³ÑĸÐ½Ð´Ðµ":4264,"ĠÐľÓĻÑģÐºÐµÑĥ":4265,"ĠÑĤÑĸÑĢÐºÐµÐ»":4266,"ĠÑĤÑĭÑĢÑĭÑģ":4267,"ĠÐ°ÑĢÒĽÐ°ÑģÑĭÐ½Ð´Ð°":4268,"ĠÐºÒ¯Ð½ÑĤÑĸÐ·":4269,"Ð¡ÐŁ":4270,"Ð¡Ð¾Ò£ÒĵÑĭ":4271,"ÒĵÑĭÐ½Ð´Ð°":4272,"ĠÐľÐµÐ½ÑĸÒ£":4273,"Ó©Ò£Ð³ÐµÐ»":4274,"ĠÐµÒ£Ð±Ðµ":4275,"ĠÑĤÐ¾ÒĽÑģÐ°Ð½ÑĭÐ½Ð°":4276,"ÑĢÐµÐ·ÐµÐ½ÑĤÐ°ÑĨÐ¸Ñı":4277,"ÑĭÐ¼ÑĪ":4278,"ĠÐ²Ð°Ð»Ñİ":4279,"Ð°Ð½Ð¾Ð²":4280,"ĠÐ¶ÐµÑĤÑĤÑĸ":4281,"ÒĵÑĭÐ»Ð°ÑĢ":4282,"ÑĥÐ´ÑĸÒ£":4283,"ĠÑĦÐ¸Ð»ÑĮÐ¼":4284,"Ð°ÑĢÑĭÑĪ":4285,"ÑģÑĭÐ¼ÐµÐ½":4286,"ÐļÓ©ÑĢ":4287,"ĠÐ±Ð¾Ð»Ð¼Ð°ÒĵÐ°Ð½":4288,"ĠÓĺÐ´Ñĸ":4289,"ĠÐºÑĸÑĪ":4290,"ĠÑĤÐ°ÑĢÐ¼Ð°ÒĽ":4291,"ĠÐ¶Ò±Ð¼Ñģ":4292,"ĠÐļÓĻÑģÑĸÐ¿":4293,"ÑĥÐ´Ñĸ":4294,"ĠÐ¾ÑĢÑĤÐ°ÑĪÐ°":4295,"ĠÑģÓ©Ð¹Ð»ÐµÐ¼":4296,"ĠÐ°Ð»ÒĽ":4297,"Ð´ÑĭÒĽÒĽÐ°":4298,"ĠÐ½ÐµÑģÐ¸Ðµ":4299,"Ð¢Ð°ÒĽÑĭÑĢ":4300,"ĠÑĸÑģÑĤÐµÐ¹Ð´Ñĸ":4301,"ĠÐµÑģÐµÐ¿ÑĤÐµÑĥ":4302,"ĠÐºÐµÐ·ÐµÒ£Ð´Ðµ":4303,"ĠÑĤÐ°Ð½ÑĭÐ¼Ð°Ð»":4304,"ÐĲÐĽÐ«Òļ":4305,"ĠÒĽÐ¾Ð¹ÑĭÐ»ÒĵÐ°Ð½":4306,"ĠÒĽÐ°Ð»Ð°Ð´Ñĭ":4307,"ĠÑģÓ©Ð·Ñĸ":4308,"Ð°ÒĵÑĭÐ·":4309,"ĠÐ¾ÑĢÑĤÐ°Ð»ÑĭÒĵÑĭÐ½Ð´Ð°":4310,"ÐµÑĢÐ¼Ð°Ð½":4311,"ĠÐµÐ´ÑĸÐ¼":4312,"ÑĸÑģÐºÐµ":4313,"ĠÒ¯ÑĪiÐ½":4314,"ÑĤÐ¾ÑĢÑĭ":4315,"ĠÐºÒ¯Ð½Ð´ÐµÑĢÑĸ":4316,"ĠÐ³Ò¯Ð»":4317,"ĠÒĽÒ±Ð½Ñĭ":4318,"ĠÐ¶Ð°Ð»ÒĵÑĭÐ·":4319,"ĠÑĪÑĭÐ½ÑĭÒĽÑĤÑĭÑĢÑĥ":4320,"ĠÐļÐ°Ð·":4321,"Ð¾ÐºÑĢÐ°ÑĤ":4322,"ÒļÒ±ÑĢÐ¼Ð°Ð½ÒĵÐ°Ð·Ñĭ":4323,"ĠII":4324,"Ð³ÐµÑĢÑĪÑĸÐ»ÑĸÐº":4325,"ĠÑĤÐ°Ð¼ÑĭÑĢ":4326,"Ð¡Ð¢ÐĲÐĿ":4327,"ĠÓ©ÑĤÐºÑĸÐ·ÑĸÐ»Ð´Ñĸ":4328,"ĠÑĪÒ±":4329,"ĠÐºÒ¯Ð¼":4330,"ĠÐ¾Ð·":4331,"ĠV":4332,"ÑĥÑĭÐ»":4333,"ÑĤÐ°Ð¹ÑĤÑĭÐ½":4334,"ÐĳÐ°ÑģÒĽÐ°":4335,"ÐµÐ´Ð¸ÑĨÐ¸Ð½":4336,"ĠÑħÐ°Ð»ÑĭÒĽÒĽÐ°":4337,"ĠÒĽÒ±ÑĢÑĭÐ»ÑĭÐ¼Ñĭ":4338,"ĠÐĳÐ°Ð»Ð°Ð»Ð°ÑĢ":4339,"ĠÐ¶Ð°Ð¼Ð°Ð½":4340,"ĠÐ½ÐµÐ³ÑĸÐ·Ñĸ":4341,"ĠÒĽÐ°ÑĢÐ°Ð¼Ð°ÑģÑĤÐ°Ð½":4342,"ĠÐ¼Ð°Ð³":4343,"ÐºÐ°ÑĩÐ°ÑĤÑĮ":4344,"Ð¸ÐºÐ»":4345,"ÑĤÐ¾ÑĢÐ»ÑĭÒĽ":4346,"ĠÐ´Ð¾Ðº":4347,"ĠÐ°Ð½ÑĭÒĽÑĤÐ°Ð¼":4348,"ĠÐĲÑĥÑĭÐ»":4349,"ĠÐ½ÐµÐ¼":4350,"ĠÑĤÐ°ÒĵÐ°Ð¹ÑĭÐ½Ð´Ð°Ñĥ":4351,"ÐºÑĸÐ»Ñĸ":4352,"Ð°ÑıÑĥ":4353,"Ð½ÑĭÐµ":4354,"ĠÐºÐ¾Ð´ÐµÐºÑģ":4355,"ĠÑĦÐ¸Ð»Ð¾ÑģÐ¾ÑĦ":4356,"ĠÐĲÑħÐ¼ÐµÑĤ":4357,"Ð¢Ð°ÑĢÐ¸Ñħ":4358,"Ð«ÐĹ":4359,"ĠÒ±ÑģÑĭÐ½Ñĥ":4360,"Ð¸Ð¿ÐµÐ´":4361,"ĠÐ´ÐµÒ£Ð³ÐµÐ¹ÑĸÐ½":4362,"ĠÐļÐµÐ¹":4363,"ÐĳÒ±":4364,"ĠÐ±ÑĸÐ»Ð´ÑĸÑĢÐµÐ´Ñĸ":4365,"ĠÑħÐ°Ð»ÒĽÑĭÐ½Ð°":4366,"ĠÐĿÐ°ÑĥÑĢÑĭÐ·":4367,"ĠÐłÐµÑģÐ¿ÑĥÐ±Ð»Ð¸ÐºÐ°Ð»ÑĭÒĽ":4368,"ÑĤÐ¾Ð½":4369,"ĠÓĺÑģ":4370,"ĠÑĤÐ°ÑģÑĭÐ¼Ð°Ð»Ð´Ð°Ñĥ":4371,"Ð°ÑĢÐ¼Ð°":4372,"ÓĺÐ»ÐµÑĥÐ¼ÐµÑĤÑĤÑĸÐº":4373,"ĠÑĤÑĸÐ»ÐµÐº":4374,"ĠÐŀÒĽÑĥÑĪÑĭÐ»Ð°ÑĢ":4375,"Ð°Ð¹Ð»Ð°Ð½ÑĭÑģ":4376,"ĠÐĲÐ·Ð°Ð¼":4377,"ĠÑģÐ¾ÒĽ":4378,"ĠÐ¼ÐµÐºÑĤÐµÐ¿ÑĤÐµÑĢ":4379,"ĠÑĤÐ°Ð¹":4380,"ĠÒ¯Ð½ÐµÐ¼Ñĸ":4381,"ÑģÑĭÐ»ÑĭÒĽ":4382,"ĠÐĿÐ°Ð·Ð°ÑĢÐ±Ð°ÐµÐ²ÑĤÑĭÒ£":4383,"ĠÑĪÐ°ÑĢÑĤÑĤÐ°ÑĢ":4384,"86":4385,"ĠÑĢÓ©Ð»":4386,"Ð»ÑĸÐºÑĤÐµÑĢ":4387,"ĠÑĤÐ¾ÒĽÑĤ":4388,"Ð°ÑĥÑĭÑĤ":4389,"ĠÐ¶ÐµÐ»ÑĸÑģ":4390,"ĠÐ³Ð¸Ð¿":4391,"Ð´ÑĭÒ£ÒĵÑĭ":4392,"ÐµÐ³ÐµÐ¹":4393,"ĠÐ¾ÒĽÑĥÒĵÐ°":4394,"ÐºÐ¾Ð½Ð¾Ð¼Ð¸ÐºÐ°":4395,"ĠÐ¼Ð¸Ð½Ð¸ÑģÑĤÑĢÑĸ":4396,"ĠÐ°ÒĵÐ°":4397,"ĠâĢ¢":4398,"ĠÑģÐ°Ð»Ð°ÑģÑĭ":4399,"ÑĤÐ°ÑĥÑĭÑĪ":4400,"ĠÐ¾Ð¹Ð»Ð°Ð¹":4401,"ews":4402,"ĠÑĤÐ°Ð¿ÑģÑĭÑĢÐ¼Ð°":4403,"ĠÐ¾Ð½Ð»Ð°Ð¹Ð½":4404,"ĠÒĽÑĭÐ·Ð¼ÐµÑĤÑĸÐ½Ðµ":4405,"ĠÐĺÑģÐ»Ð°Ð¼":4406,"ĠÐ±ÑİÐ´Ð¶ÐµÑĤÑĤÑĸÐº":4407,"ĠÐ¸ÐµÑģÑĸ":4408,"ĠÑĤÒ±ÑĢÒĵÑĭÐ´Ð°Ð½":4409,"ÑĸÐ½Ð´Ñĸ":4410,"Ð°ÑĨÐ¸ÑıÑģÑĭ":4411,"Ð±Ò±Ð»":4412,"ĠÐ±ÑĸÐ»ÑĥÐ³Ðµ":4413,"ĠÐĸÐ°Ð·":4414,"ĠÐ²ÐµÑĤÐµÑĢÐ¸Ð½Ð°ÑĢ":4415,"ĠÑģÓ©Ð¹Ð»ÐµÑĥ":4416,"ÑĪÐ°Ð¼Ð°":4417,"ĠÐ¼Ò¯ÑĪÐµÑģÑĸ":4418,"is":4419,"Ð¿ÐµÑĢÐ°ÑĤÑĥÑĢ":4420,"ĠÐ¿ÑĢÐ¾Ð³ÑĢ":4421,"ĠÐ°Ð»ÒĵÑĭÑģ":4422,"ĠÑĤÐ¾Ð¿ÒĽÐ°":4423,"Ð»Ð¸":4424,"ĠÐºÐµÐ´ÐµÑĢÐ³Ñĸ":4425,"ÑĤÐ¾Ð¿":4426,"ĠÐ¡Ó©Ð¹":4427,"Ñŀ":4428,"Ð¢Ò±ÑĢ":4429,"Ð°ÑĥÐ¸":4430,"ĠÐ´Ð°Ð¼ÑĥÑĭÐ½ÑĭÒ£":4431,"ĠÐ¢Ò¯ÑĢÐº":4432,"ĠÐµÑĤÐµ":4433,"ĠÐ±Ð°Ð»Ð°ÑģÑĭ":4434,"33":4435,"Ð¸ÑģÑģ":4436,"ÑĪÑĸÐ»":4437,"Ð¾ÑģÑĤ":4438,"ĠÑģÐ°Ð½Ð°Ð»Ð°Ð´Ñĭ":4439,"ĠÐ¿ÑĢÐ¸Ð½":4440,"Ð¸ÐµÑĤ":4441,"ÑĭÑĢÐ¼Ð°Ð½":4442,"https":4443,"ĠÑĪÐ°ÒĽ":4444,"ÑĭÑĢÐ°Ñĥ":4445,"ÐłÑĥÑħÐ°Ð½Ð¸":4446,"ÐľÐĶ":4447,"ĠÐºÐ¾Ð¼Ð¼ÐµÑĢÑĨÐ¸ÑıÐ»ÑĭÒĽ":4448,"ĠÒĽÒ±Ð¹":4449,"ĠÐ´ÐµÐ¿Ð°ÑĢÑĤÐ°Ð¼ÐµÐ½ÑĤÑĸ":4450,"ĠÐĸÐŀ":4451,"ÐµÑģÑĸÐ½Ð´ÐµÐ³Ñĸ":4452,"ĠÒĽÐ¾Ð»Ð´Ð°Ð½ÑĭÑģÒĽÐ°":4453,"Ġ2009":4454,"el":4455,"ĠÐ½Ð°ÑģÐ¸ÑħÐ°ÑĤ":4456,"ÐµÐ¼ÑĸÑĢ":4457,"ĠÒ±Ð¹ÑĭÐ¼Ð´Ð°ÑĢ":4458,"ĠÐ¤ÑĢÐ°Ð½":4459,"ĠÑģÐ°ÒĽÑĤÐ°Ð»":4460,"ĠÐ¶Ð°Ò£Ð°Ð»ÑĭÒĽÑĤÐ°ÑĢÑĭ":4461,"ĠÑĤÑĸÐ·ÑĸÐ¼":4462,"Ð¸Ð¼Ð¿Ð¸Ð°Ð´Ð°":4463,"ĠÐĳÐ°Ð½Ðº":4464,"ĠÐ¾ÒĽÐ¸ÒĵÐ°":4465,"ĠÓĻÐ´ÑĸÑģÑĤÐµÐ¼ÐµÐ»ÑĸÐº":4466,"ĠÐ°ÑĢÐ¼Ð°Ð½":4467,"ĠÐ¼Ò±ÒĽ":4468,"ÑĤÐµÐ»Ð³ÐµÐ½":4469,"ĠÑĤÐ°Ð±ÑĭÐ»Ð°ÑĤÑĭÐ½":4470,"ÐĲÐ±Ð°Ð¹":4471,"ÐµÑĤÐ¸ÐºÐ°":4472,"ĠÐ¶ÑĭÐ»Ð´Ð°":4473,"ĠÐ¿ÓĻÐ½ÑĸÐ½ÐµÐ½":4474,"ĠÒĽÐ¾ÒĵÐ°Ð¼Ð½ÑĭÒ£":4475,"Ð¼Ð°Ñģ":4476,"Ġ31":4477,"ĠÑģÐ¸Ð½":4478,"ÐĲÒ¢":4479,"ĠÑĤÑĥÑĢÐ¸Ð·Ð¼":4480,"ĠÒĽÒ±ÑĢÐ°Ð´Ñĭ":4481,"ĠÐ¼ÐµÑĢÐ·ÑĸÐ¼Ñĸ":4482,"ĠÓ©Ð½ÑĸÐ¼Ð´Ñĸ":4483,"ĠÑĤÐµÑĢÑĢ":4484,"Ð»Ð°Ñģ":4485,"ĠÐ¡ÑĭÐ±Ð°Ð¹Ð»Ð°Ñģ":4486,"ĠÑģÓĻÑĥÐ»ÐµÑĤ":4487,"ĠÐ¡Ð¾Ð½Ð´Ð°":4488,"ÐĺÐļ":4489,"ÑĪÑĸÐ»ÐµÑĢÑĸ":4490,"ĠÒĽÐ¾Ð»Ð¶ÐµÑĤÑĸÐ¼Ð´Ñĸ":4491,"ĠÐ¾ÑĢÐ³Ð°Ð½Ð´Ð°ÑĢÑĭ":4492,"ÑĥÐµÐ·":4493,"ĠÐ°ÑĤÐ°ÑĥÑĭ":4494,"Ð¼ÓĻ":4495,"Ð°ÑĤÑĤÐ°ÑĢÑĭÐ½ÑĭÒ£":4496,"ĠÐ°ÑĥÑĭÑģÑĤÑĭÑĢ":4497,"Ð´Ð°Ð½Ð´ÑĭÑĢÑĥ":4498,"Ð¸ÑıÐ»Ð°ÑĢ":4499,"ĠÒĽÑĭÐ¼":4500,"ĠÐ±ÑĢ":4501,"ÑĨÐµÐ½":4502,"ÐµÑħÐ½":4503,"ÐºÓ©ÑĢ":4504,"ĠÑģÐµÑĢÑĤÐ¸ÑĦÐ¸Ðº":4505,"ĠÐĲÒĽÐ¿Ð°ÑĢÐ°ÑĤ":4506,"ĠÐ¼Ð°Ð·Ð¼Ò±Ð½Ñĭ":4507,"ĠÐµÑģÐµÐ±ÑĸÐ½ÐµÐ½":4508,"ĠÒĽÐ°Ð¼ÒĽÐ¾ÑĢ":4509,"ĠÓ©Ð·Ð´ÐµÑĢÑĸÐ½ÑĸÒ£":4510,"ÐŁÑĸÐºÑĸÑĢ":4511,"ook":4512,"ĠÓ©ÐºÑĸÐ»Ð´ÐµÑĢÑĸÐ½":4513,"ÓĻÐ¼ÐµÐ»":4514,"Ð¸ÐºÐ°ÑĨÐ¸Ñı":4515,"Ð½Ð°Ð¹Ñĭ":4516,"ĠÒĽÒ±ÑĢÐ°Ð»Ð´Ð°ÑĢÑĭ":4517,"Ð°Ð»Ð¸":4518,"ĠÐºÓ©Ð·ÒĽÐ°ÑĢÐ°Ñģ":4519,"ÐĲÐ»ÑĤÑĭÐ½":4520,"ĠÐ¶Ð°ÑģÐ°Ð»":4521,"ĠÑĤÐµÐ»Ðµ":4522,"ĠÐ¼Ð°ÑĤÐµÑĢÐ¸Ð°Ð»Ð´ÑĭÒĽ":4523,"ÒĵÐ°ÒĽ":4524,"ÐŀÒĽÑĥ":4525,"ĠÐ´ÓĻÑģÑĤÒ¯ÑĢÐ»Ñĸ":4526,"ĠÑģÐµÐºÑĤÐ¾ÑĢ":4527,"Ð¡ÑĸÐ·":4528,"ĠÒ±ÑģÑĤÐ°Ð·Ð´Ð°ÑĢ":4529,"ĠÑĤÑĸ":4530,"ĠÐ·Ð°Ð»":4531,"ĠÐ±Ð°Ð»Ð°Ð±Ð°ÒĽ":4532,"Ð½ÐµÐºÑĸ":4533,"ĠÐ¶ÓĻÑĢÐ´ÐµÐ¼":4534,"Ð¿Ð°Ð½Ð¸ÑıÑģÑĭ":4535,"ent":4536,"ĠÑĤÐ°ÒĵÐ°Ð¼":4537,"ĠÐ¼Ð°ÒĽÐ°Ð»Ð°Ð»Ð°ÑĢ":4538,"ĠÑĤÐµÑĢÐ³Ðµ":4539,"ÑģÑĸÒ£":4540,"ĠÐºÓ©ÑĢÑģÐµÑĤÐºÐµÐ½":4541,"ÑĤÐ°ÑĥÒĵÐ°":4542,"ĠÐ°Ð½ÑĭÒĽÑĤÐ°Ð¼Ð°ÑģÑĭ":4543,"ÐµÐ³ÐµÐ½Ð¼ÐµÐ½":4544,"Ġ000":4545,"Ò±ÑĢÑĭÐ»ÑĭÐ¼":4546,"34":4547,"ĠÐ¶Ð°ÒĽÑģÐ°ÑĢÑĤÑĥ":4548,"Ð¢ÐĲÐł":4549,"ĠÐ¾ÑĢÐ³Ð°Ð½Ð´Ð°ÑĢÑĭÐ½ÑĭÒ£":4550,"Ó©Ò£Ð³ÐµÐ»ÐµÐº":4551,"gr":4552,"Ò®Ð¹":4553,"ÑĤÐ°Ð¶":4554,"Ð±ÐµÐºÑģÑĤÐ°Ð½":4555,"ÐµÐ¼ÐµÑĤ":4556,"ĠÐŀÒĽÑĥ":4557,"Ġ?":4558,"Ð¸ÐºÐ°Ð½ÑĭÒ£":4559,"Ð±ÐµÐ¹":4560,"ĠÒ±ÑģÑĤÐ°Ð¿":4561,"ĠÐĲÐ»Ð°ÑĪ":4562,"Ð»ÑĭÒĽÒĽÐ°":4563,"Ð´ÑĸÐ³ÑĸÐ½Ðµ":4564,"ch":4565,"ĠÐ±Ð°ÑģÑĤÐ°Ð»Ð´Ñĭ":4566,"ĠÑĤÐ°Ð½Ñĭ":4567,"ĠÐ¶Ò¯ÑĢÐ³ÑĸÐ·ÑĸÐ»ÐµÐ´Ñĸ":4568,"ÐľÒ±Ð½":4569,"ĠÐĲÐ»Ð»":4570,"ĠÑģÒ±ÑĢÐ°Ð½ÑĭÑģ":4571,"ÐŁÐ°Ð¹":4572,"ÐĸÐµÐºÐµ":4573,"Ð°ÑħÐ°Ð±Ð±Ð°ÑĤ":4574,"ĠÓ©ÑĤÐºÑĸÐ·Ð´Ñĸ":4575,"Ð°Ð»Ð´Ð°ÑĢ":4576,"Ð·Ð°ÒĽ":4577,"ĠÑĪÐ°Ò£":4578,"ÑĭÐ½Ð´ÑĭÒĵÑĭ":4579,"ĠÐ°Ð¿Ð¿Ð°ÑĢÐ°ÑĤÑĭÐ½ÑĭÒ£":4580,"ĠÓĺÐ»ÐµÐ¼":4581,"ĠÐ¿ÑĢÐ¾ÑĦÐµÑģÑģÐ¾ÑĢ":4582,"ĠÐľÐ°Ò£ÒĵÑĭÑģÑĤÐ°Ñĥ":4583,"ĠÒĽÐ¾ÑģÐ¿":4584,"ĠÐ±Ð°Ð±":4585,"ĠÑģÐ¾Ò£ÑĭÐ½Ð´Ð°":4586,"ĠÐ¸Ð½Ð²ÐµÑģÑĤÐ¸ÑĨÐ¸ÑıÐ»ÑĭÒĽ":4587,"ĠÐ±Ò±ÒĵÐ°Ð½":4588,"ÑĭÒ£ÑĭÐ·Ð´Ñĭ":4589,"ĠÑĤÐ°Ð¿ÒĽÐ°Ð½":4590,"Ð«Ð¡":4591,"ĠÑĤÐ°ÒĵÐ°Ð¹ÑĭÐ½Ð´Ð°Ð»":4592,"ĠÐĲÐ±":4593,"ĠÐ´ÐµÑģ":4594,"ĠÑħÐ°Ð±Ð°ÑĢÐ»Ð°Ð´Ñĭ":4595,"ĠÐ±Ò±Ð¹ÑĭÐ¼":4596,"ĠÐľÐµÐºÑĤÐµÐ¿":4597,"ÐļÓ©Ð¿":4598,"ĠÑĤÒ¯Ð¿":4599,"07":4600,"ĠÐ°ÑĥÐ´Ð°Ð½ÑĭÐ½Ð´Ð°":4601,"Ð¶Ð°":4602,"ĠÐ¶Ð°ÑĤÐ°ÑĤÑĭÐ½":4603,"ĠÓ©Ð¹ÑĤÐºÐµÐ½Ñĸ":4604,"ĠÑĤÐ°Ð·":4605,"ĠÒļÐ°Ñģ":4606,"ĠÐŀÑĢÐ°Ð»":4607,"ĠÒļÐ°ÑĢÐ°":4608,"ĠÐ¾ÑĢÑĤÐ°Ð»ÑĭÒĵÑĭÐ½ÑĭÒ£":4609,"ĠÒĽÐ°ÒĽ":4610,"Ð¢ÓĻÑĥÐµÐ»":4611,"Ò±ÑĢÑĭÐ½":4612,"ÑĥÐ´":4613,"ĠÐµÐºÐµÐ½Ð´ÑĸÐ³ÑĸÐ½":4614,"ĠÐ½ÓĻÑĢÑģÐµ":4615,"ĠÑĤÑĥÑĭÐ½":4616,"Ð»Ð°Ð¹Ð´":4617,"ĠÐ¶ÐµÑĤÑĸ":4618,"ĠÒ±Ð¹ÑĭÐ¼ÑĭÐ½ÑĭÒ£":4619,"ĠÐĲÐ»ÑĤÑĭÐ½":4620,"ĠÑĤÐ°ÒĵÐ´ÑĭÑĢ":4621,"ĠÐ°Ð·ÑĭÒĽ":4622,"69":4623,"ÒĽÑĭÐ¼Ð´Ñĭ":4624,"ÑĸÒ£Ð´Ñĸ":4625,"ĠÐ°ÑģÑĭÐ»":4626,"ĠÐ°Ð»Ð´Ð°ÒĵÑĭ":4627,"ĠÑĪÐ°Ð»":4628,"ĠÐ¼Ò¯Ð³ÐµÐ´ÐµÐº":4629,"ÑĢÐ°ÒĽÒ±ÑĢÑĭÐ»ÑĭÐ¼":4630,"ĠÐºÐµÑĤÐµÐ´Ñĸ":4631,"ĠÑĤÒ±ÑĢÐ¼ÑĭÑģ":4632,"ĠÐ¼Ð°Ð¼Ð°Ð½Ð´ÑĭÒĽ":4633,"ĠÐ½ÓĻÑĤÐ¸Ð¶ÐµÑģÑĸ":4634,"ĠÑģÑĸÐ·Ð´ÑĸÒ£":4635,"ÐĲÐ½":4636,"ĠÐ´Ð°Ð¼ÑĭÒĵÐ°Ð½":4637,"ĠÐºÓĻÑģÑĸÐ¿ÑĤÑĸÐº":4638,"ĠÐ°Ð»ÒĵÐ°":4639,"ĠÐ¼Ð¸Ðº":4640,"ĠÐ±Ð°ÒĵÑĭ":4641,"ĠL":4642,"ĠÑģÑĸÐ»ÑĤÐµÐ¼":4643,"ĠÐ¼ÐµÐ½Ñĸ":4644,"ĠÒĽÐ°Ð¹ÑĤÑĭÑģ":4645,"ÐļÐŀ":4646,"ĠÐ¶Ð°ÑģÑĭÑĢ":4647,"ĠÐ±Ð°ÑģÑĭÐ½":4648,"ĠÐºÓĻÑģÑĸÐ¿ÐºÐµÑĢÐ»ÐµÑĢ":4649,"ÓĻÑģÑĤÒ¯ÑĢ":4650,"ĠÐ¾ÑĢÑĤÐ°ÒĵÐ°":4651,"ĠÑģÐ°Ð±Ð°ÒĽÑĤÑĭÒ£":4652,"Ð»ÑĭÒĽÑĤÑĭ":4653,"ĠÐºÐ°Ð±":4654,"ĠÒļÒ±Ð´Ð°Ð¹":4655,"ĠÐ¡Ð°Ñĥ":4656,"ĠÐºÐ°Ð¿Ð¸ÑĤÐ°Ð»":4657,"ÑĥÒĵÐ°Ð½":4658,"ĠÑĤÓ©Ð¼ÐµÐ½Ð³Ñĸ":4659,"ĠÐºÐµÐ·Ð´ÐµÑģÐµÐ´Ñĸ":4660,"ĠÐºÓ©ÑĢÑģÐµÑĤÑĸÐ¿":4661,"ĠÐĳÓ©":4662,"Ð±ÐµÑģÑĸ":4663,"ÐŀÐ¹":4664,"ĠÐ±ÐµÐ»Ð³ÑĸÐ»ÐµÑĢÑĸ":4665,"ĠÐµÑģÐºÐµÑĢÑĤÐºÑĸÑĪ":4666,"59":4667,"ru":4668,"ĠÑĪÑĭÒĵÑĥ":4669,"ÒĵÒ±ÑĢ":4670,"ĠÑĤÐ¾Ð»Ð¼Ð°ÒĵÐ°Ð½":4671,"ĠÐļÐµ":4672,"ĠÑĥÑĩÐ°ÑģÐº":4673,"Ð´Ð°Ð³ÐµÑĢ":4674,"Ð´iÐº":4675,"ĠÐºÓ©ÑĢÑģÐµÑĤÑĤÑĸ":4676,"ÒĽÐ°ÑĢÐ°Ð»ÑĭÒĽ":4677,"ĠÐ°Ð¿ÑĤÐ°":4678,"ÐļÐ¾Ð¼":4679,"ĠÐºÐ¾ÑĢÐ¿Ð¾ÑĢÐ°ÑĨÐ¸ÑıÑģÑĭÐ½Ð´Ð°":4680,"ĠÐ¾ÒĽÑĭ":4681,"ĠÐºÐ°Ð´ÑĢ":4682,"Ð°ÒĽÑĭÐ¼":4683,"ĠÑĪÐµÐºÑĤÐµÑĥÐ»Ñĸ":4684,"Ð´Ð°Ð½ÑĭÒ£":4685,"ĠÐ®":4686,"ĠÐĲÐ¼Ð°Ð½":4687,"ĠÒĽÐ°ÑĤÑĭÑģÒĽÐ°Ð½":4688,"ĠÐ·Ð°ÑĤ":4689,"ĠÑģÐ°ÑĤÑĥ":4690,"ĠÓĻÒ£Ð³ÑĸÐ¼Ðµ":4691,"Ð¼Ð°ÑĢ":4692,"ĠÒĽÐ°ÑĢÐ¶ÑĭÐ»Ð°Ð½Ð´ÑĭÑĢÑĥ":4693,"ĠÐĨÑĪÐºÑĸ":4694,"ÐµÐ¶Ò¯Ð·ÑĸÐ»ÑĸÐº":4695,"ĠÑĭÐ´Ñĭ":4696,"ĠÐ³ÐµÐ½":4697,"ĠÒļÐ°Ð·ÐĲÒĽÐ¿Ð°ÑĢÐ°ÑĤ":4698,"ÑĪÐ°ÑĢÑĤ":4699,"Ð´ÐµÑĥÐ³Ðµ":4700,"Ð¿ÑĸÑĢ":4701,"ĠÐ°Ð¹ÒĽ":4702,"ÒļÐ°Ð·Ð°ÒĽÑĪÐ°":4703,"ĠÐ¾Ò£Ð°Ð¹":4704,"ĠÐ¸ÐµÐ»ÐµÐ½":4705,"Ð½Ð¸Ðº":4706,"ĠÒĽÒ±ÑĢÐ°Ð»Ñĭ":4707,"Ð»Ð°Ð¼ÐµÐ½ÑĤÑĸ":4708,"ÑģÐµÐ½Ð±Ñĸ":4709,"ĠÐĳÒ¯":4710,"ÐŀÐł":4711,"ĠÐ°Ð´Ð°Ð»":4712,"Ð¾Ð±Ð°":4713,"ĠÐ¼ÑĥÐ·ÑĭÐº":4714,"ĠÐ¼Ò¯ÑĪÐµÐ»ÐµÑĢÑĸ":4715,"ĠÐ¼Ð¾Ð½Ð¸ÑĤÐ¾ÑĢÐ¸Ð½Ð³":4716,"ĠÐ¶Ð¾Ð»ÑĭÐ½":4717,"ĠÐºÒ¯Ð»":4718,"ĠÑĢÐµÐ¶Ð¸Ð¼":4719,"67":4720,"Ð»ÑĭÐ¼":4721,"ĠÐ¼Ð°ÑĤÐµÑĢÐ¸Ð°Ð»Ð´Ð°ÑĢÐ´Ñĭ":4722,"ĠÒĽÐ°ÑĤÑĭÑģÑĭÐ¿":4723,"Ò£Ð³ÑĸÐ»ÑĸÐº":4724,"ĠÐĶÐ¶":4725,"ÐµÐ´Ðµ":4726,"ĠÐ¸Ð½ÑģÐ¿":4727,"Ġ80":4728,"ĠÒĽÐ¾Ð¹ÑĭÐ»Ð°ÑĤÑĭÐ½":4729,"ĠÐ¶Ò¯Ð»Ð´Ðµ":4730,"ĠÑĤÐµÐ¼Ð¿ÐµÑĢÐ°ÑĤÑĥÑĢ":4731,"ĠÓ©Ð»ÑĪÐµÐ¼":4732,"ĠÐ½ÐµÑģÐ¸":4733,"ĠÐ¼Ð¸Ð½Ð¸ÑģÑĤÑĢÑĸÐ½ÑĸÒ£":4734,"Ð»ÐºÐµÐ½":4735,"ĠÐ·ÐµÑĢÑĤÑĤÐµÑĥÐ»ÐµÑĢ":4736,"ĠÂ©":4737,"Ð¼ÐµÑĤÑĤÑĸÒ£":4738,"ĠÐºÓ©ÑĢÑģÐµÑĤÐµÑĤÑĸÐ½":4739,"ĠÐµÐ½Ð³ÑĸÐ·ÑĸÐ»ÐµÐ´Ñĸ":4740,"ĠÓĻÐ»ÑĸÐ¿":4741,"ÐµÑģÑĸÒ£":4742,"ĠÐ¼Ð°Ð¼Ð°Ð½Ð´Ð°ÑĢ":4743,"Ð¼Ð°ÒĵÑĭÐ½Ð°":4744,"ĠÓ©Ðº":4745,"ĠÐµÑĪÒĽÐ°Ð½Ð´Ð°Ð¹":4746,"ÑĤÐ°ÑĢÑĭÐ½Ð´Ð°":4747,"ĠÐ¼ÑĸÐ½Ð´ÐµÑĤÑĤÐµÑĢÑĸ":4748,"ĠÐ¼Ð¸":4749,"ĠÐ±Ð¾Ð»ÑĥÒĵÐ°":4750,"Ð°Ð½Ñģ":4751,"ÑĸÐ±ÐµÐº":4752,"Ð½Ð°Ñı":4753,"ĠÐµÑģÑĤ":4754,"ĠÐļÐ°ÑĢ":4755,"ĠÐ¼ÐµÐ´Ð¸ÑĨÐ¸Ð½Ð°":4756,"ĠÐ¾ÑĢÐ¼Ð°Ð½":4757,"ĠÐ¢Ò±":4758,"ÐĳÐ¾Ð»Ð°ÑĪÐ°ÒĽ":4759,"ĠÐŀÑģÑĭÒĵÐ°Ð½":4760,"ĠÐ¸Ð½Ð½Ð¾Ð²Ð°ÑĨÐ¸ÑıÐ»ÑĭÒĽ":4761,"ĠÒ¯Ð»ÐµÑģÑĸ":4762,"ÑĸÑĢÐµÐº":4763,"Ð³Ñĥ":4764,"ÓĺÐ»ÐµÐ¼":4765,"ĠÐ´ÐµÑĢÐ±ÐµÑģ":4766,"ĠÐ¶Ò±Ð¼ÑĭÑģÑĤÑĭÒ£":4767,"ĠÐ¶Ð°Ð¹ÑĭÐ½Ð´Ð°":4768,"ĠÑģÐ°Ð½Ð°ÑĤ":4769,"ÑĥÐµÐ·Ð¾Ð²":4770,"ĠÒĽÑĭÐ·ÑĭÐ»":4771,"ĠÐ°Ð»ÑĤÑĭ":4772,"ĠÐºÑĸÑĪÑĸ":4773,"ÐµÑģÑĤÐ¸Ð²":4774,"ÑĭÐ½Ð´Ð°ÒĵÐ°Ð½":4775,"Ð»Ð°Ð¹Ð´Ñĭ":4776,"op":4777,"ĠÒĽÐ°ÑĥÑĸÐ¿ÑĤÑĸ":4778,"ÐµÐ»ÐµÑĢÑĸÐ½Ðµ":4779,"Ð¹ÑĭÐ¼Ð´Ð°ÑģÑĤÑĭÑĢÑĥ":4780,"ÑĤÑĥÑĢ":4781,"Ġ|":4782,"Ð°ÑĤÑĭÐ»ÒĵÐ°Ð½":4783,"ĠÐŀÐ½Ð´Ð°":4784,"ÑĤÐµÐ»ÐµÐ´Ñĸ":4785,"ĠÒĽÐ¾ÑģÒĽÐ°Ð½":4786,"ĠÐ±ÐµÐ¹ÑĸÐ¼":4787,"ĠÐ¿ÑĢÐ¸Ð½ÑĨÐ¸Ð¿":4788,"ĠÑĤÑĸÑĢÑĪÑĸÐ»ÑĸÐº":4789,"ĠÑĪÑĭÒĵÑĭÑģ":4790,"ĠÐ½Ò±ÑģÒĽÐ°Ñĥ":4791,"ĠÒĽÐ¾ÑĢÒĵ":4792,"ĠÐ¶Ð°Ð·Ð±":4793,"ÑĭÐºÐ°":4794,"ĠÐ¼Ó©Ð»ÑĪÐµÑĢÑĸ":4795,"ÑĤÐµÑĢÐ»ÑĸÐº":4796,"ĠÐ¼Ð°ÑĪÐ¸Ð½":4797,"ĠÐĲÒĽÑĤÓĻ":4798,"ÐļÐµÐ·":4799,"ĠÑįÐ½":4800,"ĠÐ°ÑģÑĭÑĢÑĥÒĵÐ°":4801,"Ð¾ÑĢÐ¼Ð°":4802,"ĠÐµÑĢÐµÐºÑĪÐµÐ»ÑĸÐºÑĤÐµÑĢÑĸ":4803,"Ð°ÑģÐ¿":4804,"ÐºÐ¾Ð¼Ð¼ÑĥÐ½Ð°Ð»Ð´ÑĭÒĽ":4805,"Ð¼Ð¾":4806,"ĠÐ°ÑĥÑĭÐ»Ñĭ":4807,"ĠÐ¶ÐµÑĢÑĸ":4808,"ĠÐ°Ð»ÑĭÑģ":4809,"ĠÐºÐ¾Ð¼Ð¸ÑĤÐµÑĤÑĸ":4810,"ĠÒĽÐ°Ð´Ð°ÒĵÐ°Ð»Ð°Ñĥ":4811,"ĠÐ°Ð·Ð°Ð¼Ð°ÑĤÑĤÐ°ÑĢÐ´ÑĭÒ£":4812,"ĠÐ±Ð¾ÐºÑģ":4813,"ÐºÓ©Ð»":4814,"ÑĪÑĸÐ»ÑĸÐ³ÑĸÐ½ÑĸÒ£":4815,"ĠÑĥÐ°ÒĽÑĭÑĤÑĪÐ°":4816,"ĠÓ©Ð½ÑĸÐ¼Ð´ÐµÑĢÑĸ":4817,"ĠÐ´Ð°ÑıÑĢÐ»Ð°Ñĥ":4818,"ĠÒĽÑĥÐ°Ð½ÑĭÑĪ":4819,"ĠÐ±Ð°ÑģÑĤÐ°Ð»Ð°Ð´Ñĭ":4820,"Ð¸Ð·Ð°":4821,"55":4822,"ÓĻÐ¼ÐµÐ»ÐµÑĤÐºÐµ":4823,"ĠÑĤÑĸÐ»ÑĪÑĸÑģÑĸ":4824,"ĠÓĻÐ´ÐµÐ±Ð¸ÐµÑĤÑĤÐµÑĢ":4825,"ĠÐ½ÐµÐ³ÑĸÐ·Ð´ÐµÑĢÑĸ":4826,"Ð´Ð°ÑģÑĤÑĭÒĽ":4827,"ĠÑĤÑĥÑĭÐ½Ð´Ñĭ":4828,"ĠÑĤÐµÒ£Ð³ÐµÐ³Ðµ":4829,"ĠÐ°ÑĥÑĢÑĥÑħÐ°Ð½":4830,"ÐŀÐ½ÑĭÒ£":4831,"ĠÓ©Ð¼ÑĸÑĢÑĸ":4832,"ĠÑĪÐ°Ð±ÑĥÑĭÐ»":4833,"ĠÐĲÐ¼ÐµÑĢ":4834,"ĠÐ°ÑģÑĭÑĢÐ°Ð´Ñĭ":4835,"ĠÐºÐ¾Ð¼Ð¸ÑģÑģÐ¸ÑıÑģÑĭÐ½ÑĭÒ£":4836,"Ð¶Ñĸ":4837,"ĠÑĤÑĥÑĢÐ°":4838,"Ð°ÑĤÑĤÐ°ÑĢÐ´ÑĭÒ£":4839,"ĠÒĽÑĭÐ·ÑĭÒĽÑĤÑĭ":4840,"ÒĽÐ¾Ñģ":4841,"ÑĭÒĵÑĭÐ½Ð´Ð°":4842,"ĠÑĸÐ·Ð´ÐµÐ½":4843,"ĠÐ¶Ð°ÑģÐ°Ð¹":4844,"ĠÐ¾ÑĢÑĭÐ½Ð´Ð°ÑĢÑĭ":4845,"ĠÐ¾ÒĽÑĭÑĢÐ¼Ð°Ð½":4846,"ÐķÐĽ":4847,"ÑĭÒ£Ð´Ð°ÑĢ":4848,"ÐŀÒĽÑĥÑĪÑĭÐ»Ð°ÑĢ":4849,"ÑĮÑı":4850,"ĠÐ¶Ð°ÒĵÐ´Ð°Ð¹ÑĭÐ½Ð´Ð°":4851,"do":4852,"ĠÐ»Ð°ÑĤÑĭÐ½":4853,"ĠÐ±ÑĸÑĢÐ°Ð·":4854,"Ð°ÑģÒĽÐ°Ð½":4855,"ĠÐ±ÑĥÑĭÐ½":4856,"87":4857,"ĠÒĽÐ°Ð±ÑĭÐ»Ð´Ð°Ð½ÒĵÐ°Ð½":4858,"ÑĪÐµÐ»ÐµÐ½":4859,"ĠÐŀÑĢÑĤÐ°":4860,"ĠÐ¾ÑĢÐ³Ð°Ð½Ð½ÑĭÒ£":4861,"ÑģÐ°Ð¼Ð±Ð»":4862,"Ġs":4863,"ĠÒĽÑĭÐ·Ð¼ÐµÑĤÑĤÐµÑĢÐ´Ñĸ":4864,"ĠÑģÒ±Ñħ":4865,"ÐºÓ©Ð»ÑĸÐº":4866,"Ð»ÐµÐºÑĤÑĢÐ¾Ð½Ð´ÑĭÒĽ":4867,"ĠÑĤÐ¸Ð¿":4868,"ĠÐ¾ÑĢÐ½Ð°Ð»Ð°ÑģÑĤÑĭÑĢÑĥ":4869,"Ð°Ð»Ð°ÑĢÐ´Ð°":4870,"ÐŁÐ¾":4871,"ĠÐµÑģÐµ":4872,"ÐľÐľ":4873,"ÒĽÑĥ":4874,"ĠÑģÑĤÐ°ÑĤÐ¸ÑģÑĤ":4875,"ĠÐµÑģÐµÐ¿ÑĤÑĸ":4876,"ĠÐ¼Ð°ÑĤÐµÐ¼Ð°ÑĤ":4877,"ĠÐ¡Ð°ÑĢ":4878,"ĠÐŁÐ°ÑĢÐ»Ð°Ð¼ÐµÐ½ÑĤ":4879,"ÑĸÐ¼Ðµ":4880,"ÐķÐ»Ð±Ð°ÑģÑĭ":4881,"ĠÑĢÐµÐ·":4882,"ĠÒ®ÑĪ":4883,"ÐĲÐ¡Ð«":4884,"ÑĦÑĢ":4885,"ĠÐ±Ð°Ð»Ð°ÒĵÐ°":4886,"ĠÑĤÐ°ÒĽÑĭÑĢÑĭÐ±ÑĭÐ½Ð´Ð°":4887,"ĠÐ½ÐµÐ³ÑĸÐ·Ð´ÐµÐ»Ð³ÐµÐ½":4888,"ĠÐŁÐ°Ð¹":4889,"ĠÐ¸Ð½ÑĦÑĢÐ°ÒĽÒ±ÑĢÑĭÐ»ÑĭÐ¼":4890,"Ð¸ÑıÑĤ":4891,"Ð»Ð°Ð½ÑĭÐ¿":4892,"ĠÐ½Ð¾ÑĢÐ¼Ð°ÑĤÐ¸Ð²ÑĤÑĸÐº":4893,"ĠÐ±Ó©Ð»ÑĸÐ¿":4894,"ĠÑĦÐ¸Ð»Ð¸Ð°Ð»":4895,"ÑĤÑĸÐ½ÑĪÑĸ":4896,"ÒĵÑĭÐ½Ð°Ð½":4897,"ĠÐļÐ¾Ð´":4898,"ÑĤÑĸÐ»Ð´Ñĸ":4899,"ĠÐ°Ð´Ð°Ð¼Ð´Ð°ÑĢÒĵÐ°":4900,"ĠÐ±Ð¾Ð»ÒĵÐ°Ð½Ð´ÑĭÒĽÑĤÐ°Ð½":4901,"ĠÐ±ÐµÑĢÑĥÐ´ÑĸÒ£":4902,"Ð°Ð½ÑĭÐ¿":4903,"Ð¿ÑĭÐ½":4904,"ĠÒĽÐ¾Ð»Ð´Ð°Ð½ÑĥÒĵÐ°":4905,"ace":4906,"Ð¶ÐµÐ»Ð³Ñĸ":4907,"ĠÑģÑĥÐ±":4908,"ĠÒĽÑĭÐ·ÑĭÒĽ":4909,"Ð°Ð½Ð°Ð»Ð°ÑĢ":4910,"ĠÐ¸Ð½Ð²ÐµÑģÑĤÐ¸ÑĨÐ¸Ñı":4911,"Ò£ÑĸÐ·":4912,"2014":4913,"ĠÐĸÐµÑĤ":4914,"ÑĭÑĢÒĵ":4915,"ay":4916,"ĠÐļÐµÐ·":4917,"ikip":4918,"Ð°ÑģÑĤÑĢ":4919,"ÑĦÐ¾ÑĢÐ¼":4920,"Ð¡Ð¾Ð½Ð´Ð°Ð¹":4921,"ĠÒĽÒ±Ð¼":4922,"ĠÐ±Ð°ÑģÑĭÐ½Ð°":4923,"ikipedia":4924,"ĠÐ¿ÑģÐ¸ÑħÐ¾Ð»Ð¾Ð³Ð¸ÑıÐ»ÑĭÒĽ":4925,"ĠÑĤÒ±Ð»ÒĵÐ°Ð½ÑĭÒ£":4926,"ĠÐ¾Ð±ÑĬÐµÐº":4927,"ĠÐ´Ð°Ð¼ÑĭÑĤÑĥÐ´ÑĭÒ£":4928,"Ð¡ÐµÑĢ":4929,"ĠÑĤÒ¯ÑĢÐ»ÐµÑĢÑĸÐ½":4930,"ĠÑĤÐµÑħÐ½Ð¾Ð»Ð¾Ð³Ð¸ÑıÐ»ÑĭÒĽ":4931,"ĠÐºÓ©Ð¼ÐµÐ³ÑĸÐ¼ÐµÐ½":4932,"ĠÑĪÑĭÒĵÐ°ÑĢÑĭÐ¿":4933,"44":4934,"ĠÐ±Ð°ÑģÑĤÐ°ÑĥÑĭÑĪ":4935,"ĠÐ¼ÐµÐ´Ð¸":4936,"ĠÐ±ÐµÑĢÑĸÐ»ÐµÑĤÑĸÐ½":4937,"ĠÐĳÑĸÑĢÑĸÐ½ÑĪÑĸ":4938,"Ð¶Ð°ÑĥÐ°Ð¿":4939,"ĠÐ´ÐµÐ¼Ð°Ð»ÑĭÑģ":4940,"ÒĽÐ°Ð»":4941,"ĠÒĽÐ°Ð»ÑĭÐ¿ÑĤÑĭ":4942,"Ð°Ð±Ð°ÐµÐ²":4943,"ÓĺÐĿ":4944,"ÑĤÐ°ÐµÐ²":4945,"32":4946,"ÓĻÐ»Ñĸ":4947,"ĠÒļÐ¾Ñģ":4948,"ÐºÐ¾Ð²":4949,"ĠÑĥÐ½Ð¸Ð²ÐµÑĢÑģÐ¸ÑĤÐµÑĤÑĸÐ½ÑĸÒ£":4950,"ĠÑģÐ°Ð»Ð´Ð°ÑĢÑĭÐ½Ð°Ð½":4951,"ĠÐ»Ð¾Ð³":4952,"ÐµÐ»ÐµÑģÑĸ":4953,"ĠÐ¾ÑĢÐ½Ð°Ð»Ð°ÑģÑĤÑĭÑĢ":4954,"ÑĤÐ°Ð½ÑĭÒ£":4955,"ÐµÑģÑĤÑĸ":4956,"ĠÐºÐµÐ·Ð´ÐµÑģÑĤÑĸ":4957,"Ð¼ÐµÐ´":4958,"ĠÐ±Ð°ÑĢÑĭÑģÑĭ":4959,"Ð¸ÐºÐ¸Ð¿ÐµÐ´":4960,"ÐĶÐĲÐł":4961,"ÒĽÐ¾Ð»":4962,"ĠÐ¾ÑĢÐ½ÑĭÐ½":4963,"100":4964,"ÑĸÒ£ÑĸÐ·Ð³Ðµ":4965,"Ð¸Ð°Ð»Ñĭ":4966,"ĠÐ¶Ð°Ð»ÒĵÐ°ÑģÑĤÑĭÑĢ":4967,"Ð¸ÑĢÐµÐº":4968,"?!":4969,"ÐµÑģÑĸÐ¼ÐµÐ½":4970,"ÑģÐ°ÑıÑģÐ¸":4971,"ĠÑĤÐ°Ð»Ð°Ð¿ÑĤÐ°ÑĢ":4972,"ĠÐ±Ð°ÑģÑĪÑĭÐ»Ð°ÑĢÑĭÐ½ÑĭÒ£":4973,"Ð´ÓĻÑģÑĤÒ¯ÑĢ":4974,"ĠÑĸÑĢÑĸÐº":4975,"ÑĤÒ±ÑĢ":4976,"ĠÑĤÐ¾Ð½Ð½Ð°":4977,"ĠÐºÐµÒ£ÐµÑģÑĸÐ½ÑĸÒ£":4978,"ĠÐ±Ð°ÒĵÐ°Ð»Ñĭ":4979,"Ð³ÑĸÐ»Ñĸ":4980,"ĠÑĪÐ¸Ðº":4981,"ĠÐ¿Ð°ÑĢÐ°ÒĽ":4982,"org":4983,"ĠÑĪÐµÑĪÑĸÐ¼Ð´ÐµÑĢ":4984,"ĠÐºÐ¾Ð¼Ð¿Ð°Ð½Ð¸ÑıÑģÑĭ":4985,"ĠÑĤÐ°Ð¿ÑģÑĭÑĢÑĭÑģ":4986,"ĠÐĵÐµÑĢÐ¼Ð°Ð½":4987,"ĠÒ¯Ð´ÐµÑĢ":4988,"ĠÐ°ÒĵÐ·":4989,"ĠÒ±Ð¹ÑĭÐ¼Ð´Ð°ÑĢÐ´ÑĭÒ£":4990,"ĠÐ¿Ð¾ÑĢÐ½Ð¾":4991,"ĠÑģÐ°ÑĤ":4992,"ing":4993,"ĠÐ¿Ð°Ð¹ÑĭÐ·ÒĵÐ°":4994,"Ð´ÑĭÑĢÑĭÐ¿":4995,"ÒļÑĭÐ·ÑĭÐ»":4996,"Ġ2020":4997,"ĠÐ¶Ð°ÑĢÐ°ÒĽ":4998,"ĠÐ¨Ð°ÑĢ":4999,"ĠÑĸÑģÑĤÐµÐ¹ÑĤÑĸÐ½":5000,"ĠÐ±Ð°ÒĵÑĭÑĤÑĭ":5001,"ĠÐĵÒ¯Ð»":5002,"Ð»i":5003,"ĠÐ¼ÐµÑĪÑĸÑĤ":5004,"ĠU":5005,"ĠÑĸÑģÑĤÐµÐ¿":5006,"ÒĵÐ°Ð»Ð¸":5007,"Ð¼ÑĭÑĪ":5008,"ĠÓĻÐ´ÐµÐ¼Ñĸ":5009,"ÐĳÐ¸Ð·Ð½ÐµÑģ":5010,"ÑĥÑħÐ³Ð°Ð»":5011,"ĠÐ°ÐºÑĤÐ¸Ð²":5012,"ĠÐ¶Ð°ÑģÓ©ÑģÐ¿ÑĸÑĢ":5013,"ĠÒĽÐ°Ð·Ð°":5014,"ĠÐ±ÑĸÑĢÑĭÒ£ÒĵÐ°Ð¹":5015,"ÐºÑĢÐ°Ð¸":5016,"ĠÐ½ÑĭÒĵÐ°Ð¹ÑĤÑĥ":5017,"ĠÐĳÒ¯Ð³ÑĸÐ½Ð³Ñĸ":5018,"ĠÐ°ÐºÑĨÐ¸Ñı":5019,"Ò¯ÑĢÐ³ÑĸÐ·":5020,"Ó©Ð¿":5021,"ĠÐŀÐ±Ð»":5022,"ĠÐ±Ð°Ð»ÑĭÒĽ":5023,"Ġ35":5024,"ĠÐ¶Ð°Ð¼":5025,"ĠÐľÓĻÑģÐµÐ»ÐµÐ½":5026,"Ð°Ð¼Ð±ÐµÑĤ":5027,"ĠÑĤÐµÐ½":5028,"ÐĲÐ½Ð°":5029,"Ð¶ÓĻÐ½Ðµ":5030,"ĠÐºÓ©ÑĢÑĸÐ½ÑĸÑģ":5031,"ĠÒĽÐ°ÑĤÐ°Ò£":5032,"ĠÐļÐµÐ½":5033,"ĠÑĤÒ±ÑĤÐ°Ñģ":5034,"ĠÐĲÐ»Ð»Ð°Ò»":5035,"Ð¶ÐµÐºÐµ":5036,"ĠÐºÓ©Ð¿ÑĪÑĸÐ»ÑĸÐº":5037,"ĠÓĻÐ´ÑĸÑģÑĤÐµÑĢÑĸ":5038,"ĠÐ±ÑĸÑĢÐ»ÑĸÐº":5039,"ĠÑĤÒ±ÒĽÑĭÐ¼":5040,"ĠÐºÓ©ÑĢÑģÐµÑĤÑĥÐ³Ðµ":5041,"ĠÑĢÐ°Ð´Ð¸Ð¾":5042,"42":5043,"Ð°ÑĥÐ»":5044,"ĠÒ¯ÑģÑĤÐµÐ»":5045,"ĠÐ½Ð¾Ð¼":5046,"Ð°ÑĤÑĤÐ°Ð½":5047,"ĠÒĽÑĭÐ¼Ð±Ð°ÑĤ":5048,"ÑģÑĤÑĸÐº":5049,"Ð»iÐº":5050,"ve":5051,"ĠÒĽÐ°ÒĵÐ¸Ð´Ð°Ð»Ð°ÑĢÑĭÐ½":5052,"ĠÐĳÐĲÒļ":5053,"ĠÑĤÐ°Ð»ÒĽÑĭÐ»Ð°Ñĥ":5054,"ÑĢÐ¾Ð¼":5055,"ĠÑįÐ½ÐµÑĢÐ³Ð¸Ñı":5056,"ĠÐ±Ð°ÑģÑĤÐ°Ð¿ÒĽÑĭ":5057,"ĠÑģÒ¯Ð¹ÐµÐ½":5058,"Ð°ÑıÒĽ":5059,"ĠÐ¿Ð¾ÑĢÑĤÐ°Ð»":5060,"ĠÐ¶ÐµÐºÐµÐ»ÐµÐ³ÐµÐ½":5061,"Ġ90":5062,"ĠÐ°Ð¹Ð½Ð°Ð»ÑĭÐ¼":5063,"Ġc":5064,"ÐµÐ´Ð¾Ð¼":5065,"Ð¢ÑĸÐ»":5066,"ĠÑĪÐ°ÑĢÑĥÐ°ÑĪÑĭÐ»":5067,"Ð°Ð·Ð¸Ñı":5068,"ĠÒĽÐ°ÑĢÑĥ":5069,"ĠÐºÐµÑĤÑĸÐ¿":5070,"Ð¿ÐµÐ¹Ð´Ñĸ":5071,"ĠÒĽÒ±Ð½Ð´ÑĭÐ»ÑĭÒĽ":5072,"ĠÒĽÐ°Ð»ÑĭÐ¿ÑĤÐ°ÑģÒĽÐ°Ð½":5073,"ĠÐ´Ò¯":5074,"Ð°Ð¿Ð°ÑĢ":5075,"ĠÐ±Ð°ÑĢÐ°Ð´Ñĭ":5076,"ĠÐĲÒĽÐ¼Ð¾Ð»Ð°":5077,"ĠÑıÐ·Ñĭ":5078,"ĠÐ°Ð´Ð°Ð¼Ð´Ð°ÑĢÐ´Ñĭ":5079,"Ð¡ÐµÐ½":5080,"ÐºÐµÐ½ÑĤÐ°Ð¹":5081,"ÑģÐ°Ò£ÑĭÐ·":5082,"ĠÐ¶Ð°ÑĥÑĭÐ½":5083,"85":5084,"ĠÐ¼ÑĸÐ½Ð´ÐµÑĤÑĤÐµÑĢ":5085,"ĠÒ±ÑģÑĭÐ½Ð°Ð´Ñĭ":5086,"Ò°Ð»Ñĭ":5087,"ÒļÐ°Ð·Ð°ÒĽÑģÑĤÐ°Ð½Ð´Ð°":5088,"ĠÐĲÑĤÐ°":5089,"))":5090,"ĠÑĤÐ¾Ð»ÑĭÒĽÑĤÑĭÑĢÑĥÐ»Ð°ÑĢ":5091,"ĠÐ±Ó©Ð»ÑĪÐµÐº":5092,"ÐµÐºÑĤÑĸÒ£":5093,"ĠÐ±ÐµÑĢÐ¼":5094,"ĠÐ¡Ð¾Ð´Ð°Ð½":5095,"ĠÑĤÐ°ÑĢÐ°ÑĤÑĥ":5096,"ĠÐ°Ð»ÑĥÑĪÑĭ":5097,"ĠÓ©Ð·ÑĸÐ½Ð´Ðµ":5098,"ÐŀÑĢÑĤÐ°Ð»ÑĭÒĽ":5099,"Ð°ÑĤÒĽÐ°":5100,"ĠÑģÑĸÒ£ÑĸÑĢ":5101,"ĠÐľÒ±ÑħÐ°Ð¼":5102,"ÑĪÐµÑĤ":5103,"ĠÑĤÒ¯Ð±":5104,"ÐŃÐº":5105,"ĠÒĽÑĭÑĪ":5106,"ÐĸÐ°Ð½":5107,"ĠÑĪÐ°ÑĢÐ°":5108,"ĠÐ¿Ð¾Ñį":5109,"Ð°ÑĢÐ½":5110,"Ð±Ð°Òĵ":5111,"Ð»Ð°Ð²":5112,"Ð°ÑĢÐ¸":5113,"ÑĢÑĭÒĽ":5114,"ĠÐ°Ð³ÐµÐ½ÑĤÑĤÑĸÐ³Ñĸ":5115,"Ð¸ÐµÐ½ÑĤ":5116,"ĠÑĤÑĢÐ°Ð½Ñģ":5117,"ĠÐ¢ÓĻÑĥÐµÐ»ÑģÑĸÐ·Ð´ÑĸÐº":5118,"ĠÑģÐ°Ð»ÒĵÐ°Ð½":5119,"Ð¾Ð½ÑĭÒ£":5120,"ÐµÑģÑģÐ¸Ñı":5121,"ĠÐºÐµÒ£ÐµÑģÑĸ":5122,"Ġp":5123,"ĠÑĤÐ°Ð½ÑĭÑģÑĤÑĭÑĢ":5124,"ĠÐ¶Ð°ÑĥÐ°Ð¿ÐºÐµÑĢÑĪÑĸÐ»ÑĸÐº":5125,"book":5126,"ĠÑĪÐ¾ÑĤ":5127,"ĠÐºÐµÐ»Ñĥ":5128,"Ð³ÑĸÐ¿":5129,"ĠÐ±Ð°ÒĵÐ´Ð°ÑĢÐ»Ð°Ð¼Ð°ÑģÑĭÐ½":5130,"ĠÐ¢ÓĻÑĥÐµÐ»ÑģÑĸÐ·":5131,"ĠÒĽÐ¾Ò£":5132,"ÐļÓĻÑģÑĸÐ¿":5133,"ĠÐ¶Ð°ÑĢÐ¸ÑıÐ»Ð°Ñĥ":5134,"ĠÐ°Ð»Ð´ÑĭÐ½Ð°":5135,"ĠÑĤÓ©Ð»ÐµÐ½":5136,"ĠÒĽÐ°Ð½Ð°ÒĵÐ°ÑĤ":5137,"ĠÑĢÐµÑĦÐ¾ÑĢÐ¼":5138,"ĠÐ°Ð»ÑĥÑĪÑĭÐ»Ð°ÑĢ":5139,"ĠÑĨÐ¸ÑĦÑĢ":5140,"ÐĲÑģÑĤÐ°Ð½":5141,"ÑĸÐ¼ÑĸÐ·Ð³Ðµ":5142,"Ð¼Ð°ÑģÑĭ":5143,"ĠÐºÓ©Ð±ÐµÐ¹":5144,"ĠÐ¿Ð°ÑĢÑĤÐ¸Ñı":5145,"ĠÑģÒ±Ð»Ñĥ":5146,"ĠÐ¼Ð¾Ð´ÐµÐ»":5147,"ÐµÑĢÐ¼ÐµÐ½":5148,"ÒĽÒ±ÒĽÑĭÒĽÑĤÑĭÒĽ":5149,"ĠÑħÐ°Ð»ÑĭÒĽÑĤÑĭ":5150,"ĠÐ°ÑĢÐ½Ð°ÑĥÐ»Ñĭ":5151,"ĠÑĸÐ·Ð´ÐµÑĥ":5152,"Ð°Ð´Ð°Ð¼":5153,"ÑĦÐ¸Ð»":5154,"ÑĢÐ°":5155,"ÓĻÐ·":5156,"Ð°Ð½Ñĥ":5157,"ĠÑģÐ°ÑĥÐ°Ð»":5158,"ĠÒĽÐ°Ð¼ÑĤÑĥÐ´Ñĭ":5159,"ĠÐ¶Ð°Ò£Ð°ÑĢ":5160,"ĠÐĶÐµÐ¼":5161,"ÑĭÑĪÑĤÑĭ":5162,"ÑģÑĤÑĸ":5163,"ÒļÑĭÐ·ÑĭÐ»Ð¾ÑĢÐ´Ð°":5164,"ĠÐµÐ»Ð³Ðµ":5165,"ĠÐ°ÐºÑĨÐ¸Ð¾Ð½":5166,"ĠÑĢÓĻÑģÑĸÐ¼":5167,"ÒļÐ¾ÒĵÐ°Ð¼":5168,"Ġ2007":5169,"ĠÐ±ÑĸÐ»Ð³ÐµÐ½":5170,"Ð°Ð½Ð½ÑĭÒ£":5171,"ĠÐ±ÑĸÐ»ÐµÐ´Ñĸ":5172,"Ð°ÑĥÑĭÐ½":5173,"ÐĨÐł":5174,"ĠÓĻÐ»ÐµÐ¼Ð´ÐµÐ³Ñĸ":5175,"ÓĻÐº":5176,"ĠÐºÐ°Ð·Ð°Ðº":5177,"ÐĲÒĴ":5178,"Ð´ÐµÑĢÑĸÐ½Ð´Ðµ":5179,"ĠÐ¶Ò¯Ð¹ÐµÐ»Ñĸ":5180,"ÑĸÑĤ":5181,"ĠÓĻÐ´ÑĸÑģÑĤÐµÐ¼":5182,"ĠÐºÑĸÑĢÑĥ":5183,"ĠÒĽÐ°Ð»Ð°Ð½ÑĭÒ£":5184,"ĠÐ¾ÑĤÐ°Ð½Ð´ÑĭÒĽ":5185,"ĠÒĽÐ¾Ð»Ð°Ð¹Ð»Ñĭ":5186,"ĠÒĽÒ±ÑĢÐ°Ð¼ÑĭÐ½Ð´Ð°":5187,"ĠÐĸÐµÒ£":5188,"ÐķÒ£Ð±ÐµÐº":5189,"ĠÐ¼Ò¯ÑĪÐµ":5190,"Ð°ÑĢÐ°Ð±Ð¸":5191,"ĠÐ±Ð°ÑĢÑĭÐ½ÑĪÐ°":5192,"ĠÐ¼ÓĻÑģÐµÐ»ÐµÐ»ÐµÑĢÐ´Ñĸ":5193,"ĠÑģÐ°Ð¿Ð°ÑģÑĭ":5194,"ĠÐ±Ð°ÑģÑĪÑĭÐ»Ð°ÑĢÑĭ":5195,"Ð»ÐµÐ¼Ñĸ":5196,"ĠÒ±ÑģÑĭÐ½ÑĭÑģÑĤÐ°ÑĢ":5197,"ĠÐ¾ÑĢÑĭÐ½Ð´Ñĭ":5198,"ĠÒ±ÒĽÑģÐ°Ñģ":5199,"ĠÐ¼ÓĻÑģÐ»Ð¸ÑħÐ°ÑĤ":5200,"ĠÐĳÐµÐ¹":5201,"66":5202,"ĠÓ©ÑģÑĸÐ¿":5203,"ĠÒĽÐ°Ð»Ð°Ð¼":5204,"ĠÐ±Ð¾Ð»ÒĵÐ°Ð½Ñĭ":5205,"Ð´ÑĭÐ½":5206,"ĠÐµÑģÑĤÑĸ":5207,"99":5208,"ĠÐ¶ÐµÑĤÑĥ":5209,"Ó¨Ð½ÐµÑĢ":5210,"ĠÒ±Ð¼ÑĭÑĤ":5211,"ĠÐ´Ð°Ò£":5212,"ĠÑįÐºÑģÐ¿Ð¾ÑĢÑĤ":5213,"ÒĽÒ±Ð¶Ð°ÑĤ":5214,"ĠÐºÒ¯Ð½ÑĤÑĸÐ·Ð±ÐµÐ»ÑĸÐº":5215,"ĠÒĽÒ±ÑĢÑĭÐ»Ð´Ñĭ":5216,"ĠÑģÐ¾Ð´Ð°Ð½":5217,"ĠÑģÐ¸":5218,"ĠÐ¶Ð°Ò£ÒĵÑĭÑĢÑĤÑĥ":5219,"ĠÐºÐµÒ£ÑĸÐ½ÐµÐ½":5220,"ÐµÑħ":5221,"ÑģÑĤÐ°":5222,"ĠÐºÑĸÐ½":5223,"ĠÑĪÐ°Ð¿":5224,"Ð¸ÑıÑĢ":5225,"Ò±Ð»ÑĭÐ½ÑĭÒ£":5226,"88":5227,"ĠÒ¯ÑģÑĤÑĸÐ½Ðµ":5228,"ĠÓĺÑĢÐ¸Ð½Ðµ":5229,"ĠÐ¼ÐµÐ¼":5230,"Ð°ÑĤÐ¸Ð²ÑĤÑĸ":5231,"ÑģÑĤÐ°ÑĢÑĭ":5232,"ĠÐ³Ð°Ð·ÐµÑĤ":5233,"ĠÑĤÐ°Ð±Ñĥ":5234,"ĠÑģÐ°Ð»ÑĭÑģÑĤÑĭÑĢÒĵÐ°Ð½Ð´Ð°":5235,"Ò°Ò°":5236,"ÐĶÐĹ":5237,"Ð°ÒĵÐ°Ð¹":5238,"ĠÐ¼ÐµÐ¹ÑĢÐ°Ð¼":5239,"ĠÐ±Ð¾ÑĢ":5240,"ĠÐ´Ð¾Ð»Ð»Ð°ÑĢ":5241,"ĠÑģÐ¼":5242,"Ð¾ÒĵÐ°ÑĢÒĵÑĭ":5243,"ĠÐ¡Ð¾Ð½ÑĭÒ£":5244,"Ð¾Ð¼ÐµÑĤÑĢ":5245,"ĠÐ±ÓĻÑĢÑĸÐ½":5246,"ÑĪÐ°Ð»ÑĭÒĽÑĤÑĭ":5247,"ĠÒĽÐ°ÑĤÑĭÑģÑĥÑĭÐ¼ÐµÐ½":5248,"ĠÐ¶Ð¾Ð±Ð°ÑģÑĭÐ½":5249,"ĠÒĽÑĭÑģÒĽÐ°ÑĢ":5250,"ĠÐ±Ð°ÑģÑĪÑĭÐ»ÑĭÒĽ":5251,"ÑĭÑģÑĭÐ¼ÐµÐ½":5252,"ĠÐ±Ð°ÑģÑĭ":5253,"ĠÓ©Ð·ÑĸÒ£":5254,"ĠÒĽÐ°ÑĤÑĭÐ½":5255,"ĠÑĪÐ¾Ð»":5256,"ĠÒĽÐ°ÑĤÐ°ÑĢÑĭÐ½Ð°":5257,"Ġ500":5258,"ĠÐ¡ÐµÑĢÑĸÐº":5259,"Ð±Ò±Ð´Ð°Ð½":5260,"Ð¡Ò±ÑĢÐ°ÒĽ":5261,"ÐĳÐ°Ð¹":5262,"ÒĽÐ¾Ð¹":5263,"Ġâ":5264,"ĠÐ¶Ð°ÒĵÐ´Ð°Ð¹ÑĭÐ½Ð°":5265,"Ð¢Ð°Ñĥ":5266,"Ð¸ÑıÐ´Ð°ÒĵÑĭ":5267,"ÑĭÐ¼Ð½ÑĭÒ£":5268,"ĠÐµÐºÐµÐ½Ñĸ":5269,"ĠÑħÐ°Ð±Ð°ÑĢÐ»Ð°Ð¼Ð°":5270,"ĠÑĪÑĭÐ½Ð°Ð¹Ñĭ":5271,"ĠÓ©Ð½ÐµÑĢÑĸ":5272,"ĠÒļÑĭÑĢÒĵÑĭÐ·":5273,"Ð«ÐĿÐ«Ò¢":5274,"ĠÒĽÐ°Ð¹Ð´Ð°":5275,"ĠÒļÑĥ":5276,"ÑģÐºÐµÐ¼ÐµÐ½":5277,"ÑĪÐ°ÑĢÑĥÐ°":5278,"ĠÐµÑģÐµÐ±Ñĸ":5279,"ĠÐ¦":5280,"Ð¼ÑĥÐ½":5281,"ĠÑģÐ°ÒĽÑĤÐ°Ð¿":5282,"ĠÐ´ÐµÒ£Ð³ÐµÐ¹Ð´ÐµÐ³Ñĸ":5283,"Ð´ÑĭÒĽÑĤÑĭ":5284,"ÑĢÐµÐ·Ð¸Ð´ÐµÐ½ÑĤ":5285,"ĠÐ±Ð¾Ð»ÑģÐ°ÒĽ":5286,"ÐµÑĢÐ²":5287,"Ð°ÑĤÐµÐ¼Ð°ÑĤÐ¸ÐºÐ°":5288,"Ð¢Ð«":5289,"ĠÐºÑĸÑĢÐµÐ´Ñĸ":5290,"ĠÑĤÑĥÒĵÑĭÐ·":5291,"ĠÑĸÑĪÑĸÐ½Ð´ÐµÐ³Ñĸ":5292,"ĠÐĶÐµÐ³ÐµÐ½Ð¼ÐµÐ½":5293,"ĠÐ£ÐĶÐĹ":5294,"ĠÐ¶ÐµÒ£ÑĸÐ¼Ð¿Ð°Ð·":5295,"ĠÒĵÐ°ÑģÑĭÑĢÐ»Ð°ÑĢ":5296,"Ġ300":5297,"ĠÐ¸Ð½ÑĤÐµÑĢ":5298,"he":5299,"ĠÑħÐ°Ð½Ð´Ñĭ":5300,"ĠÑĪÐµÐºÐ°ÑĢ":5301,"acebook":5302,"ĠÒĽÑĭÐ·Ð¼ÐµÑĤÑĤÑĸÒ£":5303,"ÑĭÒĽÑĤÑĭÒ£":5304,"ĠÑĤÑĸÐ»Ð´Ñĸ":5305,"ĠÐ²ÐµÐ±":5306,"ÑĤÑĸÐ³ÑĸÐ½ÑĸÒ£":5307,"ĠÓĻÐ»ÑĸÐ¿Ð±Ð¸":5308,"ov":5309,"ĠÐ¸Ð½ÑģÑĤÐ¸ÑĤÑĥÑĤÑĭ":5310,"ÓĻÑĢÑĸÐ¼":5311,"ðŁ":5312,"ÑĤÐ°Ð»ÑĭÒĽ":5313,"ph":5314,"ĠO":5315,"ĠÐ°Ð¹ÑĭÑĢÐ¼Ð°":5316,"ÒĽÐ°Ð¹Ñģ":5317,"ĠÑĤÒ±Ò£ÒĵÑĭÑĪ":5318,"ĠÑģÑĤÑĢÐ°ÑĤÐµÐ³Ð¸ÑıÐ»ÑĭÒĽ":5319,"ĠÐĳÐµÐº":5320,"Ð½Ð°ÑĢ":5321,"ĠÐ¼Ð°Ñģ":5322,"ÐĳÐ¢":5323,"ĠÐ¾ÒĽÑĥÐ»ÑĭÒĽ":5324,"ĠÑĤÐ¾ÒĽÑģÐ°Ð½ÑĭÐ½Ð´Ð°ÒĵÑĭ":5325,"stan":5326,"ÑĥÐ½Ð¸":5327,"ÑĢÐ¸ÑĤÐ°Ð½":5328,"ĠÐºÓ©Ð¼ÑĸÑĢ":5329,"Ð¶Ðµ":5330,"Ð·ÐµÑĢÑĤÑĤÐµÑĥ":5331,"Ð°Ð¼Ð´Ñĭ":5332,"ĠÐ·Ð°Ð¼Ð°Ð½Ð°ÑĥÐ¸":5333,"ĠÑĪÐ°Ð¼Ð°Ð¼ÐµÐ½":5334,"ĠÒĽÐ°Ð¿":5335,"ÐµÐ´Ð¾Ð¼ÑģÑĤÐ²":5336,"Ð¸Ð½Ð³Ñĸ":5337,"ĠÑĢÑĥÑħ":5338,"ĠÒĵÐ°ÑĢÑĭÑĪ":5339,"Ð´ÑĢÐ¾Ð»ÑĭÒĽ":5340,"Ð¼Ð¸Ð½Ð¸ÑģÑĤÑĢ":5341,"ĠÐ·Ð°ÑĢÐ´Ð°Ð¿":5342,"ĠÐ¶ÉĻ":5343,"ÑĭÐ¿ÑĤÑĭ":5344,"ĠÐ°ÑĤÒĽÐ°ÑĢÑĭÐ»ÒĵÐ°Ð½":5345,"ĠÐ¤ÑĢÐ°Ð½ÑĨÐ¸Ñı":5346,"ĠÐ½ÐµÐ³ÑĸÐ·ÑĸÐ½ÐµÐ½":5347,"ĠÐ¿ÓĻÑĤÐµÑĢ":5348,"Ð°ÑĤÑĭÐ½ÑĭÐ½":5349,"ĠÐ¼ÑĭÐ½":5350,"Ð°Ð¼Ð°Ð»":5351,"Ġa":5352,"Ġb":5353,"ĠÐ¶ÑĭÐ»ÑĭÐ½Ð°":5354,"ĠÐľÑĸÐ½Ðµ":5355,"ĠÒ±ÑĢÐ¿":5356,"ĠÐºÑĥÑĢÑģÑĤÑĭÒĽ":5357,"ĠÐºÐµÑĤÑĥ":5358,"ĠÐ¶Ò±Ð¼ÑĭÑģÑĤÑĭ":5359,"ĠÑĢÐµÑĦÐµÑĢÐ°ÑĤÑĤÐ°ÑĢ":5360,"ĠÓĻÐ»ÐµÑĥÐ¼ÐµÑĤ":5361,"ĠÒĽÑĭÐ·Ð¼ÐµÑĤÐºÐµ":5362,"Ð°ÑĤÐµÐ³Ð¾ÑĢ":5363,"Ð´ÑĸÐ»ÑĸÐº":5364,"ÑĤÑĭÒ£ÑĭÐ·":5365,"ĠÒĽÒ±Ð¿Ð¸Ñı":5366,"Ð¸ÑĢÑĥ":5367,"ĠÓ¨Ð·Ð±ÐµÐºÑģÑĤÐ°Ð½":5368,"ĠÐ¶Ð¾Ð»Ð¼ÐµÐ½":5369,"ĠÑģÐ°Ð»ÑĭÐ½Ð°Ð´Ñĭ":5370,"ÑĭÑĢÑĤÒĽÑĭ":5371,"ĠÑĤÐµÑħÐ½Ð¸Ðº":5372,"ut":5373,"ĠÒĽÒ±ÒĽÑĭÒĽÑĤÐ°ÑĢÑĭÐ½":5374,"ĠÒĽÒ±ÑĢÐ°Ð»Ð´Ð°ÑĢ":5375,"Ð±ÑĸÑĢÑĸÐ½Ðµ":5376,"ĠÐ±ÐµÑĢÐµÐ¼ÑĸÐ·":5377,"ĠÐºÐµÐ¿ÑĸÐ»Ð´ÑĸÐº":5378,"ĠÑģÐ°Ð½Ð°ÑĤÑĭ":5379,"75":5380,"Ġ2008":5381,"ÒĽÑĭÐ½Ð´Ñĭ":5382,"ĠÐ±Ð°ÑģÑĤÐ°Ð¹Ð´Ñĭ":5383,"ĠÐºÒ¯ÑĪÑĸ":5384,"Ð¢Ó©":5385,"ĠÐ´Ó©Ò£Ð³ÐµÐ»ÐµÐº":5386,"ĠÑĤÐ°ÑĢÑĤÑĭÐ¿":5387,"ÐµÐ»ÑĤÐ¾ÒĽÑģÐ°Ð½":5388,"ĠÐºÐ°Ð±Ð¸Ð½":5389,"Ð±Ò¯ÑĢ":5390,"ĠÑĤÑĸÐ»ÑĸÐ¼":5391,"ĠÐ¼ÑĭÒ£Ð½Ð°Ð½":5392,"ĠÑĤÑĭÒ£Ð´Ð°Ñĥ":5393,"ĠÐºÒ¯Ð½Ð´ÐµÐ»ÑĸÐºÑĤÑĸ":5394,"ÑĢÐ¸Ð¾":5395,"ÑĭÒ£Ð´Ñĭ":5396,"\".":5397,"ÐĲÐ»ÒĵÐ°ÑĪÒĽÑĭ":5398,"ĠÐĶÒ¯Ð½Ð¸":5399,"ĠÐ±Ð°ÑģÑĭÐ½Ð°Ð½":5400,"ĠÑĢÐµÐ´Ð°Ðº":5401,"ĠÒĽÐ°ÑĢÐ°Ð¶Ð°ÑĤ":5402,"ĠÑıÐ·ÑĭÐºÐµ":5403,"ÐľÓĻÑĤÑĸÐ½":5404,"ĠÐºÐµÐ»Ð³ÐµÐ½Ð´Ðµ":5405,"ĠÒ¯Ð¹Ð³Ðµ":5406,"Ð¾ÑĪ":5407,"ĠÐ°ÑģÑĤÑĭ":5408,"ĠÒĽÐ°Ð±ÑĸÐ»ÐµÑĤÑĸÐ½":5409,"ÓĻÑĢÐµÐºÐµÑĤ":5410,"ÐŀÒ£ÑĤÒ¯ÑģÑĤÑĸÐº":5411,"ĠÓ©Ð·Ð³ÐµÑĢÑĸÑģ":5412,"ÑĨÐ¸Ð°Ð»":5413,"ĠÐ¼ÑĸÐ½Ð´ÐµÑĤÑĸ":5414,"ĠÒĽÐ°Ð±ÑĭÐ»Ð´Ð°ÑĥÑĭÐ½Ð°":5415,"Ð¶Ð°Ð·":5416,"ĠÑĢÐµÑĤÑĤÐµ":5417,"ĠÐĲÑĤ":5418,"ĠÐ±ÐµÑĢÑĥÐ´Ñĸ":5419,"ĠÑĤÐ¾Ð»ÒĵÐ°Ð½":5420,"Ò¯Ð¼ÐºÑĸÐ½":5421,"ĠÑģÐµÐ±ÐµÐ¿ÑĤÑĸ":5422,"ĠÐ¼ÐµÑħÐ°Ð½Ð¸Ð·Ð¼":5423,"ĠÐ±Ó©Ð»ÑĸÐ½Ð³ÐµÐ½":5424,"ĠÐ°Ð»ÑĥÐ´Ñĭ":5425,"ĠÐ°ÒĵÑĭÐ¼Ð´Ð°ÒĵÑĭ":5426,"ĠÐĨÐĨÐĨ":5427,"41":5428,"ĠÓ¨Ð¼ÑĸÑĢ":5429,"ÑĸÐ½ÐµÑģÐµ":5430,"Ð»ÐµÐºÑģ":5431,"ĠÒ¯ÑģÑĤÑĸÐ½Ð´Ðµ":5432,"ĠÐ¼ÓĻÐ´ÐµÐ½Ð¸ÐµÑĤÑĸ":5433,"ĠÒĽÐ°ÑĢÐ°ÑģÑĤÑĭ":5434,"ĠÑĤÒ±ÑĢÒĵÑĭÑģ":5435,"Ð°ÒĵÐ°ÑĪ":5436,"ĠÐ¾Ð¿":5437,"ĠÐ¸ÑģÐ»Ð°Ð¼":5438,"ĠÐļÐ¾Ð½ÑģÑĤÐ¸ÑĤÑĥÑĨÐ¸Ñı":5439,"ĠÐµÑĢÐµÑģÐµÐº":5440,"ÑĤÐ°Ðº":5441,"ĠÑģÑĸÐ·Ð³Ðµ":5442,"ÐµÑĢÐ»ÐµÑĢ":5443,"ĠÐ±Ð»Ð¾Ð³":5444,"ÐľÐ¸Ð½Ð¸ÑģÑĤÑĢ":5445,"ĠÐ±ÐµÐ¹Ð±ÑĸÑĤ":5446,"Ð½Ð¸ÑĢ":5447,"Ò°Ðł":5448,"ĠÂ·":5449,"Ð·Ð´ÑĸÐº":5450,"ĠÐµÐ½Ð³ÑĸÐ·ÑĸÐ»Ð³ÐµÐ½":5451,"ĠÐ¾ÑĤÑĭÑĢÑĭÑģÑĭ":5452,"ĠÐĺÑģ":5453,"Ð´Ð°ÑĢÐ´Ð°Ð½":5454,"ĠÐºÐ°ÑĢÑĤÐ°ÑģÑĭ":5455,"ĠÒĽÐ¾Ð»Ð´Ð°Ð½ÑĭÐ»Ð°ÑĤÑĭÐ½":5456,"ĠÑģÓ©Ð·Ð´Ñĸ":5457,"ĠÐ¡ÑĭÑĢ":5458,"ĠÑħÐ°ÑĤÑĪÑĭÑģÑĭ":5459,"ĠÑģÓĻÑĤÑĤÑĸ":5460,"ÐµÐ´Ð°Ð³Ð¾Ð³Ð¸ÐºÐ°Ð»ÑĭÒĽ":5461,"ĠÑģÐ°Ð»Ð´Ñĭ":5462,"ĠÒĽÐ¾ÑģÑĭÐ¿":5463,"ĠÐºÓ©ÑĪÑĸÑĢÐ¼":5464,"ÐµÐ³ÑĸÐ½Ðµ":5465,"ĠÐķÐºÑĸÐ½ÑĪÑĸ":5466,"ĠÑĤÑĸÐ»ÑĸÐ½ÑĸÒ£":5467,"ĠÐºÐµÒ£ÐµÐ¹":5468,"ĠÐ±ÑĸÑĢÐ»ÐµÑģÑĤÑĸÐº":5469,"ed":5470,"ÐºÐµÑĤÐ¸Ð½Ð³":5471,"Ð°Ð´ÑĭÐ¼":5472,"ÐłÐµÑģÐµÐ¹":5473,"ÑģÐ°Ð¼Ð±Ð»ÐµÑı":5474,"Ġ(Â«":5475,"ĠÐºÐµÒ£ÐµÐ¹ÑĤÑĥ":5476,"ĠÐºÓ©ÑĢÑģÐµÑĤÑĸÐ»ÐµÐ´Ñĸ":5477,"ĠÐ¼ÑĭÒĽÑĤÑĭ":5478,"ĠÐ³ÐµÐ¾Ð³ÑĢÐ°ÑĦÐ¸Ñı":5479,"Ð°ÑĤÐ¸ÐºÐ°":5480,"ÒĴÑĭÐ»ÑĭÐ¼Ð¸":5481,"Ð¶ÐµÐº":5482,"ĠÒĽÐ°ÑĤÑĭÑģÑĥÒĵÐ°":5483,"ĠÐ¼ÐµÐºÑĤÐµÐ±ÑĸÐ½ÑĸÒ£":5484,"ĠÐ±Ò±ÒĽÐ°ÑĢÐ°Ð»ÑĭÒĽ":5485,"ĠÑĤÐµÐ¾ÑĢÐ¸ÑıÐ»ÑĭÒĽ":5486,"ÑģÑĭÐ½Ð´Ð°ÒĵÑĭ":5487,"ĠÐ¢Ð°Ð±Ð¸Òĵ":5488,"ĠÐľÒ±Ð½Ð´Ð°":5489,"ĠÐ¼Ð¸Ð»Ð»Ð¸":5490,"Ð³ÐµÑĢÐ»ÑĸÐº":5491,"ĠÑĤÒ±ÑĢÒĵÑĭÐ½Ð´Ð°ÑĢÑĭ":5492,"ÒĵÑĭÐ¿":5493,"Ð´ÑĭÑĢÐ°ÑĤÑĭÐ½":5494,"ĠÐºÐµÑĪÐµÐ½Ð´Ñĸ":5495,"ĠÐĲÑģÑĤÐ°Ð½Ð°Ð´Ð°":5496,"ĠÒ¯Ð¹ÑĢÐµÑĤ":5497,"ĠÐ°Ð¹Ð½Ð°Ð»Ð´Ñĭ":5498,"Ð¿Ð°Ð»Ñĭ":5499,"Ð¼Ð¾Ð½":5500,"ÑĢÐ¾Ñģ":5501,"ĠÐ¼Ð°Ð·Ð¼Ò±Ð½ÑĭÐ½":5502,"ÐµÐ»ÐµÑĢÐ³Ðµ":5503,"Ð°Ð¶Ð°Ð¹":5504,"ĠÐ¶Ð°Ð·Ð°Ð´Ñĭ":5505,"ĠÐ¶ÉĻÐ½Ðµ":5506,"ĠÒĽÐ°ÑĤÑĭÐ½Ð°ÑģÑĤÐ°ÑĢÑĭ":5507,"ĠÐ³ÑĢÐ°ÑĦ":5508,"ĠÐ¼Ð°ÒĽÑĤÐ°Ð½":5509,"ĠÐ½Ð°ÑĪÐ°ÑĢ":5510,"ĠÓĻÐ»ÐµÐ¼Ð½ÑĸÒ£":5511,"Ð¸ÑĤÑĭÐ½":5512,"ĠÑħÐ¸Ð¼Ð¸ÑıÐ»ÑĭÒĽ":5513,"ĠÐ¿Ð°Ð¹ÑĭÐ·Ñĭ":5514,"ÐµÐ»ÐµÐ¿":5515,"ĠÐ°Ð¼Ð°Ð»":5516,"ĠÐµÒ£Ð±ÐµÐ³Ñĸ":5517,"ĠÐļÐ¢":5518,"Ð°Ð¿Ð¾Ð½":5519,"ÐĸÐ°ÑĥÐ°Ð¿":5520,"ĠÐ·Ð°ÑĥÑĭÑĤ":5521,"ÑĤiÒ£":5522,"ĠÐ°ÑĥÐ¼Ð°ÒĵÑĭ":5523,"ĠÐ±iÐ»":5524,"Ð²Ð¸Ð´ÐµÐ¾":5525,"ĠÐ¡Ñĥ":5526,"Ð»ÐµÑĢÑĸÐ½Ð´Ðµ":5527,"ĠÐ±Ð¾Ð¹ÑĭÐ½Ð´Ð°":5528,"ĠÒĽÐ°Ð±ÑĭÐ»Ð´Ð°Ð´Ñĭ":5529,"ĠÐ¸Ð½Ð¶ÐµÐ½":5530,"Ð»Ñİ":5531,"ĠÑĪÐ¸ÐºÑĸÐ·":5532,"ĠÐ¾Ò£ÑĤÒ¯ÑģÑĤÑĸÐº":5533,"ĠÐ±ÐµÐ»Ð³ÑĸÐ»":5534,"ÐºÓ©Ð·":5535,"ĠÐºÐ¾Ð½Ñģ":5536,"ĠÑģÐ°Ð»Ð¼Ð°ÒĽ":5537,"ĠÐ±ÑĸÐ»ÐµÑĤÑĸÐ½":5538,"ĠÐµÐº":5539,"ĠÐ¶ÑĭÐ»Ñĥ":5540,"ĠÐµÐ»ÑĸÐ¼ÑĸÐ·Ð´Ðµ":5541,"Ð¾Ð½Ñĭ":5542,"ĠÐ¶ÐµÐ¼ÒĽÐ¾ÑĢÐ»ÑĭÒĽÑĤÑĭÒ£":5543,"ĠÑģÐ°":5544,"Ð³iÐ½":5545,"Ð°Ð¼Ð°ÑĪÐ°":5546,"79":5547,"Ð¸ÑĤÐ°ÑĢ":5548,"ÑĥÐ¼Ð°Ð½":5549,"ĠÐºÒ¯Ð½ÑĸÐ½ÐµÐ½":5550,"ĠÐ¶Ð°ÒĵÐ´Ð°Ð¹ÑĭÐ½":5551,"pp":5552,"Ð°ÑĥÑĪÑĭ":5553,"Ð°ÑĤÐ°ÑĢ":5554,"ĠÑĤÐ°Ð½ÑĭÑģÑĤÑĭÑĢÑĥ":5555,"ĠÐ¾Ð¹ÑĭÐ½Ð´Ð°ÑĢ":5556,"ÐļÓ©Ðº":5557,"ĠÐ¿Ð°Ð»":5558,"ĠÐµÑĢÐµÐºÑĪÐµÐ»ÑĸÐ³Ñĸ":5559,"ĠÒĵÐ°Ð»ÑĭÐ¼Ð´Ð°ÑĢ":5560,"ĠÐ´Ð¸Ð°Ð³Ð½Ð¾ÑģÑĤ":5561,"ÓĻÐ¼ÑĸÐ·":5562,"Ð¾ÑĢÒĵÐ°Ð½":5563,"Ð¿Ð°Ð¹Ð´Ñĭ":5564,"ĠÐ¶ÐµÑĢÐ´ÐµÐ½":5565,"ĠÒĽÒ±Ð±ÑĭÐ»ÑĭÑģ":5566,"ĠÒĽÐ¾ÑģÑĭÐ»":5567,"ĠÑħÐ°Ð±Ð°ÑĢÐ»Ð°Ð½Ð´ÑĭÑĢÑĥ":5568,"43":5569,"ĠÑĤÓĻÑĥÐµÐ»ÑģÑĸÐ·Ð´ÑĸÐº":5570,"09":5571,"ĠÐ¶Ð°ÑĢÑĭÑģ":5572,"ĠÐºÓ©ÑĤÐµÑĢÑĸ":5573,"ĠÑĤÐµÑĢÑĸÑģ":5574,"ĠÑĪÓĻÐºÑĸÑĢ":5575,"ĠÐĸÐ°Ò£Ð°Ð»ÑĭÒĽÑĤÐ°ÑĢ":5576,"ĠÐ±ÐµÑĢÑĥÑĪÑĸÐ½ÑĸÒ£":5577,"ÓĻÑģÑĸÐ»":5578,"Ð´ÑĸÒ£ÑĸÐ·":5579,"ĠÐ±Ð°ÒĵÐ´Ð°ÑĢÐ»Ð°Ð¼Ð°ÑģÑĭÐ½ÑĭÒ£":5580,"ÐµÐ²Ð°":5581,"--":5582,"ĠÐļÐ¡Ðł":5583,"ĠÑģÑĤ":5584,"ĠÐĲÑĥÐ´Ð°Ð½":5585,"ĠÒĽÐ¾ÑıÐ´Ñĭ":5586,"ÑĭÐ¼Ð´ÑĭÐ»ÑĭÒĽ":5587,"06":5588,"ÐķÐºÑĸ":5589,"ĠÑģÒ±ÑħÐ±Ð°ÑĤ":5590,"ÑģÑĤÑĢÑĥ":5591,"ĠÑģÑĭÐ½ÑĭÐ¿ÑĤÑĭÒ£":5592,"ĠÑĤÑĸÐ»Ð´ÐµÑĢÐ´Ñĸ":5593,"ÐĸÐ°Ð·":5594,"ÑĤÒ¯Ð»ÑĸÐº":5595,"ÑĤÐµÐ¹Ð´Ñĸ":5596,"ĠÑĭÑģÑĤÑĭÒĽ":5597,"ĠÐ¿Ð°Ð¹Ð´Ð°Ð»Ð°Ð½Ð°":5598,"ĠÐ¶Ð¾ÒĵÐ°ÑĢ":5599,"ĠÐ¿ÑĸÑĪ":5600,"ĠÐ±Ð¾Ð»ÑĥÑĭÐ½Ð°":5601,"ĠÓĻÐ´ÑĸÐ»":5602,"ĠÒĽÑĭÐ·Ð¼ÐµÑĤÑĪÑĸÐ»ÐµÑĢ":5603,"ĠÒ®ÐºÑĸÐ¼ÐµÑĤÑĸÐ½ÑĸÒ£":5604,"ĠÐķÐ»Ð±Ð°ÑģÑĭÐ½ÑĭÒ£":5605,"ĠÐ½ÐµÐ³ÑĸÐ·ÑĸÐ½":5606,"ĠÐ±Ð¾Ð»Ð°ÑĪÐ°ÒĵÑĭ":5607,"ĠÑģÑĤÑĥÐ´ÐµÐ½ÑĤÑĤÐµÑĢ":5608,"Ò±ÒĽÑģ":5609,"Ò®ÑĪ":5610,"ĠÐ¶ÑĥÑĢÐ½Ð°Ð»Ð¸ÑģÑĤ":5611,"Ð»ÑĭÒĵÑĭÐ½ÑĭÒ£":5612,"ĠÐ±ÐµÑĢÑĸÐ»":5613,"of":5614,"ĠÐ¼ÐµÐ½ÐµÐ´Ð¶":5615,"Ġ)":5616,"ĠÑĤÒ¯Ð»ÐµÐº":5617,"ĠÐºÐµÑĤÐµÐ¹ÑĸÐº":5618,"ĠÐ°Ð»Ð´ÑĭÐ½Ð´Ð°ÒĵÑĭ":5619,"ĠÐĸÐ¾ÒĵÐ°ÑĢÑĭ":5620,"ÐŃÐºÐ¾Ð½Ð¾Ð¼Ð¸ÐºÐ°Ð»ÑĭÒĽ":5621,"Ð¸Ð½Ð°Ð»":5622,"ĠÑĤÐµÐ³Ñĸ":5623,"ĠÐ»Ð°ÑĥÐ°Ð·ÑĭÐ¼Ð´Ñĭ":5624,"ĠÐ´Ð°Ð½":5625,"ÑĢÐ¾Ð½":5626,"ĠÐ¡Ð°ÑĢÑĭ":5627,"ĠÑģÓ©Ð·ÑĸÐ½":5628,"ĠÑĤÐ°Ð¿ÑģÑĭÑĢÐ¼Ð°Ð»Ð°ÑĢ":5629,"ĠÑģÐ°ÑĤÑĭ":5630,"ĠÐºÐ¾ÑĢÐ¿Ñĥ":5631,"ÑĭÐ»Ð¼ÑĭÑģÑĤÑĭÒĽ":5632,"ÓĻÐ´ÑĸÑģÑĤÐµÐ¼ÐµÐ»ÑĸÐº":5633,"ÒĵÐ°Ð»ÑĸÐ¼":5634,"ÐļÒ¯Ð½":5635,"ĠÐĸÐ°Ð»":5636,"ĠÐ°Ñħ":5637,"ĠiÑģ":5638,"ĠÐ¡Ð°Ð±Ð°ÒĽÑĤÑĭÒ£":5639,"Ð¢ÓĻÑĥÐµÐ»ÑģÑĸÐ·Ð´ÑĸÐº":5640,"ĠÒ¯Ð¹Ð´Ðµ":5641,"ĠÐ±ÑĸÐ»ÑĸÐ¼Ð´ÐµÑĢÑĸÐ½":5642,"ĠÐ±Ð°ÑģÑĤÐ°Ð»ÒĵÐ°Ð½":5643,"ĠÐ¶Ð¾Ð»Ð´Ð°Ñĥ":5644,"Ð´ÐµÑĢÑĸÐ¼ÐµÐ½":5645,"ĠÐ´Ð°Ð¹ÑĭÐ½Ð´Ð°Ð»":5646,"ĠÐ¶Ò±Ð¼ÑĭÑģÑĤÐ°ÑĢÐ´Ñĭ":5647,"Ð¿Ò±Ð»":5648,"ĠÐ¶Ò¯ÑĢÐµÑĤÑĸÐ½":5649,"ĠÐ¼ÐµÐºÑĤÐµÐ¿ÑĤÑĸÒ£":5650,"ÑħÐ¸":5651,"ĠÐºÐµÐ¹ÑĸÐ¿":5652,"ĠÐºÐµÑĢÐµÐ¼ÐµÑĤ":5653,"ĠÑĪÐ°ÑĢÐ°Ð»Ð°ÑĢÑĭ":5654,"ĠÑĤÐ°ÑĢÑĤÑĭÐ»":5655,"Ð°ÑĥÐ´Ð°Ð½":5656,"ĠÐ¶Ò¯ÑĢÐµÐ´Ñĸ":5657,"Ð¿Ð»Ð°ÑĤ":5658,"Ð´ÑĸÐºÑĤÑĸ":5659,"ĠÐ±Ð°ÑģÑĤÐ°Ð»":5660,"ĠÐ¼Ð¸ÐºÑĢÐ¾":5661,"ÐµÐ´Ð¸ÑĨÐ¸Ð½Ð°Ð»ÑĭÒĽ":5662,"ĠÒ¯Ð»Ð³ÐµÑĢ":5663,"ĠÐºÐµÐ¹Ð´Ðµ":5664,"ĠÓĻÑĢÐµÐºÐµÑĤÑĤÐµÑĢ":5665,"ĠÒĽÐ°ÑĢÐ°Ò£ÑĭÐ·":5666,"Ð¿ÑĢÐ¾":5667,"ĠÑĤÐ°Ð½ÑĭÐ¼Ð´ÑĭÒĽ":5668,"ĠÐºÐµÐ´ÐµÐ½":5669,"ĠÐ±ÑĸÑĢÐ»ÐµÑģÐºÐµÐ½":5670,"ĠÓ©ÐºÑĸÐ»Ñĸ":5671,"ĠÐ±ÑĸÐ»Ð´ÑĸÑĢÐ´Ñĸ":5672,"ĠÓ¨Ð½Ð´ÑĸÑĢ":5673,"ĠÐ°Ð½ÑĭÒĽÑĤÐ°Ð»Ð´Ñĭ":5674,"Ð¸Ð½Ð½ÑĸÒ£":5675,"Ð¡ÓĻ":5676,"ÐĳÒ¯Ð³ÑĸÐ½Ð³Ñĸ":5677,"Ð´ÑĭÑĢÐ°Ð´Ñĭ":5678,"ĠÐµÑģÑĤÐµ":5679,"ĠÓ©Ð·Ð´ÐµÑĢÑĸ":5680,"ÐµÑĤÐµÐ»":5681,"ĠÐ¼ÓĻÐ¶Ð±Ò¯ÑĢ":5682,"ĠÐµÐ»Ñĸ":5683,"Ð°Ð¹Ð¼ÑĭÐ·":5684,"ĠÒĽÐ¸Ñı":5685,"ĠÐ¼Ð°Ð¼Ð°Ð½Ð´Ð°Ð½":5686,"Ð»ÑĸÐ¼ÑĸÐ·":5687,"ĠÐ¶ÐµÑĤÐµÐºÑĪÑĸÑģÑĸ":5688,"Ð·Ð°Ð»":5689,"ĠÐ½Ð°Ð¼Ð°Ð·":5690,"Ġ%":5691,"ĠÒĽÐ¾ÑģÑĭÐ»ÒĵÐ°Ð½":5692,"iÐ½Ð´ÐµÐ³i":5693,"ĠÐ°Ð¹ÑĤÑĥÒĵÐ°":5694,"Ð¼Ð°ÒĵÑĭÐ½ÑĭÒ£":5695,"Ð¸Ð´Ñĭ":5696,"ÑĢÐ°Ð´":5697,"ĠÐ¼Ð°Òĵ":5698,"ÐµÑĢÐ»Ñĸ":5699,"ĠÐµÑģÐºÐµÑĢÐµ":5700,"ĠÑģÒ±ÑĢÐ°ÒĽÑĤÐ°ÑĢÑĭ":5701,"Ġm":5702,"ĠÐ¿ÑĢÐµ":5703,"Ð½ÐµÐº":5704,"Ð¸ÑĢÑĥÑĢÐ³":5705,"ÓĻÑĥÐ»ÐµÑĤ":5706,"ĠSt":5707,"ÑĪÐ°ÑĢÐ°":5708,"ÐłÐ£":5709,"ĠÐ±ÑĸÑĢÑĸÐ½":5710,"ĠÐ¼ÐµÑĤÐ°Ð»Ð»":5711,"Ð°ÑĤÐµÑĢÐ¸Ð°Ð»Ð´Ð°ÑĢÐ´Ñĭ":5712,"ĠÐ¼Ð°ÒĽÐ°Ð»Ð°":5713,"ĠÐ¶Ò±Ð¼ÑĭÑģÑĭÐ½Ð°":5714,"ĠÐ¶Ð°Ð¿Ð¿Ð°Ð¹":5715,"ĠÐ°ÑĢÐ°Ð»Ð°Ñģ":5716,"ÐķÐ¢Ð¢ÐĨ":5717,"ĠÐ´Ð¾Ð¼":5718,"ĠÐĳÐ°ÑģÒĽÐ°":5719,"ĠÐ¼Ð°ÑħÐ°Ð±Ð±Ð°ÑĤ":5720,"ĠÒĽÐ¾ÑĪ":5721,"Ð¸Ð¼Ð½":5722,"ĠÑģÐ¾ÑĢ":5723,"ÐŁÐ°Ð²Ð»Ð¾Ð´Ð°ÑĢ":5724,"03":5725,"Ð°ÑĤÑĭÐ½Ð´Ð°":5726,"ĠÐ°ÒĽÐ¿Ð°ÑĢÐ°ÑĤÑĤÐ°ÑĢ":5727,"ĠÐ¼Ð°Ð³Ð¸ÑģÑĤÑĢ":5728,"ÓĺÐĿÐķ":5729,"ÑħÐ°Ð½Ð¾Ð²":5730,"ÑĭÐ¼ÑĭÐ·Ð´Ð°":5731,"ĠÐ¶Ð°Ð·Ð±Ð°ÑĪÐ°":5732,"ÐĸÐµÑĤ":5733,"ÓĺÐ¹":5734,"Ð»Ð°ÑĢÑĭÐ½Ð´Ð°":5735,"ÐºÑĤ":5736,"ÑħÑĤÐ°ÑĢ":5737,"Ð¶Ð°Ð½Ð¾Ð²":5738,"ÐĸÐ°Ò£Ð°Ð»ÑĭÒĽÑĤÐ°ÑĢ":5739,"Ð°Ð¼Ð°Ð½Ñĭ":5740,"ĠÐĳÒ±ÒĵÐ°Ð½":5741,"ĠÐ±Ñĥ":5742,"ĠÐŁÑĢÐµÐ¼ÑĮÐµÑĢ":5743,"ĠÑĤÑĸÐ»ÑĸÐ½Ð´ÐµÐ³Ñĸ":5744,"ÑĤÑĭÒĵÑĭÐ½":5745,"ÒļÐ°ÑĢÐ°ÒĵÐ°Ð½Ð´Ñĭ":5746,"ÑĪÐµÐ³Ñĸ":5747,"ÑģÐ¾Ð½":5748,"ĠÐ¿Ð¾ÑĪÑĤÐ°":5749,"Ð¸ÑıÐ½Ñĭ":5750,"Ġ>":5751,"78":5752,"ĠÐ¿Ð»Ð°Ð½Ñĭ":5753,"ĠÐ·Ð°ÒĽÑĭÐ¼":5754,"ĠÒĽÐ¾Ð»Ð´Ð°Ð½Ð°":5755,"ĠÑĢÐµÐ²":5756,"ĠÑĤÑĸÐ»Ð´Ðµ":5757,"ĠÐºÐµÐ·ÐµÒ£ÑĸÐ½Ð´Ðµ":5758,"ÑĥÑĢÐ¾Ñĩ":5759,"ĠÒĽÑĭÐ·Ð´Ð°ÑĢ":5760,"ĠÑĤÒ±ÑĢÒĵÑĭÐ½Ð´Ð°ÑĢÑĭÐ½ÑĭÒ£":5761,"ĠÐ¼Ð°ÑĤÐµÑĢÐ¸Ð°Ð»Ð´Ð°ÑĢÑĭÐ½":5762,"Ð°ÐºÑĤÐ¸Ð²ÑĤÑĸ":5763,"ĠÐ±Ð¾Ð¿":5764,"ĠÐŀÑģÑĭÐ½Ð´Ð°Ð¹":5765,"Ð¸ÒĵÐ°":5766,"ĠÐ¶Ò¯Ð·ÑĸÐ½Ð´Ðµ":5767,"ĠÐ¾ÑĢÑĭÐ½Ð±Ð°ÑģÐ°ÑĢÐ»Ð°ÑĢÑĭÐ½ÑĭÒ£":5768,"ĠÓ©ÑĤÐµÑĥ":5769,"ĠÐľÓĻÐ¶":5770,"ĠÑĤÐ°Ð»Ð°Ð¿ÑĤÐ°ÑĢÑĭÐ½Ð°":5771,"ĠÐ¢Ó©Ð»":5772,"ÐĲÑĤÐ°":5773,"ĠÑģÒ¯ÑĢÑĥ":5774,"ĠÒĽÐ°Ð»ÑĭÒ£":5775,"ĠÐĸÓĺÐĿÐķ":5776,"ĠÐ½ÐµÑĪÐµ":5777,"ĠÑĦÐ°ÐºÑĤÑĸ":5778,"Ð¸Ð¼Ð¿Ð¸Ð°Ð´":5779,"Ð±Ð°ÐµÐ²ÑĤÑĭÒ£":5780,"ĠÐ¶ÐµÑĤÐºÑĸÐ»ÑĸÐºÑĤÑĸ":5781,"ĠÐ¶Ð¾ÑĢ":5782,"ĠÐŀÐ´Ð°Ð½":5783,"ÐºÐµÐ·":5784,"ĠÐ¶Ð¸Ð½Ð°Ñĥ":5785,"Ð¶Ð°Ð±":5786,"Ð±Ó©":5787,"ĠÐ¼ÐµÐ¹ÑĸÑĢ":5788,"ĠÐ¢Ð°ÑĢÐ¸Ñħ":5789,"Ð°Ð´Ð°Ð½":5790,"68":5791,"ĠÐ¶Ð°Ò»":5792,"ĠÐ±ÑĸÐ»ÑĸÐ¼Ñĸ":5793,"Ġ2006":5794,"ĠÐºÓ©ÑĤÐµÑĢÑĥ":5795,"ÑĸÑģÑĸÐ½Ðµ":5796,"ĠÐºÓ©ÑĤÐµÑĢÑĸÐ¿":5797,"ÐµÐ½Ð´Ñĸ":5798,"ĠÐ½Ò¯Ðº":5799,"ĠÒĽÐ°Ð´ÑĸÑĢ":5800,"ĠÐ±Ó©Ð»Ð¼":5801,"ĠÐ°ÑĤÒĽÐ°ÑĢÐ°Ð´Ñĭ":5802,"ĠÐ°ÑģÐ¿Ð°Ð¿":5803,"Ð¤Ð°ÑĢÐ°Ð±Ð¸":5804,"ĠÐĶÐ¾Ñģ":5805,"ĠÐłÐµÑģÐ¿ÑĥÐ±Ð»Ð¸ÐºÐ°ÑģÑĭÐ½Ð´Ð°ÒĵÑĭ":5806,"ĠÐºÓ©ÑĢÑĥ":5807,"ĠÐ¥Ð°Ð»ÑĭÒĽÒĽÐ°":5808,"ÑįÐ½":5809,"ĠÐ¶Ò±Ð¼ÑĭÑģÑĭÐ½ÑĭÒ£":5810,"Ð°Ð²Ð»":5811,"ĠÐ¼Ð°ÑĤÐµÐ¼Ð°ÑĤÐ¸ÐºÐ°":5812,"ĠÐºÑĸÑĤÐ°Ð±":5813,"Ð¾ÑģÑĦÐµÑĢ":5814,"ĠÐ¢ÑĸÐ¿ÑĤÑĸ":5815,"ĠÒ¯Ð¹Ð´ÑĸÒ£":5816,"ĠÐĸÐµÐºÐµ":5817,"ĠÒĽÑĭÐ·ÑĭÒĵÑĥ":5818,"ĠÐ´ÐµÐ¿Ð°ÑĢÑĤÐ°Ð¼ÐµÐ½ÑĤÑĸÐ½ÑĸÒ£":5819,"ÐĲÐĳ":5820,"ĠÑģÑĭÐ½Ð´Ñĭ":5821,"ĠÐ¶ÐµÑĤÑĸÑģ":5822,"ĠÐłÐµÑģÐ¿ÑĥÐ±Ð»Ð¸ÐºÐ°ÑģÑĭÐ½Ð´Ð°":5823,"ĠÐºÐ°Ð·Ð°ÐºÑĪÐ°":5824,"ĠÐ¾ÑĢÐ½Ð°ÑĤÑĥ":5825,"ĠÒĽÑĭÐ·Ñĭ":5826,"Ð¢Ð£":5827,"Ð±ÑĭÐ·":5828,"ÒļÒ±ÑĢÐ¼ÐµÑĤÑĤÑĸ":5829,"ĠÒĽÐ°Ð¼ÑĤÐ¸Ð´Ñĭ":5830,"ÑĥÑĢÐ¾ÑĩÐ½ÑĭÐµ":5831,"Ð´Ð°Ð½Ñĥ":5832,"ĠÑĤÐ°Ð»Ð°Ð¹":5833,"ÑĭÑģÑĤÐ°ÒĵÑĭ":5834,"ĠÐ¡ÑĸÐ·Ð´ÑĸÒ£":5835,"ĠÑĢÓĻÐ¼ÑĸÐ·":5836,"ĠÐºÐµÐ»ÑģÐµ":5837,"ĠÐ²ÐµÐ´Ð¾Ð¼ÑģÑĤÐ²":5838,"Ð°ÒĵÑĭÐ½Ð´Ð°":5839,"ĠÐºÐµÐ½ÑĤ":5840,"ĠÐĳÐµÐ»":5841,"ÐĸÐ¾Ð»":5842,"ĠÐ¢Ð°ÑĢÐ°Ð·":5843,"ĠÐ°ÑĤÑĭÐ½Ð°Ð½":5844,"ĠÐ°ÑĢÐ´Ð°Ð³ÐµÑĢ":5845,"ĠÐ°Ð»Ð´ÑĭÒ£ÒĵÑĭ":5846,"ĠÑĤÒ¯ÑĢÐºÑĸ":5847,"ĠÐĳÐ°Ð»Ð°":5848,"ĠÐºÑĸÐ»":5849,"ĠÑĪÐ°ÒĽÑĭÑĢÑĭÐ¼":5850,"ĠÐ°ÑĤÐ°Ð»Ð°ÑĤÑĭÐ½":5851,"Ð´ÑĸÐ³ÑĸÐ½ÐµÐ½":5852,"ĠÐ°Ð´Ð°Ð¼Ð³ÐµÑĢÑĪÑĸÐ»ÑĸÐº":5853,"Ð¿Ð»Ð°ÑĤÐ½Ð¾":5854,"Ð¿ÐµÐ¹ÑĤÑĸÐ½":5855,"ĠÐ°Ð¹Ð½Ð°Ð»ÑĭÐ¿":5856,"ÑĪÐ°ÑģÑĭ":5857,"ĠÐ¼Ð¸Ð»Ð»Ð¸Ð°ÑĢÐ´":5858,"ĠÐ½ÓĻÑĢÑģ":5859,"ĠÑģÐµÐ»":5860,"Ð¸ÐºÐ¸Ð¿ÐµÐ´Ð¸Ñı":5861,"ÑĪÑĸÑĢ":5862,"ĠÐ±ÐµÑĤÑĸÐ½ÐµÐ½":5863,"ĠÐºÐµÐ·Ð´ÐµÐ³Ñĸ":5864,"Ð³ÐµÐ½Ð´Ðµ":5865,"ĠÐĲÑı":5866,"ĠÑĤÑĭÐ½ÑĭÑģ":5867,"ĠÐ¶ÐµÑĤÐºÑĸÐ·Ð´Ñĸ":5868,"ÐĲÐĹÐĲÒļÐ¡Ð¢ÐĲÐĿ":5869,"Ð°Ð¼ÑĭÐ·Ð´ÑĭÒ£":5870,"ĠÒĽÒ±ÑĤÒĽÐ°ÑĢ":5871,"02":5872,"ĠÐµÐ»Ð´Ðµ":5873,"Ð´Ð°ÒĵÑĭÐ½ÑĭÒ£":5874,"Ð³Ð°Ð·":5875,"ĠÐļÐµÐ¹ÑĸÐ½":5876,"ĠÐºÓ©Ð»ÐµÐ¼ÑĸÐ½Ð´Ðµ":5877,"ĠÑĦÐµÑģÑĤÐ¸Ð²":5878,"ÑĥÐ°Ð½":5879,"Ð¾Ð¿ÐµÐ´":5880,"ï»":5881,"ĠÐ¶Ò¯ÑĢÐ³ÑĸÐ·ÑĸÐ»":5882,"Ġ2005":5883,"ÐºÐµÑĢÑĤÑĥ":5884,"ĠÑĤÑĸÐ»ÑĸÐ½ÐµÐ½":5885,"ĠÐ±ÐµÐ»Ð³ÑĸÐ»ÐµÐ½":5886,"Ð¾ÑĢÐ´":5887,"04":5888,"Ð¨ÑĭÒĵÑĭÑģ":5889,"aq":5890,"ĠÒĽÒ±Ñģ":5891,"Ð´ÐµÑĤÑĥ":5892,"ĠÐ°Ð»Ð°Ð¼ÑĭÐ·":5893,"ĠÓ©Ð¼ÑĸÑĢÐ³Ðµ":5894,"ĠÐ±ÐµÑģÐ¿Ð»Ð°ÑĤÐ½Ð¾":5895,"ĠÐ¶Ð°ÑĢÐ½Ð°Ð¼Ð°":5896,"ĠÐ¶Ð¾Ð»ÑĭÐ½Ð´Ð°":5897,"ĠÐ¢ÐµÐ¼ÑĸÑĢ":5898,"ÐŁÑĢÐµÐ·Ð¸Ð´ÐµÐ½ÑĤ":5899,"ÑĤÑĸÐ»ÑĸÐº":5900,"ĠÐ´ÑĭÐ±ÑĭÑģ":5901,"ĠÐ±ÐµÐ»Ð³ÑĸÑģÑĸ":5902,"ÑĢÐµ":5903,"ÑģÐ¸Ð´":5904,"ĠÐ±ÐµÑĤÑĤÐµÑĢ":5905,"ĠÐ¶Ð°Ò£Ð°ÑĢÑĤÑĥ":5906,"ĠÒļÐ¾Ð»":5907,"Ġ45":5908,"ï»¿":5909,"ĠÐ±ÓĻÑģÐµÐºÐµÐ³Ðµ":5910,"ĠÐ¾ÒĽÑĭÑĤÑĥÐ´ÑĭÒ£":5911,"Ð°ÑĤÑĤÐ°Ñĥ":5912,"Ð¿Ñĸ":5913,"ÒļÐ¾Ñģ":5914,"ĠÐºÐ»Ð¸Ð½":5915,"ÑĤÐ°ÑĢÐ»ÑĭÒĽÑĤÐ°Ð¹":5916,"ĠÑĤÒ±ÑĤ":5917,"ĠÒ¯ÑĢÐ´ÑĸÑģ":5918,"ĠÑħÐ¸Ð¼Ð¸Ñı":5919,"ÐºÐµÒ£":5920,"ÐĲÑģ":5921,"ĠÑĢÐµÑģÑĸÐ¼":5922,"III":5923,"ĠÒĽÐ°ÑģÐ¸ÐµÑĤÑĤÑĸ":5924,"ĠÐµÐ»ÐµÑĥ":5925,"Ð¿ÐµÑĥ":5926,"ĠÐºÐµÐ»ÑĸÐ½":5927,"ĠÐ¡Ð°Ð½":5928,"ÐĸÐ¾ÒĵÐ°ÑĢÑĭ":5929,"Ġk":5930,"ĠÐ°ÑģÑĭÐ¿":5931,"Ð¶Ð°ÒĽ":5932,"ĠIV":5933,"ĠÐºÐµÐ·ÑĸÐ½Ð´ÐµÐ³Ñĸ":5934,"ÐĨÐĹ":5935,"ĠÐ¶ÐµÐ»ÑĤÐ¾ÒĽÑģÐ°Ð½Ð´Ð°ÒĵÑĭ":5936,"Ð´ÑĭÑĢÒĵÐ°Ð½":5937,"ĠÒ®ÐºÑĸÐ¼ÐµÑĤ":5938,"ĠÑĤÐµÐ»ÐµÐ°ÑĢÐ½":5939,"ĠÒļÒ±Ð»":5940,"ĠÐ¸Ð¼Ð°Ð½":5941,"ÐĨÐĽÐĨ":5942,"ĠÒļÐ°Ð·Ð°ÒĽÑģÑĤÐ°Ð½ÒĵÐ°":5943,"Ð¾Ð·Ð¸ÑĨÐ¸Ñı":5944,"ĠÑĪÒ±ÒĵÑĭÐ»":5945,"ĠÓ©Ò£ÑĸÑĢÐ»ÑĸÐº":5946,"ĠÐ¼ÑĥÐ·ÐµÐ¹":5947,"ĠÐ°Ð¹Ð½Ð°Ð»ÒĵÐ°Ð½":5948,"Ð»Ð°ÑĢÐ¼ÐµÐ½":5949,"ĠÐ°Ð¹Ð»ÑĭÒĽ":5950,"ĠÒĽÒ±Ð±ÑĭÑĢ":5951,"ĠÐ¡Ð°Ð»":5952,"Ð¾Ð¶":5953,"ĠÒļÑĭÐ·ÑĭÐ»":5954,"ĠÒ±Ð¼ÑĤÑĭÐ»":5955,"ĠÐ¼iÐ½":5956,"ĠÑĤÐ°Ð½ÑĭÑĤ":5957,"ÐµÐ½Ð´":5958,"ĠÐĳÐ°ÒĽÑĭÑĤ":5959,"ĠÐ±Ð°ÑģÑĪÑĭÐ»ÑĭÒĵÑĭÐ½ÑĭÒ£":5960,"ĠÐ´Ð°Ð¹ÑĭÐ½Ð´Ð°":5961,"Ð¡ÐŁÐŀ":5962,"ĠÑĤÐµÑģÑĤÑĸ":5963,"ĠÒĽÐ°Ð»Ð´ÑĭÒĽ":5964,"ÐĲÑĢÐ½Ð°Ð¹Ñĭ":5965,"ĠÑĤÐ°Ð¿ÑĤÑĭ":5966,"Ð°Ð´Ð°ÒĵÑĭ":5967,"ĠÐºÓ©ÑĪÐ±Ð°Ñģ":5968,"ĠÐ´ÐµÐº":5969,"Ð¶Ó©Ð½":5970,"ĠÑĤÑĥÑĢÐ½Ð¸ÑĢ":5971,"ĠÐ±Ó©Ð»ÑĸÐº":5972,"ĠÐ°Ð¹ÑĭÐ½ÑĭÒ£":5973,"ĠÑģÒ±ÑĢÐ°Ð¿":5974,"ÑĪÐµÑĤÐ°Ñĥ":5975,"ÐºÑĸÑĪÑĸ":5976,"ĠÐµÐ½Ð³ÑĸÐ·ÑĸÐ»Ð´Ñĸ":5977,"ĠÐĳÐ°ÑģÒĽÐ°ÑĢ":5978,"ĠÑĢÐ¾Ð¼":5979,"ÑĸÑĪÑĸ":5980,"Ð°ÑģÑĭÒ£":5981,"ÒĽÐ°ÑĤÑĭÐ½":5982,"ÑĭÑĢÐ¼Ð°":5983,"ĠÑĥÐ½Ð¸Ð²ÐµÑĢÑģÐ¸ÑĤÐµÑĤ":5984,"ÑĤÑĭÐ¼Ð´Ñĭ":5985,"ÑĪÑĸÐ»ÐµÑĢÐ³Ðµ":5986,"ÑĨÐ¸ÐºÐ»":5987,"ĠÐºÓ©ÐºÑĤÐµÐ¼":5988,"ĠÑįÐ¿":5989,"ÐĿÒ±ÑĢÑģÒ±Ð»ÑĤÐ°Ð½":5990,"ĠÓ©Ð»ÑĤÑĸÑĢ":5991,"ĠÐ´ÐµÐ¼Ð¾ÐºÑĢÐ°ÑĤ":5992,"ĠÑģÓ©Ð¹Ð»ÐµÑģ":5993,"Ð°ÑĤÐ°Ñĥ":5994,"ĠÐ±ÑĸÑĢÐ»ÐµÑģÑĸÐ¿":5995,"ĠÑĤÑĭÐ¼":5996,"Ð°Ð±Ð°Ð¹":5997,"ĠÑĤÒ¯Ð·ÐµÑĤÑĥ":5998,"ĠÐ¼ÓĻÑģÐµÐ»ÐµÐ½Ñĸ":5999,"ĠÐ¢Ð°Òĵ":6000,"Ġ*":6001,"ĠÓ©Ð½ÑĸÐ¼Ð´ÐµÑĢÑĸÐ½":6002,"ĠÐ¿ÑģÐ¸ÑħÐ¾Ð»Ð¾Ð³Ð¸Ñı":6003,"ĠÐºÑĢÐµÐ´Ð¸ÑĤ":6004,"ĠÐµÑĢÑĤÐµÐ³Ñĸ":6005,"ĠÑĤÐµÑħÐ½Ð¸ÐºÐ°":6006,"ĠÐ¶Ò¯ÑĢÐµÐ³Ñĸ":6007,"ĠÐ±Ð¾Ð»Ð¼Ð°ÒĽ":6008,"ĠÑĤÒ¯ÑģÐµÑĤÑĸÐ½":6009,"ĠÐ¶ÑĸÐº":6010,"Ð¨ÑĭÐ¼ÐºÐµÐ½ÑĤ":6011,"Ð£Ðł":6012,"ĠÐľÐ¸Ð½Ð¸ÑģÑĤÑĢ":6013,"ĠÐ·Ð°Ò£ÑģÑĭÐ·":6014,"Ð´Ð¾Ð½":6015,"ĠÑĢÒ±ÒĽÑģ":6016,"ĠÒĽÑĭÐ·ÑĭÒĵÑĥÑĪÑĭÐ»ÑĭÒĽ":6017,"ĠÐ¤ÐµÐ´ÐµÑĢ":6018,"ĠÒĽÐ°Ð±ÑĭÑĢÒĵ":6019,"Ð¸Ð¼Ð¿ÑĤÐ¾Ð¼":6020,"ĠÐ±Ð°Ð¹ÒĽÐ°Ð»Ð°Ð´Ñĭ":6021,"Ð´ÐµÑģÑĥ":6022,"ĠÐ±Ò¯Ð³ÑĸÐ½Ð´Ðµ":6023,"ÒļÐ°Ð»Ð°Ð»ÑĭÒĽ":6024,"ÐĺÐĿ":6025,"ĠÒ°ÑģÑĤÐ°Ð·":6026,"ĠÒĵÑĭÐ»ÑĭÐ¼Ð´Ð°ÑĢÑĭÐ½ÑĭÒ£":6027,"ĠÑĤÓĻÑĢÑĤÑĸÐ±ÑĸÐ½":6028,"ĠÐ¶Ð°ÑĤÒĽÑĭÐ·":6029,"58":6030,"ÒĽÐ°ÑĢÐ°":6031,"ĠÑĤÐ°Ð±ÑĭÑģÑĤÑĭ":6032,"ĠÑģÐ°ÒĵÐ°ÑĤÑĭ":6033,"kk":6034,"ĠÓĺÐºÑĸÐ¼":6035,"ĠÒĽÐ°Ð·ÑĭÐ½":6036,"ĠÑĤÐ¾Ð»Ñĭ":6037,"ĠÐ¼ÑĸÐ½Ð´ÐµÑĤÑĤÐµÐ¼":6038,"ĠÐ±Ð°ÑĢÒĵÐ°Ð½":6039,"________":6040,"ĠÑĤÐµÑħÐ½Ð¾Ð»Ð¾Ð³Ð¸ÑıÐ»Ð°ÑĢÐ´Ñĭ":6041,"ĠÑĤÑĸÑĢÑĸ":6042,"ĠÑĤÐ°Ð¼Ð°ÑĪÐ°":6043,"ĠÐµÐ»Ð´ÐµÑĢÐ´ÑĸÒ£":6044,"ĠÐºÒ¯ÑĤÑĸÐ¿":6045,"ĠÑĤÐ¸ÐµÑģÑĸ":6046,"ÑĭÐ¼ÑģÑĭÐ·":6047,"ÐļÐ¡ÐŁÐŀ":6048,"ÐĸÐ°ÒĽ":6049,"ĠÒĽÐ°ÑĤÑĭÑģÐ°Ð´Ñĭ":6050,"Ġwww":6051,"ĠÐ½Ð°Ð½":6052,"ĠÐºÒ¯ÑĪÑĤÑĸ":6053,"ÓĺÐ´Ñĸ":6054,"ĠÐ£Ð½Ð¸Ð²ÐµÑĢÑģÐ¸ÑĤ":6055,"ÐºÒ¯Ð½":6056,"ĠÑĪÐ¾Ð»Ñĥ":6057,"Ð¼Ð°Ð´Ñĭ":6058,"ĠÑĤÒ¯ÑģÑĥ":6059,"ÑĤÐµÑĢÐ´Ðµ":6060,"ĠÐ±ÑĸÑĢÐ´Ðµ":6061,"ĠÒĵÐ°Ð»Ð°Ð¼":6062,"ĠÑĭÐ´ÑĭÑģ":6063,"ĠÐ¶Ð°Ð±Ð´ÑĭÒĽÑĤÐ°Ñĥ":6064,"ĠÐ¶Ð°ÑĤÒĽÐ°Ð½ÑĭÐ½":6065,"ĠÐ¶ÐµÐºÐ¿Ðµ":6066,"Ð±ÑĸÐ»ÑĸÐ¼":6067,"ĠÐ¾ÒĽÑĭÒĵÐ°Ð½":6068,"ĠÐ¾Ð¹Ð»Ð°Ð¿":6069,"ĠÐ¶Ð°ÑĢÐ¸ÑıÐ»Ð°Ð½Ð´Ñĭ":6070,"ĠÐ½ÓĻÑĤÐ¸Ð¶Ðµ":6071,"ĠÐ¿ÑĢÐ°ÐºÑĤ":6072,"ÐºÑĸÐ½ÑĸÑĪ":6073,"ĠÐ°ÑĥÒĽÑĭÐ¼Ð´Ñĭ":6074,"ĠÐĸÐ¾ÒĵÐ°ÑĢÒĵÑĭ":6075,"ĠÐ±Ð°ÑģÒĽÐ°ÑĢÐ¼Ð°":6076,"56":6077,"ĠÑĤÐµÑĢÐµÐ·":6078,"lo":6079,"ĠÐŃÐºÐ¾Ð½Ð¾Ð¼Ð¸ÐºÐ°":6080,"ĠÐ¶Ð°ÑģÐ°ÒĽ":6081,"ÐĳÐ°ÑĢ":6082,"Ð³ÐµÑĢÐ»ÐµÑĢ":6083,"ÐµÐ¹ÑĤÐ¾Ð¹":6084,"ĠÐºÓ©Ð·Ð³Ðµ":6085,"Ð°Ð±ÑĭÐ½":6086,"ĠÑģÐ¾ÒĵÐ°Ð½":6087,"ĠÑĤÓĻÑĢÑĸÐ·Ð´Ñĸ":6088,"ĠÐ±Ð°ÒĵÑĭÐ½":6089,"ÐļÐ¢":6090,"ĠÐ³ÑĢÐ°Ð¼":6091,"ĠÑĤÐµÑĢÐ³ÐµÑĥ":6092,"ĠÐ¶Ò¯ÑĢÐ³ÑĸÐ·ÑĥÐ³Ðµ":6093,"ĠÐ°Ð¹ÑĤÐ°ÑĢÐ»ÑĭÒĽÑĤÐ°Ð¹":6094,"ĠÐµÑģÐºÐµÑĢÑĤÑĥ":6095,"ĠÑħÐ°Ð±Ð°ÑĢÐ»Ð°Ñĥ":6096,"ĠÐ°Ð·Ð°Ð¼Ð°ÑĤÑĭ":6097,"ĠÑģÐ¾Ð»ÑĤÒ¯ÑģÑĤÑĸÐº":6098,"ÑĤÐ°ÒĽ":6099,"ÑĭÐ¼Ð´Ð°ÑĢ":6100,"ag":6101,"ÐºÐµÐº":6102,"ĠÐ¥Ð°Ð»":6103,"ĠÐ¶Ð¾Ð»Ð´Ð°ÑĢÑĭÐ½":6104,"ĠÐ°ÑĤÐ°Ð¹Ð´Ñĭ":6105,"ĠÐ¾ÑĢÑĤÐ°Ð»ÑĭÒĽÑĤÐ°ÑĢ":6106,"Ð±Ð°Ð»Ñĭ":6107,"ĠÐ¾ÒĽÑĥÑĪÑĭÐ»Ð°ÑĢÑĭ":6108,"ĠÑģÐ¾Ð½Ð´Ð°":6109,"Ð³Ð°":6110,"ĠÑĪÐµ":6111,"ht":6112,"ĠÐ¼Ð°Ð¼Ð°Ð½Ð´ÑĭÒĵÑĭ":6113,"Ð°Ð¹ÑĤÒ±ÑĢ":6114,"ÑĭÒĽÑĤÐ°ÑĢ":6115,"Ð½Ð¾Ð·":6116,"ĠÒĽÐ°ÑĪÐ°Ð½":6117,"ĠÑĤÒ±ÑĢÒĵÑĭÑģÑĭÐ½Ð°Ð½":6118,"Ò±ÑĢÐ°ÑĤ":6119,"Ð¶Ð°Ð»":6120,"ĠÒĽÐ¾ÑģÑĭÐ¼ÑĪ":6121,"ĠÐ°Ð½ÑĭÒĽÑĤÐ°Ð»Ð°Ð´Ñĭ":6122,"Ð´Ð°Ð»Ñĭ":6123,"ĠÐ¶ÐµÑĤÐµÐºÑĪÑĸ":6124,"ĠÐºÐ»Ð¸ÐµÐ½ÑĤ":6125,"ĠÐ±ÑĸÐ»ÑĸÐºÑĤÑĸÐ»ÑĸÐ³ÑĸÐ½":6126,"ĠÒĽÐ¾Ð¹Ð¼Ð°Ð¹":6127,"Ð°Ð¼ÐµÑĤÑĢ":6128,"ĠÑįÐºÑģÐ¿":6129,"ĠÒļÐ¾ÒĵÐ°Ð¼Ð´ÑĭÒĽ":6130,"Ð°ÑģÑĤÐ°ÑĢ":6131,"ÑĤÐ¸ÑħÐ°Ð½":6132,"um":6133,"ĠÑģÑĥÑĢÐµÑĤÑĤÐµÑĢ":6134,"ĠÐ¶Ð°ÑģÐ°Ð»Ð°Ð´Ñĭ":6135,"ĠÐ¶Ò±ÒĽ":6136,"ĠÐ¼ÐµÐºÑĤÐµÐ¿ÑĤÐµ":6137,"ÐĳÐĽ":6138,"ĠÐ¶Ð°ÑģÓ©ÑģÐ¿ÑĸÑĢÑĸÐ¼Ð´ÐµÑĢ":6139,"ĠÐºÐ°Ð´Ð°ÑģÑĤÑĢ":6140,"ĠÒ±ÑģÑĭÐ½ÑĭÐ»ÒĵÐ°Ð½":6141,"ĠÐ¼Ò±Ð½Ð´Ð°":6142,"ÐºÐµÑĢÐ¸":6143,"ÒĽÐ°ÒĽ":6144,"ĠÐ¢Ð°ÒĽÑĭÑĢ":6145,"ĠÐ»Ð¸ÑĨÐµÐ½Ð·Ð¸Ñı":6146,"Ð°Ð½ÐºÑĸ":6147,"ĠÐ¶Ð°Ð»ÒĵÐ°Ð½":6148,"ĠÐŀÑĤ":6149,"ĠÐ°Ð·Ð°Ð¹ÑĤÑĥ":6150,"ĠÐ´Ð¸Ð¿Ð»Ð¾Ð¼Ð´ÑĭÒĽ":6151,"Ð°Ð¹ÑĤÒ±ÑĢÑģÑĭÐ½":6152,"ĠÐ¶Ð°ÑģÐ°Ð¹ÑĤÑĭÐ½":6153,"ĠÒĽÐ°ÑĤÑĭ":6154,"ĠÑģÐ°Ð»Ð°ÑģÑĭÐ½ÑĭÒ£":6155,"ĠÐ¶Ð¸Ð½Ð°ÒĽÑĤÐ°Ñĥ":6156,"ÐĲÐ·":6157,"ĠÑģÑĭÐ¹Ð»ÑĭÒĽ":6158,"ĠÑģÓ©Ð·Ð´ÐµÑĢÐ´Ñĸ":6159,"ĠÐ°ÑħÑĥ":6160,"ĠÐ±Ð¾Ð»ÒĵÐ°Ð½Ð´Ð°":6161,"ÑĪÑĭÐ»Ð°ÑĢÒĵÐ°":6162,"ÑĸÐ½ÑĸÐ¿":6163,"ÑĥÑħÐ³Ð°Ð»ÑĤÐµÑĢÐ»ÑĸÐº":6164,"ÑĤÐµÐ¹ÑĤÑĸÐ½":6165,"53":6166,"ÐŀÐĴ":6167,"ĠÐ°Ð½ÑĭÒĽÑĤÐ°Ð»ÒĵÐ°Ð½":6168,"ĠÐ°ÒĽÑĪÐ°Ð»Ð°Ð¹":6169,"Ð³Ò¯Ð»":6170,"ĠÐ´Ð°ÒĵÐ´Ð°ÑĢ":6171,"ĠÓ©ÑģÑĥ":6172,"ĠÑĭÐ½ÑĤÐ°Ð»":6173,"ĠÐ¾ÑĢÑĭÐ½Ð´Ð°ÑĢ":6174,"ĠÑĤÐ¾Ð»ÑĤÑĭÑĢ":6175,"ĠÑĤÓ©Ð¼ÐµÐ½Ð´ÐµÐ³Ñĸ":6176,"ÐŁÐ¾ÑĥÑĢÐ¾ÑĩÐ½ÑĭÐµ":6177,"ĠÑĤÐ¸ÑĸÐ¼Ð´ÑĸÐ»ÑĸÐ³ÑĸÐ½":6178,"ĠÐĶÑĸÐ½":6179,"ĠÒĽÐ°Ð»Ð´ÑĭÑĢÑĥ":6180,"ĠÓĻÑģÐµÑĢÑĸ":6181,"Ġ&":6182,"Ð±ÐµÑģÑĸÐ½":6183,"ÐĳÑĸÑĢÐ°ÒĽ":6184,"ĠÐ±ÐµÐ»Ð³ÑĸÐ»ÐµÑĥ":6185,"ĠÐ¢Ð¾ÑĢ":6186,"ÐĳÑĸÑĢÑĸÐ½ÑĪÑĸ":6187,"ĠÒĽÐ¸Ð¼ÑĭÐ»":6188,"ÐĨÐĨÐĨ":6189,"Ð±Ð´ÐµÐ½":6190,"ÑĸÑģÑĸÐ½ÑĪÐµ":6191,"ĠÐ°Ð»ÑĭÐ½Ð´Ñĭ":6192,"ÑĤÑĭÐ»Ð°Ð¹":6193,"ĠÐ±Ð°ÒĵÑĭÑĤÑĤÐ°":6194,"ĠÐ¶Ð°ÒĵÐ°Ð»Ð°Ñĥ":6195,"ĠÑĤÐ¾Ð±ÑĭÐ½ÑĭÒ£":6196,"ĠÐ°ÐºÑĤÑĸÐ»ÐµÑĢÑĸÐ½":6197,"Ð¼Ð°Ð½Ñĭ":6198,"ĠÐ¼ÓĻÐ»ÑĸÐ¼Ð´ÐµÐ´Ñĸ":6199,"ĠÐ¾ÑĤÑĭÑĢÐ¼ÑĭÐ·":6200,"Ð´Ð¾":6201,"Ð¼ÐµÑģ":6202,"ĠÒĽÑĭÐ·Ð¼ÐµÑĤÑĤÐµÑĢÐ´ÑĸÒ£":6203,"ĠÑĤÐ¾ÒĽÑĤÐ°ÑĤ":6204,"ĠÐĳÒ°Ò°":6205,"ĠÑģÐ°ÑıÑħÐ°ÑĤ":6206,"ĠÐºÐ¾Ð½ÑĨÐµÑĢÑĤ":6207,"ĠÒĽÐ°Ð±ÑĭÐ»Ð´Ð°ÒĵÐ°Ð½":6208,"ÑĭÐ¼Ð´Ð°":6209,"Ð¼Ð±":6210,"ĠÐ±Ò¯Ð¹":6211,"ĠÐºÓ©ÑĪÐµ":6212,"Ð²ÐµÑģÑĤÐ¾ÑĢ":6213,"ĠÐ´Ð¾ÑģÑĤÐ°ÑĢ":6214,"ĠÐ¡Ð¾Ò£ÒĵÑĭ":6215,"ĠÐ¸ÑĤ":6216,"ĠÑĤÐ°Ð±Ð°":6217,"Ð³ÐµÐ±ÑĢ":6218,"Ð°ÑĤÑĭÐ»ÑĭÑģ":6219,"ĠÓ©ÑģÑĸÑĢ":6220,"ĠÐºÓĻ":6221,"ĠÐ¾ÑģÑĭÐ»Ð°Ð¹":6222,"ÑĩÐµÐ½":6223,"ĠÐ±ÑİÐ´Ð¶ÐµÑĤÑĤÐµÐ½":6224,"ÐĲÐĽÐ«":6225,"ĠÑĤÓĻÑĢÑĤÑĸÐ¿Ð¿ÐµÐ½":6226,"ĠÐ¾ÒĽÑĥÑĪÑĭÐ½ÑĭÒ£":6227,"ĠÑģÐ°ÒĽÑĤÐ°Ð»ÒĵÐ°Ð½":6228,"ĠÐ°Ð»Ð¼Ð°Ð¹ÑĤÑĭÐ½":6229,"ĠÐ¢Ð¾Ð¿":6230,"ĠÐ±ÑĸÑĤÑĸÑĢÐ³ÐµÐ½":6231,"ĠÑĦÐ¸Ð»Ð¸Ð°Ð»Ñĭ":6232,"Ð¢Ð°Ð»":6233,"ÒĴÐĲ":6234,"Ð»ÐµÐºÑĤÑĢÐ¾Ð½Ð´Ñĭ":6235,"ĠÑĪÐ°ÑĢÑĥ":6236,"ĠÐļÐ°Ð·Ð°Ñħ":6237,"ĠÑĦÐ¸Ð·Ð¸ÐºÐ°Ð»ÑĭÒĽ":6238,"Ð¶Ð°Òĵ":6239,"ĠÐĲÐ·Ð°ÑĤÑĤÑĭÒĽ":6240,"ĠÐŀÒĽÑĥÑĪÑĭÐ»Ð°ÑĢÐ´ÑĭÒ£":6241,"ĠÒĽÒ±ÒĽÑĭÒĵÑĭÐ½":6242,"ĠÐ¶ÐµÑĤÑĸÐ¿":6243,"IV":6244,"ĠÐºÐµÒ£ÑĸÑģÑĤÑĸÐº":6245,"ĠÑĦÐ¸Ð·Ð¸ÐºÐ°":6246,"Ð¢Ð°ÑĢÐ¸ÑħÐ¸":6247,"ĠÒĽÐ°ÑĪÑĭÒĽÑĤÑĭÒĽ":6248,"ĠÑĤÐµÑĢÑĢÐ¾ÑĢ":6249,"ÒļÐ°Ð½":6250,"ĠÐķÐ½":6251,"ĠÐ±Ð¾Ð»ÒĵÐ°Ð½ÑĭÐ½":6252,"ĠÒ±ÑģÑĤÐ°Ñĥ":6253,"ĠÐļÑĸÑĤÐ°Ð¿":6254,"2020":6255,"ĠÒĽÒ±ÑĢÐ¼ÐµÑĤÑĤÑĸ":6256,"wi":6257,"ĠÓĻÐºiÐ¼":6258,"ĠÐºÓ©ÑĪÑĸÑĢÑĥ":6259,"ĠÑģÐ¾Ð»Ð°Ð¹":6260,"ÐŀÐ½":6261,"ĠÐ¿ÐµÑĢÑģ":6262,"ĠÑĤÐ¾Ð»ÑĭÒĽÑĤÑĭÑĢ":6263,"ÑĤÒ¯ÑĢ":6264,"ĠÒĽÐ¾Ð»Ð´Ð°Ð½ÑĭÐ»ÑĥÑĭ":6265,"ĠÐ´Ò¯ÐºÐµÐ½":6266,"ĠÐ¾Ð´Ð°ÒĽ":6267,"ĠÐ°ÑĥÐ»":6268,"ĠÑĸÑĢÑĸÐºÑĤÐµÑĥ":6269,"ĠÐ°ÑĤÐ°Ð»":6270,"ĠÐ¿ÑĸÑģ":6271,"ÐĲÐĿÐĲ":6272,"ĠÐĸÓĻÐ½Ðµ":6273,"ĠÐ¿ÑĢÐµÐ·ÐµÐ½ÑĤÐ°ÑĨÐ¸Ñı":6274,"ÒļÐ¾Ð»Ð´Ð°Ð½":6275,"ĠÐ½ÑĭÑģÐ°Ð½Ñĭ":6276,"ĠÐ³ÐµÐº":6277,"ĠÐĲÐ»Ð¼Ð°ÑĤÑĭÐ´Ð°":6278,"ÐºÐ°ÑģÑĭ":6279,"ĠÐ´ÐµÐ³ÐµÐ½Ð´Ðµ":6280,"ĠÐ°ÑĥÐ¼Ð°ÒĽÑĤÑĭÒĽ":6281,"Ð±ÑĸÑĢÐµÐº":6282,"ĠÑģÑĤÐ°Ð½Ð´Ð°ÑĢÑĤÑĤÐ°ÑĢ":6283,"ÑĢÑĤÐ°ÒĽ":6284,"ĠÐ¶Ð°ÑģÑĤÐ°ÑĢÐ´ÑĭÒ£":6285,"ĠÐ±Ð°ÑĤÑĭÑģ":6286,"ĠÐ¶Ð°Ð½ÑĥÐ°ÑĢÐ»Ð°ÑĢ":6287,"):":6288,"ĠÐºÐµÐ·ÐµÐºÑĤÑĸ":6289,"UR":6290,"Ð°Ð»ÑĭÒĵÑĭÐ½":6291,"ĠÓ©Ð»ÐµÒ£Ð´ÐµÑĢ":6292,"ĠÐĲÑĢÐ°Ð»":6293,"Ð¸Ð½Ð½Ð¾Ð²Ð°ÑĨÐ¸ÑıÐ»ÑĭÒĽ":6294,"Ð°ÑĤÑĤÐ°ÑĢÑĭÐ½":6295,"ĠÑĪÑĭÒ£":6296,"2013":6297,"ĠÒĽÑĭÐ·Ð¼ÐµÑĤÐºÐµÑĢÐ»ÐµÑĢÑĸÐ½ÑĸÒ£":6298,"azak":6299,"ĠÐĺÑĢÐ°Ð½":6300,"ĠInc":6301,"ĠÐºÐµÑĪÑĸÑĢ":6302,"ĠÐļÑĢ":6303,"ĠÑĤÐµÒ£Ð³ÐµÐ½Ñĸ":6304,"Ð°Ð´ÑĭÑĢ":6305,"ÑĦÐ¾ÑĤÐ¾":6306,"ĠÑĸÑģÑĤÐµÐ³ÐµÐ½":6307,"ĠÐºÑĸÑĪÐºÐµÐ½ÑĤÐ°Ð¹":6308,"ĠÐĳÐ¸ÑĭÐ»":6309,"ÐĲÒĽÐ¼Ð¾Ð»Ð°":6310,"ĠÐĸÑĭÐ»Ð¶ÑĭÐ¼Ð°Ð¹ÑĤÑĭÐ½":6311,"ÐºÑĥÐ»":6312,"ÒĵÑĭÐ»ÑĪÑĭÐ½":6313,"ĠÓĻÐ·":6314,"ÐŀÑĢÑĤÐ°":6315,"ĠÓ©Ð½ÐµÑĢÐº":6316,"ĠÑģÐµÐ¿":6317,"ÐµÑĥÐ³Ðµ":6318,"ĠÐ°ÑĢÑĭÐ·":6319,"ĠÑģÐ¿Ð¾ÑĢÑĤÑĤÑĭÒĽ":6320,"ĠÐŀÑģÑĭÐ»Ð°Ð¹ÑĪÐ°":6321,"ĠÐ±Ó©Ð»ÑĸÐ³ÑĸÐ½":6322,"ÑĭÒĵÐ°ÑĢÐ¼Ð°":6323,"ĠÑĤÐµÑĢÑĸ":6324,"83":6325,"ĠÐ¡Ò±Ð»ÑĤÐ°Ð½":6326,"Ð±ÐµÐ»":6327,"ÐŀÐ±Ð»ÑĭÑģ":6328,"ĠÑĸÑģÑĤÐµÐ¹":6329,"ĠÐ¿ÓĻÐ½ÑĸÐ½ÑĸÒ£":6330,"ĠÐ°ÑĥÑĭÐ»ÑĭÐ½Ð´Ð°":6331,"ĠÑĤÒ±ÑĢÐ°ÒĽ":6332,"ĠÑĤÐ¸ÐµÑģÑĸÐ»Ñĸ":6333,"ÐµÑĪÐµÐº":6334,"ĠÑĤÒ¯ÑĢÑĸÐº":6335,"ĠÐ¿Ð°Ð¹Ð´Ð°Ð»Ð°Ð½ÑĥÐ´Ñĭ":6336,"ĠÐ¾ÑĢÑĭÐ½ÒĵÐ°":6337,"ĠÑģÐ»Ð°Ð¹Ð´":6338,"ĠÐ±Ð°Ð½ÐºÑĤÐµÑĢ":6339,"ĠÐ¶Ð°Ð·ÑĥÑĪÑĭ":6340,"Ð±ÐµÐºÐ¾Ð²Ð°":6341,"ĠÐ¡Ó©Ð·":6342,"ÑĤÐµÑģÑĤ":6343,"ĠÓ©Ð·ÑĸÐ¼":6344,"ĠÑģÐ°Ð»ÑĤÐ°Ð½Ð°ÑĤÑĤÑĭ":6345,"Ð¿ÐµÐ»Ñĸ":6346,"ĠÑĤÓ©Ð·":6347,"ĠÒ¯ÑģÑĤÐµÐ¼":6348,"ĠÐ±ÐµÑĢÐ¼ÐµÐ¹Ð´Ñĸ":6349,"ĠÑħÐ°Ð±Ð°ÑĢÐ´Ð°ÑĢ":6350,"ĠĠĠĠ":6351,"ĠÐĳÒ±Ð´Ð°Ð½":6352,"ĠÐ¶ÐµÑĤÐµÐ´Ñĸ":6353,"Ġ2000":6354,"Ð¿Ð°ÒĵÐ°Ð½":6355,"Ð¼ÓĻÐ´ÐµÐ½Ð¸":6356,"ĠÑģÓ©Ð·Ð´ÑĸÐº":6357,"ĠÐµÑģÐºÑĸ":6358,"ÑģÑĤÐµÐ½":6359,"ĠÐºÐ²":6360,"ĠÐ°ÑĤÒĽÐ°ÑĢÑĥ":6361,"ĠÐŁÑĢÐ¾":6362,"ĠÐ°ÑĢÐ°Ð±":6363,"ĠÐ¶Ò¯Ð¹ÐµÐ»ÐµÑĢ":6364,"ĠÐºÐ°ÑĤÐµÐ³Ð¾ÑĢ":6365,"ĠÑģÐ°Ð»ÑĥÒĵÐ°":6366,"ĠÒ¯Ð¹Ñĸ":6367,"ÑĤÐµÑĢÑĸÐ¼ÐµÐ½":6368,"ĠÒļÐ¾ÑĢÑĪÐ°ÒĵÐ°Ð½":6369,"ĠÐºÐ¸Ð½Ð¾":6370,"ÑĦÐ¸ÑĢ":6371,"ÐļÐµÒ£":6372,"ĠÐ¢Ò¯ÑĢÐºÐ¸Ñı":6373,"ĠÒĽÐ¾Ð¹Ð½":6374,"ÑĸÑģÐ¿ÐµÐ½":6375,"ÐµÑģÑĸÐº":6376,"Ð½Ò±Ñģ":6377,"ĠÐ°Ð¹ÑĭÐ¿Ð¿Ò±Ð»":6378,"ĠÐ¢ÐµÑĢ":6379,"Ð¢ÓĻÑĢÐ±Ð¸Ðµ":6380,"ĠÐ°Ð»ÑĥÑĭ":6381,"ĠÐ°Ð¹Ð½":6382,"ĠÐ°ÑĥÐ´Ð°ÑĢÑĥ":6383,"ĠÑģÐ°Ð½ÑĭÐ½":6384,"ĠÑģÒ±ÑĢÐ°Ñĥ":6385,"ĠÐ±Ð¾Ð¹ÑĭÐ½Ð°":6386,"ĠÐµÐ´ÑĸÐº":6387,"ÒĽÒ±ÑĢÑĭÐ»ÑĭÑģ":6388,"Ð§":6389,"ÑĢÑĭÒĽÑĪÐ°":6390,"ĠÐ¶Ð°Ð·Ð°":6391,"tter":6392,"ĠÐ¼ÑĭÑģÐ°Ð»Ñĭ":6393,"ÐľÐ£":6394,"ÐĶÐ°Ð¼":6395,"Ð»ÑıÑĨÐ¸Ñı":6396,"Ð¾Ð½ÐµÐ½ÑĤ":6397,"Ð´ÓĻÑĢ":6398,"ĠÑģÓĻÐ½":6399,"Ð¡Ð°Ð½":6400,"ĠÒ±Ð¹ÑĭÐ¼Ñĭ":6401,"ÑĪÐ°ÒĵÐ°":6402,"ĠÐ±ÓĻÑģÐµÐºÐµÐ»ÐµÑģ":6403,"ĠÐ¾ÑĤÐ±Ð°ÑģÑĭÐ»Ð°ÑĢ":6404,"ĠÐºÒ¯ÑĪÐµÐ¹":6405,"Ð¸ÐºÐ¸":6406,"ĠÓ©ÑģÑĥÑĸ":6407,"76":6408,"Ð°Ð»ÑĮÐ´Ñĭ":6409,"ĠÐ¼Ò¯Ð¼ÐºÑĸÐ½Ð´ÑĸÐºÑĤÐµÑĢÑĸ":6410,"ÐºiÐ½":6411,"ĠÐµÐºÑĸÐ½":6412,"ĠÐ°ÑĥÑĢÑĥÐ´ÑĭÒ£":6413,"ÑģÐ¾":6414,"ad":6415,"ĠÒĽÒ±ÑĢÐ°ÑģÑĤÑĭÑĢ":6416,"ĠÐ¶Ð¾ÑģÐ¿Ð°ÑĢÑĭÐ½":6417,"ĠÐ¼ÑĭÑģÐ°Ð»":6418,"ĠÑĤÐ¾Ð¼":6419,"ĠÐ¥Ð¥":6420,"ĠÒļÑĭÑĢÒĵÑĭÐ·ÑģÑĤÐ°Ð½":6421,"ĠÐºÐµÑģÑĤÐµ":6422,"ĠÑĤÐ°Ð½ÑĭÐ¼":6423,"Ð±ÐµÑĢÐ³ÐµÐ½":6424,"Ð´ÐµÐ»Ñĥ":6425,"ÐĸÒ±Ð¼":6426,"ĠÐ°Ð²ÑĤÐ¾ÐºÓ©Ð»ÑĸÐº":6427,"Ð¾Ð¿ÐµÑĢ":6428,"ÐºÐµÑģÑĸ":6429,"ÐļÐµÑĢÑĸ":6430,"90":6431,"ĠÐ½Ð°ÒĵÑĭÐ·":6432,"ĠÐ±Ð¾Ñı":6433,"ÓĻÐ»ÐµÑĥÐ¼ÐµÑĤÑĤÑĸÐº":6434,"Ð±ÑĭÐ»Ð°Ð¹":6435,"ÑĤÒ±Ð·":6436,"ÑħÐ¸Ð¼":6437,"ĠÐĲÐ»Ð»Ð°Ð½ÑĭÒ£":6438,"Ð°ÑĤÐ°ÐµÐ²":6439,"ĠÐ°ÒĽÑĭÑĢ":6440,"Ð´Ð°ÑĤ":6441,"ĠÑĪÐ°Ð¼Ð°ÑģÑĭÐ½Ð´Ð°":6442,"ĠÑĦÑĥÐ½ÐºÑĨÐ¸Ð¾Ð½":6443,"ÑĤÐ°Ð¼ÑĭÐ·":6444,"Ð¡ÑĭÑĢ":6445,"ÑĸÐ³Ñĸ":6446,"ĠÐ±Ò±Ð´Ð°Ð½":6447,"ĠÑĤÒ¯ÑĢÑĸÐ½":6448,"ĠÑĦÐ°Ð¹Ð»":6449,"ĠÐ·ÐµÑĢÑĤÑħÐ°Ð½":6450,"ĠÑģÒ±ÑĢÐ°ÒĽÑĤÐ°ÑĢÒĵÐ°":6451,"ĠÐ°ÑģÒĽÐ°Ð½":6452,"ĠÐ°ÑĢÐ°Ð´Ð°":6453,"ĠÐµÑĤÑĸÐ»ÐµÐ´Ñĸ":6454,"ĠÐ½Ð¾":6455,"ÑİÐ´Ð¶":6456,"ÑĪÐ°Ð¼":6457,"ĠÒĽÐ°ÑĢÑģÑĭÐ»":6458,"ÑĸÐ¼Ð´Ðµ":6459,"ĠÐ¶Ò¯Ð³ÑĸÐ½":6460,"ĠÐºÓ©ÑĢÐ´Ñĸ":6461,"ĠÐĳÐ°Òĵ":6462,"ĠÓĺÑģÑĸÑĢÐµÑģÐµ":6463,"ĠÒĽÐ°ÑĥÑĸÐ¿ÑģÑĸÐ·Ð´ÑĸÐ³Ñĸ":6464,"ĠÐ°ÑĢÐ½Ð°Ð»":6465,"ĠÒĽÐ°Ð¹ÑĢÐ°ÑĤÐºÐµÑĢÑĸ":6466,"AR":6467,"ĠÑģÐ¾ÑĤÒĽÐ°":6468,"ĠÒļÐ°Ñĥ":6469,"ÑģÑĭÐ½Ð°Ð½":6470,"ĠÐ°ÑĤÒĽÐ°ÑĢÒĵÐ°Ð½":6471,"Ð°ÑĤÑĤÐ°ÑĢÑĭÐ½Ð°":6472,"ÑĪÑĸÐ»ÑĸÐ³ÑĸÐ½":6473,"ĠÑĤÓĻÐ¶ÑĸÑĢÐ¸Ð±ÐµÑģÑĸ":6474,"ĠÐ°ÑĤÐ°Ð½Ð´Ñĭ":6475,"ĠÐĲÒĽÑĤÓĻÑĤÐµ":6476,"ĠÐ¶Ð°ÑģÐ°ÑĢ":6477,"Ð±Ð½":6478,"Ð¶ÐµÑĢ":6479,"ĠÐ±Ð°ÑģÐ¿Ð°Ð½":6480,"ĠÐ¡Ó©Ð¹ÑĤÑĸÐ¿":6481,"Ó¨Ð¼ÑĸÑĢ":6482,"ĠÐºÓ©Ð½Ðµ":6483,"ÐĸÐ¾Ð±Ð°":6484,"ĠÐ°ÑģÐ¿Ð°Ð½":6485,"Ð´ÑĭÒĽÑĤÑĭÒ£":6486,"Ð»Ð°ÑĢÐ´Ð°":6487,"Ġ2003":6488,"ĠÑĤÐ°ÑĢÐ¸ÑħÑĭÐ½":6489,"ĠÐµÐºÐµÐ½Ð´ÑĸÐ³Ñĸ":6490,"ĠÐĸÐĲÒ¢":6491,"ÐµÐ½Ð¸Ð½Ð³":6492,"ĠÑģÐ°ÒĽÑĤÐ°ÑĥÒĵÐ°":6493,"Ð´ÑĸÐºÑĤÐµÐ½":6494,"Ð¸Ð²ÑĤÑĸ":6495,"ÒĵÐ°Ð»Ð¸ÐµÐ²":6496,"Ð¢ÑĸÑĢ":6497,"Ð³Ð¾ÑĢ":6498,"ĠÐ¿Ð°ÑĢÑĤÐ¸ÑıÑģÑĭ":6499,"ĠÐ¼ÐµÑĢÐµÐ¹ÑĤÐ¾Ð¹":6500,"ĠÐ¼Ò¯ÑĪÐµÐ»ÐµÑĢÑĸÐ½ÑĸÒ£":6501,"ÐĲÑĪÑĭÒĽ":6502,"ĠÐ±Ó©Ð»ÑĸÐ³ÑĸÐ½Ð´Ðµ":6503,"ÑĭÒ£ÑĭÐ·Ð´Ð°ÑĢ":6504,"ĠÐŃÐº":6505,"ĠÐĿÐµÐ³ÑĸÐ·Ð³Ñĸ":6506,"âĢ¦]":6507,"ĠÒĽÑĭÑĤÐ°Ð¹":6508,"Ð¸ÑĨÐµÐ¹":6509,"Ð¾Ð³ÐµÐ½":6510,"ĠÑģÐ¸Ð¼Ð¿ÑĤÐ¾Ð¼":6511,"ĠÐºÐ¾Ð½ÐºÑĥÑĢ":6512,"ÒĵÒ±ÑĢÐ»ÑĭÐ¼":6513,"ĠÐ¼ÓĻÐ»ÑĸÐ¼ÐµÑĤÑĤÐµÑĢÐ´Ñĸ":6514,"ĠÐŁÐ°Ð¹ÒĵÐ°Ð¼Ð±Ð°ÑĢ":6515,"Ð±Ð¸Ð½":6516,"ĠÐ½Ò±ÑģÒĽÐ°":6517,"ĠÑĤÐ¾ÒĵÑĭÐ·":6518,"Ó©Ð½ÐµÑĢÐºÓĻÑģÑĸÐ¿":6519,"ĠÐ¼Ð°Ð¼Ð°Ð½Ñĭ":6520,"ĠÒĽÐ¾ÑģÐ¿Ð°ÒĵÐ°Ð½Ð´Ð°":6521,"ĠÐ¼ÐµÐ´Ð¸Ð°":6522,"ĠÑĪÓĻÐºÑĸÑĢÑĤ":6523,"Ð°ÑĤÐ°Ð»":6524,"ĠÒĽÒ±ÒĽÑĭÐ»Ñĭ":6525,"ĠÐŁÐ¾ÑĢ":6526,"ĠÒĽÐ°ÑģÐ¸ÐµÑĤÑĤÐµÑĢ":6527,"ĠÐ°ÑĢÐ½Ð°Ð¿":6528,"ĠÐ¶Ò¯Ð¹ÐµÑģÑĸÐ½Ðµ":6529,"ĠÑĤiÑĢ":6530,"ĠÑĤÑĸÐ»ÐµÐ¹":6531,"Ġ2004":6532,"Ð´ÐµÐ±Ð¸ÐµÑĤ":6533,"ĠÐļÐľÐľ":6534,"Ò¯ÑĢÐ³ÑĸÐ·ÑĥÑĪÑĸ":6535,"ĠÑĤÐµÐ¿":6536,"ĠÑģÑĭÐ½Ð°ÒĽ":6537,"ĠÐ°Ð½ÑĭÒĽÑĤÐ°ÑĥÒĵÐ°":6538,"ĠÐ¼Ð¾Ð¹ÑĭÐ½":6539,"ĠÑģÓ©Ð½":6540,"ĠÒ±ÑģÑĭÐ½ÒĵÐ°Ð½":6541,"ĠÐºÓ©ÑĪÑĥ":6542,"ĠÐ±ÑĸÑĢÑĸÐºÑĤÑĸÑĢ":6543,"Ð»Ð¾Ð²":6544,"ĠÑĢÐµÐ²Ð¾Ð»Ñİ":6545,"ĠÑĢÐµÐº":6546,"Ó¨Ð·ÑĸÐ½":6547,"ĠÐ°Ò£ÑĭÐ·":6548,"ĠÐµÐ»ÑĸÐ½ÑĸÒ£":6549,"ĠÐ¾Ð¹Ð»Ð°Ð¹Ð¼ÑĭÐ½":6550,"Ð¸ÑĢÐ°":6551,"ĠÐ½Ð¸ÐµÑĤ":6552,"Ð±ÑĸÑĢÑĸÐ¼ÐµÐ½":6553,"ÐĲÐ¡Ð¢":6554,"Ġ[âĢ¦]":6555,"ÐĹÐ°Ò£":6556,"ĠÐ¶Ð¾Ð±Ð°Ð»Ð°ÑĢÐ´Ñĭ":6557,"ÐµÑĤÑĢÐ¾Ð¿":6558,"ĠÑĤÑĭÐ½ÑĭÑĪ":6559,"ÒĽÑĭÐ·Ð¼ÐµÑĤ":6560,"ĠÐ¼ÓĻÐ¼":6561,"ĠÑĤÒ¯ÑģÑĸÐ½Ñĥ":6562,"ĠÐĨÑģ":6563,"ÐĨÒ¢":6564,"ĠÒĽÐ°Ð¶ÐµÑĤÑĤÑĸÐ»ÑĸÐº":6565,"ĠÐ»Ð°Ð¹":6566,"Ð¾ÑģÐº":6567,"Ġ->":6568,"ĠÓĻÑĢÑĸÐ¿ÑĤÐµÑģÑĤÑĸÐº":6569,"ĠÐ¶Ð¸Ð½Ð°Ð»":6570,"ĠÐ¿Ð°Ð¹Ð´Ð°Ð»Ð°Ð½ÑĭÐ¿":6571,"ĠÐ±Ò¯Ð»":6572,"Ó©Ð»Ñĸ":6573,"Ð«Ðľ":6574,"ess":6575,"ĠÑģÐ°ÑĥÐ°ÑĤÑĤÑĭ":6576,"ĠÐľÐłÐ¢":6577,"ÑħÐ¸ÑĤ":6578,"ÒĽÒ±Ð¼":6579,"ĠÐ¼Ò±ÑĢÐ°Òĵ":6580,"ĠÐµÐ»ÐµÑĥÐ»Ñĸ":6581,"Ð·Ð°Ð½":6582,"ĠÓ©ÑģÐºÐµÐ½":6583,"ĠÐºÓ©Ð»ÐµÐ¼ÑĸÐ½":6584,"ÐĲÒļÐ¨":6585,"ĠÑĤÐ°Ðº":6586,"Ð°Ð¼Ð°Ð¹":6587,"ĠÑĤÐ°ÑģÑĤÐ°Ð¿":6588,"ĠÐºÓ©ÑĢÑģÐµÑĤÐµ":6589,"ĠÑģÐ°ÒĵÐ°Ð½":6590,"ĠÐ¿ÑĢÐ°ÐºÑĤÐ¸ÐºÐ°Ð»ÑĭÒĽ":6591,"ĠÐ°Ð¹Ð¼Ð°ÒĽÑĤÑĭÒĽ":6592,"ĠÐŃÐ½ÐµÑĢÐ³":6593,"ĠÑĪÐµÑĪÑĸÐ¼Ñĸ":6594,"ĠÐļÐµÑĢ":6595,"ÐľÐ°Ò£ÒĵÑĭÑģÑĤÐ°Ñĥ":6596,"ĠÐ±ÑĸÐ»ÑĸÐºÑĤÑĸÐ»ÑĸÐº":6597,"ĠÐ¸Ð½Ð´ÑĥÑģÑĤÑĢÐ¸ÑıÐ»ÑĭÒĽ":6598,"ĠÐ¼ÐµÑĢÐµÐºÐµ":6599,"ĠÐ¶Ð°ÑģÐ°Ð»Ð´Ñĭ":6600,"ĠÐ¶Ð°Ð·Ð´Ñĭ":6601,"ĠÑģÐµÐ³ÑĸÐ·":6602,"Ð°Ð»ÒĵÐ°ÑĪÒĽÑĭ":6603,"Ð°Ð¼ÐµÑĢ":6604,"ĠÐºÓ©ÑĢÐµÑĢÐ¼ÐµÐ½":6605,"ĠÑģÑĥÐ±ÑģÐ¸Ð´":6606,"ght":6607,"ĠÒĽÐ¾ÑĢÑĭÐ½ÑĭÒ£":6608,"ĠÒĽÐ°ÑĢÒĽÑĭÐ½Ð´Ñĭ":6609,"Ð¶Ð¸":6610,"Ð¼Ð°Ð»Ð°ÑĢ":6611,"ĠÑĪÑĭÒĵÐ°":6612,"ĠÑģÐµÑĢÐ²":6613,"Ð¸Ð°Ð»Ð¾Ð³":6614,"ĠÐºÓ©Ð±ÑĸÐ½ÐµÑģÐµ":6615,"ĠÐľÐµÑĢ":6616,"ĠÒĽÒ±Ð»Ð°ÒĽ":6617,"ĠÐ¶ÐµÑĢÑĸÐ½Ð´Ðµ":6618,"ĠÓ©ÑĤÐºÑĸÐ·ÑĸÐ»Ð³ÐµÐ½":6619,"ĠÑĢÐµÐ°Ðº":6620,"ter":6621,"Ð¢Ð¾Ð¿":6622,"ĠÐ¶ÑĸÐ±ÐµÑĢÑĥ":6623,"ĠÐ´Ð¾Ð¿":6624,"ĠÐºÑĸÑĤÐ°Ð¿ÑħÐ°Ð½Ð°":6625,"ĠÐ¶Ò±Ð¼ÑģÐ°ÒĽ":6626,"Ð°Ð·Ð¸ÑıÐ»ÑĭÒĽ":6627,"ĠÐ¼ÓĻÑģÐµÐ»ÐµÐ»ÐµÑĢÑĸÐ½":6628,"ĠâĢ¦":6629,"ÐļÐµ":6630,"ĠÑĤÓ©ÑĤÐµÐ½ÑĪÐµ":6631,"ĠÑĪÑĭÒĵÐ°ÑĤÑĭÐ½":6632,"ĠÐ¶Ð°ÒĵÐ´Ð°Ð¹Ð´Ñĭ":6633,"ĠÐ°Ð½Ð°Ð»":6634,"ÑģiÐ·":6635,"ĠÐ°ÑĥÑĭÑģÑĤÑĭÑĢÑĥ":6636,"ÑĸÑģÑĤÑĸÒ£":6637,"ÑĪÐ°ÑĢÑĥÐ°ÑĪÑĭÐ»ÑĭÒĽ":6638,"ĠÐ°Ð¹ÑĢÑĭÒĽÑĪÐ°":6639,"ĠÐ¶Ð°Ð±ÑĭÐ»":6640,"ĠÐ¾ÒĽÐ¸ÒĵÐ°Ð»Ð°ÑĢ":6641,"ĠÒļÐ¾Ð»Ð´Ð°Ð½":6642,"ĠÐ¡Ð°Ð¹":6643,"ÒĵÐ¾Ð»":6644,"Ð°ÑĤÐ°Ð´Ñĭ":6645,"ÐĳÓ©":6646,"ĠÐ´ÐµÐ³ÐµÐ½Ð´Ñĸ":6647,"ĠÐ¼ÐµÒ£Ð³ÐµÑĢÑĥÑĪÑĸÑģÑĸ":6648,"ĠÐ¼ÓĻÑģÐµÐ»ÐµÑģÑĸÐ½":6649,"ĠÐ¶Ð¾Ð»ÒĵÐ°":6650,"ÑģÐ°Ð¹":6651,"ĠÓĻÐ´ÐµÐ¿":6652,"ĠÑĭÒ£":6653,"ĠÓĻÐ±Ð´ÐµÐ½":6654,"ĠÐ½ÐµÐ³ÑĸÐ·Ð´Ðµ":6655,"ĠÑĪÐ°ÑĢÑĤÑĤÐ°ÑĢÑĭ":6656,"Ð°ÑĢÐ´Ñĭ":6657,"Ġn":6658,"ĠÐĲÒĽÑĤÐ°Ñĥ":6659,"ĠÐ´Ð¸Ð·":6660,"ĠÐ±Ð¾Ð»Ð´ÑĭÑĢ":6661,"ĠÐ´ÐµÐ¼Ð°Ð»":6662,"ĠÑĤÓĻÑĢÐ±Ð¸ÐµÐ»ÐµÐ½":6663,"ĠÐºÐµÐ·ÐµÐ³ÑĸÐ½Ð´Ðµ":6664,"ĠÒĽÑĭÐ·Ð¼ÐµÑĤÐºÐµÑĢÑĸ":6665,"........":6666,"ĠÐ¾Ð¹ÑĭÐ¼":6667,"ĠÑģÓĻÐ±Ð¸":6668,"ÐķÑģÐºÐµÑĢÑĤÑĥ":6669,"Ġ01":6670,"ĠÐ°ÑĥÑĢÑĥÐ»Ð°ÑĢ":6671,"ĠÐ¶Ð°ÒĵÐ´Ð°Ð¹ÒĵÐ°":6672,"ĠÐ¼Ð°Ðº":6673,"ÒĵÑĭÐ»Ñĭ":6674,"ĠÐµÑģÐµÐ³Ðµ":6675,"ÒļÐ¾ÑģÑĤÐ°Ð½Ð°Ð¹":6676,"ĠÑĪÑĥ":6677,"ÐŁÐ°ÑĢ":6678,"ot":6679,"ÑĤÑĥÒĵÐ°":6680,"172":6681,"ĠÐ¶Ò¯Ð³ÑĸÑĢ":6682,"Ð´ÐµÐ¹ÑĤÑĸÐ½":6683,"ÑĤÐ°Ò£ÑĭÐ·":6684,"ĠÐ¼ÐµÐ·Ð³ÑĸÐ»":6685,"Ð¸ÑģÑģÐ¸ÑıÑģÑĭ":6686,"Ð´Ð°ÑģÑĭ":6687,"ĠÐºÐµÒ£ÐµÑģÑĤÐµÑĢ":6688,"ĠÐ½Ò±ÑĢ":6689,"ĠÐ¼Ð°ÑģÑģ":6690,"ĠÐ¾ÑĢÑĭÐ½Ð´Ð°ÑĥÒĵÐ°":6691,"ĠÐĴÐ¸Ð´ÐµÐ¾":6692,"ĠÐ°ÑĢÐ°Ð»ÑĭÒĽ":6693,"ĠÐ°ÑĥÐ·":6694,"ĠÐłÐµÑģÐµÐ¹Ð´ÑĸÒ£":6695,"ĠÐľÓĻÐ¶ÑĸÐ»ÑĸÑģ":6696,"ĠÒĽÐ¾Ð¶":6697,"ÐĲÐŁ":6698,"ĠÐ°ÑģÑĤÑĭÐ½Ð´Ð°":6699,"ĠÓĻÐ½ÑĪÑĸ":6700,"ĠÐłÐµÑģ":6701,"ÑĭÐ»ÑģÑĭÐ½":6702,"iÐ»i":6703,"Ð¢Ðŀ":6704,"Ð°ÑģÐ¿Ð¸Ð¹":6705,"ĠÐ±ÑĸÐ»ÑĸÐ¼ÑĸÐ½":6706,"ĠÐ¿Ð°ÑĤÑĢÐ¸Ð¾":6707,"84":6708,"ĠÒĽÐ°ÒĵÐ¸Ð´Ð°":6709,"Ó©Ò£Ð´ÐµÑĥ":6710,"ĠÐ´Ð°Ð¼Ñĭ":6711,"ÑĭÐ»Ð°":6712,"ĠÐ¾ÒĽÑĥÑĪÑĭÐ»Ð°ÑĢÒĵÐ°":6713,"ÐķÐºÑĸÐ½ÑĪÑĸ":6714,"ĠÐ±Ð°Ðº":6715,"ĠÒ±Ð»ÒĵÐ°Ð¹":6716,"ĠÐ¾ÐºÑĢÑĥÐ³ÑĸÐ½ÑĸÒ£":6717,"ÐĽÐķÐļ":6718,"ĠÐ¿ÑĢÐ¾ÐºÑĥÑĢÐ¾ÑĢ":6719,"ĠIII":6720,"ĠÐ°ÑıÒĽÑĤÐ°Ð»ÒĵÐ°Ð½":6721,"ÐµÑĤÑĢÐ¾Ð¿Ð°Ð²Ð»":6722,"ĠÐ¾ÑĢÑĭÐ½Ð´Ð°ÑĢÑĭÐ½ÑĭÒ£":6723,"Ð¼Ð°ÒĵÑĭÐ½":6724,"ÐľÐµÐºÐµÐ½":6725,"tit":6726,"Ð±Ð¾ÑĢ":6727,"Ð°ÑĥÑĭÑĢÐ¶Ð°Ð½":6728,"ĠÐºÐ¾Ð´ÐµÐº":6729,"ÐķÐłÐĨ":6730,"ĠÐ±ÑĸÐ»Ð¼ÐµÐ¹":6731,"ĠÒĽÒ±ÑĢÐ°Ð»Ð´Ð°ÑĢÑĭÐ½":6732,"ĠÐ±Ð¸ÑĭÐ»ÒĵÑĭ":6733,"Ð»ÐµÒ£":6734,"ÐĸÐ°Ð¼Ð±ÑĭÐ»":6735,"Ð¢ÑĥÒĵÐ°Ð½":6736,"ĠÑĤÐµÑħÐ½Ð¾Ð»Ð¾Ð³Ð¸ÑıÑģÑĭ":6737,"ĠÐ¡Ð¾ÑĤ":6738,"ÒĽÑĭÐ½Ñĭ":6739,"ĠÐ¾ÑĢÐ³Ð°Ð½Ð¸Ð·Ð¼":6740,"witter":6741,"ĠÒĽÒ±Ð¶Ð°ÑĤÑĤÐ°ÑĢÐ´ÑĭÒ£":6742,"Ð´Ð°Ð¹ÑĭÐ¼":6743,"ĠÐ£ÐºÑĢÐ°Ð¸":6744,"ĠÑĤÐ°ÒĵÐ°Ð¹ÑĭÐ½Ð´Ð°Ð»Ð´Ñĭ":6745,"ĠÑıÐ´ÑĢÐ¾Ð»ÑĭÒĽ":6746,"ĠÐ¨ÑĭÐ½":6747,"Ð°ÑĤÑĤÐ°":6748,"Ð°ÑĤÑĭÐ½Ð°":6749,"ĠÐ´Ð°ÑĢÑĭÐ½Ð´Ñĭ":6750,"ĠÐ·Ð°ÑĤÑĤÐ°ÑĢÐ´Ñĭ":6751,"ĠÑģÐ°ÑħÐ½":6752,"ĠÒ±ÑģÑĭÐ½Ð´Ñĭ":6753,"ÐĲÐ¹ÑĤÐ°":6754,"ĠÐ½ÐµÐ³iÐ·":6755,"ĠÑĤÐ¾Ð»ÑĭÒĵÑĭÐ¼ÐµÐ½":6756,"ĠÐºÑĸÑģ":6757,"ÑĪÑĸÐ»ÑĸÐºÑĤÑĸ":6758,"Ð±Ð°ÑģÑĭÐ½":6759,"ĠÐ±Ð¾Ð»Ð¶Ð°Ð¼":6760,"ĠÑģÐ¸ÑĢÐµÐº":6761,"ÐĳÐ°ÑĤÑĭÑģ":6762,"ĠÐ¾Ð·ÑĭÒĽ":6763,"ĠÓ¨ÑģÐºÐµÐ¼ÐµÐ½":6764,"ĠÐºÑĸÑĢÑĸÐ¿":6765,"ĠÐ´Ð¾ÐºÑĤÐ¾ÑĢÑĭ":6766,"ĠÐ¶Ð°Ð»Ð°ÒĽ":6767,"ĠÐ°ÑĥÐ´Ð°ÑĢÐ¼Ð°":6768,"ĠÐ¼Ò¯Ð¼ÐºÑĸÐ½Ð´ÑĸÐ³ÑĸÐ½":6769,"Ð¾ÑĤÐµÐº":6770,"ÒļÐ°Ð»Ð°":6771,"Ð¹ÑĭÒĽ":6772,"ÐĿÐ°Ð·Ð°ÑĢÐ±Ð°ÐµÐ²ÑĤÑĭÒ£":6773,"ĠÐ¾ÑģÑĭÐ½":6774,"ĠÐĲÑģÑģÐ°Ð¼Ð±Ð»ÐµÑı":6775,"Ð¸ÑģÑģÐµÑĢ":6776,"Ð¸ÑĨÐµ":6777,"dex":6778,"ĠÐ°Ð²ÑĤÐ¾ÑĢÑĭ":6779,"ĠÑĭÐ»":6780,"ĠÐ¶Ð¸Ð½Ð°Ð¿":6781,"ĠÐºÓ©Ð¼ÐµÐºÑĤÐµÑģÐµÐ´Ñĸ":6782,"ĠÓĻÑĥÐµ":6783,"ÑĪÐ°Ñĥ":6784,"Ð¾Ð»Ð¾Ð²":6785,"ĠÐ°Ð»Ð¼Ð°ÒĵÐ°Ð½":6786,"ĠÐ¶Ð°ÑĢÐ½":6787,"Ó¨ÑĢ":6788,"ĠÐ³Ð°Ð·ÐµÑĤÑĸÐ½ÑĸÒ£":6789,"ĠÓĻÐ¶":6790,"ĠÐĳÐ°ÒĵÐ´Ð°ÑĢÐ»Ð°Ð¼":6791,"ĠÐ°ÑĪÑĭÐ»ÒĵÐ°Ð½":6792,"Ð°ÑĤÑĥÒĵÐ°":6793,"ĠÑģÐ°ÑĤÑĭÐ»":6794,"ĠÑĭÒĽÑĤÐ¸":6795,"ĠÒļÐ°ÑģÑĭÐ¼":6796,"ÐĶÐµÐ½ÑģÐ°ÑĥÐ»ÑĭÒĽ":6797,"ĠÑģÐ°Ð»Ð°Ð´Ñĭ":6798,"ÐºÐµÑģÑĸÐ½ÑĸÒ£":6799,"ĠÑĤÐ¾Ð¿ÑĭÑĢÐ°ÒĽ":6800,"ĠÑĤÒ±Ð»ÒĵÐ°Ð»Ð°ÑĢÒĵÐ°":6801,"ĠÓĻÑĢÐ¸Ð½Ðµ":6802,"ĠÑĸÐ·Ð´ÐµÐ¿":6803,"ĠÑĩÐµÐ¼Ð¿Ð¸Ð¾Ð½Ñĭ":6804,"ÑĤÑĸÐ½Ð´Ðµ":6805,"ĠÐ±Ð°ÑģÑĪÑĭ":6806,"ĠÒ®Ð»ÐºÐµÐ½":6807,"ĠÒļÐ°Ð·Ð°Ð½":6808,"ĠÐ¶Ò¯ÑĢÐ³iÐ·":6809,"ĠÓ¨ÑĤÐºÐµÐ½":6810,"ÑģÐ¾ÒĽ":6811,"ÐľÐ°ÒĽÑģÐ°ÑĤÑĭ":6812,"ĠÒ±Ð¿Ð°Ð¹":6813,"ĠÐ´Ò±":6814,"ĠÐ¶Ð°Ð»ÒĵÐ°":6815,"ĠÑģÐ¾Ò£ÑĭÐ½Ð°":6816,"ard":6817,"ÑĸÐ»Ð´ÑĸÑĢ":6818,"ĠÑģÐ°Ð½Ð´ÑĭÒĽ":6819,"ÒĴÐĲÐĿ":6820,"Ð´ÐµÑĪÐµ":6821,"ĠÐ±ÐµÐ»Ð³ÑĸÑģÑĸÐ·":6822,"ĠÐ±Ð°ÒĵÑĭÑĤÑĤÐ°ÒĵÑĭ":6823,"ĠÐļÐ¾ÑĢÐµÑı":6824,"ĠÐ°Ð»ÑĥÑĪÑĭÐ½ÑĭÒ£":6825,"ÑĤiÐ»ÐµÑĢ":6826,"Ð´ÐµÑĢÐ´ÐµÐ½":6827,"Ð¢ÐĲÐľ":6828,"ĠÐºÐµÐ·Ð´ÐµÑģÐµÑĤÑĸÐ½":6829,"Ġ150":6830,"av":6831,"ĠÐ´ÐµÐ¿ÑĥÑĤÐ°ÑĤÑĭ":6832,"ÒĽÐ°Ð±":6833,"ĠÑĤÒ±ÑĢÒĵÑĭÐ½Ñĭ":6834,"ĠÐ·Ð°Ð¼Ð°Ð½ÒĵÑĭ":6835,"ĠÐ°Ð»Ð¼Ð°Ñģ":6836,"ĠÐºÓ©ÑĢÐ¼ÐµÑģÑĸ":6837,"Ġ36":6838,"ĠÐºÐ°Ð½":6839,"ĠÐºÑĸÑĢÑĸÑģÑĤÐµÑĢ":6840,"ĠÒĽÐ°ÑĢÐ°ÑģÑĤÑĭÑĢÑĭÐ»ÒĵÐ°Ð½":6841,"ĠÐ°ÑĥÐ´Ð¸ÑĤ":6842,"Ð±Ð°ÑģÑĤÒ±Ð·":6843,"ĠÒĽÐ°Ð½ÑĪÐ°Ð»ÑĭÒĽÑĤÑĭ":6844,"ĠÐ¶Ò¯Ð¹ÐµÑģÑĸÐ½Ð´Ðµ":6845,"Ð»Ð°Ð´":6846,"ĠÐļÓ¨":6847,"em":6848,"ĠÐºÓĻÑģÑĸÐ¿Ð¾ÑĢ":6849,"ÑĸÐ»Ðµ":6850,"Ð¸Ð·Ð°ÑĨÐ¸Ñı":6851,"ĠÐĵÐµ":6852,"ĠÑĤÒ±ÑĢÑĥ":6853,"Ð°Ð»ÒĽÑĭ":6854,"ÐķÐ£":6855,"Ð»Ð¸Ñı":6856,"ÒļÐ°Ð·Ð°ÒĽÑģÑĤÐ°Ð½Ð´ÑĭÒĽ":6857,"ĠÐ°ÑģÑĭÑĢÐ°Ð¿":6858,"ĠÓĻÐ´ÐµÑĤÑĤÐµ":6859,"ĠÐµÐ½Ð³ÐµÐ½":6860,"ĠÐĸÐ°Ð¿Ð¾Ð½":6861,"Ð¿ÐµÐ³ÐµÐ½":6862,"ÐµÑģÐº":6863,"ĠÐºÓ©Ð±ÑĸÑĢÐµÐº":6864,"ĠÐĲÐ·Ð°Ð¼Ð°ÑĤÑĤÑĭÒĽ":6865,"ĠÓ©ÑĤÐºÑĸÐ·ÑĸÐ¿":6866,"ĠÑĤÐ°Ð¿ÑģÑĭÑĢÐ¼Ð°ÑģÑĭÐ½":6867,"Ð±Ð°Ð±ÑĭÐ½ÑĭÒ£":6868,"ĠÐ´Ð°Ð¼ÑĭÐ¿":6869,"ĠÐ°Ð¿Ð°ÑĢ":6870,"ĠÐºÒ¯Ð½Ð´Ñĸ":6871,"ÑħÐ°Ð»ÑĭÒĽ":6872,"Ð¸ÐµÐ½":6873,"ĠÓ©ÐºÑĸÐ¼":6874,"ÑĤÐµÐ»Ð´ÐµÑĢ":6875,"ĠÒĽÐ°Ð»Ð°Ð»Ð°ÑĢ":6876,"ĠÐ¼ÐµÑĢÐµÐºÐµÐ»ÑĸÐº":6877,"ĠÐ¼Ð°Ð¼Ð°Ð½Ð´Ð°Ð½Ð´ÑĭÑĢÑĭÐ»ÒĵÐ°Ð½":6878,"ÑĤÓĻÑģÑĸÐ»":6879,"ĠÒļÐ°Ð¹ÑĢÐ°ÑĤ":6880,"ÐļÑĸÑĤÐ°Ð¿":6881,"ÐķÐ¢Ð¢ÐĨÐļ":6882,"Ð»Ð°ÑĥÒĵÐ°":6883,"2012":6884,"ĠÒĽÐ°Ð±ÑĸÐ»ÐµÑĤÑĤÐµÑĢÑĸÐ½":6885,"ĠÑĪÐ°ÑĢÐ°Ð»Ð°ÑĢÑĭÐ½":6886,"ĠÑĤÒ±ÑĢÐ°":6887,"ĠÐĳÐ°ÑıÐ½":6888,"ÑĭÑģÑĤÐ°":6889,"ĠÐ°Ð½Ð°ÑģÑĭ":6890,"ĠÐ±ÐµÐ»Ð³i":6891,"ĠÐ±Ð¾Ð»Ð¼Ð°ÑĥÑĭ":6892,"Ð¡ÑĸÐ·Ð´ÑĸÒ£":6893,"ĠÒĽÐ°Ð±ÑĭÐ»Ð´Ð°Ð½Ð´Ñĭ":6894,"ĠÐ°ÑĢÑħÐ¸Ð²":6895,"Ð¼Ð°Ð½ÑĭÒ£":6896,"ĠÒĽÐ°Ð¼ÑĤÑĭÐ»ÒĵÐ°Ð½":6897,"ĠÑģÑĤÐ¸ÑħÐ¸":6898,"ĠÒĽÑĭÐ·Ð¼ÐµÑĤÐºÐµÑĢÐ»ÐµÑĢÐ´ÑĸÒ£":6899,"ÑģÐ°ÑĤÑĭÐ½":6900,"ÑĢÑĸ":6901,"ĠÐ±Ð°ÒĵÐ°Ð»":6902,"ĠÐ±Ó©Ð»ÑĸÐ½ÑĸÐ¿":6903,"Ð¿ÐµÑģ":6904,"ĠÑĢÐ°Ð´Ð¸":6905,"ÑĤÐ°ÑģÑĭ":6906,"ĠÑĪÐ°ÑĢÑĪÑĭ":6907,"ÑĤÐ°Ð¹Ð¼ÑĭÐ·":6908,"ĠÐĳÒ¯Ð³ÑĸÐ½Ð´Ðµ":6909,"ĠÓĻÑģÐµÑĢÑĸÐ½":6910,"ÑĢÐ°Ð·":6911,"ÐĳÐ¸ÑĭÐ»":6912,"ĠÐĿÐµ":6913,"Ð´ÐµÑĥÑĸ":6914,"ĠÑĤÑĸÐ»ÑĸÐ½Ðµ":6915,"ĠÑĸÑģÑĸÐ½":6916,"Ð¿Ð¸ÑıÐ»ÑĭÒĽ":6917,"ĠÐ¡ÐµÐ¹":6918,"ÒĽÐ¾ÒĵÐ°":6919,"ÒĽÐ°Ð½Ñĭ":6920,"ÐĺÐ¢":6921,",-":6922,"Ð¡Ð¾":6923,"ĠÑĤÐ°ÑĢÐ¼Ð°ÒĽÑĪ":6924,"97":6925,"ĠÐ¼Ò±ÒĽÑĤÐ°Ð¶":6926,"ĠÐ½Ð°Ð¼":6927,"ĠÐµÑĪÑĤÐµÒ£":6928,"ĠÐ°Ð¿Ð¿Ð°ÑĢÐ°ÑĤÑĭÐ½Ð´Ð°":6929,"ÐĳÐ°Òĵ":6930,"ÐºÐ°Ð´ÐµÐ¼":6931,"ÑĪiÐ»iÐº":6932,"08":6933,"ĠÑĤÐµÑģÑĤÑĸÐ»ÐµÑĥ":6934,"ac":6935,"ÑĨÐ¸ÐºÐ»Ð¾Ð¿ÐµÐ´":6936,"Ð½ÐµÐºÑĤÑĸ":6937,"ĠÐ¶Ò¯ÑĢÑĥ":6938,"ĠÑĦÐ¾ÑĤÐ¾":6939,"ĠÒļÐ°Ð·Ð°ÒĽÑģÑĤÐ°Ð½Ð´ÑĭÒĽ":6940,"iÐ»Ð³ÐµÐ½":6941,"ub":6942,"ĠÐ¶Ð¾ÒĵÐ°ÑĢÑĭÐ»":6943,"ÑģÐ°ÑĤÐ°Ð¹":6944,"ĠÐ¶ÐµÑĢÐ»ÐµÑĢÐ´Ðµ":6945,"ĠÐ¼ÑĭÒ£ÒĵÐ°":6946,"54":6947,"ĠÑĪÓ©Ð¿":6948,"ĠÒ±ÑģÑĤÐ°Ð½ÑĭÐ¼":6949,"Ð·Ð¸ÑıÑģÑĭ":6950,"Ð£ÐĶ":6951,"ĠÐ¶Ò¯ÑĢÐ³ÑĸÐ·ÐµÐ´Ñĸ":6952,"ÑĥÐº":6953,"Ò¯ÑģÑĸÐ¿":6954,"ÐĹÐµÑĢÑĤÑĤÐµÑĥ":6955,"ĠÐºÓĻÑģ":6956,"ĠÐ´ÐµÑģÐµ":6957,"ĠÑģÐ°ÑĢÐ°Ð¿ÑĤÐ°Ð¼Ð°":6958,"ĠÐµÑĤÑĸ":6959,"Ó¨Ð½ÐµÑĢÐºÓĻÑģÑĸÐ¿":6960,"ĠÐ¡ÑĭÑĢÑĤÒĽÑĭ":6961,"ÐµÒ£ÐºÐµ":6962,"ĠÐ¼ÐµÐºÐµÐ¼Ðµ":6963,"ĠÐľÐ°Ñħ":6964,"ĠÐ°Ð´Ð°Ð¼Ð·Ð°ÑĤ":6965,"ĠÑĤÓĻÑĢÐ±Ð¸ÐµÑģÑĸ":6966,"ĠÐ°ÑĢÑĤÑĤÑĭÑĢÑĥÒĵÐ°":6967,"ÐµÑĦÐµÑĢ":6968,"Ð»ÑĭÒĵ":6969,"ĠÐ¶Ð°ÑĢÒĽÑĭÐ½":6970,"ĠÐĲÒĽÑģ":6971,".Â»":6972,"ĠÒĽÐ¾ÑĢÒĵÐ°Ð½ÑĭÑģ":6973,"ÐĳÐ°ÑģÑĤÐ°ÑĥÑĭÑĪ":6974,"ĠÐ´Ð°ÒĵÐ´ÑĭÐ»Ð°ÑĢÑĭÐ½":6975,"ĠÑĤÑĸÐ½":6976,"ĠÒĽÐ°Ð±ÑĭÐ»Ð´Ð°ÑĥÐ´ÑĭÒ£":6977,"Ð«ÐĿÐĶÐĲ":6978,"ĠÐ¸Ð½Ð²ÐµÑģÑĤÐ¾ÑĢ":6979,"ĠÓĺÐ»ÐµÑĥÐ¼ÐµÑĤÑĤÑĸÐº":6980,"ĠÑĢÐµÐ¹ÑĤ":6981,"ĠÐ¶Ð°ÑĢÐ¸ÑıÐ»Ð°ÒĵÐ°Ð½":6982,"Ð¼Ð°ÒĵÑĭÐ½Ð´Ð°ÒĵÑĭ":6983,"ĠÐ¼Ó©Ð»ÑĪÐµÑĢÐ´Ðµ":6984,"ĠÐ½Ð°ÑģÐ¸ÑħÐ°ÑĤÑĤÐ°Ñĥ":6985,"ĠÐ°Ð»Ð´ÑĭÐ¼":6986,"ĠÐµÐ³ÐµÐ¼ÐµÐ½":6987,"ĠÓ©Ð·Ð³ÐµÑĪÐµ":6988,"ÒĽÐ°ÑģÑĭ":6989,"ĠÐ¶Ð°ÑĥÐ°Ð¿ÐºÐµÑĢÑĪÑĸÐ»ÑĸÐ³Ñĸ":6990,"ĠÑĭÒ£Òĵ":6991,"Ð¸ÐµÑĤÑĤÑĸ":6992,"ĠÐºÐµÑĪÐµÐ½Ñĸ":6993,"ĠÐ¼ÑĥÐ·ÑĭÐºÐ°Ð»ÑĭÒĽ":6994,"ĠÑĤÒ±Ð·":6995,"ĠÐºÐ¾Ð¼Ð¿Ð°Ð½Ð¸ÑıÑģÑĭÐ½ÑĭÒ£":6996,"ĠÑĪÐµÑĪÑĸÐ¼ÑĸÐ½":6997,"ÑĤÐµÐ·":6998,"ĠÒĽÒ±ÑĢÑĭÐ»ÑĭÐ¼Ð´ÑĭÒĽ":6999,"ĠÐ¾ÑĢÐ½Ð°Ð»Ð°ÑģÑĥÒĵÐ°":7000,"ĠÐ¼Ò¯Ð»Ð´ÐµÐ¼":7001,"ĠÐ´Ð¸Ð°Ð³Ð½Ð¾Ð·":7002,"ĠÐ´Ð°Ð»Ð°":7003,"ĠÐµÐ¼ÑĤÐ¸ÑħÐ°Ð½":7004,"ĠÐ¼Ð°ÑĤÐµÑĢÐ¸Ð°Ð»Ð´Ñĭ":7005,"Ð¾Ð»Ð¾Ð³Ð¸ÑıÑģÑĭ":7006,"ĠÐ¼Ð¾ÑĢ":7007,"ĠÐ±ÐµÐ¹Ð½Ðµ":7008,"ĠÐ¢Ð°Ñĥ":7009,"ÑĥÑĢÐ¾Ð¿":7010,"ĠÐ±Ð¾Ð»Ð°ÑĤÑĭÐ½ÑĭÐ½":7011,"ÐµÐ¹Ð¼ÐµÐ½":7012,"Ð´Ð¸Ñı":7013,"ĠÐºÓ©Ð¼":7014,"ĠÒĽÐ°ÑģÐ¸ÐµÑĤÑĤÐµÑĢÑĸ":7015,"ĠÐĲÐ½Ð°":7016,"php":7017,"ÒĽÐ¾Ð½":7018,"ĠÑĪÑĭÒĵÐ°ÑĢÒĵÐ°Ð½":7019,"ĠÐ°Ð½ÑĭÒĽÑĤÐ°Ð¹Ð´Ñĭ":7020,"ĠÑĦÐ¸ÑĢ":7021,"ĠÐ¶ÑĭÐ»ÒĽÑĭ":7022,"ĠÑĤÒ±Ð¶ÑĭÑĢÑĭÐ¼Ð´Ð°Ð¼":7023,"ĠÐ¸Ð½ÑĤÐµÐ»":7024,"and":7025,"ĠÒĽÑĭÑĪÒĽÑĭÐ»":7026,"ĠÐ¼ÑĸÐ½Ð´ÐµÑĤÑĤÐµÑĢÐ´Ñĸ":7027,"Ð°Ð¿ÑģÑĭÑĢ":7028,"ĠÐ¿ÑĢÐ¾Ð³ÑĢÐ°Ð¼Ð¼":7029,"ĠÐºÒ¯Ð½Ð½ÑĸÒ£":7030,"ÑĸÑģÑĥ":7031,"ĠÓ¨Ð½Ð´ÑĸÑĢÑĸÑģ":7032,"ĠÐ¾ÑĤÑĭÐ½":7033,"ÐµÑĤÑĸÐ½ÐµÐ½":7034,"wikipedia":7035,"azakh":7036,"ÓĻÐ¶ÑĸÐº":7037,"ĠZ":7038,"ĠÒĽÐ°ÑĤÑĭÑģÑĥÑĪÑĭ":7039,"ĠÑĥÐ°ÒĽÑĭÑĤÒĽÐ°":7040,"ÐŁÐ£":7041,"ĠÐŀÐ¹ÑĭÐ½":7042,"ĠÓ©Ð½ÐµÑĢÐºÓĻÑģÑĸ":7043,"ĠÐļÐķ":7044,"ĠÐ¾ÑĢÑĤÐ°ÑģÑĭÐ½Ð´Ð°":7045,"ÐŁÓĻÐ½":7046,"ĠÐ¸Ð½ÑģÑĤÐ¸ÑĤÑĥÑĤÑĭÐ½ÑĭÒ£":7047,"index":7048,"ĠÒļÑĭÐ»Ð¼ÑĭÑģÑĤÑĭÒĽ":7049,"ÐºÐµÑĢÐ»ÐµÑĢÐ´ÑĸÒ£":7050,"ĠÐ°Ð¹ÒĽÑĭÐ½Ð´Ð°Ñĥ":7051,"ÑĪÑĭÐ½Ñĭ":7052,"ĠÓ©Ð½ÐµÑĢÐºÓĻÑģÑĸÐ¿ÑĤÑĸÐº":7053,"ĠÐ¾ÑĢÐ°Ð¹Ð´Ð°":7054,"ĠÐĲÑĤÐ°Ð»ÒĵÐ°Ð½":7055,"ĠÐ¼ÓĻÑģÐ»Ð¸Ñħ":7056,"ĠÐ·Ð°ÑĤÑĤÐ°ÑĢÐ´ÑĭÒ£":7057,"ĠÑĪÐµÐ³":7058,"ĠÐ¾ÑĤÑĭÑĢÐ´Ñĭ":7059,"ĠÐ°Ð¹ÑĭÑĢÐ±Ð°Ñģ":7060,"ĠÑĤÐ°ÑĤÑĥ":7061,"ĠÒĽÐ¾ÑĢÑĭÐ½":7062,"ĠÓĻÒ£Ð³ÑĸÐ¼ÐµÐ»ÐµÑģ":7063,"ĠÑģÑĸÐ·Ð´ÐµÑĢÐ³Ðµ":7064,"Ð¢Ð°ÒĽÑĭÑĢÑĭÐ¿":7065,"ĠÐ±ÑĸÑĢÐ»ÑĸÐ³Ñĸ":7066,"ĠÒĽÑĥÐ°ÑĤ":7067,"Ò°ÐĽ":7068,"ĠÐĿÓĻÑĤÐ¸Ð¶":7069,"ĠiÑĪ":7070,".âĢĶ":7071,"ĠÐ¼ÐµÐ´Ð°Ð»ÑĮ":7072,"ĠÐ¶ÐµÑĢÐ´Ñĸ":7073,"ĠÑįÐºÑģÑĤÑĢ":7074,"ĠÒĴÑĭÐ»ÑĭÐ¼":7075,"ĠÒĽÐ°Ð±ÑĸÐ»ÐµÑĤÑĸ":7076,"ĠÑĪÐµÑĪÑĥÐ³Ðµ":7077,"Ð¾Ð¿Ð¾Ð»":7078,"ĠÓĻÐºÑĸÐ¼ÑĪÑĸÐ»ÑĸÐ³Ñĸ":7079,"ĠÑĸÑģÑĤÐµÑĥÐ³Ðµ":7080,"ĠÐĸÒ¯ÑĢ":7081,"ĠÑĪÐ°ÑĢÐ°Ð¿":7082,"ĠÑħÐ°Ð´":7083,"Ð¾Ð²ÐºÐ°":7084,"ĠÓĻÐ»Ð³Ñĸ":7085,"Ð¾Ð²ÑĤÑĸÒ£":7086,"Ġ2050":7087,"Ð°Ð¹Ð»Ð°Ñĥ":7088,"ĠÐ¿ÑĢÐ¾ÑĨÐµÑģÑģ":7089,"Ð¾Ò£ÑĭÑĢ":7090,"ĠÐ±ÐµÐ´ÐµÐ»":7091,"ĠÐļÐ¡ÐłÐŀ":7092,"Ð¸ÐºÐµ":7093,"ĠÐ°Ð»ÑĥÐ°Ð½":7094,"ĠÒĽÒ±ÑĢÐ°Ð¹ÑĤÑĭÐ½":7095,"ĠÐĲÐĽ":7096,"did":7097,"ĠÐ¼ÑĥÐ·ÑĭÐºÐ°":7098,"ÑģÐµÐ»":7099,"ĠÑįÐºÐ¾Ð½Ð¾Ð¼Ð¸ÐºÐ°Ð½ÑĭÒ£":7100,"ĠÐĸÐ¾Ð»Ð´Ð°ÑĥÑĭ":7101,"ĠÐ¢Ò¯":7102,"ÐŃÐºÐ¾Ð»Ð¾Ð³Ð¸Ñı":7103,"Ð°ÑĤÑĭÐ½Ñĭ":7104,"Ð´ÐµÑĢÐ¼ÐµÐ½":7105,"ĠÓĺÑĥÐµÐ·Ð¾Ð²":7106,"ĠÓĻÑĥÐ»":7107,"Ð±Ð°Ð»Ð°ÑĢ":7108,"Ð°ÑĨÐ¸ÑıÑģÑĭÐ½ÑĭÒ£":7109,"Ð»ÑĭÒĽÑĤÑĭÒ£":7110,"ĠÒĽÒ±ÑĤÑĤÑĭÒĽÑĤÐ°Ñĥ":7111,"ĠÐļÐ¾Ð´ÐµÐºÑģ":7112,"ĠÐ²ÐµÑĤÐµÑĢÐ¸Ð½Ð°ÑĢÐ¸Ñı":7113,"ÐŀÐ±Ð»ÑĭÑģÑĤÑĭÒĽ":7114,"Ð´ÑĭÒĵÑĭÐ½Ð°Ð½":7115,"ĠÐĲÐº":7116,"ĠÑĸÑĪÑĸÐ½ÐµÐ½":7117,"ÒĽÑĭÑģ":7118,"Ð¢Ó©ÑĢ":7119,"ĠÑĤÓĻÑĥÐµÐ»Ð´Ñĸ":7120,"ĠÐ¶Ò±Ð¿":7121,"ĠÐ±ÑĸÐ»ÑĸÐ¿":7122,"ĠÐĲÐ»ÐµÐºÑģ":7123,"ĠÑģÑĥÐ¼ÐµÐ½":7124,"ĠÐĲÐ¹ÑĤ":7125,"Al":7126,"ĠÐ±Ð°ÒĽÑĭÑĤÑĤÑĭ":7127,"Ð°ÑıÑģÐ°ÑĤ":7128,"ĠÐ¶ÑĭÐ»Ð´ÑĭÒĵÑĭ":7129,"ĠÐµÑĢÐµÐ¶ÐµÐ»ÐµÑĢ":7130,"ĠÐ¿ÑĢÐ¾ÑĨÐµÑģÑĸ":7131,"ÑĦÐ¸ÑĨ":7132,"ĠÐ·ÑĥÐ±":7133,"ĠÐ°ÐºÑĨÐ¸Ð¾Ð½ÐµÑĢÐ»ÑĸÐº":7134,"ĠÐ¶Ð°Ò»Ð°Ð½Ð´ÑĭÒĽ":7135,"ĠÑĢÓ©Ð»Ñĸ":7136,"Ð°ÑĤÑĭÐ»ÑĭÑģÑĤÐ°Ð½Ñĥ":7137,"Ð¢Ð°ÒĽÑĭÑĢÑĭÐ±Ñĭ":7138,"ĠÒĽÑĭÑģÑĭÐ¼":7139,"ÐĿÒ±ÑĢÐ»Ñĭ":7140,"ĠÐºÐ°ÑĦÐµÐ´ÑĢÐ°ÑģÑĭ":7141,"ÒĵÑĭÐ¼ÐµÐ½":7142,"ÐŀÑĤ":7143,"ĠÒĽÐ¾Ð¹ÑĭÐ»Ð´Ñĭ":7144,"ĠÐ¢Ð°Ò£":7145,"ÑĤÐ¸Ð·":7146,"ĠÐ´Ð°Ð¼ÑĥÐ´ÑĭÒ£":7147,"Ð¿Ð»Ð°Ð½":7148,"ab":7149,"ÐµÑĤÑĤÐµÑĢÐ´ÑĸÒ£":7150,"ĠÑĤÐ¾Ð»ÑĭÒĽÑĤÐ°Ð¹":7151,"ÐĵÐ°Ð·":7152,"ĠÒ¯Ð¹ÑĸÐ½Ðµ":7153,"ĠÐ¡Ð¿Ð¾ÑĢÑĤ":7154,"ĠÐµÑĤÑĸÐ»Ð³ÐµÐ½":7155,"ĠÐ¶Ð°ÒĽÑĤÑĭ":7156,"ÓĻÐºÑĸÐ¼":7157,"ÑģÑĭÐ·Ð´ÑĭÒĽ":7158,"ĠÐ°ÑĢÑĤÑĭÐ¿":7159,"Ð»ÐµÑĢÑĸÐ¼ÐµÐ½":7160,"63":7161,"ĠÒĽÒ±ÑĢÐ°ÑģÑĤÑĭÑĢÑĥ":7162,"ĠÐ¶Ð°ÑĢÑĤÑĭÐ»Ð°Ð¹":7163,"ĠÓ©Ð¼ÑĸÑĢÐ´Ðµ":7164,"ĠÓĺÐ½":7165,"Ð°Ð¹Ð¼ÑĭÐ½":7166,"64":7167,"Ð±ÑĥÑģ":7168,"ÐµÑģi":7169,"ĠÑģÐµÑĢÑĸÐºÑĤÐµÑģÑĤÑĸÐº":7170,"ĠÐĲÑĪÑĭÒĽ":7171,"ĠÒĽÐ°Ð±ÑĭÐ½":7172,"ĠÐ¼Ò±ÑĢÐ°":7173,"ĠÐ¶Ð¾Ð±Ð°Ð»Ð°Ñĥ":7174,"ĠÑĢÐµÐ³Ð»Ð°Ð¼ÐµÐ½ÑĤÑĸ":7175,"ĠÐ¿Ð°Ð»Ð°ÑĤ":7176,"Â²":7177,"ĠÐ±Ó©Ð»ÑĸÐ¼ÑĸÐ½Ð´Ðµ":7178,"ĠÐ°ÑıÒĽÑĤÐ°Ð»":7179,"ÐµÐ¶ÑĸÑĢ":7180,"Ð°Ð´ÑĢ":7181,"Ñľ":7182,"52":7183,"ÑĥÑĢÑģÑĤÑĭÒĽ":7184,"ĠÐ¶Ò±ÑĢ":7185,"ĠÐ¼Ð°ÑĤÐµÑĢÐ¸Ð°Ð»Ð´Ð°ÑĢÑĭ":7186,"ĠÐ¢ÓĻÑĢÐ±Ð¸Ðµ":7187,"ÐŀÑĢÑĤÐ°ÒĽ":7188,"ĠÐĸÒ±Ð¼ÑĭÑģÐ¿ÐµÐ½":7189,"Ó©Ð·ÐµÐ½":7190,"ĠÒĽÐ¾Ð½Ð°ÒĽÑĤÐ°ÑĢ":7191,"ĠÐºÐµÐ»Ð¼ÐµÐ¹Ð´Ñĸ":7192,"ĠÐ°ÑĢÐ°Ð»ÑĭÒĵ":7193,"Ð»ÐµÑĢÐ¼ÐµÐ½":7194,"iÐ½ÐµÐ½":7195,"ĠÐ¶Ð¾ÒĵÐ°ÑĢÑĭÐ´Ð°":7196,"ĠÐºÐ¾Ð½ÐºÑĥÑĢÑģÑĤÑĭÒĽ":7197,"title":7198,"ĠÐºÓ©ÑĢÐµÑĤÑĸÐ½":7199,"ĠÑĸÑģÑĸÐº":7200,"ĠÑĤÒ±ÑĢÒĵÑĭÐ½Ð´Ð°ÑĢ":7201,"ÑĸÐ¼ÑĸÐ·Ð´Ðµ":7202,"Ð¸ÐºÑĤÐµÑĢ":7203,"ĠÐĸÐŀÐŀ":7204,"Ð¡Ð¾Ð½Ð´ÑĭÒĽÑĤÐ°Ð½":7205,"Ð°ÑĥÑĭÐ»":7206,"ÑĭÑĢÐ·":7207,"ĠÑĤÐ°Ð·Ð°ÑĢ":7208,"ĠÐŀÑĢÑĭÐ½":7209,"ĠÑĪÑĭÒĵÐ°ÑĢÐ°Ð´Ñĭ":7210,"Ð¼ÐµÐ¼Ð»ÐµÐºÐµÑĤÑĤÑĸÐº":7211,"ĠÐ´ÓĻÐ½":7212,"ĠÐ»Ð°Ð¹ÑĭÒĽÑĤÑĭ":7213,"ĠÓĺÑĢÐ±ÑĸÑĢ":7214,"ĠÐ¶Ð¸ÑĭÐ½ÑĤÑĭÒĵÑĭ":7215,"ĠÑģÐ¾Ð¼Ð°ÑģÑĭ":7216,"ĠÐ¾ÑĤÑĭÑĢÑĭÑģÑĭÐ½Ð´Ð°":7217,"ÑĸÐ¿ÑģÑĸÐ·Ð´ÑĸÐº":7218,"ĠÐ´ÐµÐ¹iÐ½":7219,"ĠÐ°Ð±ÑĭÑĢ":7220,"Ð°Ð»Ð´ÑĭÒĽÐ¾ÑĢÒĵÐ°Ð½":7221,"ĠÐ°Ð»Ð¼Ð°ÑģÑĥ":7222,"ĠÐ¾Ð¿ÐµÑĢÐ°ÑĤÐ¾ÑĢ":7223,"ĠÐºÐ¾Ð¼Ð¼ÑĥÐ½Ð¸ÐºÐ°":7224,"ĠÐľÒ±Ð½ÑĭÒ£":7225,"ÐľÐ°ÑĢ":7226,"Ò°ÑģÑĤÐ°Ð·":7227,"ĠÐĲÐ»ÒĵÐ°ÑĪÒĽÑĭ":7228,"ĠÐ°ÑĤÒĽÐ°ÑĢÐ°ÑĤÑĭÐ½":7229,"ĠÐŀÐ»Ð¸Ð¼Ð¿Ð¸Ð°Ð´Ð°":7230,"ÐķÐĴ":7231,"ÐĶÒ¯Ð½Ð¸":7232,"ĠÐ¶Ð°ÑĤÑĭÐ¿":7233,"ĠÑģÐ¸Ð¼":7234,"ĠÐ°ÑĤÑĤÐ°Ð½":7235,"72":7236,"ÑĤÐ°ÑģÑĭÐ½Ð°":7237,"ĠÐ¶Ð¸Ð½Ð°Ð»ÒĵÐ°Ð½":7238,"ÐĨÑģ":7239,"ĠÒļÒ±Ð½Ð°Ð½":7240,"ĠÐ¾Ð¹ÑĭÐ½Ñĭ":7241,"ĠÑĤÒ±ÑĢÐ´Ñĭ":7242,"ĠÐ·Ð¸ÑıÐ½Ð´Ñĭ":7243,"Ð¸ÒĽÐ°ÑĤ":7244,"ĠÐµÐ¶ÐµÐ»Ð³Ñĸ":7245,"ĠÐ±Ð°ÑģÐ¿":7246,"ÐŀÑĤÐ°Ð½":7247,"ĠÐ¼Ð¾Ð´ÐµÐ»ÑĮ":7248,"ÐĳÒ¯":7249,"ÑĭÐ»Ð¼Ð°Ð»Ñĭ":7250,"ĠÐľÒ±ÑħÑĤÐ°ÑĢ":7251,"ĠÐļÐµÐ¹Ð±ÑĸÑĢ":7252,"ĠÐ½ÓĻÑĢÑģÐµÐ½":7253,"ĠÐĺÐ¼":7254,"ĠÐ±ÑĸÐ·Ð´Ñĸ":7255,"ÐµÑħÐ½Ð¸ÐºÐ°Ð»ÑĭÒĽ":7256,"Ð½Ð¾Ð²Ð°ÑĨÐ¸Ñı":7257,"ÑĸÐ¼Ð´ÐµÑĢÑĸÐ½":7258,"ĠÐ¾Ñı":7259,"ĠÓĻÑĢÒĽÐ°Ð¹Ñģ":7260,"ÐºiÐ·":7261,"ĠÓĺÐ´ÑĸÐ»ÐµÑĤ":7262,"ĠÐ¼Ò±ÑĢÐ°ÒĵÐ°ÑĤ":7263,"ĠÐ¶Ð°Ò£Ð°Ð´Ð°Ð½":7264,"ĠÐ±ÑĸÑĢÐµÐ³ÐµÐ¹":7265,"Ð¾ÑģÑĭ":7266,"ĠÑĦÐµÑĢ":7267,"ĠÒĽÐ°ÒĵÐ°Ð·Ð´Ð°ÑĢ":7268,"ÐľÓĻÑģ":7269,"ÑĭÑĢÐ»Ñĭ":7270,"ĠÑĤÐ°ÑĥÐ°ÑĢÐ»Ð°ÑĢ":7271,"ĠÐºÓ©ÑĢÑĥÐ³Ðµ":7272,"ati":7273,"ĠÑĪÑĸÐ»Ð´ÐµÐ´ÐµÐ³Ñĸ":7274,"Ġ2001":7275,"ĠÐ¾ÑģÑĭÒĵÐ°Ð½":7276,"ÒļÐļ":7277,"ĠÒ¯Ð¹Ð»ÐµÑĢ":7278,"7172":7279,"ĠÒ±Ð¹ÑĭÐ¼Ð´Ð°ÑĢÑĭÐ½ÑĭÒ£":7280,"ÑĥÑĭÐ½ÑĭÒ£":7281,"ĠÑģÐ¾Ð½Ñĭ":7282,"ÐĳÐĺ":7283,"und":7284,"ĠÐ°Ð´":7285,"ĠÐ»Ð°ÑĥÐ°Ð·ÑĭÐ¼ÑĭÐ½Ð°":7286,"ÑĤÐµÑĢÐµÐº":7287,"hat":7288,"oldid":7289,"ĠÐ¶ÐµÒ£ÑĸÐ»Ð´ÑĸÐº":7290,"ĠÒĽÐ°ÑĢÑģÐ°Ò£":7291,"ĠÑĤÐ°Ð±ÑĥÒĵÐ°":7292,"ĠÐºÐµÑĤÐµÑĤÑĸÐ½":7293,"ĠÐ¡Ð°ÒĵÑĭÐ½":7294,"Ð°Ð¹Ð½":7295,"ĠÐĳÐĲ":7296,"ĠÐ¶Ò¯ÐºÑĤÐµÑĥ":7297,"ÐŁÑĢ":7298,"ÑĭÒĵÑĭÑĢÐ°ÒĽ":7299,"ÑĤÐµÑĢÐ´ÐµÐ½":7300,"ĠÐľÐ°ÒĽÐ°Ð»":7301,"Ð°Ð´Ð¸Ð¾":7302,"ÑĤÑĭÐ·":7303,"ĠÑĤÐ°ÒĽÑĤÐ°":7304,"ÑĪÑĸÐ¼":7305,"Ð¢Ò¯ÑĢÐºÑĸÑģÑĤÐ°Ð½":7306,"Ð´ÐµÑģÑĤÑĸÑĢÑĥ":7307,"ĠÐ¶ÐµÒ£ÑĸÑģÐºÐµ":7308,"ĠÑĢÐµÑģÑĥÑĢ":7309,"Ð±Ò±ÑĢ":7310,"ĠÐ¼Ò¯Ð¼":7311,"ĠÐµÑĪÒĽÐ°ÑĪÐ°Ð½":7312,"ĠÐ¶Ð°Ð±Ð´ÑĭÒĽÑĤÐ°ÑĢ":7313,"Ð¢ÐµÑĢ":7314,"gle":7315,"Ð°ÒĵÑĭÐ½ÑĭÒ£":7316,"ĠÐ±Ð°ÒĵÐ´Ð°ÑĢÐ»Ð°Ð¼Ð°Ð»Ð°ÑĢÑĭ":7317,"ĠÐ±Ð°ÑģÑĤÑĭÒĵÑĭ":7318,"Ġ=":7319,"ĠÑĦÐ¾ÑĤ":7320,"ĠÑĤÒ¯Ð³ÐµÐ»":7321,"ĠÐ¶Ð°ÑģÑĭ":7322,"82":7323,"ÐĲÑģÑĤÐ°Ð½Ð°Ð´Ð°":7324,"ÑĥÑĩ":7325,"ÐĶÐ¾Ñģ":7326,"Ð°Ð»Ð¸ÐµÐ²":7327,"ĠÐ³ÑĥÐ¼Ð°Ð½":7328,"ĠÑģÐ°ÑıÑģÐ°ÑĤÑĭÐ½":7329,"ĠÐ¶Ò¯ÑĢÐ³ÑĸÐ·ÑĥÑĪÑĸ":7330,"ÒĽÐ°Ð·Ð°Ð½":7331,"ĠÐ¾Ð½Ð´Ð°Ð¹":7332,"ĠÐ¶Ò¯ÑĢÐ³ÑĸÐ·ÑĸÐ¿":7333,"har":7334,"ĠÐ¶ÐµÒ£ÑĸÐ¿":7335,"ĠÐ¾ÒĽÑĥÑĪÑĭÐ»Ð°ÑĢÐ´Ñĭ":7336,"ĠÐ°Ð»Ð¼Ð°Ð´Ñĭ":7337,"ÑĸÐ¼Ð´ÐµÑĢÐ´Ñĸ":7338,"ĠÐ±Ð°ÒĵÑĭÑĤÑĤÐ°ÑĢÑĭ":7339,"ĠÑģÐ°ÑĢÑĭ":7340,"ĠÒĽÐ°ÑģÐ¸ÐµÑĤÑĸ":7341,"ĠÐ±Ð°Ð»Ð°Ð±Ð°ÒĽÑĪÐ°":7342,"ĠÐ¼Ò±Ð·":7343,"ĠÑĤÑĥÑĢÐ¸ÑģÑĤÑĸÐº":7344,"ÑģÐºÐ°Ñı":7345,"ĠÒĽÐ¾Ð½ÑĭÑģ":7346,"ĠÑĤÐ°ÑĢÑĤÒĽÐ°Ð½":7347,"ĠÐ¤Ð¸Ð»":7348,"Ð´ÐµÐ¼Ð°ÒĽ":7349,"ĠÑĪÐµÐºÐºÐµÐ½":7350,"ĠÐ·Ð°Ò£Ð½Ð°Ð¼Ð°Ð»ÑĭÒĽ":7351,"ĠÐĵÐµÑĢÐ¼Ð°Ð½Ð¸Ñı":7352,"Ð¶ÑĭÐ½":7353,"Ð¼Ð°ÑģÑĭÐ½":7354,"Ð³ÑĸÐ¼":7355,"ÑĸÑģÑĸÐ½Ð´Ðµ":7356,"ĠÐ¶Ð°Ð½Ð°ÑĢ":7357,"Ð±Ð°ÒĵÐ°Ð½":7358,"ĠÒ±Ð·ÑĭÐ½Ð´ÑĭÒĵÑĭ":7359,"ĠÓ©ÑģÑĸÑĢÑĥ":7360,"ĠJ":7361,"ĠÐ¡Ð¾ÑģÑĭÐ½":7362,"ĠÐ¶Ó©Ð½iÐ½Ð´ÐµÐ³i":7363,"ĠÑģÐ°Ð¹ÑĤÑĤÑĭ":7364,"Ð¢Ð°ÒĵÑĭ":7365,"ĠÐºÐµÐ·ÐµÐºÑĤÐµ":7366,"Ð«Ðł":7367,"os":7368,"Ð¸ÑĤÐ°ÑĢÐ¸ÑıÐ»ÑĭÒĽ":7369,"ÑĥÑĢÐ°":7370,"ĠÐ°Ð³ÑĢÐ¾":7371,"Ð°ÑĢÐ¸Ð¹":7372,"ÑĤÐ¾Ð¼Ð°ÑĤ":7373,"Ð°ÑģÐ°Ð½":7374,"Ð¡Ð¾Ð»ÑĤÒ¯ÑģÑĤÑĸÐº":7375,"ĠÒļÒ±ÑĢÐ°Ð½":7376,"ĠÐºÓ©ÑĢÐ½ÐµÐºÑĸ":7377,"ÐµÐ»Ð³ÑĸÐ»Ñĸ":7378,"Ð´Ð°Ð½ÒĵÐ°Ð½":7379,"ÑĸÑĢÑĤ":7380,"73":7381,"ĠÑģÐ°ÑĥÐ°ÑĤ":7382,"ĠÐ²ÐµÑĤÐµÑĢÐ¸Ð½Ð°ÑĢÐ¸ÑıÐ»ÑĭÒĽ":7383,"ĠÒĽÐ°ÑĢÐ°ÑĪ":7384,"ĠÑĦÐµÐ´ÐµÑĢ":7385,"ĠÑģÐµÐ·ÑĸÐ½":7386,"oogle":7387,"Ð°Ð½ÑĭÑģÑĭ":7388,"ĠCom":7389,"ĠÐ±Ð°ÑģÑĤÑĭÑģÑĭ":7390,"ĠÑįÑģÑĤ":7391,"Ð¾Ð¹ÑĭÐ½":7392,"ĠÐºÑĥÓĻÐ»Ð°Ð½":7393,"ÒļÐ°Ð·ÑĸÑĢ":7394,"ĠÐĺÐ½ÑĤÐµÑĢÐ½ÐµÑĤ":7395,"ÑĤÐµÐ³ÑĢ":7396,"ĠÒĽÐ°Ð¼ÑĤÑĭÐ»":7397,"ĠÑĤÑĥÑĭÑģ":7398,"ÑĨÑĥÐ·":7399,"!!!":7400,"Ð¾Ð´Ð°ÒĽ":7401,"ĠÒĽÐ°Ò£":7402,"ÑĸÐ»ÑĤÐµÐ¼Ðµ":7403,"ÐķÐ³ÐµÐ¼ÐµÐ½":7404,"Ð¶ÐµÐ¹":7405,"ĠÑģÐ°Ð±Ð°ÒĽÒĽÐ°":7406,"ÑĢÐ°Ðº":7407,"ĠÑģÓ©Ð·Ð´ÑĸÒ£":7408,"ÒļÐ¾ÒĵÐ°Ð¼Ð´ÑĭÒĽ":7409,"ĠÐ¶Ð°Ð½ÑĢ":7410,"ĠÓ©Ð¼ÑĸÑĢÐ´ÑĸÒ£":7411,"ĠÑģÒ¯Ð¹ÑĸÐºÑĤÑĸ":7412,"ĠÑĤÓĻÑĢÑĤi":7413,"ÐµÐ»ÐµÐ½Ð³ÐµÐ½":7414,"Ð¶Ò±Ð¼ÑĭÑģ":7415,"ĠÐ¶ÐµÑĢÐ´ÑĸÒ£":7416,"ĠÐ´ÐµÐ»ÑĸÐ½Ð³ÐµÐ½":7417,"ÐµÐºÑĤÐµÐ½":7418,"ĠÑģÐ°Ð»Ð¼Ð°ÒĵÑĭ":7419,"Ð±Ð°Ð¹Ð´Ñĭ":7420,"ĠÒĽÒ±Ð½ÑĭÐ½":7421,"ĠÑģÑĥÒĵÐ°":7422,"ĠÐ±Ð°ÒĵÐ´Ð°ÑĢÐ»Ð°Ð¼Ð°Ð»ÑĭÒĽ":7423,"ÑĭÐ»ÑĥÐ´Ð°":7424,"ĠÐ¶Ò¯ÑĢÐ³ÑĸÐ·ÑĸÐ»ÑĸÐ¿":7425,"Ð¸ÑģÑĤÐ¸ÐºÐ°Ð»ÑĭÒĽ":7426,"ĠÐµÑģÑĸÐº":7427,"Ð°Ð¶Ð°Ð¹ÑĭÐ¿":7428,"ÑģÑĭÐ·Ð´Ð°Ð½Ð´ÑĭÑĢÑĥ":7429,"aÒĽ":7430,"ĠÐ¶Ð¾ÑģÐ¿Ð°ÑĢÐ»Ð°Ð½ÒĵÐ°Ð½":7431,"ĠÒĽÐ°ÑĤÐ°ÑĢÑĭÐ½Ð´Ð°":7432,"Ð¸ÑĤÑĤÑĸÐº":7433,"ĠÐķÑĢÐµÐ¶":7434,"ĠÐµÑĢÑĤÐµÒ£":7435,"ĠÑĤÐ°Ð±ÑĭÐ»ÒĵÐ°Ð½":7436,"ĠÐĶÐµÐ¼ÐµÐº":7437,"ĠÒļÒ±ÑĢÐ¼ÐµÑĤÑĤÑĸ":7438,"ĠÐ¾Ð±Ð»ÑĭÑģÑĤÑĭÒ£":7439,"ÑĭÒĵÑĭÐ½Ð´Ð°ÒĵÑĭ":7440,"ĠÐ¶Ò¯ÑĢÐ³ÑĸÐ·ÑĸÐ»Ð´Ñĸ":7441,"ĠÐºÒ¯Ð¼ÑĸÑģ":7442,"ÑĭÐ¾Ð¹":7443,"74":7444,"ĠÐ¿Ð°Ð¹ÒĵÐ°Ð¼Ð±Ð°ÑĢ":7445,"ÑĥÐ»Ð°ÑĤ":7446,"ĠÐĲÐĿ":7447,"ĠÐºÓ©ÑĪÑĸÑĢÑĸÐ¿":7448,"aly":7449,"ĠÑģÐ°Ð¹ÑĭÐ½ÒĵÑĭ":7450,"ĠÓ¨Ð½ÐµÑĢ":7451,"ÑĭÒĽÒĽÐ°":7452,"Ð¸Ð¾Ð»Ð¾Ð³Ð¸ÑıÐ»ÑĭÒĽ":7453,"ĠÓ©Ð½ÑĸÐ¼Ð½ÑĸÒ£":7454,"ĠÒĽÐ°Ð¹ÑĤÐ°Ð´Ð°Ð½":7455,"ÐķÐľÐĽÐķÐļ":7456,"ÐĺÑģÐ»Ð°Ð¼":7457,"ĠÑģÐ°Ð»ÑĭÐ½Ð´Ñĭ":7458,"Ġ32":7459,"Ò±Ð¼ÑĭÑĢ":7460,"ĠÒĽÐ¸ÑĭÐ½Ð´ÑĭÒĽ":7461,"ĠÐ½Ò±ÑģÒĽÐ°ÑģÑĭ":7462,"ĠÐºÓ©ÑĢÐµÐ´Ñĸ":7463,"Ð±ÑĢÐ¸ÑĤÐ°Ð½":7464,"ĠÐ¸Ð¼Ð¿ÐµÑĢ":7465,"ĠÑĤÐµÑĢÐ°Ð¿":7466,"ĠÑĤÓ©ÑĢÑĤÑĸÐ½ÑĪÑĸ":7467,"ĠÐ°ÑĤÐ°ÒĽÑĤÑĭ":7468,"Ð¸ÑĭÐ½":7469,"ĠÑĢÐ°ÑħÐ¼ÐµÑĤ":7470,"ÐĲÐĽÐĲÐł":7471,"ĠÐ½Ð°ÑĢÑĭÒĽÑĤÑĭÒĽ":7472,"ĠÐĲÐ¼ÐµÑĢÐ¸ÐºÐ°":7473,"ĠÒĽÐ°Ð±ÑĭÐ»Ð´Ð°Ð¹Ð´Ñĭ":7474,"ĠÐ¢Ð¾Ð»":7475,"ĠÒ±Ð¹ÑĭÐ¼Ð´Ð°ÑģÑĤÑĭÑĢÑĭÐ»ÒĵÐ°Ð½":7476,"ĠÑĢÐ°ÑģÑĤ":7477,"ĠÐµÐ»Ð´ÐµÑĢÑĸ":7478,"ĠÐ´Ò¯ÑĢ":7479,"ĠÐĶÐ°Ð¼":7480,"ĠÐ¶Ð°ÒĵÑĭ":7481,"Ð¸ÑıÐ½":7482,"ÓĺÐ»":7483,"ĠÓĻÐ»ÐµÐ¼Ñĸ":7484,"ĠÐ¶ÑĥÑĢÐ½Ð°Ð»Ð¸ÑģÑĤÐµÑĢ":7485,"ĠÑģÑĸÒ£ÑĸÑĢÐ³ÐµÐ½":7486,"ĠÑģÐ°Ð»Ð°ÑģÑĭÐ½":7487,"ĠÑĤÐµÒ£Ð³ÐµÐ´ÐµÐ½":7488,"Ð±Ð¾Ð»Ð°ÑĤ":7489,"ĠÑģÓĻÑĥÐ»":7490,"ĠÐ¶ÐµÑĤÐµ":7491,"ĠÑĤÐ°ÑĢÐ¸ÑĦ":7492,"ÑĤÐ°Ð±Ñĭ":7493,"Ð°Ð±ÑĭÐ½Ð°":7494,"ÐµÑģÑĤÐµ":7495,"ĠÒĽÐ¾Ð»ÑĭÐ½Ð°":7496,"Ġe":7497,"ĠÐºÐ¾Ð¼Ð°Ð½Ð´Ð°":7498,"ÐķÐ¢ÐĨ":7499,"Ð¾Ð³Ð¾":7500,"ĠÑĪÑĸÑĢ":7501,"ĠÑĢÐµÑģÐ¿ÑĥÐ±Ð»Ð¸ÐºÐ°":7502,"ĠÐ´ÓĻÐ¼":7503,"ÐµÑģÑĸÐ½ÐµÐ½":7504,"ĠÒĽÑĭÐ·Ð¼ÐµÑĤÑĤÐµÑĢÑĸ":7505,"Ð±ÐµÑĤÐ¾Ð²":7506,"ĠÒļÐ°ÑĢÐ°ÑĪÐ°":7507,"ĠÐľÑĥÐ·":7508,"ĠÐºÐ»Ð°Ñģ":7509,"Ð¸Ð½Ð¾":7510,"ĠÑģÑĥÐ±ÑģÐ¸Ð´Ð¸Ñı":7511,"ÐļÐ°Ð·":7512,"Ð°Ð½Ð°ÑģÑĭÐ½ÑĭÒ£":7513,"ĠÓ©ÑĤÐºÑĸÐ·ÑĥÐ³Ðµ":7514,"ÒĽÐ°Ð¹ÑĤÐ°":7515,"ĠÐºÓ©ÑĢÑĸÐ½ÑĸÑģÑĤÐµÑĢ":7516,"ĠÐ´Ð¾ÑģÑĤÑĭÒĽ":7517,"ĠÐ±Ð°Ð¹ÒĽÐ°ÑĥÑĭ":7518,"Ò±Ñı":7519,"ĠÐµÑģÐµÐ¿ÑĤÐµÐ»ÐµÐ´Ñĸ":7520,"ĠÓ©ÑĤÐºÑĸÐ·ÑĸÐ»ÐµÑĤÑĸÐ½":7521,"62":7522,"ĠÐ´ÐµÐ¹ÑĤÑĸÐ½":7523,"ÐŃÐ»ÐµÐºÑĤÑĢÐ¾Ð½Ð´ÑĭÒĽ":7524,"ÑĢÐµÑĤ":7525,"ĠÑĸÐ·Ð³Ñĸ":7526,"ĠÐºÐ³":7527,"ĠÐ¿ÑĢÐµÐ¿Ð°ÑĢ":7528,"ÑĤÑĸÐ½ÑĸÒ£":7529,"Ð°ÒĽÑĭÐ»Ð°Ñĥ":7530,"ĠÑĪÐ°ÑĢÐ°Ð»Ð°ÑĢÐ´Ñĭ":7531,"ĠÐĶÐ°Ð½":7532,"ÒĵÐ°ÑĤ":7533,"Ð±ÐµÐ¹Ð´Ñĸ":7534,"ÒļÑĭÐ·ÑĭÐ»ÒĽÐ¾ÒĵÐ°":7535,"Ð³ÑĸÐ½Ð´ÐµÐ³Ñĸ":7536,"Ð°Ð½ÑĤÑĤÑĭ":7537,"ÐĵÐķ":7538,"ĠÐ±Ð¸ÑĢ":7539,"ĠÐºÓĻÐ¼ÐµÐ»ÐµÑĤÐºÐµ":7540,"Ð¸Ð·Ð¸ÐºÐ°":7541,"ĠÐ¶Ð°ÒĽÑģÑĭÐ»ÑĭÒĽ":7542,"ĠÒ¯Ð¹ÑĸÑĢ":7543,"ÐºÐµÐ»Ñĥ":7544,"ĠÑĤÒ¯Ðº":7545,"ĠÑģÑĤÐ°Ð½Ð´Ð°ÑĢÑĤÑĤÐ°ÑĢÑĭÐ½":7546,"Ð¢ÐµÐº":7547,"ÐŀÒĽÑĭÑĤÑĥ":7548,"ĠÑģÐ¸Ð¿Ð°ÑĤÑĭ":7549,"Ġf":7550,"ÐĳÐĲ":7551,"ĠÑĤÐ°Ò£Ð´Ð°Ð¿":7552,"ĠÒĽÐ°ÑĥÑĭÐ¼Ð´Ð°Ñģ":7553,"ÐľÐļ":7554,"ĠÒ¯Ð»Ð³ÑĸÐ»ÐµÑĢÑĸ":7555,"ĠÐµÑĢÐµÐºÑĪÐµÐ»ÐµÐ½":7556,"ĠÐµÑģÐµÐ¿ÑĤÐµÑĢ":7557,"ÑĭÐ»ÑĥÑĭÐ½Ð°":7558,"ĠÐ¼Ð°Ð¼Ð°Ð½Ð´Ð°ÑĢÑĭ":7559,"ĠÑĪÑĭÒĵÐ°ÑĢÐ´Ñĭ":7560,"ĠÐĸÐ°ÑģÑĤÐ°ÑĢ":7561,"ons":7562,"ĠÐ¶Ð¸ÑĭÑĢÐ¼Ð°":7563,"ĠÐľÐ°Ð¹":7564,"ĠÐµÑĢÑĸÐºÑĤÑĸ":7565,"ort":7566,"ÑĪÐµÐ²":7567,"ĠÑĸÐ»ÑĸÐ¼":7568,"ĠÐ°ÑĤÑĤÐµÑģÑĤ":7569,"ĠÐ´Ð¾Ð»Ð»Ð°ÑĢÒĵÐ°":7570,"ÐŁÐ°Ð¹Ð´Ð°Ð»Ñĭ":7571,"ĠÓĻÐºÑĸÐ¼Ð´ÑĸÐº":7572,"ĠÐ°Ð¹ÑĤÐ°ÑĢ":7573,"ĠÓĺÐ±ÑĸÐ»":7574,"ĠÒ±Ð¹ÑĭÐ¼Ð´Ð°ÑĢÑĭÐ½Ð°":7575,"ĠÒĽÒ±ÑĢÑĥÒĵÐ°":7576,"ĠÑĭÐ½ÑĤÐ°Ð»Ð°Ð½Ð´ÑĭÑĢÑĥ":7577,"ĠÒ±ÑģÑĭÐ½Ð°Ð¼ÑĭÐ·":7578,"ĠÐ±ÑĸÑĤÐºÐµÐ½":7579,"ĠÐ´Ð°Ð½Ð°":7580,"ÐķÐ½Ð´Ñĸ":7581,"ĠÐºÓĻÑģÑĸÐ¿Ð¾ÑĢÑĭÐ½Ð´Ð°ÑĢ":7582,"ÐºÑĸÐ¼ÐµÐ½":7583,"ÑĥÐ´ÐµÐ½":7584,"ĠÐ¾Ð¹Ð»":7585,"ĠÐ¶Ò¯ÐºÑĤÐµÐ¿":7586,"ĠÒĽÑĭÑģÒĽÐ°ÑĪÐ°":7587,"Ó¨ÑĤÐºÐµÐ½":7588,"ĠÐ±Ð°ÒĵÐ°Ð¼Ñĭ":7589,"ÐµÐ³ÑĸÐ½ÑĸÒ£":7590,"ĠÑĤÐ°Ð»Ð´Ð°ÑĥÑĭÐ½ÑĭÒ£":7591,"ÐĲÐ»Ð¼Ð°ÑĤÑĭÐ´Ð°":7592,"ĠÐ¶ÑĭÐ½ÑĭÑģÑĤÑĭÒĽ":7593,"ÐķÑĤ":7594,"ĠÑĤÐ°Ð¼Ð°ÑĪ":7595,"ĠÓĻÐ¹Ð³ÑĸÐ»Ñĸ":7596,"ĠÐ²Ð¸ÑĢÑĥ":7597,"Ð°Ð½ÑĭÐ¼":7598,"Ð·Ð°Ò£":7599,"ÐĶÑĸÐ½":7600,"ĠÑĪÐ¾ÒĵÑĭÑĢ":7601,"ĠÐ²Ð¸ÑĨÐµ":7602,"ĠÐµÐ½ÐµÐ´Ñĸ":7603,"ĠÒĵÐ°ÑģÑĭÑĢÐ´Ð°":7604,"Ð»Ò±Ð¼":7605,"ÐĲÐ»Ð»Ð°":7606,"ĠÓ©Ð¼ÑĸÑĢÑĸÐ½":7607,"ĠÐ¶ÓĻÑĢÐ´ÐµÐ¼Ð°ÒĽ":7608,"ÓĺÐºÑĸÐ¼":7609,"ĠÐ±Ð°ÑĥÐ»":7610,"ĠÑģÐ°Ð»Ð°Ñĥ":7611,"ĠÑģÓ©Ð·ÑģÑĸÐ·":7612,"Ð°ÒĽÒĽÐ°":7613,"ĠÐ±Ð°ÑģÑĤÐ°Ð¼Ð°ÑģÑĭ":7614,"ĠÐĲÑĢÐ°Ð±":7615,"ĠÓĻÐºÐµÑģÑĸ":7616,"ĠÑĢÐµÑģÑĸÐ¼Ð´ÐµÑĥ":7617,"71":7618,"ĠÐ¶ÐµÒ£ÑĸÐ»Ð´ÐµÑĤ":7619,"ĠÒĽÐ°Ð»ÑĭÐ¿ÑĤÐ°ÑģÑĥÑĭ":7620,"ĠÒĽÒ±Ð¶Ð°ÑĤÑĤÐ°Ð¼Ð°":7621,"ĠÐºÓĻÑģÑĸÐ¿Ð¾ÑĢÑĭÐ½Ð½ÑĭÒ£":7622,"Ð¼Ð¾ÑģÑĦÐµÑĢ":7623,"ĠÐ¡Ð°Ð»ÑĭÒĽ":7624,"ĠÒ°ÐĳÐ¢":7625,"ĠÑĤÐµÐ¾ÑĢÐ¸ÑıÑģÑĭ":7626,"ĠÓ©ÑģÑĸÐ¼Ð´ÑĸÐºÑĤÐµÑĢ":7627,"ĠÑĤÒ±Ð¼":7628,"ĠÐ±Ð¾Ð¹ÑĭÐ½Ð´Ð°ÒĵÑĭ":7629,"ĠÐºÐµÐ»ÑĸÑģÑģÓ©Ð·":7630,"ÑģÐ°ÑĢÐ¸Ð½":7631,"Ð°Ð½Ð´ÑĢ":7632,"ĠÒ±Ð¹ÑĭÐ¼Ð´Ð°ÑĢÑĭ":7633,"ĠÑģÑĥÐ±ÑĬÐµÐº":7634,"ĠÐµÑĢÑĸ":7635,"ĠÑģÐ°Ð½Ð°":7636,"Ð¸ÑĤÑĢ":7637,"Ð´ÐµÐ¼Ðµ":7638,"ĠÐ¼ÑĸÐ½":7639,"ĠÑĪÐµÐ±ÐµÑĢÐ»ÑĸÐº":7640,"ĠÑĢÐµÑģÐµÐ¹":7641,"ĠÒĽÐ¾Ð»Ð´Ð°Ð½ÑĭÐ¿":7642,"ĠÓĻÐ»ÐµÑĥÐ¼ÐµÑĤÑĤiÐº":7643,"ÑĤÑĥÐ°Ð»Ð´Ñĭ":7644,"ĠÒ¯Ð¹ÑĸÐ½Ð´Ðµ":7645,"ĠÒĽÐ¾Ð»ÑĭÐ½Ð°Ð½":7646,"ĠÒĽÐ°ÑĢÐ°ÑģÑĤÑĭÑĢÑĥ":7647,"Ð°Ð±ÐµÐº":7648,"Ð°Ð²Ðº":7649,"ĠÓĻÐ»ÐµÐ¼Ð³Ðµ":7650,"2011":7651,"ÑĤÐµÑĢÑĸÐ½Ð´Ðµ":7652,"ĠÐ±ÐµÑĢÑĸÐº":7653,"ĠÐ¼Ò±Ð½Ñĭ":7654,"ÒĽÐ°Òĵ":7655,"ĠÑĪÐµÐ¶ÑĸÑĢ":7656,"Ð¡Ó©Ð·":7657,"ĠÐ¾Ò£ÑĤ":7658,"staz":7659,"ĠÑĤÓ©ÑĢÐ°ÒĵÐ°ÑģÑĭÐ½ÑĭÒ£":7660,"ĠNUR":7661,"ÒļÑĭÑĤÐ°Ð¹":7662,"ĠÐŃÐ½ÐµÑĢÐ³ÐµÑĤÐ¸ÐºÐ°":7663,"ĠÐ¶Ð°ÑģÑĭÐ»":7664,"ÐĲÑĥÐ´Ð°Ð½Ð´ÑĭÒĽ":7665,"ĠÐ¼Ð°ÑĢÐ°Ð¿Ð°ÑĤÑĤÐ°Ð»Ð´Ñĭ":7666,"ĠÐºÐ¾Ð¼Ð¸ÑģÑģÐ¸ÑıÐ½ÑĭÒ£":7667,"ÐĳÐ¾Ð»Ð°ÑĪÐ°ÒĽÒĽÐ°":7668,"ĠÐ°ÑĪÒĽÐ°Ð½":7669,"Ð¸ÑĢÐ¾Ð²":7670,"ÒĽÐ°Ð»ÑĭÒĽ":7671,"ÐĳÐ°ÒĵÐ´Ð°ÑĢÐ»Ð°Ð¼":7672,"ĠÐµÒ£Ð±":7673,"ĠÐ¢Ð¾":7674,"ĠÐ±Ð°Ð»Ð°Ð¼":7675,"ĠÐ°Ð²ÑĤÐ¾ÑĢÐ»ÑĭÒĽ":7676,"ÑĭÐ»ÑĥÑĭÐ½":7677,"Ð¼ÑĭÑĢÑĤ":7678,"ĠÒĽÐ°ÑĢÑģÐ°Ò£ÑĭÐ½Ð´Ð°":7679,"ĠÑĢÐµÐ·ÐµÑĢÐ²":7680,"ĠÒ±Ð¹ÑĭÐ¼Ð´Ð°ÑģÑĤÑĭÑĢÑĥÑĭÐ¼ÐµÐ½":7681,"ĠÐ±Ð°ÑģÑĪÑĭÐ»ÑĭÒĵÑĭÐ¼ÐµÐ½":7682,"ĠÐ°ÑĢÑĤÐ°Ð´Ñĭ":7683,"Ð¼Ò±ÑħÐ°Ð¼":7684,"ĠÐµÐ³":7685,"ĠÐ¼ÓĻÐ´ÐµÐ½Ð¸ÐµÑĤÑĸÐ½":7686,"ĠÑģÓĻÑĥÑĸÑĢÐ´ÐµÐ³Ñĸ":7687,"ĠÒĽÐ¾Ð·ÒĵÐ°Ð»ÑĭÑģ":7688,"ĠÐŀÒ£":7689,"Ð¼Ð°Ð½Ð¾Ð²":7690,"61":7691,"ĠÑģÐ¾ÒĵÑĭÑģÑĭ":7692,"ĠÐºÓ©ÑĢÐ¼Ðµ":7693,"ĠÐ¼ÓĻÐ¶ÑĸÐ»ÑĸÑģ":7694,"ĠÑĤÐ°Ð¹Ð¿":7695,"ĠÒĽÐ°ÑĤÐµÑĢÐ»Ñĸ":7696,"ĠÒ±Ð¹ÑĭÐ¼Ð½ÑĭÒ£":7697,"ĠÐ¶Ð¾Ð±Ð°Ð½Ñĭ":7698,"ĠÐļÓĻÑģÑĸÐ¿ÐºÐµÑĢÐ»ÑĸÐº":7699,"ĠÐ¶Ð°Ð¹ÑĤ":7700,"ĠÑĤÒ±ÑĢÒĵÑĭÐ´Ð°":7701,"ÐµÐ½ÑĤÑĢ":7702,"ĠÐ¾ÑĢÐ½ÑĭÐ½Ð´Ð°":7703,"Ð»Ð°Ð½Ð´Ñĭ":7704,"ĠÓĻÐ·ÑĸÑĢÐ»":7705,"ĠÑĤÓĻÑĥÐµÐºÐµÐ»":7706,"ĠÑĪÐ°ÑĢÑĤÑĤÑĭ":7707,"ÐŀÑĢÑĤÐ°ÒĽÒĽÐ¾ÑĢ":7708,"ĠÒĽÐ¾Ð»Ð´Ð°Ð½ÑĭÑģÑĤÐ°ÒĵÑĭ":7709,"81":7710,"ĠÐłÐ°Ñħ":7711,"ĠÐºÓ©ÑĢÐµ":7712,"ĠÐºÐ°Ð½Ð´Ð¸Ð´Ð°ÑĤ":7713,"ĠÐ¿ÑĢÐ¾ÐºÑĥÑĢÐ°ÑĤÑĥÑĢÐ°ÑģÑĭ":7714,"ĠÐĺÓĻ":7715,"ÒļÐĲ":7716,"ÑģÐ¸ÑħÐ¾Ð»Ð¾Ð³Ð¸ÑıÐ»ÑĭÒĽ":7717,"ĠÒĽÑĭÐ·ÑĭÒĵÑĥÑĪÑĭÐ»ÑĭÒĵÑĭÐ½":7718,"ÑĪÑĭÐ»Ð°ÑĢÑĭÐ½ÑĭÒ£":7719,"ĠÑĸÑģÐºÐµÑĢÐ»ÑĸÐº":7720,"ĠÑģÐ°Ð¹ÑĤÑĭÐ½Ð´Ð°":7721,"ĠÑĪÐµÑĢ":7722,"ers":7723,"Ð¡Ð°Ð»":7724,"ĠÐ¼ÐµÑĢÐµÐºÐµÑģÑĸ":7725,"ĠÑģÑĤÐ°":7726,"ĠÐ±ÑĸÑĢÑĸÐ½Ðµ":7727,"Ð¸ÐºÐ°Ð½Ñĭ":7728,"ĠÒĽÐ°ÑĤÑĭÑģÑĭ":7729,"ĠÑģÒ¯Ð¹ÑĸÑģÐ¿ÐµÐ½":7730,"ĠÐ¶Ð°ÒĵÑĭÐ½Ð´Ð°":7731,"Ò±Ð½":7732,"ÑĤÐ°ÑĢÐ¼ÐµÐ½":7733,"ÐľÐµÐºÑĤÐµÐ¿ÐºÐµ":7734,"ĠÒ±ÒĽ":7735,"ĠÒ¯Ð·Ð´ÑĸÐºÑģÑĸÐ·":7736,"Ð»ÑĸÐ¼ÑĸÐ·Ð´ÑĸÒ£":7737,"ĠÐ¨ÑĭÒ£":7738,"ÐĳÐ¸Ð·Ð½ÐµÑģÑĤÑĸ":7739,"Ð®":7740,"Ð¿ÑĮÑİÑĤÐµÑĢ":7741,"ul":7742,"ĠÐ´Ð°ÒĽÑĭÐ»":7743,"ĠÒ±Ð¹ÑĭÐ¼Ð´Ð°ÑģÑĤÑĭÑĢÑĭÐ»Ð´Ñĭ":7744,"ĠÑģÐ°Ð±Ð°ÒĽÑĤÑĭ":7745,"ĠÒĽÐ°ÑĢÐ°Ð¶Ð°ÑĤÑĤÐ°ÑĢÑĭÐ½ÑĭÒ£":7746,"ÐĳÐµÑĢ":7747,"ĠÐ°Ð¼ÐµÑĢ":7748,"ÑĥÐ»Ð»Ð¸Ð½":7749,"ĠÐ¶Ð¶":7750,"ĠÐ°ÒĽÑĭ":7751,"ĠÐ·Ð°Ò£Ð½Ð°Ð¼Ð°ÑģÑĭÐ½Ð°":7752,"VI":7753,"ĠÒĽÐ¾ÒĵÐ°Ð¼Ñĭ":7754,"Ð¸Ð½Ð°Ð¼":7755,"Â»,-":7756,"ĠÐ¿ÑĭÑģ":7757,"ĠÑĤÓĻÐ»ÑĸÐ¼":7758,"ĠÐ¶Ò±Ð¼ÑĭÑģÑĤÐ°ÑĢÑĭÐ½ÑĭÒ£":7759,"Ġ1998":7760,"ÑĤÐ°ÑĢÑĭÐ¼ÐµÐ½":7761,"ĠÐĸÓĻÐ½":7762,"Ð¸ÑħÐ°Ð½":7763,"ĠÑĤÑĥÑĭÐ½Ð´Ð°ÒĵÐ°Ð½":7764,"ĠÐ±Ò±Ð¹ÑĢÑĭÒĵÑĭÐ½Ð°":7765,"ĠÐ¼Ò±ÑĢÐ°Ð¶Ð°Ð¹":7766,"ĠÒĽÐ°Ð¹ÑĭÑĢÑĭÐ¼Ð´ÑĭÐ»ÑĭÒĽ":7767,"ÑĭÒ£Ð´Ð°":7768,"ĠÐ°Ð»ÑĭÐ½ÑĭÐ¿":7769,"ĠÐ·Ð°Ò£Ð´ÑĭÐ»ÑĭÒĽ":7770,"ÒļÑĭÑĢ":7771,"ĠÐºÐ»Ð¸Ð½Ð¸ÐºÐ°Ð»ÑĭÒĽ":7772,"ĠÑĪÑĭÒĵÐ°ÑĢÑĥÒĵÐ°":7773,"âĨ":7774,"ĠÒĴÑĭÐ»ÑĭÐ¼Ð¸":7775,"ĠÐºÓ©ÑĢÑĸÐ½ÑĸÑģÑĸ":7776,"Ð°ÒĵÑĭÐ»":7777,"Ò®Ðł":7778,"ÒĵÐ°Ð»Ñĭ":7779,"ĠÐ´Ð¾Ð¼Ð±ÑĭÑĢ":7780,"ĠÐµÑĢÐµÐ¶ÐµÐ»ÐµÑĢÑĸ":7781,"ĠÑģÑĸÐ»ÑĤÐµÐ¼ÐµÐ»ÐµÑĢ":7782,"ĠÒĽÐ°Ð±ÑĭÐ»Ð´Ð°ÑĥÒĵÐ°":7783,"ĠÐ°Ð»ÑĥÐ´ÑĭÒ£":7784,"ĠÐ¶ÑĸÐ±ÐµÑĢÐ³ÐµÐ½":7785,"Ð»ÑĭÒĵÑĭÐ¼ÐµÐ½":7786,"ĠÐ±ÑĸÐ»Ð´ÑĸÑĢÑĥ":7787,"ĠÐ¼Ð°ÒĵÐ»Ò±Ð¼":7788,"ĠÑĪÑĭÒĵÐ°ÑĢÑĭÐ»ÒĵÐ°Ð½":7789,"ĠÑħÐ¸ÑĢÑĥÑĢÐ³":7790,"Ð°Ð»Ð°ÑĢÐ¼ÐµÐ½":7791,"ÑĭÒĽÑĤÐ°Ñĥ":7792,"ĠÐĨV":7793,"Ð¸ÐµÐ»Ñĸ":7794,"ĠÐ°ÑģÐ°Ð´Ñĭ":7795,"Ð±ÑĸÑĢÑĸ":7796,"ĠAl":7797,"ĠÐ°ÒĽÑĭÐ»Ñĭ":7798,"ÐŀÐ»Ð°ÑĢ":7799,"ÑĭÒĵÐ°ÑĢÐ¼Ð°ÑĪÑĭÐ»ÑĭÒĽ":7800,"ĠÐļÓ©Ð·":7801,"ÑĤÓĻÐ¶ÑĸÑĢÐ¸":7802,"ĠÑĤÓ©Ð»ÐµÐ¼Ð´ÐµÑĢ":7803,"ĠÒĽÐ¾Ò£ÑĭÑĢÐ°Ñĥ":7804,"ĠÑģÐµÐ½ÑĸÒ£":7805,"ĠÒ±Ð¼Ñĭ":7806,"ÑĸÐ½Ð´ÐµÑĤÑĤÑĸ":7807,"Ð¡Ð°Ñĥ":7808,"ĠÐ¢ÓĻ":7809,"ÑĤÑĸÐ½Ð´Ñĸ":7810,"ĠÑĤÐ°Ð»Ð°Ð¿ÑĤÐ°ÑĢÑĭÐ½":7811,"ĠÐ¼ÑĸÐ½Ð´ÐµÑĤÑĸÐ½":7812,"ĠÑģÐ°Ð»ÑĭÑģ":7813,"ĠÐ°ÑıÒĽÑĤÐ°Ð»Ð´Ñĭ":7814,"ĠÐ±Ò±ÑĢÑĭÑĪ":7815,"ĠÐ¾Ð»ÐµÐ½":7816,"ĠÐ°ÑĤÐ°Ð»Ð¼ÑĭÑĪ":7817,"ÒĽÒ±Ð»Ð¾Ð²":7818,"ÑĦÐ¾ÑĢÐ¼Ð°":7819,"ĠÒĽÐ°ÑĤÐµ":7820,"ĠÐ¾ÑģÑĭÐ´Ð°Ð½":7821,"Ð¶ÑĭÐ»Ð´ÑĭÒĽ":7822,"ĠÐ¾ÒĽÐ¸ÑĤÑĭÐ½":7823,"Ð³ÐµÐ½ÑĸÒ£":7824,"ÑĤÒ±ÑĤÐ°Ñģ":7825,"ĠÑįÐ½ÑĨÐ¸ÐºÐ»Ð¾Ð¿ÐµÐ´":7826,"ĠÐ±iÐ»iÐ¼":7827,"ĠÐ¼ÑĸÐ½Ð´ÐµÑĤÑĤÐµÑĢÑĸÐ½":7828,"ĠÐ¶ÓĻ":7829,"ÑĤÑĭÐ»ÑĭÒĵÑĭÐ½":7830,"ĠÑģÐ°Ð½ÑĭÐ½ÑĭÒ£":7831,"ĠÐµÑĤÑĥÑĸ":7832,"ÐĽÐ«Òļ":7833,"ĠÐ¿ÑĥÐ½":7834,"ÐĲÑĤÐ°Ð¼":7835,"ĠÐºÓ©Ð¿ÑĪÑĸÐ»ÑĸÐ³Ñĸ":7836,"ĠÐĸÐµÐ»ÑĤÐ¾ÒĽÑģÐ°Ð½":7837,"ĠÑĤÑĸÑĢÐºÐµÑģ":7838,"ÐĳÐ°Ð»Ð°":7839,"ĠÐ¶ÐµÐ»ÑĸÐ»ÐµÑĢ":7840,"ÐºÑĢÐµÐ´Ð¸ÑĤ":7841,"ĠÐ¾Ð¹Ð»Ð°Ð½":7842,"Ð·ÐµÑĢ":7843,"ĠÐºÐµÐ¼ÑĪÑĸÐ»ÑĸÐº":7844,"ĠÐ¢Ð°Ð»Ð´Ð°Ñĥ":7845,"ĠÑĤÐ°ÑĢÐ°ÒĵÐ°Ð½":7846,"Ò°Ð£":7847,"Ð½ÐµÐ³ÑĸÐ·":7848,"ĠÐ¾ÑĢÑĭÐ½Ð´Ð°Ð»ÑĥÑĭ":7849,"Ð·Ð¸Ð½":7850,"ÒļÐ°Ð·Ð°ÒĽÑģÑĤÐ°Ð½Ð´Ð°ÒĵÑĭ":7851,"Ð¼Ð°ÑģÐ°":7852,"ĠÑĦÐµÑģÑĤÐ¸Ð²Ð°Ð»":7853,"iÐ»ÐµÑĤ":7854,"ÐļÐµÐ¹":7855,"ÑĨÐµÐ½Ð°ÑĢÐ¸Ð¹":7856,"Ð¸Ð»Ð¸":7857,"Ð¢Ò±ÑĢÒĵÑĭÐ½":7858,"Ġhttps":7859,"Ð¼Ð°ÒĽÑĤÑĭ":7860,"ĠÐ°Ð½ÑĭÒĽÑĤÐ°Ð¿":7861,"ĠÒ±ÑģÑĭÐ½ÑĭÐ»Ð°Ð´Ñĭ":7862,"ĠÑĥÐ°ÒĽÑĭÑĤÑĭÐ½Ð´Ð°":7863,"Ð±ÑĥÑĢÐ³":7864,"ĠÒĽÐ¾Ð·ÒĵÐ°Ð»ÑĭÑģÑĭ":7865,"Ò»Ð°ÑĢ":7866,"ĠÒ±Ð¹ÑĭÐ¼Ð´Ð°ÑĢÑĭÐ½Ð´Ð°":7867,"ĠÒĽÒ±ÑĢÐ°Ð»Ð´Ð°ÑĢÑĭÐ½ÑĭÒ£":7868,"ĠÒĽÐ¾Ð½Ð´ÑĭÑĢ":7869,"ĠÐ¶Ò¯ÐºÑĤÑĸ":7870,"ĠÑĢÐ¾Ð¼Ð°Ð½":7871,"Ð»ÑĸÐºÑĤÐµÐ½":7872,"ĠÐ¶Ð°":7873,"ÐĺÐ½Ð´ÐµÑĢ":7874,"ÐĲÐ»Ð°ÑĪ":7875,"ĠÐ¸Ð½Ð´":7876,"95":7877,"ĠÒĽÒ±Ð¶Ð°ÑĤÑĤÐ°Ð¼":7878,"ĠÐ°ÑĥÑĢÑĥÑĭ":7879,"ĠÐµÑĪÑĤÐµÒ£Ðµ":7880,"ĠÐ¾ÒĽÑĥÑĪÑĭÑģÑĭ":7881,"ĠÐĳÒ±ÑĢÑĭÐ½":7882,"gram":7883,"ĠÑĢÐµÑĦÐµÑĢÐ°ÑĤ":7884,"ĠÓĻÑĢÐ´Ð°Ð¹ÑĭÐ¼":7885,"ĠÐºÐµÑĢÐµÐºÑĤÑĸÐ³ÑĸÐ½":7886,"ÑĤÒ¯ÑģÑĤÑĸ":7887,"ÑģÑĸÐ½Ðµ":7888,"ĠÓ©ÑĤÐºÑĸÐ·ÐµÐ´Ñĸ":7889,"ĠÑĤÐ°ÑĢÐ°Ñĥ":7890,"ĠÐ¶Ð¾ÑģÐ¿Ð°ÑĢÐ»Ð°ÑĢÑĭ":7891,"ĠÐ¶Ð¾Ð»ÑĭÐ¼ÐµÐ½":7892,"ĠÐ¿ÑĢÐ¾ÑĦÐ¸Ð»":7893,"ÑıÐ´":7894,"ĠÑĪÐ°ÑĢÑĥÐ°ÑĪÑĭÐ»ÑĭÒĵÑĭÐ½":7895,"ĠÑģÑĥÑĭÒĽ":7896,"ĠÐºÓ©ÑĤÐµÑĢÑĸÐ»ÑĸÑģ":7897,"Ð¾Ð²Ð°Ð½ÑĭÒ£":7898,"ĠÐ±ÑİÐ´Ð¶ÐµÑĤÑĸ":7899,"Ð´ÑĢÐ¾Ð¼":7900,"ĠÐĲÐ±ÑĭÐ»Ð°Ð¹":7901,"ÐĳÐ¾Ñģ":7902,"Ð¡Ð°ÑĢ":7903,"ĠÐ¶Ð°Ð»ÒĵÐ°Ñģ":7904,"ĠÐ°Ð½ÑĤÐ¸":7905,"ĠÐ±ÑĸÐ»ÐµÐ¼ÑĸÐ·":7906,"ĠÐºÓĻÑģÑĸÐ¿ÐºÐµÑĢÐ»ÑĸÐºÑĤÑĸ":7907,"ir":7908,"Â®":7909,"ĠÑĦÐ¾ÑĢÑĥÐ¼Ñĭ":7910,"ĠÐ½ÐµÒĵÒ±ÑĢÐ»ÑĭÐ¼":7911,"ĠÐ¼Ð°ÒĽÑģÐ°ÑĤÒĽÐ°":7912,"ĠÐĶÐ¸":7913,"iÐ»iÐºÑĤi":7914,"ĠÐµÐ»Ð´ÐµÑĢÑĸÐ½ÑĸÒ£":7915,"ĠÓĻÐ´ÑĸÑģÑĤÐµÑĢÑĸÐ½":7916,"ĠÒĽÐ°Ð»Ñĥ":7917,"ĠÐ°ÑĢÐ°Ð»ÑĭÒĵÑĭÐ½Ð´Ð°ÒĵÑĭ":7918,"ĠÒĽÐ¾ÑģÐ°Ð»ÒĽÑĭ":7919,"ĠÒĽÒ±ÑĢÐ±Ð°Ð½":7920,"ĠÑĥÑĢ":7921,"ĠÐĳÓ©ÐºÐµÐ¹":7922,"ÐµÑĤÑĤÐµÐ½":7923,"ĠÐºÓ©ÑĪÑĸÐ¿":7924,"ĠÐ¢ÑĥÑĢ":7925,"ĠÑģÐ°ÒĽÑĤÐ°Ð»Ð°Ð´Ñĭ":7926,"ĠÐĺÑĤÐ°Ð»":7927,"ĠÐ¶Ð°ÑģÑĭÐ½Ð°":7928,"ĠÑĢÐ¸Ð·Ð°":7929,"Ð¢Ð°Ð±Ð¸Òĵ":7930,"ĠÓ©ÐºÑĸÐ»Ð´ÐµÑĢÑĸÐ½ÑĸÒ£":7931,"ĠÐ±Ð¾Ð»Ð¼Ð°Ð¹":7932,"ĠÒļÑĭÐ·Ð¼ÐµÑĤ":7933,"ĠÐ¼Ð°ÒĽÑģÐ°ÑĤÑĤÐ°ÑĢÑĭ":7934,"ĠÑĢÐµÐ³Ð»Ð°Ð¼ÐµÐ½ÑĤ":7935,"ĠÐ¿Ð°Ð¹Ð´Ð°Ð»Ð°Ð½ÒĵÐ°Ð½":7936,"Ð¾Ð»Ð°ÑĢ":7937,"ĠÑħÐ°Ð½Ð½ÑĭÒ£":7938,"ĠÐŁÐµÑĢ":7939,"ĠÐºÒ¯Ð¹ÐµÑĥ":7940,"ĠÑĪÒ¯":7941,"Ð´Ð°ÑĢÐ¸Ñı":7942,"Ò®Ð·Ð´ÑĸÐº":7943,"ÑĭÒ£Ð°":7944,"ĠÓĻÐºÐµÐ»ÐµÐ´Ñĸ":7945,"ĠÑģÐµÐ½Ñĸ":7946,"âĢ¦âĢ¦":7947,"ĠÒĽÐ¾Ð¹ÑĭÐ»Ð°Ð´Ñĭ":7948,"Ð´Ð°Ð»Ð°Ð´Ñĭ":7949,"ĠÐ¿ÑĸÐºÑĸÑĢÐ»ÐµÑĢ":7950,"Ð²Ð°Ð½":7951,"ĠÓ©ÑĤÐºÑĸÐ·ÑĸÐ»ÐµÐ´Ñĸ":7952,"Ġ400":7953,"ÑģÑĥÑĢÐµÑĤ":7954,"ÒĽÐ¾Ò£ÑĭÑĢ":7955,"ĠÐ¼ÓĻÐ½ÑĸÐ½":7956,"ÐĨÐĽÐĨÐľ":7957,"Ò±Ð»ÑĤÑĤÑĭÒĽ":7958,"ĠÒĽÐ¾ÑģÑĭÐ»Ð´Ñĭ":7959,"ÐłÐµÑģ":7960,"ÑĭÐ½Ð°Ð½Ñĭ":7961,"Ð¼Ò±Ð½":7962,"ĠÐļÓ©ÐºÑĪÐµÑĤÐ°Ñĥ":7963,"Ġ95":7964,"Ð°Ò£ÑĭÐ·Ð´Ñĭ":7965,"ĠÐĶÓĻÐ»":7966,"ÒĽÐ°Ð¹Ð´Ð°":7967,"ĠÐ±Ó©Ð»Ð¼Ðµ":7968,"ĠÐ°ÑĥÐ´Ð°Ð½ÑĭÐ½Ð´Ð°ÒĵÑĭ":7969,"Ð¶ÑĭÐ»ÑĭÒĽ":7970,"ÐļÐµÐ»ÐµÑģÑĸ":7971,"ĠÐ´ÐµÐ½ÑģÐ°ÑĥÐ»ÑĭÒĵÑĭÐ½Ð°":7972,"ĠÐ¶Ð¾Ð±Ð°ÑģÑĭÐ½ÑĭÒ£":7973,"ĠÐ´Ð°Ð¼ÑĥÑĭÐ½":7974,"ĠÓĻÐ»ÐµÐ¼Ð´Ðµ":7975,"ĠÑģÐ°Ð»ÑĭÐ¼":7976,"ĠÐ¾Ð±Ð»ÑĭÑģÑĭÐ½Ð´Ð°ÒĵÑĭ":7977,"ÒĽÐ°Ð¼":7978,"ĠÐºÐ¾Ð¼Ð¸ÑģÑģÐ¸ÑıÑģÑĭ":7979,"ĠÑĦÑĥÐ½ÐºÑĨÐ¸Ð¾Ð½Ð°Ð»Ð´ÑĭÒĽ":7980,"Ð»ÐµÑģÐµ":7981,"ÐĸÐ°Ð»":7982,"ÐĲÒĽÐ¿Ð°ÑĢÐ°ÑĤÑĤÑĭÒĽ":7983,"ÐľÐ°ÑĤÐµÐ¼Ð°ÑĤÐ¸ÐºÐ°":7984,"ĠÐŁÐ¾Ð»":7985,"ÑģÑĭÒĽ":7986,"Ð°ÒĽÑĤÑĭÒĵÑĭ":7987,"ĠÒ¯Ð»Ð³ÑĸÑģÑĸ":7988,"ĠÐ±ÐµÑĢÑĸÐ»ÑĸÐ¿":7989,"ĠÐĳÐ°ÑĥÑĭÑĢÐ¶Ð°Ð½":7990,"ĠÒļÐ¾Ð½":7991,"Ð¿Ð¾ÑĤÐµÐº":7992,"ĠÒĽÐ¾ÒĵÐ°Ð¼Ð´Ð°":7993,"ÐµÐ´Ð°":7994,"ĠÐĲÐ»ÑĮ":7995,"ÑĭÐ½ÑĪÑĭ":7996,"Ð¢ÐķÐł":7997,"ÑģÑĸÑĢ":7998,"ĠÒĽÐ°Ð·Ð°ÒĽÑĤÐ°ÑĢ":7999,"ÑĦÐ¾ÑĢÐ¼Ð°ÑĤÐ¸ÐºÐ°":8000,"ĠÐ°ÑħÑĥÐ°Ð»":8001,"ĠÑģÐ¸Ð¿Ð°ÑĤÑĤÐ°Ð¼Ð°ÑģÑĭ":8002,"ĠÐ±Ð¾Ð»ÑĥÑĭÐ½":8003,"ĠÐĿÐ°ÑĢ":8004,"ĠÒĽÒ±ÑĢÑĭÐ»ÒĵÑĭÐ»Ð°ÑĢ":8005,"ĠÐ¢ÐľÐĶ":8006,"ĠÐ±ÐµÑĤÑĸÐ½Ð´Ðµ":8007,"ÑĭÒĵÐ°ÑĢ":8008,"ĠÑĪÑĤÐ°ÑĤ":8009,"ĠÑĢÐ¾Ð»":8010,"ÒļÐ°Ñģ":8011,"ĠÒĽÐ°Ð¹Ð´Ð°Ð½":8012,"ÑĢÐ¸ÑĤÐµÑĢ":8013,"ĠÒĽÐ°ÑĢÐ°Ð¼Ð°":8014,"ÑģÐµÒ£ÑĸÐ·":8015,"ÐĲÑı":8016,"ĠÐ°Ð³ÑĢ":8017,"Ð¸ÑĤÐµÑĤ":8018,"ĠÐ±ÑİÐ´Ð¶ÐµÑĤÐºÐµ":8019,"ĠÐ°Ð½Ð°Ð½ÑĭÒ£":8020,"ÑĤÓĻÑĢÐ±Ð¸Ðµ":8021,"ĠÐ´Ð¸Ð°Ð»Ð¾Ð³":8022,"ĠÐļÐ¾Ð¼Ð¿Ð°Ð½Ð¸Ñı":8023,"ÐµÑĢÑģÑĸÐ»ÑĤÐµÐ¼Ðµ":8024,"ĠÐ¿Ð°ÑĢÑĤÐ¸ÑıÑģÑĭÐ½ÑĭÒ£":8025,"ĠÐ¿Ð°Ð¹Ð´Ð°ÑģÑĭ":8026,"ĠÐ±ÑĸÐ·Ð´Ðµ":8027,"Ð¼ÓĻÑĤÐµÐ»Ð´ÐµÑĢ":8028,"ÐŀÐľ":8029,"ĠÐ¾ÑĢÐ°Ð»":8030,"ĠÐ±Ð¸Ð¾Ð»Ð¾Ð³Ð¸Ñı":8031,"ĠÐºÐ¾Ð¼Ð¿Ð°Ð½Ð¸ÑıÐ»Ð°ÑĢ":8032,"App":8033,"Ð±ÐµÑĥ":8034,"Ð¼ÐµÐ½ÑĸÒ£":8035,"Ð¹ÑĭÑĢ":8036,"ĠÐ±ÐµÑĤÑĸÐ½Ðµ":8037,"ĠÐºÐµÐ»ÑĤÑĸÑĢÑĸÐ»Ð³ÐµÐ½":8038,"Ð¾Ð´Ð°":8039,"ÑĬÐµÐ·":8040,"Ð´ÐµÑĢÑĸÐ½ÐµÐ½":8041,".).":8042,"ÒĽÐ°Ð½Ð´Ñĭ":8043,"ĠÑĤÒ¯ÑģÑĸÑĢÑĥ":8044,"ĠÒĽÑĥÐ°ÑĤÑĤÑĭ":8045,"ĠÑĸÑģÑĤÑĸ":8046,"ĠÐ¶ÐµÑĤÑĸÐ¼":8047,"ĠÒ°Ð¹ÑĭÐ¼Ð´Ð°ÑģÑĤÑĭÑĢÑĥ":8048,"ĠÐ¶Ð°ÑĢÐ½Ð°Ð¼":8049,"ĠÐ°Ð¹Ð´Ð°":8050,"ĠÐ¼ÐµÐºÐµÐ¼ÐµÑģÑĸÐ½Ð´Ðµ":8051,"ĠÑģÐµÐºÑģ":8052,"ĠÓ©Ð·Ð´ÑĸÐ³ÑĸÐ½ÐµÐ½":8053,"ĠÑĤÓ©Ò£ÑĸÑĢ":8054,"ĠÐ°ÑĤÐ°Ð¼":8055,"ĠÑĤÓĻÑĤÑĤÑĸ":8056,"ĠÐļÐµÐ»":8057,"ÑĤÑĸÑģ":8058,"ĠÐµÐºÐµÑĥÑĸ":8059,"ĠÑģÑĤÑĥÐ´ÐµÐ½ÑĤÑĤÐµÑĢÑĸ":8060,"ÑģÑĤÑĢÑĥÐºÑĨÐ¸Ñı":8061,"ĠÐºÐ¾Ð½ÑģÑĤÐ¸ÑĤÑĥ":8062,"ÑĪÑĸÐ½":8063,"ĠÑģÓĻÑĤÑĤÐµ":8064,"ĠÐ°ÑĤÐ»ÐµÑĤ":8065,"ĠÐľÐµÐ¹":8066,"ĠÐ¼Ð¼":8067,"ĠÑĦÑĢÐ°Ð½":8068,"ĠÐļÒ¯":8069,"ĠÑĤÑĸÑĢÐºÐµ":8070,"ĠÑĤÐ°ÑĢÐ¸ÑħÑĭÐ½Ð´Ð°":8071,"ÐĶÐ«Òļ":8072,"ĠÒ±Ð»ÑĤÑĤÑĭÒ£":8073,"ĠÐ±Ð¾Ð»Ð´ÑĭÑĢÐ¼Ð°Ñĥ":8074,"Ð¼ÐµÐ½ÑĤÐ°ÑĢ":8075,"ĠÐ¶Ð¾Ð±Ð°Ð»Ð°ÑĢÑĭÐ½":8076,"ĠÐ¼Ð°ÒĽÑģÐ°ÑĤÑĤÑĭ":8077,"ÐŀÒĽÑĥÑĪÑĭÐ»Ð°ÑĢÐ´ÑĭÒ£":8078,"ĠÐĺÐ½Ð²ÐµÑģÑĤÐ¸":8079,"ĠÑĢÐµÐ²Ð¾Ð»ÑİÑĨÐ¸Ñı":8080,"ĠÐºÐµÐ»Ñĸ":8081,"ÐĿÐ°ÑĢ":8082,"ĠÒļÐ°ÑĪ":8083,"ĠÐ¼ÐµÑĢÐ·iÐ¼":8084,"ĠÒ±Ð·ÑĭÐ½":8085,"ĠÐ±Ð°ÑĢÐ´Ñĭ":8086,"Ò¯Ð»ÐµÐ¹Ð¼ÐµÐ½":8087,"ĠÐŁÐµÑĤÑĢÐ¾Ð¿Ð°Ð²Ð»":8088,"ĠÐ¿Ð°ÑĢÐ°ÒĽÑĪ":8089,"ÑįÐº":8090,"Ġ2002":8091,"ÐºÒ¯Ð¹Ñĸ":8092,"ĠÐĹÐ°Ò£Ñĭ":8093,"Ġ34":8094,"ĠÐ±Ð°ÒĽÑĭÐ»Ð°ÑĥÐ´Ñĭ":8095,"ĠÑĤÒ±ÒĵÑĭÑĢ":8096,"ĠÐ°ÑĢÐ°":8097,"ĠÐ¿Ð°ÑĢÑĭÐ·":8098,"Ð¾ÑĢÐ¼Ð°ÑĤÐ¸Ð²ÑĤÑĸÐº":8099,"ĠÐ°Ð¹Ñĭ":8100,"ĠÐ¥Ð°Ð½":8101,"ĠÓĻÑĢÒĽÐ°ÑĪÐ°Ð½":8102,"ĠÐ¼Ð°ÑĢÐºÐµÑĤÐ¸Ð½Ð³":8103,"ĠÑģÐºÐ°ÑĩÐ°ÑĤÑĮ":8104,"ĠÐ°Ð³ÐµÐ½ÑĤÑĤÑĸÐ³ÑĸÐ½ÑĸÒ£":8105,"ĠÐ¸Ð½ÑĤÐµÐ³ÑĢ":8106,"ĠÒ°Ð¹ÑĭÐ¼":8107,"ĠÐ¶Ò±Ð¼ÑĭÑģÑĤÐ°ÑĢÑĭÐ½Ð°":8108,"Ð¿Ð°Ð¹ÑĤÑĭÐ½":8109,"ĠÐ´ÐµÐ¼Ð¾ÐºÑĢÐ°ÑĤÐ¸ÑıÐ»ÑĭÒĽ":8110,"ĠÐ¥Ð°Ð±Ð°ÑĢ":8111,"ĠÐ¶Ð°ÑģÐ°Ð¼":8112,"ĠÐ²Ð°Ð»ÑİÑĤÐ°":8113,"ĠÐ¶Ð°ÑģÐ°Ð»Ð°ÑĤÑĭÐ½":8114,"ĠÐºÒ¯ÑĪÑĸÐ½Ðµ":8115,"ĠÓĻÐ·ÑĸÑĢÐ»ÐµÐ½":8116,"Ð»ÑĸÐºÑģÑĸÐ·":8117,"ĠÐµÑģÑĸÐ¼Ñĸ":8118,"ĠÐ¶Ð¸ÑĭÐ½ÑĤÑĭÒĽ":8119,"ÑĥÑĤÐ¸Ð½":8120,"ÑİÑĢ":8121,"ĠÐ±Ð°Ð»Ð°Ð»Ð°ÑĢÑĭ":8122,"ĠÐºÐµÐ»ÐµÑĢ":8123,"ÐĳÑĸÐ·Ð±ÐµÐ½":8124,"ÑģÐµÒ£":8125,"ÐºÐµÑĢÐ´ÑĸÒ£":8126,"ÑģÐµÑĢÐ²":8127,"ĠÑģÐ°Ð»Ð°ÑģÑĭÐ½Ð°":8128,"Ġ33":8129,"ĠÑģÐ°Ð¼":8130,"Ð¸Ð¼Ð¸ÑĢ":8131,"ĠÐ°Ð¹Ð´Ð°Ð½":8132,"ĠÑĤÑĸÐ·ÑĸÐ»ÑĸÐ¼":8133,"Ð¿Ð°ÒĽÑĤÐ°ÑĢ":8134,"Ð»Ð¾ÑĢ":8135,"Ð°ÑĤÑĤÑĭÒĵÑĥ":8136,"ĠÐ°ÑĥÑĭÐ·ÑĪÐ°":8137,"ÑĤÑĭÐ¼ÑĭÐ·":8138,"ĠÐµÑĢÐµÐºÑĪÐµÐ»ÑĸÐºÑĤÐµÑĢÑĸÐ½":8139,"ĠÐ¢Ð°Ð±Ð¸ÒĵÐ¸":8140,"ĠÐ°Ð»Ð³ÐµÐ±ÑĢ":8141,"ĠÐ±ÑĸÐ»Ð´ÑĸÑĢÑĸÐ¿":8142,"ĠÐ»Ð¸ÑĨÐµÐ½Ð·Ð¸ÑıÑģÑĭ":8143,"reati":8144,"ĠÐĿÒ±ÑĢÐ»Ð°Ð½":8145,"ĠÐ¶ÑĥÑĢ":8146,"hats":8147,"ĠÐĸÐ°ÒĽÑģÑĭ":8148,"ÒļÐ°Ð·Ð°ÒĽÑĤÑĭÒ£":8149,"Ð¸Ð°Ð½":8150,"Ð±ÑĸÐ·":8151,"ĠÐ·Ð°Ò£Ñĭ":8152,"ÐŀÐ¹ÑĭÐ½":8153,"ĠÐ¼Ò¯Ð¼ÐºiÐ½":8154,"ĠÐºÐµÐ´ÐµÐ¹":8155,"ĠÑģÐ¿":8156,"Ð¨Ð°ÑĢ":8157,"Ó©ÑĢÑĸ":8158,"ĠÐºÓ©Ð·ÒĽÐ°ÑĢÐ°ÑģÑĭ":8159,"ÐºÓ©ÑĢÑģÐµÑĤ":8160,"ĠÓ©ÑĤÐºÑĸÐ·Ð³ÐµÐ½":8161,"ĠÑĤÐµÐ¾ÑĢÐ¸Ñı":8162,"art":8163,"ĠÐ±Ð°Ð»Ð»":8164,"Ð¸ÑĤÑĤÐµÑĢ":8165,"Ð±Ð°Ð¹Ð¶Ð°Ð½":8166,"ĠÐ¾ÑĢÑĭÐ½Ð´Ð°ÑĢÑĭÐ½Ð´Ð°":8167,"ĠÑħÐ¾Ð»":8168,"ÑĭÑģÑĥ":8169,"ĠÐ°Ð½ÑĤ":8170,"ĠÐ»Ð¸Ð¼":8171,"ĠÑĭÒ£ÒĵÐ°Ð¹Ð»Ñĭ":8172,"ĠÑĪÐµÐ½":8173,"ĠÒĽÑĭÐ·Ð¼ÐµÑĤÑĤÐµÑĢÑĸÐ½":8174,"ĠÐ±Ð°ÑģÒĽÐ°ÑĢÑĥÐ´ÑĭÒ£":8175,"Ġof":8176,"ĠÐ¶Ð°ÑĢÑĭÐ¼":8177,"ĠÑĪÑĭÒĵÐ°ÑĢÐ¼Ð°Ð»Ð°ÑĢ":8178,"ĠÓĺÑĥ":8179,"ÐĿÐ°ÑĥÑĢÑĭÐ·":8180,"ĠÐ¾ÒĽÑĭÐ»ÒĵÐ°Ð½":8181,"Ð¡ÑĭÐ½ÑĭÐ¿":8182,"ĠÒĽÐ°ÑĢÐ°Ð»Ð´Ñĭ":8183,"Ð°ÑĤÑĭÐ»Ð´Ñĭ":8184,"ĠÐ±Ò±Ð·Ñĥ":8185,"ĠÐ¶Ð°ÑģÑĤÐ°ÑĢÒĵÐ°":8186,"Ð°ÑģÒĽÐ°":8187,"ĠÐ°ÑĪÑĭÐ»Ñĥ":8188,"ĠÑģÓ©Ð·Ð´ÐµÑĢÑĸ":8189,"Ð´Ð°ÒĽÑĤÑĭ":8190,"ĠÑĪÐ°ÒĽÑĭÑĢÑĥ":8191,"ĠÐ°ÑĢÑĤÑĥ":8192,"ĠÓĻÐºÐµÐ¿":8193,"ĠÒ°Ð»ÑĤ":8194,"ÐºÐµÑĢÐ»ÐµÑĢÑĸ":8195,"ĠÐłÐķÐ¡":8196,"ĠÐ¢Ð°ÒĵÑĭ":8197,"ÑģÑĤiÐº":8198,"ÑĤÑĤÑĸÐº":8199,"ĠÐ¸Ð³ÐµÑĢÑĥ":8200,"ĠÐ°Ð¹ÑĤÑĭÑģ":8201,"ĠÐ¾ÑĢÑĭÐ½Ð´Ð°ÑĢÑĭÐ½":8202,"ĠÒĽÐ°ÑĢÐ°ÒĵÐ°Ð½":8203,"ÒĽÐ°Ð»ÑĭÐ¿":8204,"ĠÐºÓ©ÑĢÐ½ÐµÐºÑĤÑĸ":8205,"ĠÑĤÓĻÑģÑĸÐ»Ð´ÐµÑĢÑĸ":8206,"ĠÐ±Ð°Ð·Ð°ÑĢ":8207,"ĠÐ°Ð»Ð°Ð¹Ð´Ð°":8208,"ĠÐ´Ò¯Ð½Ð¸ÐµÐ¶Ò¯Ð·ÑĸÐ»ÑĸÐº":8209,"ĠÐ°Ð¹ÑĭÐ½Ð°":8210,"ÑĢÐ¾ÑĦ":8211,"ĠÐ¼iÐ½Ð´ÐµÑĤ":8212,"ĠÐ¼Ò±Ð½ÑĭÒ£":8213,"ĠÐ¶ÐµÑĢÑĸÐ½":8214,"ĠÒĽÒ±Ð½Ð´ÑĭÐ»ÑĭÒĽÑĤÐ°ÑĢ":8215,"ÒĽÐ°Ð½Ð´Ð°":8216,"ĠÐµÑģÐµÐ¿ÑĤÑĸÐº":8217,"ĠÐĲÑĥÑĢ":8218,"inf":8219,"ĠÐ¼ÐµÑĢÐ·ÑĸÐ¼Ð³Ðµ":8220,"ĠÑģÐ°Ð¹ÑĭÑģ":8221,"ÑģÐ¿Ð°Ð½":8222,"Ð¸Ð°Ð»Ð´Ñĭ":8223,"right":8224,"ĠÐºÐ°ÑĦÐµÐ´ÑĢÐ°ÑģÑĭÐ½ÑĭÒ£":8225,"ÒļÐ¾Ð»":8226,"ÐŀÐĿ":8227,"ĠÐ±Ð¾Ð»Ð´ÑĭÐ¼":8228,"Ð±Ð°Ð±Ñĭ":8229,"ĠÐºÓ©Ð±ÐµÐ¹ÑĤÑĥ":8230,"ĠÐ°ÑĥÐ´Ð¸ÑĤÐ¾ÑĢ":8231,"ÐµÑĤÑĤÐµ":8232,"ÐµÑĤÑĸÐ½ÑĸÐ½":8233,"ĠÐºÐµÑĢÑĸÑģÑĸÐ½ÑĪÐµ":8234,"ÑĤÑĭÐ»ÑĭÐ¿":8235,"ĠÐ·Ð°Ð¼Ð°Ð½Ð´Ð°":8236,"ĠÑģÐ°Ð¹ÑĤÑĭÐ½Ð°":8237,"ĠÒĽÐ¾ÑĢÒĵÐ°ÑĥÒĵÐ°":8238,"Ð¾Ð±Ð»":8239,"ĠÐ±ÐµÑĤÑĸÐ½ÑĪÐµ":8240,"ÑĦÑĢÐ¸ÐºÐ°":8241,"ĠÐ¼Ò¯Ð»ÑĸÐºÑĤÑĸ":8242,"ĠÑģÐµÐ±ÐµÐ±":8243,"ĠÐķÑģÐµÐ¿":8244,"Ð³ÑĢÐ¾":8245,"ĠÐľÐ¾Ð½":8246,"ĠComm":8247,"Ġ75":8248,"ÑĸÐ¼Ð´ÑĸÐ»ÑĸÐº":8249,"ĠÐ°ÐºÐ°Ð´ÐµÐ¼Ð¸ÑıÐ»ÑĭÒĽ":8250,"ÒļÐ°ÑĢÐ°":8251,"ÑĤÐ°ÑĢÐ¼Ð°ÒĽ":8252,"ĠÐ¾Ð±":8253,"ĠÑĤÒ¯ÑģÑĸÑĢÑĸÐ¿":8254,"ĠÐ¸Ð½ÑĤÐµÐ»Ð»ÐµÐº":8255,"ound":8256,"ĠÒ®Ð½Ð´Ñĸ":8257,"ĠÐ¶ÐµÑĢÐ»ÐµÑĢ":8258,"ĠÑĤÒ±ÑĤÑĭÐ½Ñĥ":8259,"Facebook":8260,"Ð°ÑĤÑĭÐ½Ð°Ð½":8261,"ĠÐ´ÐµÑĢÐµÐºÑĤÐµÑĢÐ´Ñĸ":8262,"ia":8263,"ĠÐ¶Ð°ÑģÑĤÐ°Ð½":8264,"ĠÓĻÐºÑĸÐ¼Ð´ÐµÑĢÑĸÐ½ÑĸÒ£":8265,"ĠÐ¼Ð°Ð¹Ð´Ð°Ð½":8266,"ĠÐ¼Ð¾Ð´":8267,"ĠÐ±Ð¾ÑĢÑĭÑĪ":8268,"Ð¾Ð»Ð¾Ð²ÐºÐ¸Ð½":8269,"ĠÐ½Ð¾Ð¼Ð¸Ð½":8270,"Ð²Ð¾Ð»":8271,"ĠÐ¶Ð°ÑĢÐ¸ÑıÐ»Ð°Ð´Ñĭ":8272,"Ð°Ð»ÑĮÐ´ÑĭÒĽ":8273,"ĠÐ°Ð»ÑĭÐ½Ð°Ð´Ñĭ":8274,"ĠÐ¶Ò¯Ð»":8275,"Ð°ÑĤÑĭÐ»Ð°Ð´Ñĭ":8276,"ĠÓ©ÑģÐµÐ´Ñĸ":8277,"Ð¸Ð±":8278,"ĠÐ¿ÑĸÐºÑĸÑĢÑĸ":8279,"Ð´ÐµÐ»ÐµÐ´Ñĸ":8280,"ĠÑħÐ°ÑĤÑĤÐ°Ð¼":8281,"ĠÐ¶Ð°Ð»ÒĵÐ°ÑģÑĤÑĭÑĢÑĥ":8282,"ĠÒ±ÑģÐ°ÒĽ":8283,"ĠÐ¿Ð°Ð½":8284,"ĠÐľÐ°Òĵ":8285,"ÒĽÑĭÑĤ":8286,"Ġ39":8287,"ĠÐ±Ð¾Ð»Ð°ÑĪÐ°ÒĽÑĤÐ°":8288,"ĠÑĪÐ¸ÐºÑĸÐ·Ð°ÑĤ":8289,"Ð°Ð¿ÑĤÑĭ":8290,"ÑģÒ¯Ð¹":8291,"ĠÐ³ÑĢÐ°Ð½ÑĤ":8292,"ĠPl":8293,"Â»-":8294,"ĠÐµÐ»Ð´ÐµÑĢÐ´Ðµ":8295,"ĠÓĻÑĢÐµÐºÐµÑĤÑĸ":8296,"Ð´ÓĻÑĢÐ¼ÐµÐº":8297,"ĠÐ±Ð°ÒĵÐ´Ð°ÑĢÐ»Ð°Ð¼Ð°Ð»Ð°ÑĢÑĭÐ½":8298,"ÑģÑĸÐ½ÑĸÒ£":8299,"ĠÑĤÑĸÑĢÐºÐµÐ»Ñĥ":8300,"ĠÐ¶ÐµÑĤÑĸÐ»Ð´ÑĸÑĢ":8301,"ĠÐºÐ°Ð´Ð°ÑģÑĤÑĢÑĸ":8302,"ĠÓĻÐºÐµÐ»ÑĸÐ¿":8303,"ĠÒĽÐ°Ð¶ÐµÑĤÑĤÑĸÐ»ÑĸÐ³Ñĸ":8304,"ĠÒĽÒ±ÑĪ":8305,"ĠÐ¡Ð¸ÑĢ":8306,"ĠÒĽÐ°Ð½Ð°ÒĵÐ°ÑĤÑĤÐ°Ð½":8307,"ĠÒĽÐ°ÒĽÑĤÑĭ":8308,"ĠÑģÓ©Ð·Ð±ÐµÐ½":8309,"Ð¸ÑıÐ»Ñĭ":8310,"ĠÐ¶Ð°ÑģÑĥÑĪ":8311,"ĠÐ±Ð°Ð·Ð°ÑģÑĭÐ½Ð´Ð°":8312,"ÑģÑĤi":8313,"ĠÐ±Ð°ÒĵÐ°Ð»Ð°Ð½":8314,"ĠÒ¯Ð¹Ð»ÐµÐ½":8315,"ĠÒĽÐ°ÑģÐ¸ÐµÑĤ":8316,"ÐµÑĢÐ»ÐµÐ¿":8317,"ĠÐ¶Ð°ÒĽÑĭÐ½Ð´Ð°":8318,"ĠÐĲÑĤÐ°Ð¿":8319,"ÐĽÐĨÐļ":8320,"ĠÐĲÐ±Ð°Ð¹Ð´ÑĭÒ£":8321,"ĠÑģÑĤÑĢÐ°ÑĤÐµÐ³Ð¸ÑıÑģÑĭ":8322,"ĠÐ¨Ð°Ð»":8323,"ĠÐĴÐ»Ð°Ð´":8324,"ĠÐ¶ÐµÑĤÐºÑĸÐ·Ð³ÐµÐ½":8325,"ÑĪÑĭÐ»Ð´ÑĭÒĽ":8326,"ĠÑįÐºÑģÑĤÑĢÐµÐ¼":8327,"Ð¾ÑĢÐ»ÑĭÒĽ":8328,"ĠÐ±ÑĸÐ»ÑĸÐ¼Ð½ÑĸÒ£":8329,"ĠÐºÓ©Ð¿ÑĸÑĢ":8330,"ĠÐ±Ð°ÑģÐ¿Ð°":8331,"Ð¥Ð°Ð±Ð°ÑĢ":8332,"ĠÒĽÐ°Ð»Ð°ÑģÑĭÐ½Ð°":8333,"ĠÐºÐ¾Ð´ÐµÐºÑģÑĸ":8334,"ĠÐ¼Ò¯Ð»Ð´Ðµ":8335,"ĠÐ¾ÑĢÐ³":8336,"ĠÐ¾ÑĢÐ½ÑĭÐ½Ð°Ð½":8337,"ÐµÐ»ÐµÐº":8338,"ĠÐĳÐ°Ð¹ÑĤÒ±ÑĢÑģÑĭÐ½":8339,"Ġhttp":8340,"ĠÐºÒ¯ÑĪÑĸÐ½":8341,"ĠÑĤÑĸÐ»Ð´ÐµÑĢÐ´Ðµ":8342,"ÐĳÐµÐ¹":8343,"ÑĭÐ»Ð¼Ð°ÒĵÐ°Ð½":8344,"ĠÓĺÐ±ÑĸÑĪ":8345,"Ð¸ÑħÐ°Ð½Ð¾Ð²":8346,"ĠÒļÐ°Ð±":8347,"ĠÐłÐµÑģÐ¿ÑĥÐ±Ð»Ð¸ÐºÐ°":8348,"ĠÐĲÐĿÐ«Òļ":8349,"ĠÑĤÑĸÐ»Ð´ÑĸÐº":8350,"ĠÐ´ÐµÒ£Ð³ÐµÐ¹ÑĸÐ½Ðµ":8351,"ĠÑģÑĤÐ°Ð½ÑĨÐ¸Ñı":8352,"ÓĻÐ¶ÑĸÐºÑģÑĤÐ°Ð½":8353,"Ð±Ð°Ð¹Ò±Ð»Ñĭ":8354,"ĠÐºÐµÐ¼ÑĸÐ½Ð´Ðµ":8355,"Ð¢Ð«Òļ":8356,"ĠÐ°ÒĵÐ°ÑĢÑĤÑĥ":8357,"ĠÐµÐ³ÑĸÐ½":8358,"ÑĸÒ£Ðµ":8359,"ĠÐ¢ÑĸÐ»Ð´ÐµÑĢÐ´Ñĸ":8360,"ĠÐ¶Ð¾ÑģÐ¿Ð°ÑĢÑĭÐ½ÑĭÒ£":8361,"ĠÑĤÐ°Ð¿ÑģÑĭÑĢÐ¼Ð°ÑģÑĭ":8362,"ĠÐ°Ð¹Ð½Ð°Ð»ÑĭÑģÐ°ÑĤÑĭÐ½":8363,"ĠÐ±Ð°ÑģÑĭÒ£ÑĭÐ·":8364,"ĠÑĤÐ°ÒĽÑĭÑĢÑĭÐ¿ÑĤÑĭ":8365,"ÑĸÐ³ÑĸÐ½":8366,"Ġ1999":8367,"ĠÑģÓ©Ð¹Ð»ÐµÐ³ÐµÐ½":8368,"Ð²Ð°ÑĢ":8369,"ÐĨÐĽ":8370,"ĠÐ±Ð°ÑģÐ°":8371,"ĠÐºÐ»Ð°ÑģÑģÐŁÐ¾ÑĥÑĢÐ¾ÑĩÐ½ÑĭÐµ":8372,"ĠÑģÐ¸Ð¿Ð°ÑĤÑĤÐ°Ð¼":8373,"ĠÐ±ÑĸÐ»Ð´Ñĸ":8374,"ĠÐºÑĸÑĤÐ°Ð±Ñĭ":8375,"ÐķÐľÐĽÐķÐļÐķÐ¢Ð¢ÐĨÐļ":8376,"ĠÐ¾ÑĤÑĭÑĢÑĥ":8377,"ĠÐ°Ð·Ð°Ð¼Ð°ÑĤÑĤÑĭ":8378,"Ð°ÑĢÑĥÑģ":8379,"ĠÑĢÐ°Ð¹Ñĭ":8380,"ĠÐ½ÓĻÑĤÐ¸Ð¶ÐµÐ»ÐµÑĢ":8381,"Ð°Ð±ÑĢ":8382,"Ð¸ÑģÑĤÐ¸ÐºÐ°":8383,"ÒĽÐ°Ð»Ð°":8384,"ĠÐ°Ð¹Ð½Ð°Ð»Ð°Ð´Ñĭ":8385,"ĠÓ©Ð¼ÑĸÑĢÑĸÐ½Ðµ":8386,"ĠÐµÐ»ÑĸÐ¼ÑĸÐ·Ð´ÐµÐ³Ñĸ":8387,"Ð¿ÑĢÐ°ÐºÑĤÐ¸ÐºÐ°Ð»ÑĭÒĽ":8388,"ĠÐºÐµÐ»ÑĸÑģÑĸÐ¼Ñĸ":8389,"ĠÐ½ÐµÐ¼ÐµÑĢ":8390,"ĠÐ±Ð°ÑĢÑĪÐ°":8391,"Ð°Ð¹ÑģÑĭÐ·":8392,"ĠÐºÐ¾ÑĢÐ¿ÑĥÑģÑĭÐ½ÑĭÒ£":8393,"ĠÐ¾Ð½ÑĭÐ¼ÐµÐ½":8394,"ÑĤÐ°ÑĢÐ´Ð°Ð½":8395,"ĠÐ¢Ó©ÑĢÐ°Òĵ":8396,"ĠÐµÑĢÐµÐ¶ÐµÑģÑĸ":8397,"ÐĳÐ°Ð½Ðº":8398,"ĠÐ¼ÐµÐºÐµÐ½Ð¶Ð°Ð¹":8399,"ÐĳÒ±Ð´Ð°Ð½":8400,"ÑĪÐ°Ð½ÑĭÒ£":8401,"ĠÒļÐ°Ð¶":8402,"ĠÐĹÐ°Ò£ÑĭÐ¼ÐµÐ½":8403,"ĠÐ¶Ð°Ð½Ñĭ":8404,"ĠÐ±Ð°ÑĢÐ»ÑĭÒĵÑĭÐ½":8405,"ĠÐ»Ð°Ð¹ÑĭÒĽ":8406,"ĠÐ¼Ð°ÑĪÐ¸Ð½Ð°":8407,"ĠÑĤÐ°Ð±Ð°Ð´Ñĭ":8408,"id":8409,"ĠÑĦÐ°ÐºÑĤÐ¾ÑĢÐ»Ð°ÑĢ":8410,"ĠÒĽÒ±Ð´Ð°Ð¹":8411,"ÐĺÑģÐ°ÑĤÐ°Ð¹":8412,"ĠÐ¶Ð¸Ð½Ð°Ð»ÑĭÑģ":8413,"ĠÑģÐ°Ð·":8414,"sta":8415,"ĠÐºÐµÐ¹iÐ½":8416,"ĠÑħÐ°Ð±Ð°ÑĢÐ»Ð°ÒĵÐ°Ð½":8417,"ĠÐ±Ð°Ð½ÐºÑĤÑĸÒ£":8418,"ĠÑĭÒĽÑĤÐ¸Ð¼Ð°Ð»":8419,"Ð±ÑĥÐ»":8420,"ĠÑĢÐµÐ´Ð°ÐºÑĤÐ¾ÑĢ":8421,"ĠÐ´ÐµÐ½ÑģÐ°ÑĥÐ»ÑĭÒĵÑĭ":8422,"ine":8423,"Ð´Ð¸ÐµÐ²":8424,"ĠÐ´ÓĻÐ¹":8425,"ÐĸÐ°ÑģÑĤÐ°ÑĢ":8426,"ĠÐ¸Ð¼Ð°Ð¼":8427,"ĠÒĽÐ°Ð¼ÒĽÐ¾ÑĢÐ»ÑĭÒĵÑĭÐ½":8428,"Ò£ÑĸÐ»":8429,"ĠÑĢÐµÐ¿":8430,"ĠÐ¶Ò±Ð¼ÑĭÑģÑĤÐ°ÑĢÐ´ÑĭÒ£":8431,"ĠÐ±Ð°ÑģÑĭÐ¼Ð´ÑĭÒĽ":8432,"Ð¿Ð°ÑĤ":8433,"ĠÒļÐ¾ÑĢÒĵÐ°Ð½":8434,"ĠÐ°Ð·Ð°Ð¼Ð°ÑĤÑĤÐ°ÑĢÑĭ":8435,"ĠÐ¼Ð°ÑĥÑģÑĭÐ¼Ð´Ð°":8436,"51":8437,"ĠÐ±ÓĻÑģÐµÐºÐµÐ»ÐµÑģÑĤÑĸÐº":8438,"ÐķÐĻ":8439,"ĠÒĽÑĭÐ·Ð¼ÐµÑĤÑĤÑĸÐº":8440,"ĠÐ¢ÑĸÑĢ":8441,"ĠÒĽÐ¾Ð»Ð°":8442,"ĠÐ±Ó©Ð»ÑĸÐ½Ð´Ñĸ":8443,"ĠÐľÑĭÑģ":8444,"ĠÐĲÐ»ÑĤÐ°Ð¹":8445,"ĠÑģÐµÑģÑģÐ¸Ñı":8446,"ĠÒĽÐ°Ð½ÑĤ":8447,"ĠÐ¶ÑĸÐ±ÐµÑĢÐ´Ñĸ":8448,"ÑĭÑĢÐ·Ð°":8449,"Ð¾ÑĢÐ³Ð°Ð½":8450,"2019":8451,"ĠÑģÐµÐ±ÐµÐ¿ÑĤÐµÑĢÑĸ":8452,"ÑĨÐ¸ÐµÐ½ÑĤ":8453,"ÒĽÐ¾Ð»Ð´Ð°Ð½":8454,"ĠÐ°ÐºÑĤÑĸÐ»ÐµÑĢ":8455,"Ð¡Ð°Ð»ÑĭÒĽ":8456,"Ð¦ÐĺÐ¯":8457,"ĠÒĽÐ°Ð»ÑĭÐ¿ÑĤÐ°ÑģÑĤÑĭÑĢÑĥÒĵÐ°":8458,"Ð´iÑĢ":8459,"ĠÒļÐ°Òĵ":8460,"ĠÒ±ÑĢÐ¿Ð°ÒĽÒĽÐ°":8461,"Ð¼Ð°ÒĽÑĤÑĭÒĽ":8462,"ĠÐ°ÑĢÑĭ":8463,"ÑĸÐºÐºÐµÐ½":8464,"ĠÑģÑĥÑģÑĭÐ½":8465,"ĠÐ±Ð°ÒĵÐ´Ð°ÑĢÐ»Ð°Ð¼Ð°ÑģÑĭÐ½Ð°":8466,"Ð½Ð°ÑĤ":8467,"ÑĤÑĭÒĽÑĤÑĭ":8468,"ĠÐ°Ð»Ð¿":8469,"ĠÐ¶Ò¯Ð¹ÐµÐ½ÑĸÒ£":8470,"ĠÐ¼Ò±ÒĽÐ¸ÑıÑĤ":8471,"ike":8472,"ÑĤÐ°Ð¿ÒĽÑĭ":8473,"ĠÐ¶ÐµÑĤÐºÑĸÐ»ÑĸÐºÑģÑĸÐ·":8474,"ĠÓ©Ð¼ÑĸÑĢÑĸÐ½ÑĸÒ£":8475,"ĠÐºÐ¾Ð¼Ð¼ÑĥÐ½Ð¸ÐºÐ°ÑĨÐ¸ÑıÐ»Ð°ÑĢ":8476,"ĠÒĽÒ±ÑĢÑĭÐ¿":8477,"ĠÑĦÐ°ÐºÑĥÐ»ÑĮÑĤÐµÑĤÑĸ":8478,"ord":8479,"ĠÓĻÐ»ÑģÑĸÐ·":8480,"Ð°ÒĽÐ°Ð½":8481,"ĠÑģÑĥÐ´":8482,"ÐµÐºÑĤÐ¾ÑĢÑĭ":8483,"Ð¾Ò£ÒĵÐ¾Ð»":8484,"ĠÑĤÐ°Ð»ÒĽÑĭÐ»Ð°Ð½Ð´Ñĭ":8485,"ĠÐ°ÑĢÑħÐµ":8486,"ĠÐ´Ð°Ð¹":8487,"Ð¡Ó©Ð¹":8488,"iÐ½ÑĪi":8489,"ĠÐµÒ£Ð±ÐµÐºÐºÐµ":8490,"Ð³Ð¸Ñı":8491,"ĠÑĤÐ°ÑĢÑĤÑĥÒĵÐ°":8492,"ĠÑĤÒ±ÑĢÐ¼ÑĭÑģÑĤÑĭÒĽ":8493,"ÐµÑĤÑģÑĸÐ·":8494,"Ð¨ÐµÑĤÐµÐ»":8495,"Ð²Ð¾Ðº":8496,"ĠÐ¾ÒĽÑĥÑĪÑĭÐ»Ð°ÑĢÑĭÐ½ÑĭÒ£":8497,"opy":8498,"ÑĤÑĸÐ»ÐµÑĤÑĸÐ½":8499,"ĠÐ¸Ð³ÑĸÐ»ÑĸÐ³Ñĸ":8500,"ĠÐ°ÑĢÐ·Ð°Ð½":8501,"Ð¼ÐµÐ´Ñĸ":8502,"ĠÐľÐ°Ð»":8503,"ĠÐ±Ð°Ð¹Ð»Ð°Ð½ÑĭÑģÑĭ":8504,"hare":8505,"ĠÐ¢Ò±Ò£ÒĵÑĭÑĪ":8506,"ĠÐŃÐļÐ¡ÐŁÐŀ":8507,"ĠÑĤÐ°Ð½ÑĭÐ¿":8508,"ÐµÐ·ÒĽÐ°Ð·":8509,"ĠÒ¯Ð¹ÑĢÐµÐ½Ñĥ":8510,"ĠÓ©Ð·Ð´ÐµÑĢÑĸÐ½Ðµ":8511,"ĠÐĸÑĸÐ±ÐµÐº":8512,"ÑĤÑĸÐ»Ñĸ":8513,"ĠÒĵÒ±Ð¼ÑĭÑĢ":8514,"ĠÑĤÒ¯ÑĢÑĸÐ½Ðµ":8515,"ÓĺÑĥÐµÐ·Ð¾Ð²":8516,"Ð¡Ð°Ð¼":8517,"ĠÑģÑĥÐ´Ñĭ":8518,"ĠÐ½Ó©Ð¼ÑĸÑĢÑĸ":8519,"Ð´Ð°ÑģÑĤÐ°ÑĢ":8520,"ĠÒĽÐ¾Ð»ÑĭÐ½Ð´Ð°":8521,"Ð°Ð¼Ð°Ð·Ð°Ð½":8522,"ĠÐ¼ÓĻÐ½ÑĸÐ½Ð´Ðµ":8523,"ĠÐºÓ©ÑĢÑģÐµÑĤÐºÑĸÑĪÑĸ":8524,"ÑĭÐ»Ð¼Ð°Ð¹Ð´Ñĭ":8525,"ĠÐĳÐ°ÑĤÑĭÑĢ":8526,"Ð¼Ð°ÑĤÐ¸ÐºÐ°Ð»ÑĭÒĽ":8527,"ĠÐºÑĥÑĢÑģÑĤÐ°ÑĢ":8528,"ĠÐ¶Ð°ÑģÐ°Ð»ÑĭÐ¿":8529,"ĠÐ¾ÑĤÐ±Ð°ÑģÑĭÐ»ÑĭÒĽ":8530,"ĠÐ¶Ð°ÑģÑĭÐ½Ð´Ð°":8531,"ĠÑĤÐ°Ð»Ð°Ð±Ñĭ":8532,"ĠÒ³":8533,"ĠÐ±Ò±Ð¹ÑĭÑĢ":8534,"ÑĤÐ°ÑģÑĤÑĭÑĢ":8535,"ĠÑĤÐ°Ð±ÑĭÐ»Ð´Ñĭ":8536,"Ð¾ÑĤÐ°":8537,"ĠÑĤÐ¸ÑĸÐ¼Ð´ÑĸÐ»ÑĸÐ³Ñĸ":8538,"ĠÐºÐµÐ»Ð´ÑĸÒ£ÑĸÐ·":8539,"bu":8540,"ig":8541,"hatsApp":8542,"ĠÐ½Ð°ÑĢÐ°Ð·":8543,"ĠÐ¶Ò¯ÑĢÐ³ÑĸÐ·Ð³ÐµÐ½":8544,"Ð¢Ò±":8545,"ĠÐŀÑģÑĭÐ´Ð°Ð½":8546,"ÑĤÐµÐ½ÑĸÒ£":8547,"Ð¼ÐµÑģÐµ":8548,"Ð»Ð¸Ðº":8549,"ĠÑĪÐ¸":8550,"ÐĽÐĲÐł":8551,"ĠÐ±ÑĸÐ»ÑĥÑĸ":8552,"ĠÑģÐ¸Ð½Ð´ÑĢÐ¾Ð¼":8553,"ĠÑĤÓ©Ð¼ÐµÐ½Ð´ÐµÑĤ":8554,"ĠÐ±Ò±Ð»ÑĪÑĭÒĽ":8555,"ÑĤÑĸÐ»ÐµÐ´Ñĸ":8556,"ĠÒļÐ°Ð½Ð´Ð°Ð¹":8557,"ĠÒĽÐ¾ÑĢÑĭÒĽ":8558,"ĠÐµÐ»Ð´ÐµÐ³Ñĸ":8559,"ĠÐ´ÐµÐ»ÐµÐ³":8560,"ĠÐºÒ¯ÑĪÐµÐ¹ÑĤÑĥ":8561,"ĠÑĪÑĸÐ»":8562,"ĠÐ¿Ð°ÑĢÐ°Ð¼ÐµÑĤÑĢ":8563,"ĠÐµÐ³Ñĸ":8564,"ÑģÑĸÐ¼Ð´ÑĸÐº":8565,"ĠÐ¡Ð°Ð¼":8566,"ÐŀÑĢÐ°Ð»":8567,"ĠÒĽÐ°ÑĥÐ»ÑĭÑģÑĭÐ½Ð°":8568,"Ð¿ÑĸÐ·":8569,"ĠÑĢÐ°ÑģÑĤÐ°Ð¹ÑĤÑĭÐ½":8570,"ĠÑĤÐ°ÑģÑĤÐ°Ñĥ":8571,"ĠÒĽÐ°ÑĢÐ°Ð¹Ð´Ñĭ":8572,"ĠÒĽÐ°ÑģÐ¸ÐµÑĤÑĤÐµÑĢÑĸÐ½":8573,"ĠÐ»Ð¾Ð³Ð¸ÐºÐ°Ð»ÑĭÒĽ":8574,"ÑĦÐ¾Ð½":8575,"ĠÒĽÐ°Ð¹ÑĤÑĭÐ¿":8576,"ĠÒĽÐ°Ð¹ÑĤÐ°Ð»Ð°Ñĥ":8577,"ĠÑģÒ±ÑĢÐ°ÒĽÒĽÐ°":8578,"ÒļÐ°Ð¹ÑĢÐ°ÑĤ":8579,"ĠÐ°Ò£ÒĵÐ°ÑĢ":8580,"ĠÐ¶ÑĭÑĢÐ°Ñĥ":8581,"ĠÐ¶Ð°ÑĤÑģÐ°":8582,"ĠÑĤÐ¾ÒĽÑĤÐ°ÑĤÑĥ":8583,"ĠÐ´ÓĻÑĢÐµÐ¶ÐµÐ´Ðµ":8584,"ĠÑĤÒ±ÑĢÒĵÑĭÐ·":8585,"ÓĺÐ½":8586,"ÑĤÐ¾Ð»":8587,"âĢĻ":8588,"ĠÐĹÐ°Ò£ÑĭÐ½ÑĭÒ£":8589,"Ð¡Ñĥ":8590,"Ð°Ð»Ð°ÑĢÐ´Ð°Ð½":8591,"ĠÐ¼ÐµÐ¼Ð»ÐµÐºÐµÑĤÑĤÐµÑĢÐ´ÑĸÒ£":8592,"ÐĲÐ¨":8593,"ĠÑĤÑĸÐ»Ð´ÑĸÒ£":8594,"Ð½Ð´":8595,"Ð¼ÐµÐ½ÑĤÐ°ÑĢÐ¸Ð¹":8596,"Ð¿Ð¸":8597,"ĠÐ¶Ð°Ð»Ð°ÒĽÑĭ":8598,"ĠÐºÐµÑĪÑĸÐº":8599,"ĠÑĤÐ°ÑĢÐ°Ð»ÒĵÐ°Ð½":8600,"ĠÐ±Ð°ÒĵÐ°Ð¼":8601,"ĠÐµÐ½Ð³iÐ·":8602,"ĠÐľÒ±Ð½Ñĭ":8603,"ĠÐļÐ°ÑģÐ¿Ð¸Ð¹":8604,"ĠÐľÒ±ÑħÐ°Ð¼Ð¼ÐµÐ´":8605,"ĠÒļÐ°Ð·Ð°ÒĽÑĤÑĭÒ£":8606,"Ð½Ð¾Ðµ":8607,"ĠÐ¶Ð°ÒĵÐ´Ð°Ð¹Ð»Ð°ÑĢÐ´Ñĭ":8608,"Ġ1992":8609,"Ð³ÐµÐ»Ñĸ":8610,"ĠÑĤÐ¾Ð¿ÑĤÑĭÒ£":8611,"ÐľÒ±Ð½Ð°Ð¹":8612,"ĠÒļÐ°Ð»Ð°":8613,"doc":8614,"ĠÐ±Ð°Ð¹ÒĽÐ°ÑĥÑĭÐ½ÑĭÒ£":8615,"ĠÓ©Ð¼ÑĸÑĢÐ»ÑĸÐº":8616,"ĠÑĪÑĭÒĵÐ°ÑĢÐ°ÑĤÑĭÐ½":8617,"ĠÐĳÐ°ÑģÑĤÑĭ":8618,"ĠÐ³Ð¸Ð´":8619,"ĠÑĤÐ°ÒĽÑĭÑĢÑĭÐ±ÑĭÐ½Ð°":8620,"ĠÐ°ÒĵÐ°Ð¹ÑĭÐ½":8621,"ĠÐ·Ð°Ò£Ð½Ð°Ð¼Ð°ÑģÑĭÐ½Ð´Ð°":8622,"ĠÐ¶Ð°ÒĽÒĽÐ°":8623,"ĠÐ¶Ò¯Ð¹ÐµÑģÑĸÐ½Ð´ÐµÐ³Ñĸ":8624,"ĠÐ¶ÐµÑĤÐºÑĸÐ·Ðµ":8625,"ĠÐļÐµÐ»ÐµÑģÑĸ":8626,"ĠÐļÐ°Ð·Ð°ÑħÑģÑĤÐ°Ð½":8627,"ĠÑĦÐ¸Ð»Ð¸Ð°Ð»ÑĭÐ½ÑĭÒ£":8628,"ĠÒĽÐ°Ò£ÑĤÐ°ÑĢÐ´Ð°ÒĵÑĭ":8629,"ĠÐ¼Ó©Ð»ÑĪÐµÑĢÑĸÐ½":8630,"Ð³Ð¸":8631,"Ð¾Ð·Ð°":8632,"ĠÐ´ÑĢ":8633,"ap":8634,"ĠÓĻÐ´ÐµÐ±Ð¸ÐµÑĤÑĸÐ½ÑĸÒ£":8635,"ĠÐ±Ò¯ÑĢ":8636,"ĠÐ¶ÐµÐ»ÑĤÐ¾ÒĽÑģÐ°Ð½Ð´Ð°":8637,"Ð±ÐµÐ³ÐµÐ½":8638,"ĠÐ»Ð°ÒĽ":8639,"ĠÐ¼Ð°ÒĽÒ±Ð»":8640,"ĠÐ»Ð¸Ð³":8641,"ĠÐºÐµÐ»ÑĸÑģÐµÑģÑĸÐ·":8642,"ĠÒ±Ð¹ÑĭÒĽ":8643,"ĠÐ°Ð±ÑĭÑĢÐ¾Ð¹":8644,"ĠÐŀÒļ":8645,"ÐĸÒ¯ÑĢ":8646,"ĠÓĻÑģÐµÐ¼":8647,"ĠÐ±Ð°ÑĤ":8648,"ÒĽÑĭÑģÑĭ":8649,"ĠÓ©Ð»ÑĪÐµÑĥ":8650,"ĠÐºÐµÑĥÐ´Ðµ":8651,"ĠÐ´ÐµÑģÐµÐº":8652,"ĠÐ¾ÑĢÐ³Ð°Ð½Ñĭ":8653,"ÐµÐ»Ðµ":8654,"Ð¢ÐĲ":8655,"ÑĤÐ¸Ð½":8656,"ĠÐ°ÑĪÑĤÑĭ":8657,"Ġ757":8658,"ĠÑģÓĻÐ»":8659,"ĠÑģÐ°Ð½Ð°Ð»Ñĭ":8660,"ĠÑĪÑĭÒĵÐ°ÑĢÐ¼Ð°ÑĪÑĭÐ»":8661,"ĠÐ±Ð¾Ð»Ð¼Ð°Ð¹ÑĤÑĭÐ½":8662,"Ð¿ÑĸÐºÑĸÑĢ":8663,"ĠÑĤÒ¯ÑģÑĸÐ½ÑĸÐºÑĤÑĸ":8664,"ĠÐ¸Ð³ÐµÑĢÑĸÐ»Ñĥ":8665,"ĠÒ¯ÑģÑĤÑĸ":8666,"Æı":8667,"ĠÐ±ÑĸÑĢÐ»ÐµÑģÐµ":8668,"ÑĭÐ¼Ð½Ð°Ð½":8669,"ĠÐŃÐºÐ¾Ð½Ð¾Ð¼Ð¸ÐºÐ°Ð»ÑĭÒĽ":8670,"Ð½Ð°Ð»Ñĭ":8671,"ĠÐŀÑĢÐ°Ð·":8672,"ĠÐľÒ¯Ð¼ÐºÑĸÐ½":8673,"ĠÐ¾Ð»Ð¸Ð¼Ð¿Ð¸Ð°Ð´":8674,"ĠÐ³Ð¸Ð¿ÐµÑĢÑģÑĸÐ»ÑĤÐµÐ¼Ðµ":8675,"ĠÒĽÒ±Ð¿":8676,"Ð¡ÑĤÑĥÐ´ÐµÐ½ÑĤ":8677,"ÐļÓ©Ð»ÐµÐ¼Ñĸ":8678,"ĠÐ¶Ð°ÒĵÑĭÐ¼ÑģÑĭÐ·":8679,"ĠÒļÐ¾Ð»Ð´Ð°Ð½Ñĥ":8680,"ĠÐ¿ÐµÐ´Ð°Ð³Ð¾Ð³Ð¸ÐºÐ°":8681,"ÐľÐ°ÑĤÐµÑĢÐ¸Ð°Ð»Ð´Ð°ÑĢÐ´Ñĭ":8682,"ĠÐĲÑģÒĽÐ°ÑĢ":8683,"ĠÐ¶Ò¯ÑĢÐ³ÑĸÐ·ÑĸÐ»ÑĥÐ´Ðµ":8684,"ĠÒ±ÑĪÑĭÐ¿":8685,"ĠÐ¾ÑĤÑĭÑĢÒĵÑĭÐ·":8686,"ĠÐºÐµÐ»ÑĸÑģÑĸÐ¼ÑĪÐ°ÑĢÑĤ":8687,"ÐºÐ°ÑĢ":8688,"ĠÐ¼Ð°ÒĵÑĭÐ½Ð°ÑģÑĭ":8689,"ÐľÒ¯":8690,"ÐµÐ½Ð½":8691,"ĠÓ©ÑģÑĸÐ¼":8692,"ÐµÐ´ÐµÐ»":8693,"ĠÐĿÓĻÑĤÐ¸Ð¶ÐµÑģÑĸÐ½Ð´Ðµ":8694,"ĠÐĲÐĿÐ«ÒļÐ¢ÐĲÐľ":8695,"ĠÐºÒ¯ÑĤÑĥ":8696,"ÐĲÐ»Ð°Ð¹Ð´Ð°":8697,"ĠÐºÐ¾Ð¼Ð¿ÑĮÑİÑĤÐµÑĢÐ»ÑĸÐº":8698,"ÑģÐ¼":8699,"ÑĤÐµÐ½Ð´ÑĸÑĢÑĥ":8700,"ĠÐĸÓĻ":8701,"ĠÓĺÐ±Ð´Ñĸ":8702,"ĠÐ±Ð°Ð¹Ð»Ð°Ð½ÑĭÑģÑĤÑĭÑĢ":8703,"ĠÐ¼Ó©Ð»ÑĪÐµÑĢÐ»ÐµÐ¼":8704,"ĠStan":8705,"ĠÑģÐ°Ð»Ð°Ð´Ð°":8706,"ĠÐ±ÐµÑĢÐ¼ÐµÐ¹":8707,"ĠÓĺÐ·ÑĸÑĢ":8708,".[":8709,"ĠÐ¶Ó©Ð½ÐµÐ»":8710,"ĠÐłÐµÑĦÐµÑĢ":8711,"ĠÑģÑĤÑĢ":8712,"ĠÐ¶Ð°ÑĤÑĭÑĢÐ¼ÑĭÐ·":8713,"ĠÒ®ÐºÑĸÐ¼ÐµÑĤÑĸ":8714,"ĠÒĽÐ°Ð¼ÒĽÐ¾ÑĢÐ»ÑĭÒĵÑĭÐ½ÑģÑĭÐ·":8715,"ĠÑĦÐ¸Ð½Ð°Ð»":8716,"ĠÐ¼ÐµÐ¼Ð¾ÑĢ":8717,"ÐµÐ·ÒĽÐ°Ð·ÒĵÐ°Ð½":8718,"ÐŃÐ»ÐµÐºÑĤÑĢÐ¾Ð½Ð´Ñĭ":8719,"Ò¯ÑĤ":8720,"ĠÐ±ÐµÐ¹Ð½ÐµÐ»ÐµÑĥ":8721,"ĠÐ³ÑĥÐ¼Ð°Ð½Ð¸ÑĤÐ°ÑĢÐ»ÑĭÒĽ":8722,"ĠÑĸÐ½":8723,"ĠÐ¶Ð°Ð´":8724,"ĠÐľÐķÐĿ":8725,"ĠÐºÐµÐ»ÑĥÑĸ":8726,"opyright":8727,"%,":8728,"ĠÐŀÐ»Ð°ÑĢÐ´Ñĭ":8729,"ĠÑĤÐ¾Ð¿ÑĤÑĭÒĽ":8730,"ĠÒ±ÑıÐ»Ñĭ":8731,"ĠÑĤÒ±ÑģÐ°Ñĥ":8732,"Ġ120":8733,"ĠÐ±ÑĸÐ»Ð´ÑĸÑĢÐ³ÐµÐ½":8734,"ĠÐ¿Ð¾ÑįÐ·Ð¸Ñı":8735,"ĠÐŀÐ»Ð°Ð¹":8736,"ĠÑģÐ°ÑıÑģÐ°ÑĤÑĭÐ½ÑĭÒ£":8737,"ĠÑģÐ¾Ð·ÑĭÐ»Ð¼Ð°Ð»Ñĭ":8738,"ĠÓ©ÐºÑĸÐ»ÐµÑĤÑĤÑĸ":8739,"ĠÒļÐĲÐĽ":8740,"ĠÐ¾ÒĽÐ¸Ð´Ñĭ":8741,"gi":8742,"ĠÐ¿Ð°Ð¹Ð´Ð°Ð»Ð°Ð½Ð°Ð´Ñĭ":8743,"ĠÐ°Ð¹Ð¼Ð°ÒĵÑĭ":8744,"ĠÐ³Ð¸Ð¼Ð½":8745,"ĠÑįÐ¼":8746,"ĠY":8747,"ĠÐĲÐ»ÑĭÐ¿":8748,"ĠÒĽÐ°Ð¼ÑĤÐ¸ÑĤÑĭÐ½":8749,"ĠÑģÓĻÐ»ÐµÐ¼":8750,"ĠÐ¾ÑĢÑĭÐ½Ð´Ð°Ð»ÑĥÑĭÐ½":8751,"ĠÐ±Ð°Ð¹Ð»ÑĭÒĽ":8752,"ĠÐ¼Ð°ÒĵÑĭÐ½Ð°":8753,"ĠÐ°Ð²ÑĤÐ¾Ð±ÑĥÑģ":8754,"2010":8755,"ĠÐ±Ð¾ÑģÑĤÐ°Ð½Ð´ÑĭÒĵÑĭÐ½Ð°Ð½":8756,"ĠÐ¢Ò±ÑĢÒĵÑĭÐ½":8757,"ÑģÑģÐµ":8758,"ĠÒĽÐ°Ð¶ÐµÑĤÑĸ":8759,"Ġ1995":8760,"ĠÑģÐ°ÑıÑģÐ°ÑĤÑĭÐ¼ÐµÐ½":8761,"ĠÐ±Ð¸Ð¾Ð»Ð¾Ð³Ð¸ÑıÐ»ÑĭÒĽ":8762,"ĠÐ¼Ð°ÑĢÐºÐ°ÑģÑĭ":8763,"ĠÐºÒ¯Ð¼ÓĻÐ½":8764,"Ð¸ÑĤÑĮ":8765,"ĠÐķÐºÑĸÐ±Ð°ÑģÑĤÒ±Ð·":8766,"Ð¸ÑıÑģÑĭÐ½Ð´Ð°":8767,"ĠÐ±Ò±Ð¹ÑĢÑĭÒĵÑĭÐ¼ÐµÐ½":8768,"ĠÓ©ÑģÑĤÑĸ":8769,"ĠÑĪÐµÐºÑģÑĸÐ·":8770,"ĠÐ¶Ð¾Ð»Ð´Ð°":8771,"ĠÐ±Ð°ÑģÑĤÐ°Ð½":8772,"Ð´ÑĭÒ£ÑĭÐ·":8773,"ĠÐ¾ÑĤÑĭÑĢÐ°ÑĤÑĭÐ½":8774,"Ð»Ð°ÑĢÐ´Ð°Ð½":8775,"ĠÑĢÐ°Ð´Ð¸Ð¾ÑģÑĭ":8776,"oundation":8777,"Ð»Ð°ÑĢÑĭÐ¼ÐµÐ½":8778,"ÐĸÐµÒ£":8779,"ĠÒĽÒ±ÑģÑĤÐ°ÑĢ":8780,"ĠÐŀÑĢÑĭÑģ":8781,"Ð¾Ð²Ð¾":8782,"ĠÒĽÐ¾Ð»Ð´Ð°Ð½Ð°Ð´Ñĭ":8783,"Share":8784,"ĠÑģÑĥÐ´ÑĮÑı":8785,"ĠÒĽÒ±ÑĢÑĭÐ»ÑĭÑģÑĭÐ½":8786,"ĠÐ¶Ò¯ÑĢÐµ":8787,"ĠÐ±Ð°ÑģÑĥ":8788,"ĠÐ±ÑĸÑĢÑĪÐ°Ð¼Ð°":8789,"Ġ2019":8790,"ÐºÑĸÐ½ÑĸÑĪÐºÐµ":8791,"ĠÐ¥Ð°Ð»ÒĽ":8792,"ÐĳÐĽÐĺÐļ":8793,"ĠÐ±Ð°ÒĵÑĭÑĤÑĭÐ½Ð´Ð°":8794,"iÐ½i":8795,"ÑĤÐ°ÒĵÐ°":8796,"ĠÐĹÐµÑĢÑĤÑĤÐµÑĥ":8797,"Ð¶ÐµÐ»":8798,"inews":8799,"ÐµÑĢÐ°Ð»":8800,"ÐµÐºÑĨÐ¸ÑıÑģÑĭ":8801,"ward":8802,"ĠÑĤÓĻÑĢÐ±Ð¸ÐµÐ»ÐµÐ½Ñĥ":8803,"ĠÐľÐ¾Ð»":8804,"ĠÑģÓ©Ð½Ð´ÑĸÑĢÑĥ":8805,"ĠÐºÐ¾Ð¾Ð¿ÐµÑĢ":8806,"ĠÐ¶Ð°ÒĵÑĭÐ¼Ð´Ñĭ":8807,"ĠÑģÒ¯ÑĢÐ³ÐµÐ½":8808,"Ð±Ð°ÑģÑĭÐ½Ð°":8809,"ĠÒļÑĭÑĢÐºÒ¯Ð¹ÐµÐº":8810,"ĠÐ¶ÐµÑĢÑĸÐ½Ðµ":8811,"ĠÐķÐ²":8812,"ĠÐºÓ©ÑĢÑĪÑĸ":8813,"Ð¸Ð³Ð¸ÐµÐ½":8814,"ĠÐ¶ÑĭÐ»Ð¶ÑĭÐ¼Ð°Ð¹ÑĤÑĭÐ½":8815,"ĠÐĳÐµÑģ":8816,"ĠÐ¸ÐµÐ³ÐµÑĢÑĸ":8817,"Ð°ÑıÒĵÑĭ":8818,"ÐŁÐ£ÐĳÐĽÐĺÐļ":8819,"ĠÐĲÐ²ÑĤÐ¾ÑĢ":8820,"ĠÐ¿Ð°Ñģ":8821,"ĠÐµÑĢÑĸÐº":8822,"ĠÑģÒ¯Ð¹ÐµÐº":8823,"iÐ¼ÐµÐ½":8824,"ÒĽÐ°Ð½ÑĭÒ£":8825,"co":8826,"ĠÐ£ÓĻÐ»":8827,"ĠÒĽÒ±Ð·ÑĭÑĢÐµÑĤÑĤÑĸ":8828,"ĠÑģÑĤÐ°ÑĤÐ¸ÑģÑĤÐ¸ÐºÐ°Ð»ÑĭÒĽ":8829,"ĠÐ´Ò¯Ð½Ð¸ÐµÑĤ":8830,"ĠÑĤÐ°ÑĥÐ°ÑĢÐ»Ð°ÑĢÐ´Ñĭ":8831,"Ð´ÐµÑĤÑĤÐµ":8832,"ĠÑĦÐ¾ÑĢÐ¼Ð°ÑģÑĭ":8833,"ĠÐĲÐ»ÐµÐºÑģÐ°Ð½Ð´ÑĢ":8834,"ĠÐ¢Ó©ÑĢÐµ":8835,"ĠÒļÐ«ÐĹ":8836,"ĠÐ¶ÑĸÐ±ÐµÑĢÐµÐ´Ñĸ":8837,"ÑĪÑĭÒĵÐ°":8838,"ĠÑĤÓĻÑĥÐ»ÑĸÐº":8839,"ĠÑģÐ°ÑıÑģÐ°ÑĤÑĤÑĭ":8840,"ĠÐ°ÑĥÑĭÐ»ÑĭÐ½ÑĭÒ£":8841,"ÐĳÐ°ÑģÐ¿Ð°ÑģÓ©Ð·":8842,"ĠÐļÓ©ÑĪ":8843,"ÐļÐ¾ÑĢ":8844,"ĠÐºÐµÒ£Ñģ":8845,"ĠÐ°ÒĽÑĭÐ½Ð½ÑĭÒ£":8846,"ĠÒĽÐ°ÑĢÐ°ÑĪÐ°Ð´Ð°":8847,"ĠÓĺÐ¼ÑĸÑĢ":8848,"ĠÐ°ÑģÑĭ":8849,"98":8850,"ĠÓĻÑĥÐµÐ¶":8851,"ÑģÓĻ":8852,"gov":8853,"ÑĭÐ¼ÑĭÑĢ":8854,"ĠÑĤÐµÑĢÑĢÐ¾ÑĢÐ¸Ð·Ð¼":8855,"ĠÐ¿Ð»Ð°Ð½":8856,"ĠÐ¶Ð°ÑĤÑĤÑĭÒĽ":8857,"ĠÒĽÐ°Ð±ÑĭÐ»Ð´Ð°Ð¿":8858,"ÓĻÑĢÐµÐºÐµÑĤÑĸ":8859,"ĠÐºÐ¾Ð¼Ð°Ð½Ð´Ð°ÑģÑĭ":8860,"ĠÐĲÐ½ÑĭÒĽ":8861,"ĠÑĤÐµÑĤ":8862,"ĠÐ±Ò¯Ð¹ÑĢÐµÐº":8863,"ĠÑĤÐ°Ð»Ð°Ð¿ÑĤÐ°ÑĢÑĭ":8864,"ÐľÐ°ÒĽÐ°Ð»":8865,"ÐłÐµÑģÐ¼Ð¸":8866,"ĠÐ¼ÓĻÐ·ÑĸÑĢ":8867,"ĠÒĽÑĥÑĭÑģÑĭÐ½ÑĭÒ£":8868,"ĠÐļÑĥ":8869,"ĠÐºÑĸÑĢÐµÑĤÑĸÐ½":8870,"ÓĺÐ±":8871,"ĠÐ´ÐµÑĥÐ³Ðµ":8872,"ĠÐ°Ð»ÑĭÐ½Ð°ÑĤÑĭÐ½":8873,"ÑĥÑĪÑĭÐ»Ð°ÑĢÑĭ":8874,"ĠÐµÑģÑĸÐ¼Ð´Ñĸ":8875,"Ð°ÑĤÑĭÐ¼ÐµÐ½":8876,"ÐľÑĭÑģÐ°Ð»Ñĭ":8877,"ĠÐºÓ©Ð·Ð´ÐµÑĢÑĸ":8878,"ĠÓ©Ð·ÐµÐ½ÑĸÐ½ÑĸÒ£":8879,"ĠÐ°Ð¹Ð¼Ð°ÒĵÑĭÐ½Ð°":8880,"ÑĤÑĸÑĢÑĸÐº":8881,"ĠÒĽÑĭÐ·Ð¼ÐµÑĤÑĸÐ½Ð´Ðµ":8882,"ĠÐ¼Ð¾Ð½Ð¾Ð¿Ð¾Ð»":8883,"ĠÐ¶ÐµÐ»ÑĸÑģÑĸ":8884,"ĠÐ¶ÐµÑĤÐºÑĸÐ·ÑĥÐ³Ðµ":8885,"Ð°ÑĥÑĢÐµ":8886,"ĠÐºÐ¸ÐµÐ»Ñĸ":8887,"ĠÑĦÐ¾ÑĢÐ¼ÑĥÐ»":8888,"ĠÓĻÐ´ÑĸÑģÑĤÐµÐ¼ÐµÑģÑĸ":8889,"ÒļÐ°Ñĥ":8890,"ĠÑģÒ±ÑĢÐ°Ð´Ñĭ":8891,"ĠÑĤÐ¾Ð»ÒĽÑĭÐ½":8892,"Ġ1000":8893,"ĠÐ±Ð°ÑıÐ½Ð´Ð°Ð¼":8894,"Ð¶Ò±Ð¼":8895,"ÐļÒ¯":8896,"engr":8897,"ĠÐ¸Ð½Ð½Ð¾Ð²Ð°ÑĨÐ¸Ñı":8898,"ĠÐ¶ÐµÒ£ÑĸÑģ":8899,"Ð½ÐµÐ¼":8900,"ĠÑĤÐµÑĢÑĢÐ¸ÑĤÐ¾ÑĢ":8901,"ĠÓĻÐ»ÐµÑĥÐµÑĤÑĤÑĸ":8902,"ĠÐ¡ÑĤÑĥÐ´ÐµÐ½ÑĤ":8903,"ĠÐ°Ð¹ÑĤÑĭÐ»Ð°Ð´Ñĭ":8904,"ĠÒĽÐ°Ð¼ÒĽÐ¾ÑĢÐ»ÑĭÒĽ":8905,"ĠÐ¢Ð°Ñģ":8906,"ĠÐ´Ð°ÑĢÐ°":8907,"ĠÑħÐ°Ð±Ð°ÑĢÐ»Ð°Ñģ":8908,"ĠÐ¾Ð»Ð¸Ð¼Ð¿Ð¸Ð°Ð´Ð°":8909,"Ð¿ÐµÑĢÐ¸":8910,"ĠÐ°ÑĥÑĭÑĤ":8911,"ĠÓ©Ð½Ð´ÑĸÑĢÑĸÑģÑĸ":8912,"engrinews":8913,"ĠÑĪÐ°ÒĽÑĭÑĢÑĭÐ¿":8914,"ĠÑĤÐ°ÒĽÐ¿Ð°ÒĽ":8915,"ĠÐ¿Ð°ÑĢÐ»Ð°Ð¼ÐµÐ½ÑĤ":8916,"ĠÐ°ÑĪÑĭÐ»Ð°Ð´Ñĭ":8917,"ĠÑĤÐ°Ð¿ÑģÑĭÑĢÐ´Ñĭ":8918,"ĠÐ°ÑĥÒĽÑĭÐ¼":8919,"ĠÐºÓ©Ð»ÐµÐ¼ÑĸÐ½ÑĸÒ£":8920,"ĠÒ°Ð»ÑĭÐ±ÑĢÐ¸ÑĤÐ°Ð½":8921,"ĠÒļÒ±ÒĽÑĭÒĽ":8922,"ĠÑĭÑĢ":8923,"ĠÑģÐ°Ð½Ð°ÑĤÑĤÐ°ÒĵÑĭ":8924,"Ġ37":8925,"ÑĪÐµÐ»ÑĸÐº":8926,"ĠÐ¢ÑĥÒĵÐ°Ð½":8927,"ÑıÐ´Ñĭ":8928,"Ð¼Ð¸Ð½Ð¸ÑģÑĤÑĢÑĸ":8929,"ĠÐ¿Ð°Ð¹Ð´Ð°Ð»Ð°Ð½ÑĭÐ»Ð°Ð´Ñĭ":8930,"ĠÒ¯ÐºÑĸÐ¼ÐµÑĤÑĸ":8931,"ĠÒĴÐ°Ð»ÑĭÐ¼":8932,"ĠÑĸÑĪÐµÐº":8933,"ĠÐķÑĪ":8934,"ĠÐ°ÑĥÐ´Ð°ÑĢÑĭÐ¿":8935,"ĠÑĤÓĻÑģÑĸÐ»Ñĸ":8936,"ĠÐļÐ¾Ð»":8937,"Ð±Ñĭ":8938,"Ð¡ÐµÐ¼ÐµÐ¹":8939,"ĠÒĽÑĭÑĢÒĵÑĭÐ·":8940,"ÑĤÐ°ÑĢÐ¼Ð°ÒĵÑĭÐ½Ð´Ð°":8941,"Ġ1993":8942,"ĠÑĤÐ°Ð»Ð°Ð±ÑĭÐ½Ð°":8943,"Ð¸Ð¶":8944,"ĠÐ¡Ò¯Ð¹":8945,"ÑĤÐ°Ð»Ð°ÑĤÑĭÐ½":8946,"ĠÒĽÒ±ÑĢÑĭÐ»ÑĤÐ°Ð¹":8947,"ĠÑĸÑĢÐ³":8948,"reative":8949,"ĠÐ°Ð»ÒĽÐ°Ð¿":8950,"ĠÐ¶Ð°ÑģÐ°Ð½Ð´Ñĭ":8951,"ÑĤÐ°Ð¼Ð°Ð»ÑĭÒĽ":8952,"Ð±iÑĢ":8953,"ĠÑģÑĥÐ´ÑĭÒ£":8954,"ĠÐ¢Ð¾ÒĽ":8955,"ĠÑĤÐ°Ð¿ÑģÑĭÑĢÑĥ":8956,"ÑĭÒĵÑĭÐ½Ð°Ð½":8957,"ĠÐ´Ñĥ":8958,"all":8959,"ÓĻÐ¿":8960,"ĠÐ¶Ð°Ð½Ð°Ð¼Ð°":8961,"ÑĤÑĸÒ£ÑĸÐ·":8962,"ÒļÑĭÐ·Ð¼ÐµÑĤ":8963,"ĠÐ´Ð¸Ð¿Ð»Ð¾Ð¼Ð°ÑĤ":8964,"ĠÐ±ÐµÑĢÑĥÑĪÑĸÐ»ÐµÑĢ":8965,"Ð±ÑĢÐ°Ð·":8966,"ĠÐĲÒĽÐ¿Ð°ÑĢÐ°ÑĤÑĤÑĭÒĽ":8967,"ĠÐ¼ÐµÑĢÐ·ÑĸÐ¼Ð´Ðµ":8968,"ÐºÓ©Ð¿":8969,"ĠÑĢÐµÑģÐµÐ¹Ð»ÑĸÐº":8970,"ĠÐ±Ð¾Ð»Ð¼Ð°Ñģ":8971,"ÐĲÐ·Ð°Ð¼Ð°ÑĤÑĤÑĭÒĽ":8972,"ĠÐ°ÑĢÑĤÑĭÒĽÑĪÑĭÐ»ÑĭÒĽ":8973,"ÐłÐµÑģÐ¿ÑĥÐ±Ð»Ð¸ÐºÐ°Ð»ÑĭÒĽ":8974,"ĠÐĶÐµÐ½Ðµ":8975,"ĠÒĽÑĭÑĢÐºÒ¯Ð¹ÐµÐºÑĤÐµ":8976,"ĠÑĭÑģ":8977,"ĠÑĪÐµÐ³ÑĸÐ½Ð´Ðµ":8978,"Ð»ÑĭÒĽÐ¿ÐµÐ½":8979,"ĠÑģÑĨÐµÐ½Ð°ÑĢÐ¸Ð¹":8980,"Ð°ÑĢÑĥÑģÑĮ":8981,"ĠÐľÐ°Ðº":8982,"ĠÐĿÐµÐ³Ðµ":8983,"Ġ1997":8984,"ĠÑģÐ°Ð»Ð°ÑĥÐ°ÑĤÑĤÑĭ":8985,"ĠÐľÐ°Ð¼ÑĭÑĢ":8986,"ĠÑĤÐ°Ð¿ÑģÑĭÑĢÐ¼Ð°Ð»Ð°ÑĢÐ´Ñĭ":8987,"ÑĤÐ°ÐºÑĤÐµ":8988,"ĠÐ°ÑĤÐ°ÑĥÐ»Ñĭ":8989,"Ð°ÑĥÑĭÐ·":8990,"ĠÐ¿ÓĻÐ½Ð´ÐµÑĢ":8991,"Ð»Ð°Ð½Ñĥ":8992,"Ð°Ð½Ð°Ð»Ð°ÑĢÒĵÐ°":8993,"ÐķÑģÐµÐ¿":8994,"ĠÐ±ÐµÑĢÑĥÐ´Ðµ":8995,"ĠÑĤÐ¾Ð»ÑĤÑĭÑĢÑĥ":8996,"ĠÐĸÓĻÐ½ÑĸÐ±ÐµÐº":8997,"ĠÒĵÑĭÐ»ÑĭÐ¼Ð´Ð°ÑĢ":8998,"ÓĻÐºÓĻÑĢÑĸÐ¼":8999,"Ð»Ð¾Ð³":9000,"ĠÒĽÒ±ÑĤÑĤÑĭÒĽÑĤÐ°Ð´Ñĭ":9001,"ĠÐ±Ð°ÑĥÐ»Ñĥ":9002,"ĠÐŁÐ°ÑĢÐ»Ð°Ð¼ÐµÐ½ÑĤÑĸ":9003,"ÐĲÐ²ÑĤÐ¾ÑĢÐ»ÑĭÒĽ":9004,"ĠÐ±Ð°ÑĤÑĭÐ»":9005,"ĠÐ¾ÒĽÑĭÑĤÑĥÒĵÐ°":9006,"ĠÐ°ÑĤÒĽÐ°ÑĢÐ´Ñĭ":9007,"ĠÐ¾Ð¹Ð»Ð°ÑĢÑĭÐ½":9008,"ĠÒĽÐ¾Ð·ÒĵÐ°Ñĥ":9009,"ĠÐºÓ©Ð±ÑĸÐ½Ðµ":9010,"Ġ38":9011,"ĠFoundation":9012,"ĠÓ©Ð·Ð´ÐµÑĢÑĸÐ½":9013,"ĠÐºÓ©ÑĤÐµÑĢÐ³ÐµÐ½":9014,"ĠÐºÐ¾Ð¼Ð¿Ð¾Ð½ÐµÐ½ÑĤ":9015,"ĠÐ´ÓĻÑĢÐµÐ¶ÐµÑģÑĸ":9016,"ÐµÐ»ÐµÐ¹Ð´Ñĸ":9017,"ĠÐ¿Ð°ÑĤÑĪÐ°":9018,"ĠÐºÐµÑĪÐµ":9019,"ĠÑĤÒ¯ÑģÑĸÐ½ÑĸÐ¿":9020,"ÒļÐ°ÑĢÐ¶Ñĭ":9021,"ĠÑĪÑĭÒĵÑĭÐ½Ð´Ð°ÑĢ":9022,"ĠCreative":9023,"ĠÐ´ÐµÒ£Ð³ÐµÐ¹ÑĸÐ½Ð´Ðµ":9024,"ĠÐŀÐ¼Ð°ÑĢ":9025,"ÐºÐ°Ð½":9026,"ĠÐķÐ½Ð´ÐµÑĪÐµ":9027,"ĠÒĽÐ°ÑĢÐ°ÑĥÒĵÐ°":9028,"Ð°Ð½Ð´ÑĥÐ¼":9029,"ÑĥÐµÐ½":9030,"ĠÐ±ÐµÑĤÑĸÐ¼ÐµÐ½":9031,"ĠÐ°ÑĢÐ°Ð»Ð°Ð¿":9032,"Ð°Ð»Ð°ÒĽ":9033,"ĠÒĽÐ°Ð»ÑĭÐ¿ÑĤÐ°ÑģÐ°Ð´Ñĭ":9034,"ĠÐºÑĸÑģÑĸÐ»ÐµÑĢ":9035,"ie":9036,"Ó¨ÑĢÐ»ÐµÑĥ":9037,"ĠÓ©ÑĪ":9038,"ĠÐ¶Ò±Ð¼ÑĭÑĢÑĤ":9039,"Ġ55":9040,"ĠÐ±Ð°ÑģÒĽÐ°ÑĢÐ¼Ð°ÑģÑĭÐ½Ð´Ð°":9041,"ĠÐ¶Ò±Ð¼ÑĭÑģÑģÑĭÐ·":9042,"ĠÐ£Ð¸ÐºÐ¸Ð¿ÐµÐ´Ð¸Ñı":9043,"ÓĻÑĢÐµÐºÐµÑĤÑĤÐµÑĢ":9044,"ÑĤÑĭÐ½Ð´Ñĭ":9045,"ĠÑįÐºÐ¾Ð½Ð¾Ð¼Ð¸ÐºÐ°ÒĵÐ°":9046,"ĠÐ¡ÑĭÐ½":9047,"ĠÐºÐµÐ»ÐµÑĪÐµÐº":9048,"Ð½ÐµÑĤ":9049,"Ð¶Ð¾":9050,"ĠÐºÑĸÑĤÐ°Ð¿ÑĤÐ°ÑĢ":9051,"96":9052,"ĠÐ¾ÑģÑĭÐ½Ð´Ð°":9053,"ĠCommons":9054,"ĠÐ°ÑĤÐ¾Ð¼":9055,"ĠÐľÓĺ":9056,"ÓĻÐ·ÑĸÐº":9057,"ĠÐ¶Ð°ÑģÑĭÑĢÑĭÐ½":9058,"Ð¢Ò¯":9059,"ĠÐ¢Ð°Ð»Ð´ÑĭÒĽÐ¾ÑĢÒĵÐ°Ð½":9060,"ÑĤÐ¸Ð¼":9061,"ĠÐ¶Ð°Ð½Ð´Ð°ÑĢ":9062,"Ġ1991":9063,"Ð¾Ð¹ÑĭÐ·":9064,"Ð¼ÐµÑĤÑĢ":9065,"ĠÐ°Ð¹Ð¼Ð°ÒĵÑĭÐ½Ð´Ð°":9066,"ÐĳÐ°ÑģÒĽÐ°ÑĢ":9067,"ĠÐ¡Ð°ÒĵÑĭÐ½ÑĤÐ°ÐµÐ²":9068,"Â°":9069,"ĠÐĲÐ±Ð´":9070,"ĠÐ±ÐµÑģÑĸÐº":9071,"ĠÐ»Ð°ÑĥÑĢÐµ":9072,"ĠÑįÑĦÐ¸ÑĢ":9073,"Ð´ÑĭÑĢÐ´Ñĭ":9074,"ĠÐ¶Ò¯Ð¹ÐºÐµ":9075,"ÒļÐ¾ÑģÑĭÐ¼ÑĪÐ°":9076,"ÐµÑģÑĸÐ½ÑĪÑĸ":9077,"ĠÑĦÐ¾ÑĤÐ¾Ñģ":9078,"ĠÐĲÐĿÐ«ÒļÐ¢ÐĲÐľÐĲ":9079,"ÐļÐ¾Ð½ÐºÑĥÑĢÑģ":9080,"ow":9081,"Ð°Ð¹ÑĭÐ¿ÑĤÑĭ":9082,"ÑĥÑĪÑĭÐ»Ð°ÑĢÒĵÐ°":9083,"ĠÑĸÑģÑĸÐ½Ðµ":9084,"Ð¡Ð«":9085,"ĠÒĽÐ°ÑĥÑĸÐ¿ÑģÑĸÐ·Ð´ÑĸÐ³ÑĸÐ½":9086,"ĠÐ°ÑĤÒĽÐ°ÑĢÑĭÐ¿":9087,"ĠÑĪÐ°ÒĽÑĭÑĢÐ´Ñĭ":9088,"ÒļÐĲÐĹÐĲÒļÐ¡Ð¢ÐĲÐĿ":9089,"ÒĵÐ°Ð»ÑĸÐ¼Ð´ÐµÑĢ":9090,"ÒĽÐ¾ÑģÑĭÐ¼ÑĪ":9091,"ĠÐ¼ÐµÒ£Ð³ÐµÑĢÐ³ÐµÐ½":9092,"Ð°Ò£ÒĵÑĭ":9093,"ĠÐ±Ð°ÑģÑĤÐ°Ð¼Ð°":9094,"ĠÒĴÐ°Ð±":9095,"Ð´Ð°Ð¹Ñĭ":9096,"ĠÐ¾ÑĢÑĭÐ½Ð´Ð°Ð¹Ð´Ñĭ":9097,"ĠÒĽÐ¾ÑģÑĤÑĭ":9098,"ĠÑĤÐ°ÑĢÑĤÑĤÑĭ":9099,"ĠÐĶÒ¯Ð½Ð¸ÐµÐ¶Ò¯Ð·ÑĸÐ»ÑĸÐº":9100,"ĠÐ±Ð¾Ð»Ð°ÑĪÐ°ÒĽÒĽÐ°":9101,"ĠÐ°Ð»Ð°Ò£Ñĭ":9102,"ÐľÓĻÒ£Ð³ÑĸÐ»ÑĸÐº":9103,"ĠÑģÐ¾ÑģÑĭÐ½":9104,"ĠÐºÒ¯Ð·ÐµÑĤ":9105,"ribu":9106,"ĠÐ¼Ò±ÒĵÐ°Ð»ÑĸÐ¼Ð½ÑĸÒ£":9107,"ÐľÐķÐ¢":9108,"ĠÒĽÐ¾ÑĢÑĭÐ½Ð°Ð½":9109,"ÒĵÐ°Ð¿":9110,"ĠÐºÓ©Ð±Ñĸ":9111,"ĠAtt":9112,"ribution":9113,"ĠXX":9114,"ĠÐ¶Ð°ÑĥÑĭÐ¿":9115,"ĠÐĳÐ°ÑģÑĤÐ°ÑĥÑĭÑĪ":9116,"ĠWik":9117,"ĠÐ¼Ð°ÒĽÑģÐ°ÑĤÑĤÐ°ÑĢ":9118,"ĠÐ¶Ð¾Ð±Ð°Ð»Ð°ÑĢÑĭ":9119,"ĠÒĽÒ±ÑĤÑĤÑĭ":9120,"Ð»ÑĸÑģÑĸÐ¼":9121,"ĠÐ³ÐµÐºÑĤÐ°ÑĢ":9122,"ÐľÒ±ÒĵÐ°Ð»ÑĸÐ¼":9123,"ĠÐ¶Ð°ÑģÑĤÐ°":9124,"ĠÒĽÐ°Ð·ÑĭÐ½Ð°":9125,"ÐļÓ©ÑĢÐ½ÐµÐºÑĸ":9126,"ĠÐºÑĢÐ¸ÑĤÐµÑĢ":9127,"ĠÐ°Ð¹ÑĤÐ°ÑĤÑĭÐ½":9128,"Ð¿Ð¾ÑĢÑĤÑĭ":9129,"Ð´Ð°ÑģÑĤÑĭÑĢ":9130,"ĠÐµÑĢÐµÐ¶ÐµÐ»ÐµÑĢÑĸÐ½":9131,"ĠÐĶÐ°ÑĢ":9132,"ĠÐ¾ÐºÑĢÑĥÐ³ÑĤÐµÑĢ":9133,"ÑĪÑĥ":9134,"ÐļÓĻÐ¼ÐµÐ»ÐµÑĤÐºÐµ":9135,"ĠÒĽÑĥÐ°Ð½":9136,"ĠÑĤÐ°Ð½ÑĭÑģÑĥ":9137,"ĠÒĽÑĭÐ·Ð´ÑĭÒ£":9138,"ĠÐºÐ¾Ð¼Ð¼ÑĥÐ½Ð¸ÐºÐ°ÑĨÐ¸Ñı":9139,"Ð¾ÑĢÑĥÐ¼":9140,"ĠÒĽÐ°Ð±Ð°ÑĤ":9141,"ĠÐ¸Ð¼Ð¼ÑĥÐ½":9142,"ĠAttribution":9143,"ĠÓ©ÑĤÐºÑĸÑĢ":9144,"ĠÐ¶Ò¯ÑĢÐµÐºÑĤÐµÐ½":9145,"2050":9146,"Ð»Ð°Ð½Ð´":9147,"Ð´ÑĭÒĵÑĭÐ½ÑĭÒ£":9148,"ĠÐ¿ÑĸÐºÑĸÑĢÑĸÐ½":9149,"ÑĤÐ°ÑģÑĤÑĭÑĢÑĥ":9150,"ĠÐºÐµÐ´ÐµÐ½Ð´ÑĸÐº":9151,"ĠÐºÐ¾Ð½ÑģÑĥÐ»ÑĮ":9152,"ĠÓĻÐ¹ÐµÐ»Ñĸ":9153,"ĠÑģÐ¾ÒĵÐ°Ð´Ñĭ":9154,"ĠÑģÑĤÐ°ÑĤÐ¸ÑģÑĤÐ¸ÐºÐ°":9155,"ĠÐŀÒĽÑĭÑĤÑĥ":9156,"2008":9157,"ĠÐ±ÐµÑĢÑĥÑĸ":9158,"ĠÑģÐµÑĢÑĤÐ¸ÑĦÐ¸ÐºÐ°ÑĤ":9159,"ĠÐ¾ÑĤÑĭÐ·":9160,"ĠÐ¢ÐµÐ½":9161,"ĠÐ´ÐµÐ¿Ð¾Ð·":9162,"Ð¼ÐµÐ½Ñĸ":9163,"ĠÑĪÓ©Ð»":9164,"ĠÐ¢Ð°ÒĽÑĭÑĢÑĭÐ±Ñĭ":9165,"ĠÑģÐ°Ð½Ð¸ÑĤÐ°ÑĢÐ»ÑĭÒĽ":9166,"Ð°ÑĤÑĤÐ°Ð½Ð´ÑĭÑĢÑĥ":9167,"Alike":9168,"Ð´ÑĭÐ»ÑĭÒĽ":9169,"ĠÐ¶Ò±Ð¼ÑĭÐ»":9170,"ĠÐ¿Ð°Ð¹ÑĭÐ·ÑĭÐ½":9171,"ÐµÐ´Ð¸ÑĨÐ¸Ñı":9172,"ShareAlike":9173,"ail":9174,"ĠÐºÐµÐ»ÑĸÑģÑĸÐ¼Ð³Ðµ":9175,"ĠÐļÑĸÑĪÑĸ":9176,"ĠÑĤÐ¸Ð³ÑĸÐ·ÐµÐ´Ñĸ":9177,"Ġ05":9178,"ÐŁÐ¾ÑĢ":9179,"Ð¼ÑĸÐ·Ð´Ñĸ":9180,"ĠÑģÐ°Ð¹ÑĤÑĤÐ°ÑĢ":9181,"ĠÐ³Ð°":9182,"ĠÐ¸Ð·":9183,"ĠÑĤÒ±ÑĢÑĥÒĵÐ°":9184,"ĠÐŁÑĥÑĤÐ¸Ð½":9185,"ĠÐ¾ÑĤÐ±Ð°ÑģÑĭÐ½ÑĭÒ£":9186,"ĠÐ±ÑĸÑĢÐµÑĥÑĸ":9187,"Ò®Ð»ÐºÐµÐ½":9188,"Ð°ÒĽÐ¿Ð°ÑĢÐ°ÑĤ":9189,"ec":9190,"ĠÐ°ÑĪÑĥÒĵÐ°":9191,"ÑĸÐ»Ð¼ÐµÐ³ÐµÐ½":9192,"ĠÐķÑĢÐ»Ð°Ð½":9193,"ĠÐľÐ°ÑĤÐµÐ¼Ð°ÑĤÐ¸ÐºÐ°":9194,"ĠÑĤÒ¯Ð½Ð´Ðµ":9195,"ĠÑĤÐ°ÒĽÑĭÑĢÑĭÐ±ÑĭÐ½Ð´Ð°ÒĵÑĭ":9196,"91":9197,"ĠÐ¼Ò¯Ð¼ÐºÑĸÐ½Ð´ÑĸÐºÑĤÐµÑĢÑĸÐ½":9198,"ÒĽÐ°Ð·Ð°ÒĽÑĪÐ°":9199,"Ð¡Ð°Ð¹ÑĤÒĽÐ°":9200,"ĠÐ¼Ð°Ð·Ð¼Ò±Ð½ÑĭÐ½Ð°":9201,"ĠÐ±Ð°Ð½ÐºÑĸ":9202,"imedia":9203,"ÐµÑĨ":9204,"ĠÒļÒ±Ð¿Ð¸ÑıÐ»ÑĭÒĽ":9205,"ĠÐºÓ©ÑĤÐµÑĢÑĸÐ»ÐµÐ´Ñĸ":9206,"ĠÒļÒ±ÑĢÑĭÐ»ÑĭÑģ":9207,"ĠÐ¼Ð¾Ð±Ð¸Ð»ÑĮ":9208,"ĠÐ°Ð²Ð¸":9209,"ĠÒĽÐ°ÑĤÑĭÑģÑĥÑĪÑĭÐ»Ð°ÑĢÐ´ÑĭÒ£":9210,"ĠÐºÓ©Ð»ÐµÐ¼Ð´Ðµ":9211,"Ġto":9212,"Ð°ÑıÑĤ":9213,"ÐĲÐ¢Ð«":9214,"ĠÐ°ÑĥÑĢÑĥÐ»Ð°ÑĢÑĭ":9215,"ĠÐ·ÐµÑĢÑĤÑĤÐµÐ¿":9216,"ĠÐ¶Ð°Ð·ÒĵÑĭ":9217,"Ð°Ò£Ð´Ð°ÑĢ":9218,"ĠÐ¶ÑĥÑĢÐ½Ð°Ð»Ñĭ":9219,"ĠÐ°ÑģÑĤÑĭÒĽ":9220,"ĠÐ±Ó©Ð»ÑĸÐ¼Ð´ÐµÑĢ":9221,"ĠÐ¶Ð°ÑģÐ°ÑĥÐ´Ñĭ":9222,"ĠÐ£ÐºÑĢÐ°Ð¸Ð½Ð°":9223,"ĠWikipedia":9224,"ĠÑĸÑĪÑĸÐ½Ðµ":9225,"ĠÒļÐ°ÑĥÑĸÐ¿ÑģÑĸÐ·Ð´ÑĸÐº":9226,"Ð¿Ð°Ðº":9227,"ĠÐŁÓĻÐ½":9228,"ĠÒ¯Ð»ÐµÑģÑĸÐ½":9229,"ĠÑĢÐµÑģÑĥÑĢÑģÑĤÐ°ÑĢÑĭÐ½":9230,"ĠÑģÐ¸Ð¿Ð°ÑĤÑĤÐ°ÒĵÑĭ":9231,"ÑģÑĤÑĭÒĽ":9232,"ĠÐľÒ±ÑĢÐ°ÑĤ":9233,"ĠÐ¾Ð¿ÐµÑĢÐ°ÑĨÐ¸ÑıÐ»Ð°ÑĢ":9234,"ĠÑĤÓ©Ð»ÐµÐ½ÐµÑĤÑĸÐ½":9235,"Ð±Ð°ÑģÑĭÐ½Ð´Ð°":9236,"ĠÑĪÑĭÒĵÐ°ÑĢÐ¼Ð°ÑĪÑĭÐ»ÑĭÒĵÑĭ":9237,"ÑĥÐ½Ð¸ÑĨÐ¸Ð¿":9238,"ĠÑģÐ°Ò£":9239,"Ð°Ð»ÑĤÑĥ":9240,"ĠÑģÐ¸Ð¼Ð²Ð¾Ð»":9241,"ĠÐ±Ò±Ð·ÑĭÐ»Ñĥ":9242,"ĠÐ±ÐµÑĢÑĸÒ£ÑĸÐ·":9243,"ĠÐ¶Ò¯ÑĢÐ³ÑĸÐ·ÑĸÐ»ÐµÑĤÑĸÐ½":9244,"ĠÐ°ÐºÑĤÐµÑĢ":9245,"ĠÐ°ÑĥÐ´Ð°Ð½Ð½ÑĭÒ£":9246,"ĠÐºÒ¯Ð½ÑĸÐ½":9247,"ÑĤÐ°ÑĨÐ¸ÑıÐ»ÑĭÒĽ":9248,"ĠÐ±Ð°ÒĽÑĭÐ»Ð°ÑĥÑĭ":9249,"ĠÐ½ÓĻÑĢÑģÐµÐ½Ñĸ":9250,"ĠÐ°Ð¹Ð´ÑĭÒ£":9251,"ĠÒĽÐ¾Ð»Ð¼Ð°":9252,"ĠÐ±Ð°Ð¿ÑĤÑĭÒ£":9253,"ĠÑĤÐ°Ð½ÑĭÐ»ÒĵÐ°Ð½":9254,"ĠWikimedia":9255,"ĠÐºÑĥÓĻÐ»ÑĸÐº":9256,"ÑģÐ¸Ð¼":9257,"Ð¾Ð²Ð½Ð°":9258,"ÑģÐ°Ð¹ÑĤ":9259,"ÑĭÑĤÑĥÑĪÑĭÐ»ÑĭÒĽ":9260,"ĠÐºÑĥÐ±":9261,"ĠFacebook":9262,"ĠÑĢÐµÐ½":9263,"ĠÒĽÐ¾ÒĵÐ°Ð¼Ð´Ð°ÒĵÑĭ":9264,"ĠÐļÐµÒ£ÐµÑģÑĸÐ½ÑĸÒ£":9265,"ÑģÑĤÐµÑĢÑĸ":9266,"ĠÐ°ÑģÑĤÐ°Ð½Ð°ÑģÑĭ":9267,"Ò£Ð³ÑĸÑĢ":9268,"ĠÐļÒ¯ÑĪ":9269,"ĠÐ¶ÑĭÐ»Ð¶":9270,"ĠÐ°ÑĢÐ°ÒĽ":9271,"ĠÐ°ÑĤÐ»ÐµÑĤÐ¸ÐºÐ°":9272,"ÐĲÒĵÑĭÐ»ÑĪÑĭÐ½":9273,"ĠÐ°ÑĤÑĭÐ½Ð°":9274,"ĠÐµÑĢÐºÐµÐº":9275,"ĠQ":9276,"ĠÐºÑĸÑĢÐ³ÐµÐ½":9277,"Ð°Ñİ":9278,"ĠÐ°ÑĤÐ°Ð»ÑĭÐ¿":9279,"ÐļÑĸÑĢÑĥ":9280,"ĠÐĹÐ°Ò£Ð½ÑĭÒ£":9281,"ÑģÐ°Ð»ÑĭÑģ":9282,"ÑĭÑģÑĤÐ°ÑĢÑĭÐ½ÑĭÒ£":9283,"ÐŀÐĵ":9284,"ĠÒĽÐ°ÑģÑĤÐµÑĢ":9285,"Ð½Ñĸ":9286,"ĠÐĲÑħ":9287,"ĠÐ½ÐµÐ½Ñĸ":9288,"ĠÐ±Ð°ÑģÑĤÐ°Ð»ÑĭÐ¿":9289,"ĠÐĸÐ°ÑĥÐ°Ð¿":9290,"Ð»ÐµÐ¹":9291,"ĠÑĪÐ°ÑĢÑĥÐ°ÑĪÑĭÐ»ÑĭÒĵÑĭÐ½ÑĭÒ£":9292,"ĠÐĶÐµ":9293,"ÑģÑĤÐ²Ð¾":9294,"Ð¾Ð·Ñĭ":9295,"Ð¡ÑĥÑĢÐµÑĤ":9296,"ĠÐ°Ð»Ð°ÑĢ":9297,"ÑĭÒĽÑĤÐ°Ð½":9298,"ÑĤÐµÒ£Ð³Ðµ":9299,"ĠÓĺÐ±Ñĥ":9300,"ĠÐ¢Ó©ÑĤÐµÐ½ÑĪÐµ":9301,"Â»)":9302,"ÑĤÑĸÐ½Ð´ÐµÐ¿":9303,"ĠÐ±Ð¾Ð»Ð¼Ð°ÑģÑĭÐ½":9304,"ĠÐĳÐ°Ð¹Ð»Ð°Ð½ÑĭÑģ":9305,"ĠÐºÐµÐ·Ð´ÐµÑĢÑĸ":9306,"ÐľÑĸÐ½Ðµ":9307,"Ð¢Ð°Ð»ÒĽÑĭÐ»":9308,"ĠÒĽÐ°Ð½ÑĪÐ°Ð¼Ð°":9309,"ĠÑģÐ°Ð»ÑĤÑĭÐ½":9310,"ĠÐ¶ÑĭÐ»Ð´Ð°ÑĢÐ´Ð°ÒĵÑĭ":9311,"ĠÑģÐ¸ÑĭÑĢ":9312,"ĠÑĨÐ¸ÑĦÑĢÐ»ÑĭÒĽ":9313,"ĠÒĽÐ°Ð¹Ð½":9314,"ÐĶÐµÐ½Ðµ":9315,"ĠÐļÐ¾Ð´ÐµÐº":9316,"ÐµÐ³ÐµÐ¹Ð»Ñĸ":9317,"ĠÐĸÐ°ÑĢÐ½Ð°Ð¼Ð°":9318,"ĠÐ±Ð°ÑĢÑĥ":9319,"ĠÐĲÑĥÒĵÐ°Ð½":9320,"ĠÐ´ÐµÐ¼ÐµÑĥ":9321,"ÑĸÒ£Ð´ÐµÑĢ":9322,"ĠÐ»Ð¸Ð·":9323,"up":9324,"ĠÐ¡Ð°Ð¿Ð°ÑĢ":9325,"ĠÒĽÐ°Ð»Ð°ÒĵÐ°Ð½":9326,"ÐµÐ½ÑĤÐ³ÐµÐ½":9327,"ĠÐ±ÑĸÐ»Ðµ":9328,"ĠÑģÑĭÐ¹Ð°ÒĽÑĭ":9329,"ĠÐĸÒ±":9330,"Ð¾Ð½Ð´Ð¾Ð½":9331,"ĠÑĢÐµÐ´Ð°ÐºÑĨÐ¸ÑıÐ´Ð°":9332,"ĠÐĸÐĨ":9333,"ĠÑģÐ°Ð»Ð°Ð»Ð°ÑĢ":9334,"ĠÐľÐ°Ð½":9335,"ĠÐ¨Ð¾":9336,"ĠÐ¢Ðĸ":9337,"ĠÐ¾ÑĢÑĭÐ½Ð´Ð°ÑĢÑĭÐ½Ð°":9338,"ĠÐºÐ¾Ð½ÐºÑĥÑĢÑģÒĽÐ°":9339,"ĠÐµÑģÑĤÑĸÐ³ÐµÐ½":9340,"ĠÐ¸Ð½Ð¶ÐµÐ½ÐµÑĢÐ»ÑĸÐº":9341,"ĠÐĺÐ¼Ð°Ð½":9342,"ÑĤÐ¾Ñĩ":9343,"ĠÑĤÐ°Ð»Ð°Ð¿ÑĤÐ°ÑĢÒĵÐ°":9344,"ĠÐºÒ¯Ð½Ð´ÑĸÐ·":9345,"ÒĽÑĭÐ¿":9346,"ĠÐļÐ¾Ð½ÑģÑĤÐ¸ÑĤÑĥÑĨÐ¸ÑıÐ»ÑĭÒĽ":9347,"ÒĵÑĭÐ»ÑĭÒĽÑĤÑĭ":9348,"ĠÒĽÐ°ÒĵÐ¸Ð´Ð°Ð»Ð°ÑĢÑĭ":9349,"ĠÐ¼ÓĻÐ¼ÑĸÐ»":9350,"ĠÐĳÐŀÐĽ":9351,"ĠÒ¯Ð·ÑĸÐ½Ð´Ñĸ":9352,"ÑĪÑĸÑģÑĸÐ½Ðµ":9353,"Ð¸Ð¼Ð¸Ñı":9354,"ÐłÐµÑģÐ¿ÑĥÐ±Ð»Ð¸Ðº":9355,"ĠÐ±ÑĸÐ»ÐµÑģÑĸÒ£":9356,"ĠÓ©Ð»ÐµÒ£Ð´ÐµÑĢÑĸ":9357,"ĠÐ±ÐµÐºi":9358,"ha":9359,"ĠÓĻÑĢÐºÑĸÐ¼":9360,"ĠÒļÐ°Ð¿":9361,"ĠÑĤÐ°ÑĢÑĤ":9362,"ÑĥÐ½Ð´":9363,"ĠÐ±ÑĸÑĢÑĤÒ±ÑĤÐ°Ñģ":9364,"Ð³ÐµÐ»Ð´Ñĸ":9365,"ĠÑĭÒĽÑĭÐ»":9366,"ĠÒĽÐ°ÑĤÑĭÑģÐ°ÑĤÑĭÐ½":9367,"ĠÐ±Ð°ÐºÑĤÐµÑĢ":9368,"ĠÒĽÐ°Ð»ÑĭÐ¿ÑĤÐ°ÑģÑĥ":9369,"Ò°Ð»ÑĤ":9370,"ĠÐ¢ÓĻÑĥÐµÐ»ÑģÑĸÐ·Ð´ÑĸÐ³Ñĸ":9371,"Ġ42":9372,"ĠÐ·Ð°Ò£ÒĵÐ°":9373,"ĠÑģÑĤÑĥÐ´ÐµÐ½":9374,"ĠÒĵÑĭÐ»ÑĭÐ¼ÑĭÐ½ÑĭÒ£":9375,"ĠÐ¿ÑģÐ¸ÑħÐ¸ÐºÐ°Ð»ÑĭÒĽ":9376,"ĠÐ¼ÓĻÑģÐ»Ð¸ÑħÐ°ÑĤÑĭÐ½ÑĭÒ£":9377,"ÑĤÑĭÒĵÑĭÐ½ÑĭÒ£":9378,"ĠÐ±Ò±Ð¹ÑĢÑĭÒĽ":9379,"ĠÐ²ÐµÐ»":9380,"ĠÑĤÐ°Ð¼Ð°ÒĽÑĤÐ°Ð½Ð´ÑĭÑĢÑĥ":9381,"ĠÑĤiÐ»":9382,"Ð°ÑĤÑĥÑĢÐ°":9383,"ĠÑįÐºÐ¾Ð½Ð¾Ð¼Ð¸ÐºÐ°ÑģÑĭ":9384,"ĠÒĽÒ±ÑĢÒĵÐ°ÒĽ":9385,"ĠÐ¿ÑģÐ¸ÑħÐ¾Ð»Ð¾Ð³":9386,"ĠÐĲÐºÐ°Ð´ÐµÐ¼":9387,"ĠÐ°ÑĤÑĤÐµÑģÑĤÐ°ÑĤÑĤÐ°Ñĥ":9388,"ĠÐĨÑĪ":9389,"ĠÐ¢Ð°Ð¹":9390,"ĠÐ¶Ò±Ð¼ÑĭÑģÑĤÐ°Ð½":9391,"ĠÓ©ÑĤÐºiÐ·":9392,"ĠÐ¿ÑĢÐ¾ÑĨÐµÑģÑĸÐ½Ð´Ðµ":9393,"Ð»ÑĸÐ¼ÑĸÐ·Ð´Ðµ":9394,"ĠÐ¾ÑĢÑĤÐ°Ð»ÑĭÒĵÑĭÐ½Ð°":9395,"Ð¶Ò¯ÑĢ":9396,"ÒĴÑĭÐ»ÑĭÐ¼":9397,"Ð´Ð°Ð½ÑĭÐ¿":9398,"ÑĤÑĭÑĢÒĵÐ°Ð½":9399,"ĠÐ°Ð¹ÑĤÑģÐ°ÒĽ":9400,"ĠÐ´ÓĻÑĢÑĸÐ»ÑĸÐº":9401,"ĠÐ±ÓĻÐ¹":9402,"ÑħÐµÐ¼":9403,"ĠÑĪÐµÐºÐ°ÑĢÐ°":9404,"ĠÑĤÒ¯ÑģÑĸ":9405,"ĠÐµÐ´":9406,"ĠÐ·ÑĥÐ±Ð¾Ð²":9407,"ĠÐºÐ°ÑĤÐµÐ³Ð¾ÑĢÐ¸Ñı":9408,"ĠÑģÐ°Ð¿Ð°":9409,"Ò°Ðľ":9410,"ÑĨÐµÐ²":9411,"ĠÒĽÐ°ÑĤÐµÐ»ÑĸÐº":9412,"ÑĥÑĸÐ½":9413,"ÐºÐµÑģÑĸÐ½":9414,"ĠÐ¶Ð°ÒĽÑĤÐ°":9415,"ÑĪÑĭÑģÑĭÐ½ÑĭÒ£":9416,"ÑĤÐ°Ð¿ÑģÑĭÑĢ":9417,"ĠÐ±ÐµÑĢÑģÑĸÐ½":9418,"ĠÒĽÐ¾Ò£ÑĭÑĢ":9419,"ĠÒ±Ð½Ð°Ð´Ñĭ":9420,"ĠÐ¼Ò¯Ð´Ð´ÐµÐ»Ñĸ":9421,"ĠÒ¯ÐºÑĸÐ¼ÐµÑĤÑĤÑĸÐº":9422,"ĠÐ¿Ð°ÑĤÑĢÐ¸Ð¾ÑĤÑĤÑĭÒĽ":9423,"ĠÐ¡Ð°ÒĽ":9424,"ĠÐ´ÐµÐ¼ÐµÐº":9425,"ĠÐ°Ð¹ÑĭÑĢÐ¼Ð°ÑĪÑĭÐ»ÑĭÒĽ":9426,"ĠÐºÐ»Ð¸Ð¼":9427,"od":9428,"ĠÓĻÑĢÑĸÐ¿ÑĤÐµÑģÑĤÐµÑĢ":9429,"ĠÐ¿ÑĢÐµÐ¼ÑĮÐµÑĢ":9430,"ÒļÐ°ÑĤ":9431,"ĠÐłÐķÐ¡ÐŁÐ£ÐĳÐĽÐĺÐļ":9432,"Ð¡Ðļ":9433,"ĠÐºÓ©ÑĢÑģÐµÑĤÐºÑĸÑĪÑĤÐµÑĢÑĸ":9434,"ĠÓ©Ð·Ð´ÐµÑĢ":9435,"Ð¾Ð²Ð¸Ñĩ":9436,"ĠÐ¶Ð°ÑĢÐ°Ð¼":9437,"iÐ»ÐµÐ´i":9438,"ÑĤÐ°Ð»Ð¼ÑĭÑĪ":9439,"ĠÑģÑĤÑĥÐ´ÐµÐ½ÑĤÑĤÐµÑĢÐ´ÑĸÒ£":9440,"ĠÒĽÐ¾Ð»Ð´Ð°ÑĥÑĭÐ¼ÐµÐ½":9441,"ĠÐ¼ÓĻÒ£Ð³Ñĸ":9442,"Ġtur":9443,"ou":9444,"Ð¸ÐºÐ°ÒĵÐ°":9445,"ĠÑĪÐµÑĪÐµÐ½":9446,"ĠÐ°ÑĪÐ°Ð´Ñĭ":9447,"Ð²ÐµÑĢ":9448,"ĠÒ±ÒĵÑĭÐ½":9449,"ĠÓĺÐ¹ÐµÐ»":9450,"ĠÐ±Ð°ÒĵÐ°ÑģÑĭÐ½":9451,"ĠÐ°Ð²ÑĤÐ¾Ð¼Ð°ÑĤÑĤÑĭ":9452,"ĠÐ°ÑĤÐ°Ð½ÒĵÐ°Ð½":9453,"ĠÐ´ÓĻÑĢÑĸÐ³ÐµÑĢÐ»ÐµÑĢ":9454,"ĠÓĻÐ½Ð´ÐµÑĢ":9455,"ĠÐºÐ¾Ð´Ñĭ":9456,"ÑĤÐµÐ»ÑĸÐ¿":9457,"ĠÓ©Ð·ÑĸÐ½ÐµÐ½":9458,"ĠÑĤÒ¯Ð»":9459,"ĠÑģÓĻÐ»ÐµÐ¼Ñĸ":9460,"ÑĢÐµÐ½":9461,"ĠÐ¢Ñĥ":9462,"ĠÐ±Ð°ÑıÐ½Ð´Ð°Ð¼Ð°":9463,"ĠÐ¾Ð¹ÑĭÐ½Ð´Ð°ÑĢÑĭ":9464,"Ð±ÐµÐ¹ÑĤÑĸÐ½":9465,"ĠÐºÓ©ÑĪÐ¿ÐµÐ»Ñĸ":9466,"ĠÐ°Ð»Ð°Ð¼ÑĭÐ½":9467,"ĠÐ½Ð°Ð·Ð°ÑĢÑĭÐ½Ð°":9468,"ĠÐ°Ð³ÐµÐ½ÑĤÑĤÑĸÐº":9469,"ÑĦÐ¸Ð»ÑĮÐ¼":9470,"Ð¶Ð°Ò£Ð°":9471,"ĠÐ¶ÑĸÐ±ÐµÑĢÑĸÐ¿":9472,"ĠÑĤÐ¾Ð½Ð½":9473,"ĠÐĸÒ±Ð»Ð´ÑĭÐ·":9474,"ĠÑģÓ©Ð·ÑĸÐ½Ð´Ðµ":9475,"Ð»Ð°Ð²Ð½Ð°Ñı":9476,"ÐĸÐµÑĢÐ³ÑĸÐ»ÑĸÐºÑĤÑĸ":9477,"ĠÐ¿Ð¾Ð»Ð¸ÑĨÐµÐ¹":9478,"ĠÑĸÑģÑĤÐµÐ´Ñĸ":9479,"Ð¿ÑĭÐ·":9480,"Ð¿Ð°Ð·Ñĭ":9481,"ĠÐ¶Ð°ÑĢÑĤÑĭÐ¶ÑĭÐ»Ð´ÑĭÒĵÑĭÐ½Ð´Ð°":9482,"Ð¾Ð²ÐµÑĤ":9483,"ĠÑģÐ°ÒĽÑĤÐ°Ð»ÑĭÐ¿":9484,"ĠÐ¶Ð¾Ð±Ð°Ð½ÑĭÒ£":9485,"ĠÐºÐ°ÑĢÑĤÐ°":9486,"ĠÐ¼ÐµÐ·Ð³Ñĸ":9487,"ĠÐĴÐ»Ð°Ð´Ð¸Ð¼Ð¸ÑĢ":9488,"ĠÐ¶Ð°Ð»Ð¿ÑĭÒĵÐ°":9489,"ĠÑĤÐ¾Ð¿ÑĤÐ°ÑĢ":9490,"ĠÐ¶Ð°ÑĢÐ°ÒĽÐ°ÑĤ":9491,"ĠÐ¶Ð°ÑģÑĤÐ°ÑĢÐ´Ñĭ":9492,"ÐµÐ´ÐµÐ½":9493,"ĠÐ¾Ð½Ð´Ð°ÒĵÑĭ":9494,"Ó©Ð½ÐµÑĢÐºÓĻÑģÑĸÐ¿ÑĤÑĸÐº":9495,"ĠÐºÐµÑĪÑĸ":9496,"ĠÐ¾ÑĢÑĤÐ°Ð½ÑĭÒ£":9497,"iÐ»ÐµÑĤÑĤi":9498,"ĠÑģÐ°Ð»ÑĭÐ½ÑĭÐ¿":9499,"ĠÐ¢Ó©Ð¼ÐµÐ½":9500,"ÑģÐµÐ¹":9501,"ÑĪÑĸÐ»ÐµÑģ":9502,"Ð¡Ð¿Ð¾ÑĢÑĤ":9503,"ĠÐ¶Ð°Ð½ÑĭÐ½Ð´Ð°":9504,"ĠÐºÓ©Ð·ÑĸÐ½":9505,"ĠÐ¾ÑĢÐ´ÐµÐ½":9506,"Ð³ÑĸÑģÑĸ":9507,"Ð½iÒ£":9508,"ĠÐ°ÑĢÑĥ":9509,"ĠÑģÐ°Ð»ÑĭÑģÑĤÑĭÑĢÐ¼Ð°Ð»Ñĭ":9510,"Ð±Ð°ÑģÐ°ÑĢ":9511,"Google":9512,"ĠÑĤÐ¾Ð·":9513,"ĠÑĤÒ¯Ð¿Ð½Ò±Ñģ":9514,"94":9515,"ĠÐ´ÐµÑĢÑĤ":9516,"ĠÐ¸Ð¿Ð¾ÑĤÐµÐº":9517,"ĠÑĤÒ±ÑĢÒĵÑĭÐ½Ð´Ð°ÑĢÐ´ÑĭÒ£":9518,"ĠÐ»Ð°Ð³ÐµÑĢ":9519,"ĠÐ±ÑĭÐ»ÑĤÑĭÑĢ":9520,"ĠÒĽÐ°Ð¼ÑģÑĭÐ·Ð´Ð°Ð½Ð´ÑĭÑĢÑĥ":9521,"ĠÐ°ÒĽÑĪÐ°Ð½Ñĭ":9522,"Ð¶Ð¸Ð½":9523,"ĠÐ±Ð¾Ð»Ð°Ð¼ÑĭÐ·":9524,"ĠÐºÓ©Ð»ÐµÐ¼Ð´Ñĸ":9525,"ĠÐ°ÐºÐ°Ð´ÐµÐ¼Ð¸ÑıÑģÑĭÐ½ÑĭÒ£":9526,"ĠÐ¸Ð½ÑĦÐµÐºÑĨÐ¸Ñı":9527,"ĠÐ°Ð·Ð°Ð¼Ð°ÑĤÑĤÐ°ÑĢÒĵÐ°":9528,"ĠÐ±ÐµÑĢÐµÐ¼ÑĸÐ½":9529,"ÐĳÐ°Ð¹Ð»Ð°Ð½ÑĭÑģ":9530,"ĠÑĢÐµÐ°ÐºÑĨÐ¸Ñı":9531,"ÐĳÐĲÒļ":9532,"Ð°Ð±ÑĭÐ»Ð´Ð°Ñĥ":9533,"ĠÐļÓ©Ð¿ÑĤÐµÐ³ÐµÐ½":9534,"ĠÐ¸Ð½ÑģÐ¿ÐµÐºÑĨÐ¸Ñı":9535,"ĠÑĤÐ°ÑĢÐ°ÑĤ":9536,"ek":9537,"ĠÐ°ÑĤÐ¼Ð¾ÑģÑĦÐµÑĢ":9538,"ĠÑįÐ¼Ð¾":9539,"ĠÒĽÒ±ÑĢÐ°Ð¼Ð°ÑģÑĭ":9540,"ĠÐ±ÑĥÑħÐ³Ð°Ð»ÑĤÐµÑĢÐ»ÑĸÐº":9541,"ĠÐºÐµÐ·Ñĸ":9542,"ĠÐ¿Ð°ÑĤÐ¾Ð»Ð¾Ð³Ð¸Ñı":9543,"ÐµÑĢÑĤÐµÒ£":9544,"ÑĢÑĸÐº":9545,"ĠÐ½ÐµÐ¼ÑĸÑģ":9546,"ĠÓĻÒ£Ð³ÑĸÐ¼ÐµÐ»ÐµÑĢ":9547,"ÐµÐºÑĥÐ»":9548,"ĠÑħÐ°Ð±Ð°ÑĢÐ»Ð°Ð¼Ð°Ð»Ð°ÑĢ":9549,"tr":9550,"ĠÐ°Ð¹Ð½Ð°Ð»ÑĭÐ¼Ñĭ":9551,"Twitter":9552,"ÑĭÑģÑĤÐ°ÑĢÒĵÐ°":9553,"Ð±Ð°Ð¹Ð»Ð°Ð½ÑĭÑģ":9554,"Â·":9555,"ĠÑĢÓĻÐ¼ÑĸÐ·Ð´ÐµÑĢ":9556,"ĠÐ¡Ò¯Ð»ÐµÐ¹Ð¼ÐµÐ½":9557,"ÐĶÐ°ÑĢ":9558,"ĠÐłÐ°Ð´Ð¸Ð¾":9559,"ĠÒ®ÑĪÑĸÐ½ÑĪÑĸ":9560,"ĠÐ±ÐµÐ¹Ð½ÐµÑģÑĸ":9561,"ÑģÐ°Ð¿":9562,"Ð¸ÑıÐ·":9563,"Ð·Ð°Ð¹ÑĭÐ¿ÑĤÑĭ":9564,"ĠÐķÑģÐµÐ½":9565,"ĠÑĤÑĸÐ»Ð³Ðµ":9566,"ĠÐ¢ÓĻÐ¶ÑĸÐºÑģÑĤÐ°Ð½":9567,"ĠÐ¡ÑĤÑĢÐ°ÑĤÐµÐ³":9568,"ĠÐ°Ð½Ð°Ð»Ð°ÑĢ":9569,"ĠÐ±Ð°Ð»Ð°ÑģÑĭÐ½ÑĭÒ£":9570,"ÐºÑĥ":9571,"ĠÐ¶ÑĸÐ±ÐµÑĢÑĸÐ»Ð³ÐµÐ½":9572,"Ð¸ÐºÐ°ÑģÑĭÐ½ÑĭÒ£":9573,"Ð°ÑĪÐºÐµÐ½ÑĤ":9574,"ÑģÑĤÐ°ÑĦ":9575,"Ð°Ð´Ð°ÒĽ":9576,"ÑĤÐ°Ð¼ÑĭÐ½":9577,"ĠÑģÓ©Ð·ÑĸÐ½Ðµ":9578,"ĠÒĽÐ°Ð»Ð°Ð´Ð°":9579,"ÐŁÑĢÐ¾":9580,"ĠÐµÐ»ÑĸÐ½Ðµ":9581,"ĠÐ°ÑĥÑĭÑĢÑģÑĭÐ½":9582,"ĠÒĽÐ°ÑĢÐ°ÑĪÐ°Ð´Ð°ÒĵÑĭ":9583,"ĠÐĳÒ¯ÐºÑĸÐ»":9584,"ĠÐĿÐµÐ³ÑĸÐ·":9585,"ĠÑģÒ¯ÑĢÑĸÐ¿":9586,"ĠÐķÑĥÑĢÐ°Ð·Ð¸Ñı":9587,"ĠÐ¸ÐµÐ»ÐµÑĢÑĸ":9588,"ĠÐ°Ð¹ÑĭÑĢÑĭÐ»ÒĵÐ°Ð½":9589,"ĠÐ½Ò¯ÐºÑĤ":9590,"ĠÑģÐ¾Òĵ":9591,"ĠÐ±Ð°Ð·Ð°Ð»ÑĭÒĽ":9592,"Ð¾ÒĵÐ°Ð½":9593,"ĠÒ±ÑģÑĤÐ°ÒĵÐ°Ð½":9594,"ĠÐŀÐ»Ð°ÑĢÒĵÐ°":9595,"ĠÒĽÐ°ÑĢÒĽÑĭÐ½":9596,"2009":9597,"Ð´Ð°Ð½Ñĭ":9598,"ĠÑĪÐ°ÒĽÑĭÑĢÐ°Ð´Ñĭ":9599,"ÐĿÐµ":9600,"ĠÐ¼Ð°Ð¼Ð°Ð½Ð´ÑĭÒĽÑĤÐ°ÑĢ":9601,"ĠÓĻÐ¹ÐµÐ»Ð´ÑĸÒ£":9602,"ÐŁÐ°Ð¹Ð´Ð°Ð»Ð°Ð½":9603,"ĠÑĢÐ°Ð¹":9604,"ĠÑĥÐ°ÒĽÑĭÑĤÑĭÐ½":9605,"Ð±Ð°Ð·":9606,"ĠÐ¼ÓĻÑĢÑĤÐµÐ±ÐµÑģÑĸ":9607,".\"":9608,"ÑĤÐ°Ð½Ð´Ð°ÑĢ":9609,"ĠÑģÐ°Ð»ÑĭÑģÑĤÑĭÑĢÑĥ":9610,"Ð¾ÑģÐºÐ¾Ð¿":9611,"ĠÓ©ÐºÑĸÐ»ÐµÑĤÑĤÑĸÐº":9612,"ĠÒĽÐ°Ð¹ÑĤÐ°Ð»Ð°Ð½":9613,"ĠÐ¼Ð°ÑĤÐµÐ¼Ð°ÑĤÐ¸ÐºÐµ":9614,"Ð±Ð°Ð½Ðº":9615,"Ð¸ÑĩÐµÑģÐº":9616,"ĠÐŀÐ±Ð»ÑĭÑģÑĤÑĭÒĽ":9617,"ĠÐĶÓĻÑĢÑĸ":9618,"ĠÐ±Ò±Ð·ÑĭÐ»ÒĵÐ°Ð½":9619,"ĠÐ°Ð´Ð°Ð¼Ð½Ð°Ð½":9620,"ĠÐ¼ÓĻÑģÐµÐ»ÐµÐ³Ðµ":9621,"ĠÑģÐ°Ð±Ð°ÒĽÑĤÐ°Ñģ":9622,"ĠÐ¿ÐµÑĢÑģÐ¿ÐµÐº":9623,"ĠÒĽÒ±ÑĢÐ°Ð¼ÑĭÐ½Ð´Ð°ÒĵÑĭ":9624,"ĠÒĵÐ¸":9625,"ĠÐľÐµÐº":9626,"ĠÒĽÒ±ÑĢÐ¼ÐµÑĤÑĸÐ½Ðµ":9627,"ĠÐ¶ÐµÑĤÐºÑĸÐ·ÑĸÐ¿":9628,"ĠÑģÒ±Ð¹":9629,"ÑĭÐ½Ð´ÑĭÑĢ":9630,"ÒĽÐ°Ð¿":9631,"ĠÓ©Ð½ÑĸÐ¼Ð´ÐµÑĢÑĸÐ½ÑĸÒ£":9632,"ÐŁÐĲÐł":9633,"ÒĵÑĭÐ¼Ð´Ð°ÒĵÑĭ":9634,"Ð¼iÑĢ":9635,"ĠÐ´ÐµÑĤ":9636,"ĠÐ¶Ð¾ÑģÐ¿Ð°ÑĢÑĭÐ½Ð°":9637,"ĠÐ°Ð¹ÑĭÐ½Ð°Ð½":9638,"ĠÓĻÐºÐµÐ¼":9639,"ĠÐ»Ð°Ñģ":9640,"ÐĨÑĪÐºÑĸ":9641,"ĠÐºÐµÐ·Ð´ÐµÑģÑĸÐ¿":9642,"ĠÐĲÑģÑĭÐ»":9643,"ĠÒĽÐ°ÑĥÐ»ÑĭÑģÑĭÐ¼ÐµÐ½":9644,"ĠÐ°ÑģÒĽÑĭÐ½":9645,"ĠÐ°Ð¹ÒĵÐ°":9646,"ĠÒ£":9647,"ÐĳÐ°ÒĽÑĭÑĤ":9648,"ĠÒĽÑĥÐ°Ð½ÑĭÑĪÑĤÑĭ":9649,"ĠÐ¶Ð¾ÑģÐ¿Ð°ÑĢÐ»Ð°Ð½":9650,"ÐŀÑģÑĭÒĵÐ°Ð½":9651,"Ð°ÒĽÐ°Ð»":9652,"ĠÑģÐ¸Ð¿Ð°ÑĤÑĤÐ°Ð»Ð°Ð´Ñĭ":9653,"ĠÑĤÒ¯ÑĢÑĸÐ½Ð´ÐµÐ³Ñĸ":9654,"ĠÐ°Ð¹ÑĤÑĭÐ»Ð´Ñĭ":9655,"ÒĽÐ¾ÒĵÐ°Ð¼":9656,"Ò®ÐºÑĸÐ¼":9657,"ĠÒĽÐ¾ÒĵÐ°Ð¼ÒĵÐ°":9658,"ĠÑĪÐ°Òĵ":9659,"ĠÐ°Ð»ÑĮ":9660,"Ð¸ÒĽ":9661,"ĠÓĺÐ»Ñĸ":9662,"ĠÐ¼ÐµÐ·Ð³ÑĸÐ»Ð´Ðµ":9663,"ĠÑĤÐ°Ð½ÑĭÑģÑĤÑĭ":9664,"ĠÐ±ÑĸÐ»ÐµÑģÑĸÐ·":9665,"Ð°ÑĢÒĵÐ°":9666,"ĠÐµÑģÑĸÑĢÑĤ":9667,"Ò°Ð¹ÑĭÐ¼Ð´Ð°ÑģÑĤÑĭÑĢÑĥ":9668,"Ð±Ð¸Ð·":9669,"ĠÒĽÐ°ÑĢÐ°Ñģ":9670,"ÑĤÐ¸Ð²ÑĤÑĸÐº":9671,"ĠÐ¾Ð´Ð°ÒĵÑĭÐ½ÑĭÒ£":9672,"ĠÐµÐºÑĸÐ½ÑĪÑĸÑģÑĸ":9673,"ĠÐ½ÓĻÑĤÐ¸Ð¶ÐµÑģÑĸÐ½":9674,"ĠÑģÐ°Ð±Ð°ÒĽÑĤÐ°":9675,"ĠÐĸÒ¯ÑģÑĸÐ¿":9676,"ĠÐ¾ÒĽÑĭÑĤÑĥÑĪÑĭ":9677,"Ð¼ÐµÒ£":9678,"ĠÒĽÐ¾Ð»Ð´Ð°Ð½ÒĵÐ°Ð½":9679,"ĠÒĽÑĭÐ·Ð¼ÐµÑĤÑĸÐ½Ð´ÐµÐ³Ñĸ":9680,"ĠÐľÐ°Ð¼Ð°Ð½":9681,"ĠÒĽÒ±ÑĢÐ±":9682,"ÐµÐºÐ¾Ð¼":9683,"info":9684,"ĠÐ£Ð°ÒĽÑĭÑĤ":9685,"Ð°Ð½Ð¸":9686,"ĠÐ±Ð¸Ð·Ð½ÐµÑģÑĤÑĸ":9687,"ĠÑĤÒ±ÑĤÒĽÑĭÐ½":9688,"ÐĨÐ¥":9689,"ĠÐĸÐµÑĢÐ³ÑĸÐ»ÑĸÐºÑĤÑĸ":9690,"ĠÒĽÐ¾ÒĵÐ°Ð¼ÑĭÐ½ÑĭÒ£":9691,"ĠÐĲÐ¿":9692,"ĠÐ°ÒĽÐ¿Ð°ÑĢÐ°ÑĤÑĤÐ°Ð½Ð´ÑĭÑĢÑĥ":9693,"ĠÐ¿ÑĢÐ¾ÑĨÐµÑģÑĸÐ½":9694,"ĠÑĪÐµÑĪÑĸÐ¼ÑĸÐ¼ÐµÐ½":9695,"ĠÑĦÐ¾Ð½":9696,"ĠÑģÐ°Ð½Ð°Ð»Ð°ÑĤÑĭÐ½":9697,"ÐĵÐ»Ð°Ð²Ð½Ð°Ñı":9698,"ÑĤÐ°Ð¼ÐµÐ½":9699,"ĠÐ½ÓĻÑĤÐ¸Ð¶ÐµÐ»ÐµÑĢÑĸÐ½":9700,"ĠÓ©ÑĤÑĸÐ½ÑĸÐ¼":9701,"ĠÑĸÑĪÑĸÐ¿":9702,"ĠÐ±ÐµÑĤÑĸÐ½Ð´ÐµÐ³Ñĸ":9703,"Ð¸Ð½Ð³Ð²":9704,"ÓĻÐ»ÐµÐ¼":9705,"ÑĢÐ¸ÑģÑĤ":9706,"ĠÐºÓ©ÑĢÐºÐµÐ¼Ð´ÑĸÐº":9707,"ĠÑĢÐµÐ¶Ð¸ÑģÑģÐµÑĢ":9708,"ĠÐºÒ¯Ð´ÑĸÐº":9709,"ĠÒĽÐ¸ÑıÐ»":9710,"ĠÐ±Ð¸ÑĢÐ¶":9711,"ĠÐ¢Ð°Ð¼":9712,"Ð¡Ð°ÑĢÑĭ":9713,"ĠÒĽÐ¾Ð»ÑĤÐ°Ò£":9714,"Ð¸Ð¼Ð°ÑĪ":9715,"ĠÐ±Ð¾ÐºÑģÑĪÑĭ":9716,"ĠÐ½Ð°ÑĢÑĭ":9717,"ĠÐºÓ©ÐºÓ©Ð½":9718,"93":9719,"ÐµÐ¼ÒĽÐ¾ÑĢÐ»ÑĭÒĽ":9720,"ĠÑĥÐ½Ð¸Ð²ÐµÑĢÑģÐ¸ÑĤÐµÑĤÑĸÐ½Ð´Ðµ":9721,"ĠÐ°Ð´Ð°Ð¼Ð·":9722,"ĠÐ¼Ð°ÒĽÑģÐ°ÑĤÑĤÐ°":9723,"ÑĤÑĭÐ»Ð°Ð´Ñĭ":9724,"ĠÐ´Ð°Ð¼Ð¸Ð´Ñĭ":9725,"ĠÐ¸ÐºÐµÐ¼":9726,"ĠÐ¿Ð°Ð¹Ð´Ð°Ð»Ð°Ð½ÑĭÐ»Ð°ÑĤÑĭÐ½":9727,"ĠÒĽÐ¸ÑĭÐ½Ð´ÑĭÒĽÑĤÐ°ÑĢ":9728,"Ð´ÐµÐ¼ÑĸÐ·":9729,"ĠÐºÐ°Ð¼ÐµÑĢ":9730,"ÑĤÑĸÑĢÑĸÐ»Ð³ÐµÐ½":9731,"ÐĵÐµ":9732,"Ð°Ð¿Ð°Ð½":9733,"Ð¾ÑģÑĭÐ½ÑĭÒ£":9734,"ĠÑĤÒ¯Ð±ÐµÐ³ÐµÐ¹Ð»Ñĸ":9735,"ÐľÐµÐ´Ð¸ÑĨÐ¸Ð½Ð°Ð»ÑĭÒĽ":9736,"ĠÐ¶Ð°ÑĤÒĽÐ°Ð½Ð´Ð°":9737,"ĠÐ¼Ò±Ò£":9738,"ĠÐ¸Ð½ÑĦÐ¾ÑĢÐ¼":9739,"Ð¸ÐºÐ°ÑģÑĭÐ½":9740,"ĠÐĳÐ¾Ð»Ð°ÑĤ":9741,"ĠÐĲÒĽÐ¿Ð°Ð½":9742,"92":9743,"ĠÐ±Ð°Ð½ÐºÑĤÑĸÐº":9744,"ĠÐĲÐł":9745,"ĠÑĤÐ°ÒĵÐ´ÑĭÑĢÑĭ":9746,"ĠÐ´Ð°Ò£ÒĵÑĭÐ»Ñĭ":9747,"ĠÒĽÐ°Ð±ÑĭÐ»Ð´Ð°Ð½Ð°Ð´Ñĭ":9748,"ĠÐ¡ÓĻÑĥÑĸÑĢ":9749,"ĠÐ¿ÑĢÐ¾Ð²":9750,"ĠÐĵÐ¾Ð»Ð¾Ð²ÐºÐ¸Ð½":9751,"ĠÐ¼ÐµÐ½ÑĪÑĸ":9752,"ĠÐ¼Ð¾Ð¹Ð½":9753,"Â¬":9754,"ĠÑĤÐµÐ¿Ðµ":9755,"ĠÐ°ÑĤÑģÐ°Ð»ÑĭÑģ":9756,"ĠÐµÒ£Ð±ÐµÐºÑĤÐµÑĢÑĸ":9757,"ÑģÐµÑĢÑĥ":9758,"ĠÐ¶ÐµÑĢÐ´ÐµÐ³Ñĸ":9759,"ĠÑĤÐµÑĤÑĸÐº":9760,"ĠÑĤÐ¾Ñģ":9761,"ĠÐ°ÒĽÑĭÐ»Ð´Ñĭ":9762,"ĠÑĦÑĢÐ°Ð½ÑĨÑĥÐ·":9763,"ĠÑĤÒ¯Ð¹ÑĸÐ½":9764,"ÑĪÐ°ÑĢÐ°Ð»Ð°ÑĢÐ´Ñĭ":9765,"ĠÐ¶Ð¾ÒĽÒĽÐ°":9766,"Ð¡Ð¾ÑĤ":9767,"Ð¸ÑĦÐ¸Ð½Ð³":9768,"ĠÐŁÐ¾ÑĢÐ½Ð¾":9769,"Ġ....":9770,"ĠÐĳÐ¾":9771,"ĠÑģÒ±Ð»ÑĤÐ°Ð½":9772,"ĠÐ·Ð°Ò£Ð´Ð°ÑĢÑĭ":9773,"ĠÑĸÑĪÑĸÐ½":9774,"ĠÓĻÐ»Ð´ÐµÒĽÐ°Ð¹Ð´Ð°":9775,"ĠÑĭÐ»ÒĵÐ°Ð»":9776,"ÑĤÐ°Ð½ÑĭÐ¼Ð´ÑĭÒĽ":9777,"ĠÒĽÐ°ÒĽÑĤÑĭÒĵÑĭÑģ":9778,"ĠÐĿÒ±ÑĢÑĤÐ°Ñģ":9779,"Ð¼Ð°ÒĵÐ°Ð¼Ð±ÐµÑĤ":9780,"Ð¾Ð»Ð»Ð°":9781,"ĠÐŀÐ±Ð»ÑĭÑģ":9782,"ĠÑģÐ°Ð»ÑĭÒĽÑĤÑĭÒĽ":9783,"ĠÐĸÐµÒ£ÑĸÑģ":9784,"ĠÐºÐµÐ·ÐµÒ£Ð³Ðµ":9785,"ĠÐµÑĢÐµÐ¶Ðµ":9786,"Ġ600":9787,"ĠiÑĪiÐ½Ð´Ðµ":9788,"ĠÒĽÐ°ÑĢÐ¶ÑĭÐ»Ð°Ð½":9789,"Ġ65":9790,"ĠÑħÐ°Ð½Ð´ÑĭÒĵÑĭÐ½ÑĭÒ£":9791,"Ð°Ð»ÐµÑĢ":9792,"ÐĳÐĳ":9793,"iÐ¼Ð´ÐµÑĢ":9794,"ÐµÑģÐµÐ¿":9795,"ĠÐ±ÐµÑĢÑĸÐ»ÑĥÑĸ":9796,"ĠÐĲÑģÑĤÐ°Ð½Ð°Ð½ÑĭÒ£":9797,"ĠÐµÑĤÑĥÐ´Ñĸ":9798,"ÒļÒ±ÒĽÑĭÒĽ":9799,"ĠÐĸÐ°Ò£Ð°Ó©Ð·ÐµÐ½":9800,"ĠÒĽÐ°ÑĤÐ°ÑĢÑĭÐ½Ð°Ð½":9801,"ÐļÐµÒ£ÐµÑģ":9802,"ĠÐ´ÓĻÐ¿":9803,"ĠÑĤÓĻÐ¶ÑĸÑĢÐ¸Ð±ÐµÐ»ÑĸÐº":9804,"Ð±Ó©Ð»ÑĸÐ¼":9805,"Ð¿ÐµÐ´Ð°Ð³Ð¾Ð³Ð¸ÐºÐ°Ð»ÑĭÒĽ":9806,"ĠÐ¶Ð°Ð·ÑĥÒĵÐ°":9807,"ĠÐ´ÐµÑĢÐµÑĥ":9808,"ÐĶÐ«Ò¢":9809,"ĠÐľÐµÐ¼Ð»ÐµÐºÐµÑĤÑĤiÐº":9810,"AN":9811,"ĠÐŁÐ°ÑĤ":9812,"ÑĤÐºÑĸÐ·":9813,"ĠÐ¶Ð°ÑĤÑĤÑĭÒĵÑĥÐ»Ð°ÑĢ":9814,"ĠÒĽÐ°ÑĥÑĭÐ¼Ð´Ð°ÑģÑĤÑĭÒĽ":9815,"ĠÒĽÐ¾Ð»Ñĭ":9816,"Ð¶ÑĭÑĢ":9817,"ĠÑĢÐ°Ð·":9818,"Ġti":9819,"Ð±Ò±ÑĢÑĭÑĪ":9820,"ĠÐ¡ÑĸÐ·Ð³Ðµ":9821,"ÑģÐ°ÑĢÑĭ":9822,"ĠÐ¶Ð°ÒĵÑĭÐ½Ð°":9823,"ĠÐ¿ÐµÑĢÐ·":9824,"ilim":9825,"ÑģÑĭÒ£Ð´Ð°ÑĢ":9826,"ĠÐ¢ÐµÐ»":9827,"ÐĶÓĻÑĢÑĸ":9828,"ĠÐºÐ¾Ð¼Ð¿Ð°Ð½Ð¸ÑıÐ½ÑĭÒ£":9829,"ĠÒĽÒ±ÑĢÑĭÐ»ÑĭÑģÑĭÐ½Ð°":9830,"ÐĳÒ¯Ð³ÑĸÐ½Ð´Ðµ":9831,"ĠÐ¼Ð°ÒĽÑĤÐ°Ð½ÑĭÑĪ":9832,"ĠÐºÒ¯Ð¹ÑĸÐ½Ð´Ðµ":9833,"ĠÑĤÓ©ÑģÐµÐº":9834,"ĠÐĳÐ°ÒĽÑĭÑĤÐ¶Ð°Ð½":9835,"Ð¾Ð·Ð¸":9836,"ĠÒĽÐ¾ÑİÒĵÐ°":9837,"ĠÐ¿Ð¾Ð¹ÑĭÐ·":9838,"Ð¸ÑĪ":9839,"ĠÓ¨Ð»ÐµÒ£":9840,"IX":9841,"ĠÐ³ÑĢÐµÐº":9842,"ÐĲÐ¡Ð¢ÐĲÐĿÐĲ":9843,"Ð»Ð°ÑĢÐ°ÑĨÐ¸Ñı":9844,"ĠÐ¶ÐµÐ¼ÑĸÑģ":9845,"ÑħÐ¾Ð·":9846,"ĠÐ±ÐµÐ»Ð³ÑĸÐ»ÐµÑĢ":9847,"ÐĲÑĤ":9848,"Ġturaly":9849,"ÐŀÑĢÑĭÑģ":9850,"ÐºÐµÐ·ÐµÒ£":9851,"Ð¶Ð°ÑĤÑĤÑĭÒĵÑĥ":9852,"ĠÐµÑĪÐ±ÑĸÑĢ":9853,"ĠÐ±ÐµÐ¹Ð±ÑĸÑĤÑĪÑĸÐ»ÑĸÐº":9854,"ĠÐ°ÑģÑĭÑĢÑĭÐ»Ð°ÑĤÑĭÐ½":9855,"ĠÑĤÐ°Ð»Ð´Ð°ÑĥÑĭ":9856,"ĠÐĶÐµÐ½Ð¸Ñģ":9857,"ĠÒĽÐ°ÑĢÐ°Ð¶Ð°ÑĤÑĭ":9858,"ĠÑģÓ©Ð·Ð´ÐµÑĢÐ¼ÐµÐ½":9859,"ĠÐ±ÑĸÑĢÑĸÐ½Ð´Ðµ":9860,"ĠÑĤÐµÒ£Ð´ÐµÑĥ":9861,"ĠÐ¶ÐµÒ£ÑĸÐ¼Ð¿Ð°Ð·Ñĭ":9862,"Ð´Ð°Ð»Ð´Ñĭ":9863,"Ð¢ÑĸÑĢÐºÐµÐ»Ñĥ":9864,"ĠÐ¶Ò±ÑĢÑĤÑĪÑĭÐ»ÑĭÒĽ":9865,"ĠÑģÐ°Ð¿Ð°ÑĢÑĭ":9866,"ÐµÐ´Ð°ÐºÑĨÐ¸Ñı":9867,"ÐµÐ³ÑĸÐ¼":9868,"ĠÐ¶Ð¾Ð»ÑĭÐ½Ð´Ð°ÒĵÑĭ":9869,"ÑĥÑĪÑĭÒĵÐ°":9870,"ÒļÐ¾Ð»Ð´Ð°Ð½ÑĭÐ»ÒĵÐ°Ð½":9871,"ĠÐºÑĸÑģÑĸÐ½ÑĸÒ£":9872,"ÑĤÐ°Ð»ÑĮ":9873,"ĠÐľÐ°ÑĤÐµÑĢÐ¸Ð°Ð»Ð´Ð°ÑĢÐ´Ñĭ":9874,"ĠÐ¿Ð°ÑĨÐ¸ÐµÐ½ÑĤ":9875,"ĠÐ¼Ò±ÑħÐ¸ÑĤ":9876,"ĠÐĲÒĽÑĭÐ½":9877,"ĠÐ¼Ð°ÒĽÐ°Ð»Ð°ÑģÑĭ":9878,"ÐĹÒļ":9879,"ĠÐ³ÐµÐ¾Ð³ÑĢÐ°ÑĦÐ¸ÑıÐ»ÑĭÒĽ":9880,"ĠÐ¼Ð°Ð¼Ð°Ð½Ð´Ð°ÑĢÐ´Ñĭ":9881,"ĠÐ´Ð°ÑģÑĤÐ°ÑĢ":9882,"ĠÐ±Ð°ÑģÑĭÐ½Ð´Ð°ÒĵÑĭ":9883,"ĠÑĤÓ©Ñģ":9884,"ĠÐ·ÓĻÑĢ":9885,"ĠÐ±Ð°ÑĢÐ»Ð°Ñĥ":9886,"ĠÑĪÐ°Ñħ":9887,"ĠÒ®Ð½Ð´ÑĸÑģÑĤÐ°Ð½":9888,"ĠÒĽÐ¾Ð»Ð´Ð°Ð½ÑĭÐ»ÒĵÐ°Ð½":9889,"ĠÐ°ÑĢÐ°ÑģÑĭÐ½Ð°Ð½":9890,"Ð´Ð°Ð½Ð´Ñĭ":9891,"ĠÓĻÑĥÐµÐ»Ñĸ":9892,"Ð°ÑĢÒĽÐ°":9893,"ĠÐļÐµÑĪ":9894,"ĠÐ¾ÑĢÑĭÐ½Ð´ÑĭÒĽ":9895,"ĠÐ±Ð¸Ð»ÑĸÐ³Ñĸ":9896,"ĠÐ±ÑĸÑĢÑĤÑĸÐ½Ð´ÐµÐ¿":9897,"ĠÒļÑĭÑģ":9898,"Ð°Ð³ÐµÑĢÑĸ":9899,"ĠÒļÐ°ÑĢÑĥÐ»Ñĭ":9900,"ĠÑĤÐ°Ð»Ð°Ð¿ÑĤÐ°ÑĢÐ´Ñĭ":9901,"ÑĤÐµÑĥÑĸÑĢ":9902,"ÐºÑĤÐ¸ÐºÐ°Ð»ÑĭÒĽ":9903,"ĠÐºÐµÑĤÐµ":9904,"ĠÑģÐ°ÑĢÐ°Ð¿ÑĪÑĭÐ»Ð°ÑĢ":9905,"ĠÒĽÐ°ÑĢÑĭÐ½":9906,"ÐºÐµÒ£ÐµÑģ":9907,"ĠÓĻÑģÐµÑĢÑĸÐ½ÐµÐ½":9908,"fi":9909,"Ð°ÑĥÑĭÐ½Ð°":9910,"ÐĨÐŁ":9911,"ĠÑħÐ°Ð»ÒĽÑĭÐ½":9912,"ĠÐ³Ó©ÑĢÑĸ":9913,"ĠÐºÓĻÑģiÐ¿":9914,"ĠÑĤÐ°Ð¼Ð°ÒĽÑĤÐ°Ð½Ñĥ":9915,"ÑıÑĤ":9916,"ĠÐµÑĤÑĥÐ´Ðµ":9917,"ĠÐ¡ÑĭÐ½ÑĭÐ¿":9918,"ĠÐ±Ð°Ð¹Ð»Ð°Ð½ÑĭÑģÑĤÐ°":9919,"Ġ03":9920,"ĠÐ½Ð¾ÑĤÐ°ÑĢ":9921,"ĠÐĳÐµÐ¹Ð½":9922,"ĠÐµÐ¼ÑħÐ°Ð½":9923,"ĠÐ°Ð·Ð°Ð¹":9924,"ÐĨÐĿÐĨÒ¢":9925,"Ġv":9926,"Ð´ÑĸÐ»":9927,"Ð¡ÐºÐ°ÑĩÐ°ÑĤÑĮ":9928,"ĠÐĸÐ¾Ð»Ð°ÑĥÑĪÑĭÐ»Ð°ÑĢ":9929,"ĠÒĽÒ±ÑĢÒĵÐ°Ð½":9930,"ĠÐºÒ¯Ð½ÓĻ":9931,"ÐĶÐµÐ¼":9932,"ĠÐ±Ð¾Ð»Ð¼Ð°Ð´Ñĭ":9933,"ĠÓ©Ð·Ð³ÐµÑĢÑĸÐ¿":9934,"2006":9935,"ĠÐľÐ°ÑĤÐµÑĢÐ¸Ð°Ð»":9936,"ÑģÐ¾Ð»":9937,"Ð¾ÒĽÑĥ":9938,"ÐºiÐ¼ÐµÑĤ":9939,"ĠÑĤÐ¾ÒĽÑģÐ°Ð½ÒĵÐ°":9940,"ĠÓ©Ð½ÐµÑĢÑĸÐ½ÑĸÒ£":9941,"ĠÐµÑĢÐ»ÑĸÐº":9942,"ĠÒļÐ¾Ð¹":9943,"ĠÒļÐĲÐĹÐĲÒļÐ¡Ð¢ÐĲÐĿ":9944,"ĠÐ¡Ò±ÑĢ":9945,"ÑģÐ°ÑĥÐ¸":9946,"ĠÑħÐ°Ð»ÑĭÒĽÑĤÑĭÒĽ":9947,"ĠÐ¼ÓĻÑĢÑĤÐµÐ±ÐµÑģÑĸÐ½":9948,"ĠÑģÑĥÑĭ":9949,"ÒļÑĭÑģ":9950,"ĠÐºÓ©ÑĢÑģÐµÑĤÑĸÐ»Ð´Ñĸ":9951,"ÑĤÐ¾Ð½Ð¾Ð¼":9952,"ĠÐ±Ð°Ð»Ð°ÑģÑĭÐ½":9953,"Ð°ÑĤÐ°Ð»Ð¾Ð³":9954,"Ð¾Ð·Ð¸ÑĤÐ¾ÑĢ":9955,"ĠÑħÐ°Ð»ÒĽÑĭÐ¼ÑĭÐ·Ð´ÑĭÒ£":9956,"ĠÑĤÐ°ÑģÑĤÐ°Ð´Ñĭ":9957,"ÑĤÐ¿ÐµÑģÐµ":9958,"ĠÐ¶Ð¾Ð»Ð´Ð°Ð¼Ð°":9959,"ÐĲÐ·Ð°ÑĤ":9960,"ĠÐ°Ð·Ð°Ð¼Ð°ÑĤÑĤÑĭÒ£":9961,"ÑĸÐ±ÑĸÑĢ":9962,"ÑĸÐ»ÑĸÐ¼ÐµÐ½":9963,"ĠÓ©ÐºÑĸÐ»Ð´ÐµÑĢÑĸÐ¼ÐµÐ½":9964,"ĠÑĤÒ±Ð½":9965,"ÑīÑĭ":9966,"ĠÐ±ÑĸÑĢÑĸÐºÑĤÑĸÑĢÑĥ":9967,"ĠÑģÐ°ÒĽÑĤÐ°Ð¹":9968,"ÒļÐ°ÑĤÑĭÑģ":9969,"ĠÐ±Ò±Ð·ÑĭÐ»ÑĥÑĭ":9970,"Ð°ÐºÑĤÐ¾ÑĢ":9971,"ĠÒĽÐ¾Ð¹ÑĭÐ»ÑĭÐ¼":9972,"ĠÐŀÐ´Ð°ÒĵÑĭÐ½ÑĭÒ£":9973,"Ð²Ð°":9974,"ĠÐ¡ÐºÐ°ÑĩÐ°ÑĤÑĮ":9975,"ÐŀÐĳ":9976,"ÑĢÐ°Ð¼Ð¿":9977,"ÑĤÐ¸Ð·Ð¼":9978,"ĠÒĽÒ±ÑĢÐ°Ð»Ð´Ð°ÑĢÐ´Ñĭ":9979,"ĠÒ±Ð·Ð°ÒĽÑĤÑĭÒĵÑĭ":9980,"ÐµÐºÑĤ":9981,"ĠÐĳÐ¾ÑĢ":9982,"ĠÐ¢Ð°ÒĵÐ°Ð»Ð°":9983,"ĠÐ¸Ð±Ð½":9984,"ĠÑĤÒ¯ÑĢÐ»ÐµÑĢ":9985,"ĠÑĤÐµÐ»ÐµÑĦÐ¾Ð½Ñĭ":9986,"ĠÐµÑģÐµÐ±ÑĸÐ½":9987,"ĠÐ½ÓĻÑĤÐ¸Ð¶ÐµÐ»Ñĸ":9988,"Ð°Ð±Ð°ÒĽÑĪÐ°":9989,"ĠÐºÐ¾Ð´ÐµÐºÑģi":9990,"ĠÒĽÐ°Ð·Ð°Ð½Ð´Ð°":9991,"ĠÐ½Ð°ÑĢÑĭÒĵÑĭ":9992,"ĠÐŀÐł":9993,"ĠÐ¼Ð°ÑĤÐµÑĢÐ¸Ð°Ð»ÑĭÐ½":9994,"ĠÐ¶ÓĻÑĢÐ´ÐµÐ¼Ð´ÐµÑģ":9995,"ĠÐ°ÐºÑĤÑĸÐ»ÐµÑĢÑĸÐ½Ðµ":9996,"Ð°ÑĤÐ¾Ð¼":9997,"WhatsApp":9998,"ĠÒ±ÑĢÑĭÑģ":9999,"ĠÐĳÐ¾Ð»Ð°ÑĪÐ°ÒĽ":10000,"ĠÐºÑĸÑĤÐ°Ð¿ÑħÐ°Ð½Ð°ÑģÑĭ":10001,"ĠÑĤÓ©Ð±":10002,"ÉĻÑĢ":10003,"ÐĲÑĤÐ°Ð»ÒĵÐ°Ð½":10004,"Ġ43":10005,"ĠÑĤÐ°Ð½ÑĭÑģÑĭÐ¿":10006,"ĠâĨ":10007,"ĠÐ¶Ð¾ÑģÐ¿Ð°ÑĢÐ»Ð°ÑĢÑĭÐ½ÑĭÒ£":10008,"ÐµÐ´Ð°Ð³Ð¾Ð³Ð¸ÐºÐ°":10009,"Ð´iÑĢÑĥ":10010,"ĠÐ±Ð¸Ð¾":10011,"Ð´ÐµÑģÑĸÐ½Ðµ":10012,"ĠÐ¶ÑĭÐ»Ð´Ñĭ":10013,"ĠÑĤÐ°ÑĢÐ°Ð»":10014,"ĠÑĢÐµÐ´Ð°ÐºÑĤÐ¾ÑĢÑĭ":10015,"ĠÐ½Ð¾ÑĢÐ¼Ð°ÑĤÐ¸Ð²":10016,"Ð°Ð½ÑĤÑĤÐ°ÑĢ":10017,"ĠÐĳÐµÐ»Ð°ÑĢÑĥÑģÑĮ":10018,"ĠÓ©Ð·Ð±ÐµÐº":10019,"ĠÐ¼Ð°ÑĤÐµÑĢ":10020,"ĠÐ¶Ð°ÑĤÐ°ÒĽ":10021,"azaq":10022,"Ð´Ð°Ð½Ð°":10023,"Ð¬":10024,"ĠÑģÐ°Ð»Ð°Ð´Ð°ÒĵÑĭ":10025,"ĠÑĤÑĥÑĭÐ¿":10026,"ĠÐĸÐŀÐĽ":10027,"ĠÐ°ÒĽÐ¿Ð°ÑĢÐ°ÑĤÑĤÑĭÒ£":10028,"ĠÑĤÐµÐ¼ÑĸÑĢÐ¶Ð¾Ð»":10029,"ÑĤÐµÑĤÑĸÐ½":10030,"ÒĽÒ±Ð»ÑĭÒĽ":10031,"ĠÒĽÐ°Ð»Ð°Ð»Ð°ÑĢÐ´ÑĭÒ£":10032,"ĠÐ°ÒĽÐ¸ÒĽÐ°ÑĤ":10033,"ĠÐ¢Ð£Ðł":10034,"ĠÐ±ÑĸÑĢÑĸÐ³ÑĸÐ¿":10035,".:":10036,"ÑĤÐ°ÑĢÐ¼Ð°ÒĵÑĭÐ½ÑĭÒ£":10037,"ĠÐ´ÐµÒ£Ð³ÐµÐ¹Ð³Ðµ":10038,"ĠÐ»Ð¸":10039,"ĠÒĽÒ±Ð¹ÑĭÐ¿":10040,"ĠÐ¶Ò¯Ð·Ñĸ":10041,"ĠÒ±ÑĤÑĭÐ¼Ð´Ñĭ":10042,"ÐľÐĸ":10043,"ĠÐ¼Ð°Ð¼Ð°Ð½Ð´Ð°ÑĢÐ´ÑĭÒ£":10044,"ĠÐºÓ©ÑĪÑĸÑĢÐ¼ÐµÑģÑĸ":10045,"ÑĥÐ½Ð¸ÑĨÐ¸Ð¿Ð°Ð»":10046,"ÑĤÐ½":10047,"ĠÓ©ÑĢÐ½ÐµÐº":10048,"ĠÑįÐºÑģÐ¿ÐµÐ´Ð¸ÑĨÐ¸Ñı":10049,"ĠÐ¼Ò±ÒĵÐ°Ð»ÑĸÐ¼Ð´ÐµÑĢÐ´ÑĸÒ£":10050,"ĠÐĸÐĨÓ¨":10051,"ĠÐ¶ÐµÑĤÑĸÑģÑĤÑĸÐºÑĤÐµÑĢÑĸ":10052,"ĠÐºÒ¯Ð´ÑĸÐºÑĤÑĸ":10053,"ĠÐŁÐ¾":10054,"ĠÐ¾Ð±ÑĢÐ°Ð·":10055,"ĠÑĤÐ°ÒĵÑĭÐ»ÑĭÐ¼":10056,"ĠKazakh":10057,"ĠÐ¼Ð°Ð¼ÑĭÑĢÐ´Ð°":10058,"Ð»ÐµÐºÑĤÑĸ":10059,"ĠÑģÑĭÐ½ÑĭÐ¿ÒĽÐ°":10060,"ĠÐ¡Ð¾ÒĵÐ°Ð½":10061,"int":10062,"ÑĭÐ¼ÑĭÐ·Ð´Ð°Ð½":10063,"ĠÐ¼Ð°ÑĤÐµÐ¼Ð°ÑĤÐ¸ÐºÐ°Ð»ÑĭÒĽ":10064,"ĠÐ¾ÑĢÐ³Ð°Ð½ÒĵÐ°":10065,"ĠÐ½ÓĻÐ·ÑĸÐº":10066,"ĠÑģÑĤÑĥÐ´ÐµÐ½ÑĤÑĸ":10067,"ÑıÐ±ÑĢ":10068,"ĠÐ°ÒĽÑģÐ°ÒĽ":10069,"Ð±Ð°ÑĤÑĭ":10070,"ĠÑĤÐµÐ¼Ð¿ÐµÑĢÐ°ÑĤÑĥÑĢÐ°ÑģÑĭ":10071,"ÑĢÐ°Ð½Ñģ":10072,"ĠÐĸÐ¾ÒĽ":10073,"ĠÐ¼Ð°ÑĥÑģÑĭÐ¼Ð´Ð°ÒĵÑĭ":10074,"Ġw":10075,"ĠÐ¸Ð¼Ð¿Ð»Ð°Ð½":10076,"ĠÒĽÐ°Ð±Ð°ÑĤÑĤÑĭ":10077,"ĠÐĲÐļ":10078,"ĠÐľÐ°ÑĥÑģÑĭÐ¼":10079,"ĠÐ°Ð»ÑĥÐ´Ð°":10080,"ÐµÑĥÐ½":10081,"ĠÑĤÓĻÑĢÐ±Ð¸ÐµÑĪ":10082,"ĠÑĢÓ©Ð»ÑĸÐ½":10083,"ĠÐ±ÐµÐºÑĸÑĤÐºÐµÐ½":10084,"ĠÐ¼Ð°ÒĽÐ°Ð»Ð°Ð½Ñĭ":10085,"ĠÐ¸Ð½Ð²ÐµÑģÑĤÐ¸ÑĨÐ¸ÑıÐ»Ð°ÑĢ":10086,"ĠÐľÐµ":10087,"ĠÐ±Ð°Ð¹ÒĽÐ°ÑĥÒĵÐ°":10088,"ÑĤÐ°Ð½Ð´ÑĭÑĢÑĭÐ»ÒĵÐ°Ð½":10089,"ĠÐ¸Ð´ÐµÑıÑģÑĭ":10090,"ĠÐ¨ÐµÑĤÐµÐ»":10091,"Ð¸Ð¼Ð°":10092,"ĠÑģÑĭÐ¿":10093,"ĠÐĳÐ°Ð»ÒĽÐ°ÑĪ":10094,"Ð¢Ð¾":10095,"ĠÐĲÐ»ÑĤÑĭÐ½ÑģÐ°ÑĢÐ¸Ð½":10096,"Ð¢Ðķ":10097,"ĠÐ¾Ð¹Ð½Ð°Ð¿":10098,"Ð£Ð¸ÐºÐ¸Ð¿ÐµÐ´Ð¸Ñı":10099,"ĠÓĻÐ´ÑĸÐ»ÐµÑĤ":10100,"ĠÐŀÑģÑĭÐ½ÑĭÒ£":10101,"ĠÐ±Ð¾Ð·":10102,"ĠÐ¶Ð¾Ð»Ð´Ñĭ":10103,"Ð¸ÑıÐ´Ð°Ð½":10104,"ÓĻÑĢÐ±Ð¸ÐµÐ»ÑĸÐº":10105,"ĠÒĽÐ°ÑĥÐ»ÑĭÑģÑĭ":10106,"ĠÐĲÐ´Ð°Ð¼Ð½ÑĭÒ£":10107,"ĠÑĤÓĻÑĥÐµÐºÐµÐ»Ð´ÐµÑĢÑĸÐ½ÑĸÒ£":10108,"ĠÐĳÑĢ":10109,"ĠÐ±Ò¯Ð»Ð´ÑĸÑĢ":10110,"ĠÑĪÐº":10111,"ĠÐ¼ÓĻÐ´ÐµÐ½Ð¸ÐµÑĤÑĤÑĸ":10112,"ĠÐ¾ÑĤÑĭÑĢÐ¼ÑĭÐ½":10113,"ĠÐºÐµÒ£ÐµÐ¹ÑĤÑĸÐ»Ð³ÐµÐ½":10114,"ĠÑģÐµÑĢÑĸ":10115,"ÒļÐ¾Ð½":10116,"ĠÑģÒ¯ÑĤÑĸ":10117,"ĠÓĻÐºÐµÑģÑĸÐ½ÑĸÒ£":10118,"Ð°Ð»Ð°Ð½ÒĵÐ°Ð½":10119,"ĠÐ¶Ð°Ð±ÑĭÒĽ":10120,"Ð³ÑĸÐ½Ñĸ":10121,"ĠÐ±Ò±Ð¹ÑĭÐ¼Ð´Ð°ÑĢ":10122,"ÐĨÐļ":10123,"ĠÐĵÐ°Ð·":10124,"ĠÐºÑĥÓĻÐ»ÑĸÐ³Ñĸ":10125,"ĠÒĽÐ°ÒĽÐ¿":10126,"ĠÒĽÐ¾ÑģÑĭÐ»Ð°Ð´Ñĭ":10127,"Ò±ÑĢÑĭÒĽ":10128,"Ð¸ÐºÐ°Ñı":10129,"ĠÑģÓĻÑĤÑĸ":10130,"ĠÐ°ÒĽÐ¿Ð°ÑĢÐ°ÑĤÑĤÐ°ÑĢÐ´Ñĭ":10131,"ĠÐ±ÐµÑĤÑĸ":10132,"ĠÐµÐ´ÓĻÑĥÑĸÑĢ":10133,"ĠÐµÑģÐµÐ¿ÑĤÐµÐ»":10134,"ob":10135,"ÑĤÐµÑģÐµ":10136,"ÐµÐ»ÐµÐ´Ñĸ":10137,"ÑĤÑĢÐ¾":10138,"ĠÒ±ÑĢÐ¿Ð°ÒĽÑĤÑĭÒ£":10139,"ĠÐ°Ð¹ÑĭÑĢÐ¼Ð°ÑĪÑĭÐ»ÑĭÒĵÑĭ":10140,"ĠPlus":10141,"ĠÐĸÑĥÑĢÐ½Ð°Ð»":10142,"ÑĤÑģÐµ":10143,"ÑĤÐ¾Ð¼Ð°ÑĤÐ¾Ð»Ð¾Ð³Ð¸Ñı":10144,"ÑĤÐ°Ð½ÑĥÑĪÑĭ":10145,"ĠÐ¼Ò¯ÑĪÐµÐ»ÐµÑĢ":10146,"Ġ99":10147,"ĠÐ¶Ð°Ð½ÑĭÐ½Ð°Ð½":10148,"ĠÐ¾ÑĤÑĭÑĢÒĵÐ°Ð½ÑĭÐ½":10149,"ĠÐĸÐµÐ·ÒĽÐ°Ð·ÒĵÐ°Ð½":10150,"ĠÑĤÒ¯ÑģÑĸÐ½ÑĸÐºÑĤÐµÐ¼Ðµ":10151,"ĠÐķÐ»Ð±Ð°Ñģ":10152,"ĠÑĤÐ°ÐºÐ¿Ð°Ðº":10153,"ĠÐ´ÓĻÑĢÐµÐ¶ÐµÑģÑĸÐ½":10154,"ĠÑĤÑĸÐ·Ð±ÐµÑģÑĸ":10155,"ĠÒĽÐ¾ÑģÑĭÐ»ÑĭÐ¿":10156,"IS":10157,"ĠÐ¸Ð½ÑĤÐµÑĢÐ°ÐºÑĤÐ¸Ð²ÑĤÑĸ":10158,"ĠÓ©Ð·ÑĸÒ£ÑĸÐ·":10159,"ÓĺÑģ":10160,"ÑĸÐ½Ð´ÐµÐ¹":10161,"ĠÐ¶Ð°ÑģÐ°Ð»ÑĥÑĭ":10162,"ĠÒĽÐ¾ÒĵÐ°Ð¼Ð´Ð°ÑģÑĤÑĭÒĽ":10163,"ĠÑģÑĬÐµÐ·":10164,"ĠÐ´ÐµÐ¿ÑĥÑĤÐ°ÑĤÑĤÐ°ÑĢÑĭ":10165,"ĠÒĽÐ¾ÑĢÐ¶ÑĭÐ½":10166,"ĠÑĢÐµÑģÑĥÑĢÑģÑĤÐ°ÑĢÑĭ":10167,"Ð¾Ð³ÑĢÐ°ÑĦÐ¸ÑıÑģÑĭ":10168,"Ð±ÑĭÑĢÐ°Ð¹":10169,"ĠÐ¼ÑĭÒ£Ð´Ð°ÒĵÐ°Ð½":10170,"ĠÐĲÐ¹ÑĤÐ°":10171,"ĠÑįÐºÑĢÐ°Ð½":10172,"ĠÐ¶Ð°Ð»ÒĵÐ°ÑģÑĭ":10173,"ĠÑģÐ¿Ð¾ÑĢÑĤÑĪÑĭÐ»Ð°ÑĢ":10174,"ĠÒ±Ð¶ÑĭÐ¼Ð´ÑĭÒĽ":10175,"ÑĥÑĢÐµÐ½":10176,"ĠÐºÐµÐ»Ð¼ÐµÐ¹ÑĤÑĸÐ½":10177,"ĠÒĽÑĭÑĢÑĭÒĽ":10178,"ĠÐľÐ°ÒĵÐ°Ð½":10179,"ÐµÒ£Ð±ÐµÐº":10180,"ĠÐ±ÐµÐ»Ð³iÐ»ÐµÐ½Ð³ÐµÐ½":10181,"Ġ85":10182,"ÑĤÐµÑĢÐ°Ð¿":10183,"ment":10184,"ĠÐ¶Ð°Ð¼Ð±Ð°Ñģ":10185,"ÑĤÑĸÐºÐºÐµ":10186,"ĠÐ·Ð¾ÑĢÐ»ÑĭÒĽ":10187,"Ð±ÐµÑĢÐºÑĥÐ»":10188,"ĠÐ¿Ð¾Ð»Ð¸Ð³":10189,"ĠÐ´ÐµÐ¿Ð°ÑĢÑĤÐ°Ð¼ÐµÐ½ÑĤÑĸÐ½Ð´Ðµ":10190,"ÐľÒ±Ð½Ð´Ð°Ð¹":10191,"ĠÑĪÐ°Ò£ÑĭÑĢÐ°ÒĽ":10192,"ĠÐ±ÑĸÐ»ÐµÐ¼ÑĸÐ½":10193,"ĠÐ¼Ð¾Ð¹ÑĭÐ½Ð´Ð°":10194,"ĠÑĢÐµÐ¹ÑĤÐ¸Ð½Ð³":10195,"ĠÐ¶Ò¯ÑĢÐ³ÑĸÐ·Ð´Ñĸ":10196,"ĠÐļÐ°Ð½":10197,"ĠÐ¨Ð²":10198,"ĠÐ¼Ò±ÒĵÐ°Ð»ÑĸÐ¼Ð´ÐµÑĢÐ³Ðµ":10199,"ĠÑģÑĭÐ¹Ð»ÑĭÒĽÑĤÐ°ÑĢ":10200,"ĠÐ¶Ð¾ÑģÐ¿Ð°ÑĢÐ»Ð°Ð¿":10201,"ÑĭÐ»ÑģÐ°":10202,"ÑĤÐ¸Ð¿":10203,"ĠÒĽÐ°ÑĢÐ°Ð¹ÑĤÑĭÐ½":10204,"ĠÐµÑĢÐµÑģÐµÐºÑĤÐµÑĢ":10205,"ÒļÒ±Ð»":10206,"Ġu":10207,"Ð¸ÐºÐ°ÑĨÐ¸ÑıÐ»ÑĭÒĽ":10208,"ĠÒĽÐ¾ÑĢÑĤÑĭÐ½Ð´Ñĭ":10209,"ÑĪÐµÑĪ":10210,"ĠÒĽÐ°Ð¹ÑĪÑĭ":10211,"ĠÑĤÐµÐ»ÐµÐ´Ð¸":10212,"ÐµÐ½Ð¸Ð½":10213,"ĠÐºÐ¾Ð½Ð²":10214,"ĠÑĤÒ¯ÑģÑĸÐ½ÑĸÐ³Ñĸ":10215,"Ð¸Ð¸":10216,"ĠÐ¾ÑĢÑĭÐ½Ð´Ð°Ð¿":10217,"ĠÐĳÐĲÐ¡":10218,"ĠÐºÓ©ÑĪÑĸ":10219,"ÑģÐ¾ÑĢ":10220,"ĠÐķÑĥÑĢÐ°Ð·Ð¸ÑıÐ»ÑĭÒĽ":10221,"ĠÐ·Ð¸ÑıÑĤ":10222,"ÑĭÑĢÑĭÐ¿":10223,"Ð´Ð°Ð¼ÑĭÐ·":10224,"ĠÒĽÐ°ÑĢÑģÑĭÐ»ÑĭÒĽ":10225,"ĠÑĤÐ°Ð±Ð¸ÒĵÐ°":10226,"Ð¡ÓĻÐ»ÐµÐ¼":10227,"ĠÐ±ÐµÑĢÐ¼ÐµÑĥ":10228,"ĠÑĥÓĻÐ´Ðµ":10229,"ĠÑħÐ°Ð´Ð¸Ñģ":10230,"ĠÓĺÐ´ÐµÐ¿":10231,"ĠÐ¼ÐµÐºÑĤÐµÐ±ÑĸÐ½Ð´Ðµ":10232,"eb":10233,"ĠÑĸÑģÑĸÐ½ÑĸÒ£":10234,"Ð½ÐµÑĥ":10235,"ĠÐ·ÐµÑĢÑĤÑħÐ°Ð½Ð°Ð»ÑĭÒĽ":10236,"Ð±Ð¾Ð¹":10237,"ÐºÐµÐ½Ðµ":10238,"ĠÑĤÐ°Ð¿ÑģÑĭÑĢÐ¼Ð°Ð½Ñĭ":10239,"ÑĨÐ¸Ð½":10240,"ĠÐºÓ©ÐºÐ¿Ð°ÑĢ":10241,"ÒļÐ¾ÑĪ":10242,"ĠÑĢÓĻÑģÑĸÐ¼Ñĸ":10243,"ÓĻÐºÑĸÐ¼ÑĪÑĸÐ»ÑĸÐ³ÑĸÐ½ÑĸÒ£":10244,"ĠÐłÑĭÑģ":10245,"ĠÐºÑĸÑĢÐ´Ñĸ":10246,"ĠÒĽÑĥÐ°ÑĤÑĭ":10247,"ĠÐ¿ÑĢÐ¾ÐºÑĥÑĢÐ°ÑĤÑĥÑĢÐ°":10248,"ÐļÑĸÐ¼":10249,"ĠÒĽÐ°ÑĪÑĭÐ¿":10250,"ĠÐ°ÑĥÐ¼Ð°ÒĵÑĭÐ½Ð´Ð°ÒĵÑĭ":10251,"ĠÐ¸Ð½Ð´ÐµÐº":10252,"ÑĤÐ°ÑĢÐ°Ñĥ":10253,"ÐĸÐ°ÒĽÑģÑĭ":10254,"ÐľÓĻÐ´ÐµÐ½Ð¸ÐµÑĤ":10255,"Ð»ÐµÐ½Ð´ÑĸÑĢÑĥ":10256,"ĠÐºÒ¯ÑĢÑĤ":10257,"ÑĤÐ°Ð»ÑĥÑĭ":10258,"Ð°Ð´ÑĭÒĽ":10259,"Ð¸ÐµÐ²Ð°":10260,"ĠÐ´Ð»Ñı":10261,"Ð°Ð¼ÑĭÐ·Ð´Ð°":10262,"ÑĪÑĸÑģÑĸÐ½ÑĸÒ£":10263,"Ó©Ð½Ð´ÑĸÑĢ":10264,"ĠÒĽÐ¾Ð»ÑĭÐ½":10265,"ĠÐ´Ð°Ð¼ÑĭÑĤ":10266,"ĠÐ½ÐµÐº":10267,"ĠÑģÓ©Ð¹Ð»ÐµÐ¿":10268,"ĠÑĤÑĸÑĢÐº":10269,"Ð¢ÑĥÑĢ":10270,"ĠÐ¡Ð°ÑıÑģÐ°ÑĤ":10271,"ĠÐ¾ÑĢÐ³Ð°Ð½Ð´Ð°ÑĢÑĭÐ½Ð°":10272,"ĠÓ©ÑĪÑĸÑĢ":10273,"ĠÐ°Ð»ÑĥÑĪÑĭÐ»Ð°ÑĢÐ´ÑĭÒ£":10274,"ĠÑģÐ°Ð½Ð°Ð¹Ð´Ñĭ":10275,"ĠÓĻÐ½Ñĸ":10276,"ÐĲÐłÐ«":10277,"ĠÐµÐ´ÑĸÒ£":10278,"ĠÐĸÐ¾Ð±":10279,"ĠÑĤÐµÐ¼Ñĥ":10280,"âĢĭ":10281,"ĠÑģÐ°Ð±Ð°ÒĵÑĭ":10282,"ĠSp":10283,"ĠÐ½Ð°ÒĽ":10284,"Ð°Ð»Ð°ÑĢÑĭÐ¼ÐµÐ½":10285,"ĠÑĤÒ¯ÑĢÐ»ÐµÑĢÑĸÐ½ÑĸÒ£":10286,"Ð´Ð°ÑĢÑĭÐ½Ð´Ð°ÒĵÑĭ":10287,"ĠÒĽÐ°ÑĤÑĭÑģÑĥÑĭ":10288,"ĠÐĸÒ®":10289,"ÐķÑĥÑĢ":10290,"ĠÑįÐ²":10291,"Ð¼ÑĭÑģÐ°Ð»Ñĭ":10292,"ĠÓ©ÑĤÐºÑĸÐ·ÑĸÐ»ÑĸÐ¿":10293,"ĠÐ¶ÓĻÑĢÐ´ÐµÐ¼Ð°ÒĽÑĭ":10294,"ĠÒĽÐ°Ò£ÑĤÐ°ÑĢÐ´Ð°":10295,"ĠÒĽÒ±Ð¶Ð°ÑĤÑĤÐ°ÑĢÑĭÐ½":10296,"ĠÐ°Ð²ÑĤÐ¾Ð±Ñĥ":10297,"ĠÐ°Ð»Ð°ÑģÑĭÐ·Ð´Ð°ÑĢ":10298,"ĠÐ±Ð°ÑĢÐ°ÑĤÑĭÐ½":10299,"ĠÓ©ÑĤÐµÐ¼":10300,"ĠÐķÐ¼":10301,"ĠÒ±ÑĪÐ°ÒĽ":10302,"ĠÐ±Ð¾Ð»ÒĵÐ°Ð½ÑĭÐ¼ÐµÐ½":10303,"ĠÐ¿Ð°Ð¹ÑĭÐ¼":10304,"ÐĸÑĭÐ»ÑĭÐ¾Ð¹":10305,"ĠÐ¶Ò±ÒĽÐ¿Ð°Ð»Ñĭ":10306,"âĢŃ":10307,"ĠÐºÓĻÑģÑĸÐ¿Ð¾ÑĢÑĭÐ½Ð´Ð°ÑĢÐ´ÑĭÒ£":10308,"ĠÐ¼Ò¯Ð´Ð´ÐµÐ»ÐµÑĢÑĸÐ½":10309,"ĠÐĸÐ¸":10310,"ÒĽÑĭÐ½ÑĭÒ£":10311,"ĠÒ¯Ð¼ÑĸÑĤÐºÐµÑĢ":10312,"ĠÑĨÐ¸ÐºÐ»":10313,"ĠÓĺÐ´ÐµÐ±Ð¸ÐµÑĤ":10314,"ÑĥÐ¿":10315,"ĠÐ°ÑĪÑĭÐ»ÑĭÐ¿":10316,"ĠÒ±ÒĵÑĭÐ¼Ñĭ":10317,"ĠÑģÐ¿Ð¾ÑĢÑĤÑĪÑĭ":10318,"ĠÐ¼ÐµÐ½ÐµÐ´Ð¶Ð¼ÐµÐ½ÑĤ":10319,"ĠÐĸÐµÑĤÑĸÑģÑĥ":10320,"ĠÒĽÐ¾Ð¹Ð½Ð°ÑĥÑĭÐ½":10321,"ĠÐĴÐµÐ½":10322,"ĠÐ½Ð°ÑĢÑĭÒĵÑĭÐ½":10323,"ĠÐ¶Ð°Ò£Ð±ÑĭÑĢ":10324,"ĠÐ¶ÓĻÐ½":10325,"ĠÐ±Ð°ÑģÑĪÑĭÐ»ÑĭÒĵÑĭ":10326,"Ð¡Ò°":10327,"ĠÐłÑĥÑģ":10328,"ĠÑĤÐ°Ð½ÑĭÑĤÑĭÐ¿":10329,"ĠÐ°ÑĥÑĭÐ»ÑĪÐ°ÑĢÑĥÐ°ÑĪÑĭÐ»ÑĭÒĽ":10330,"ĠÒĽÐ¾Ð¹Ð¼":10331,"ĠÐ°ÑĢÐ´Ð°ÒĽÑĤÑĭ":10332,"ĠÒļÐ°Ð·Ð°Ð»Ñĭ":10333,"ĠÐļÐµÑģÑĤ":10334,"ĠÑģÓ©Ð·Ð´ÐµÑĢÐ´ÑĸÒ£":10335,"Â»;":10336,"Ó©Ð»Ð´ÑĸÑĢ":10337,"ĠÐºÐ¾Ð´ÐµÐºÑģÑĸÐ½ÑĸÒ£":10338,"ĠÐ±ÑĸÑĤÑĸÑĢÑĥ":10339,"ĠÒ±ÑģÑĭÐ½ÑĭÐ»Ð´Ñĭ":10340,"ĠÓ¨Ð½":10341,"ĠÒļÑĥÐ°Ð½ÑĭÑĪ":10342,"Ð¡Ðķ":10343,"ĠÑģÒ±ÑĢÐ°Ð¹Ð´Ñĭ":10344,"ĠÐ±ÑĸÐ»Ð´ÑĸÑĢÐµÑĤÑĸÐ½":10345,"Ð³iÐ»iÐºÑĤi":10346,"ĠÐ±Ð°ÒĵÐ´Ð°ÑĢÐ»Ð°Ð¼Ð°Ð½ÑĭÒ£":10347,"ĠÑĪÓ©":10348,"ĠÑģÒ±ÑĢÐ°ÒĵÐ°Ð½":10349,"ĠÐĲÑĢÐ¼Ð°Ð½":10350,"Ð´ÑĸÐ±ÐµÐº":10351,"ĠÒĵÐ¸Ð¼Ð°ÑĢÐ°ÑĤÑĤÐ°ÑĢ":10352,"ĠÑĤÐ°ÒĽÐ¿Ð°ÒĽÑĤÐ°ÑĢ":10353,"ĠÓ©Ð½ÐµÑĢÐºÓĻÑģÑĸÐ±Ñĸ":10354,"ÑĢÐ°Ð¸":10355,"ÑĤÐµÑĥÐ³Ðµ":10356,"ĠÐ°Ð»Ð´ÑĭÒĽ":10357,"ĠÐºÒ¯Ð¹Ñĸ":10358,"ĠÐľÐķÐľÐĽÐķÐļÐķÐ¢Ð¢ÐĨÐļ":10359,"ĠÐ½ÐµÐ»ÑĸÐºÑĤÐµÐ½":10360,"ĠÐºÐ°Ð½Ð´Ð¸Ð´Ð°ÑĤÑĭ":10361,"Ð±ÐµÑĢÐºÑĥÐ»ÐµÐ·":10362,"ÐľÐµÑĢ":10363,"ĠÐĲÐ²ÑĤÐ¾ÑĢÐ»ÑĭÒĽ":10364,"ĠÐ°Ð¿ÑĤÐ°Ð´Ð°":10365,"ĠÐ´ÓĻÑĢÑĸÑģ":10366,"ĠÐĳÐ¾Ñģ":10367,"ÐºÑĸÐ»ÐµÑĢ":10368,"ĠÒļÐ°Ð¼":10369,"ĠÐ¿ÐµÑĢÑģÐ¿ÐµÐºÑĤÐ¸Ð²":10370,"ĠÑĪÑĭÐ½Ð´ÑĭÒĽ":10371,"ĠÒ¯Ð¹Ð´Ñĸ":10372,"ĠÐĶÑĥÐ»Ð°ÑĤ":10373,"ĠÐĲÐ¢":10374,"ĠÐ¾Ð´Ð°ÒĵÑĭ":10375,"ĠÑĪÐ¾ÑĪ":10376,"ĠÐ°ÐºÑĨÐ¸ÑıÑģÑĭ":10377,"Ð¿Ð°Ñĥ":10378,"ge":10379,"ĠÐ°ÑĥÑĢÑĥÐ»Ð°ÑĢÐ´ÑĭÒ£":10380,"ÐĶÐĨÒ¢":10381,"ĠÑĦÑĥÐ½ÐºÑĨÐ¸ÑıÐ»Ð°ÑĢÐ´Ñĭ":10382,"Ġ48":10383,"ĠÑĤÐ¾Ð±ÑĭÐ½Ð°":10384,"ÐµÑĤÐ°":10385,"ÑĢÐ¾ÑĢ":10386,"ĠÑĤÐ°Ð»Ð°Ð½ÑĤÑĤÑĭ":10387,"ĠÑģÑĸÐ»ÐºÑĸÐ½":10388,"ÑĦÐ°":10389,"ĠÑħÐ°Ð»ÑĭÒĽÑĤÐ°ÑĢÑĭÐ½ÑĭÒ£":10390,"ĠÐ¨ÑĭÒ£ÒĵÑĭÑģ":10391,"ĠÒĽÐ°Ð»Ð°ÑĤÑĭÐ½":10392,"ĠÒĽÐ°ÑĥÐ¿Ñĸ":10393,"ĠÐµÑĪÐºÑĸÐ¼Ð³Ðµ":10394,"ĠÑįÐºÐ¾Ð»Ð¾Ð³Ð¸Ñı":10395,"ÑĤÐµÐ¼ÐµÐ»ÐµÑĢ":10396,"Ð¢Ð¾Ð»":10397,"ÐĲÐ»ÒĵÑĭÑģ":10398,"stagram":10399,"ĠÐĺÐ·":10400,"Ð¶Ó©Ð½Ñĸ":10401,"ĠÐ¸Ð½ÑĤÐµÑĢÐ½":10402,"ĠÐºÐ°ÑĢÑĤÐ¾Ñĩ":10403,"ÐĶÐķÐĳÐĺ":10404,"Ð¾Ð½Ð¾Ð¼":10405,"ĠÐļÒ¯ÑĢ":10406,"ÒļÐļÐŀ":10407,"Ġ%-":10408,"ĠÐºÐ¾Ð¼Ð¼ÑĥÐ½Ð°":10409,"ĠÐºÓ©ÑĢÐ´ÑĸÐ¼":10410,"Ð¡Ðŀ":10411,"ĠÑĤÐ°Ð¼Ð°ÒĽÑĤÐ°Ð½":10412,"ĠÑģÑĥÐ±ÑĬÐµÐºÑĤÑĸÐ»ÐµÑĢÑĸÐ½ÑĸÒ£":10413,"ĠÒĽÑĭÐ»ÑĭÐ¿":10414,"ĠÑĤÓĻÐ¶ÑĸÑĢÐ¸Ð±ÐµÑģÑĸÐ½":10415,"ĠÐ¶ÑĭÐ»Ð¼ÐµÐ½":10416,"ÑĤÐ°Òĵ":10417,"ĠÑĤÐ°ÑĢÑĤÐ°Ð´Ñĭ":10418,"ĠÐĽÐ°ÑĤÑĭÐ½":10419,"iÐ»ÐµÑĤiÐ½":10420,"ĠÑĤÐ°Ð·Ð°Ð»Ð°Ñĥ":10421,"ÐľÐ°ÒĽÐ°ÑĤ":10422,"ÐľÐ°ÑĤÐµÑĢÐ¸Ð°Ð»":10423,"ĠÐ¶ÑĭÐ»ÑĭÐ½Ð´Ð°":10424,"Ð°Ò»Ð°ÑĢ":10425,"ĠÓ©Ð·Ð³":10426,"ĠÐ¶Ò±Ð¼ÑĭÑģÑĪÑĭ":10427,"ĠÐ°ÑĥÑĢÑĥÑħÐ°Ð½Ð°ÒĵÐ°":10428,"ĠÑĤÑĥÑĭÐ½Ð´Ð°Ð¹Ð´Ñĭ":10429,"ĠÒļÒ°":10430,"ÒĵÒ±Ð»":10431,"ĠÐ·ÐµÑĢÑĤÑĤÐµÐ»":10432,"ĠÑįÐ½ÐµÑĢÐ³ÐµÑĤÐ¸ÐºÐ°":10433,"ĠÐ¾ÑĤÐ±Ð°ÑģÑĭÐ½Ð°":10434,"ÑĥÑĢÐµÑĤÑĤÐµÑĢ":10435,"ĠÐ¼Ò¯Ð¼ÐºÑĸÐ½Ð´ÑĸÐºÑĤÐµÑĢ":10436,"Ð«Ò°":10437,"ĠÐ¼ÓĻÒ£Ð³ÑĸÐ»ÑĸÐº":10438,"ĠÐ°Ð´Ð²Ð¾Ðº":10439,"ĠÐĲÐ»Ð»Ð°Ò»ÑĤÑĭÒ£":10440,"ĠÑģÐ°Ð»ÑĭÐ½Ð°ÑĤÑĭÐ½":10441,"ĠÒĽÐ°Ð»ÑģÐ°":10442,"ÐµÐ±Ð°Ð¿":10443,"ĠÑĤÓĻÑģÑĸÐ»ÑĸÐ¼ÐµÐ½":10444,"ĠÐ±Ð»Ð¾Ðº":10445,"Ò¯Ð¹ÑģÐµÐ½Ð±Ñĸ":10446,"ĠÐ¶Ò¯Ð¹ÐµÐ»ÐµÑĢÑĸ":10447,"ĠÐļÐ¾Ð¼Ð¸ÑĤ":10448,"ÑĭÐ»ÑĭÒĵÑĭ":10449,"ĠÐ°ÑģÑĭÑĢÑĥÐ´ÑĭÒ£":10450,"Ð½Ð´Ð°Ð¹":10451,"ÑĩÐµÐ½ÐºÐ¾":10452,"ĠâĨĴ":10453,"ĠÐ¡ÑĤÐ°ÑĤÐ¸ÑģÑĤ":10454,"ĠÐ¿ÑĸÐºÑĸÑĢÑĸÐ½ÑĪÐµ":10455,"ÐºÐµÑĪ":10456,"ĠÑģÐ°Ð»Ð°Ð»ÑĭÒĽ":10457,"ĠÐ±Ð°ÑģÒĽÐ°Ð½":10458,"Ð¶ÑĭÐ»Ñĭ":10459,"ĠÒļÐŀ":10460,"ĠÐºÐµÐ½ÑĤÑĸ":10461,"ĠÐµÑĤÐ¿ÐµÐ¹ÑĤÑĸÐ½":10462,"Ð¸ÑĤÐ¼":10463,"ÐĴÐĺ":10464,"iÐ¼iÐ·":10465,"ĠÑģÑĭÐ¹Ð»ÑĭÒĵÑĭÐ½ÑĭÒ£":10466,"ĠÐ°Ð»Ð¼Ð°Ð¹Ð¼ÑĭÐ½":10467,"Ġ09":10468,"ĠÒĽÐ°Ð»ÑĭÐ¿ÑĤÐ°ÑģÑĥÑĭÐ½Ð°":10469,"ĠÐ±Ò¯Ð³ÑĸÐ½Ð³Ðµ":10470,"ĠÑģÑĤÑĢÐ°ÑĤÐµÐ³Ð¸ÑıÑģÑĭÐ½":10471,"Ð«Ð¡Ð«":10472,"ĠÐºÐµÐ»ÑĸÐ½ÑĪÐµÐº":10473,"ĠÐ±ÑİÐ´Ð¶ÐµÑĤÑĤÑĸÒ£":10474,"ĠÐ°Ð´Ð°Ð¼Ð´Ð°ÑĢÐ¼ÐµÐ½":10475,"ĠÐ·Ð°Ò£Ð¼ÐµÐ½":10476,"Ð±Ð°ÑĤÑĤÑĭ":10477,"eg":10478,"ĠÓ©Ð½ÐµÑĢÑĸÐ½":10479,"ĠÑĤÐ°Ò£Ð´Ð°ÒĵÐ°Ð½":10480,"ĠÐ¸Ð½ÑģÐ¿ÐµÐºÑĨÐ¸ÑıÑģÑĭ":10481,"ĠÒĽÐ¾Ð»ÑĭÐ¼ÐµÐ½":10482,"ÑģÐ°ÑĥÑĭÒĽ":10483,"ÐĿÐķÐ¡":10484,"ĠÐĿÐ¸Ðº":10485,"ĠÒ±Ð¶ÑĭÐ¼Ñĭ":10486,"ĠÒĽÐ¾ÑĢÑĭÐ½Ð°":10487,"ĠÐ¶Ð°ÒĵÐ´Ð°Ð¹Ð»Ð°ÑĢÑĭ":10488,"ĠÐ¶Ð°ÒĽÑģÑĭÐ»":10489,"ĠÐ¼ÐµÐ´Ð°Ð»":10490,"ÐµÑĤÑĸÐ¿":10491,"ÑĭÑĢÐ´Ð°":10492,"ĠÐ±Ð¾ÑģÑĤÐ°Ð½Ð´ÑĭÒĽ":10493,"ĠÒļÐ¾ÑģÑĭÐ¼ÑĪÐ°":10494,"ĠÐ´Ð¸ÑĢÐµÐºÑĤÐ¾ÑĢÑĭÐ½ÑĭÒ£":10495,"ĠÐ¢Ð°ÑıÑĥ":10496,"ĠÑĤÑĥÑĭÐ½Ð´Ð°":10497,"ĠÐ´ÐµÐ¹Ð¼ÑĸÐ½":10498,"ĠÐ´Ð¾ÐºÑĤÐ¾ÑĢ":10499,"Ð°Ð»ÑĭÒĵÑĭÐ½ÑĭÒ£":10500,"ÑĤÑĸÐ½ÑĸÑĪ":10501,"ĠÐ¡Ð¾Ð»Ð°ÑĢÐ´ÑĭÒ£":10502,"ÒĵÐ¸":10503,"Ġl":10504,"Ð¾Ð³Ð¾Ð»ÑĮ":10505,"ĠÐ°Ð»Ð¼Ð°ÑģÑĤÑĭÑĢ":10506,"Ð±Ð¸Ð·Ð½ÐµÑģ":10507,"Ð±Ð°Ð¹Ð´ÑĭÒ£":10508,"ĠÐ¼ÐµÐºÐµÐ¼ÐµÐ»ÐµÑĢÑĸÐ½ÑĸÒ£":10509,"ĠÐºÓ©ÑĢÑģÐµÑĤÑĥÐ´ÑĸÒ£":10510,"Ð°Ð»Ð°Ñģ":10511,"Ð½Ò±ÑĢ":10512,"ĠÐ±ÐµÐ»Ð³ÑĸÐ»ÐµÐ½ÐµÐ´Ñĸ":10513,"Ð»Ð°Ð¹ÑĤÑĭÐ½":10514,"ĠÐ¸Ð½Ð¶ÐµÐ½ÐµÑĢ":10515,"ĠÒĽÐ°Ð»Ð´ÑĭÑĢÒĵÐ°Ð½":10516,"ĠÑĤÑĥÑĭÐ½Ð´Ð°Ð¹ÑĤÑĭÐ½":10517,"ÑĤÐ±Ð°ÐµÐ²":10518,"ÑĥÑĭÐ¼ÐµÐ½":10519,"ĠÐ¾Ð»Ð°ÑĢÐ¼ÐµÐ½":10520,"ĠÐ¶Ð¾Ð»ÑĭÐ½Ð°":10521,"ÑĤÑĭÑĢÐ°Ð´Ñĭ":10522,"ĠÒĽÐ°Ð»Ð´ÑĭÐ¼":10523,"ĠÐļÐµÐ¹Ð´Ðµ":10524,"ĠÓ¨Ð·ÑĸÐ½":10525,"ĠÐºÒ¯Ð½Ð´ÐµÑĢ":10526,"ĠÑģÐ¾ÑĤÑĤÐ°Ð»ÒĵÐ°Ð½":10527,"ĠÐºÐµÒ£ÑĸÑģÑĤÑĸ":10528,"ĠÐ°ÒĵÑĭÐ½":10529,"ĠÐĸÒ°Ðľ":10530,"ĠÑĤÓ©Ð½":10531,"ĠÐĹÐ°Ò£ÑĭÐ½Ð°":10532,"ĠÐ¶Ò¯Ð¹ÐµÐ³Ðµ":10533,"ĠÑįÑģÑģÐµ":10534,"ĠÐ±Ð¸ÑĸÐºÑĤÑĸÐ³Ñĸ":10535,"ĠÐ¶Ð°Ð·ÑĭÐ»Ð°Ð´Ñĭ":10536,"Ð¼ÐµÐ»ÐµÑĢ":10537,"ĠÐ°ÑģÑĭÒĽ":10538,"Ð¢ÐµÐ¼ÑĸÑĢ":10539,"ÑĨÐµÐ¿":10540,"ĠÐ°Ð¹Ð¼Ð°ÒĽÑĤÐ°":10541,"ĠÐ°Ð¹ÑĤÒĽÐ°Ð½Ð´Ð°Ð¹":10542,"ÐµÐ¼Ð¸Ð½Ð°ÑĢ":10543,"ĠÐ±ÐµÐºÑĸÑĤÐµÐ´Ñĸ":10544,"ĠÐ°ÑĤÐ°ÑģÑĭ":10545,"ÑĤÐ°ÑģÑĭÐ¿":10546,"Ð¸Ð´Ð¶":10547,"ĠÐ¾Ð±ÑĬÐµÐºÑĤÑĸÑģÑĸ":10548,"ĠÐ±ÑİÑĢÐ¾Ñģ":10549,"ĠÐ½ÑĭÑģÐ°Ð½ÑĭÐ½Ð´Ð°":10550,"ÑĭÐ¼ÑĭÐ½":10551,"Ð¦Ð¸ÑĦÑĢ":10552,"Ð³Ð°ÑĢ":10553,"ĠÒĵÐ°ÑģÑĭÑĢÐ´Ð°ÒĵÑĭ":10554,"ĠÐ¾ÑĢÐ½Ð°ÑĤÑĭÐ»ÒĵÐ°Ð½":10555,"ÐĲÐ³ÑĢÐ¾":10556,"ĠÐ¢Ò¯ÑĢÑĸÐº":10557,"ĠÐµÑģÑĤÐµÐ»ÑĸÐº":10558,"Copyright":10559,"ĠÒĽÐ°ÑĤÑĭÐ½Ð°ÑģÑĭ":10560,"ĠÐ·Ð°ÑĥÑĭ":10561,"ĠÐ¿Ð°ÑĤÐ¾Ð»Ð¾Ð³Ð¸ÑıÐ»ÑĭÒĽ":10562,"ĠTengrinews":10563,"Ð¼ÐµÐ»ÐµÑĥ":10564,"Ð¾Ðµ":10565,"ĠÑĤÒ¯ÑģÑĸÑĢÐ³ÐµÐ½":10566,"ĠÐ¶ÑĸÐ±ÐµÑĢÑĸÐ»ÐµÐ´Ñĸ":10567,"ĠÐ¾ÑĢÑĭÐ½Ð´Ð°Ð»Ð°Ð´Ñĭ":10568,"ÐĲÐ¡Ð«ÐĿÐ«Ò¢":10569,"ĠÑĢÐµÑģÑĥÑĢÑģÑĤÐ°ÑĢÐ´Ñĭ":10570,"ĠÑģÐ°ÑĥÐ°ÑĤÑĤÑĭÐ»ÑĭÒĵÑĭÐ½":10571,"ÑĭÒ£ÑĭÐ·Ð±ÐµÐ½":10572,"ĠÐ±Ð°ÒĵÐ´Ð°ÑĢÐ»Ð°Ð¼Ð°Ð»Ð°ÑĢÐ´Ñĭ":10573,"ĠÐ±Ð°ÑģÑĪÑĭÐ»ÑĭÒĽÒĽÐ°":10574,"Ð¾ÑĢÐ²":10575,"ĠÐ½Ð°ÑĥÑĢÑĭÐ·Ð´Ð°":10576,"ÐķÑĢÐºÑĸÐ½":10577,"ĠÒĽÐ¸Ð½":10578,"ĠÓ©Ð½ÐµÐ³Ðµ":10579,"ÐĲÐ¼Ð°Ð½":10580,"Ð´ÑĸÐ¼Ð³Ñĸ":10581,"Ð¾Ð»ÑĮÐºÐ»":10582,"ĠÐ¶Ð¸Ð½Ð°ÒĽÑĤÐ°ÑĥÑĪÑĭ":10583,"ÑĢÐ¸Ð½":10584,"ĠÐ¼ÓĻÑģÐµÐ»ÐµÐ»ÐµÑĢÐ´ÑĸÒ£":10585,"ĠÐ¼Ð°ÒĽÑģÐ°ÑĤÑĭÐ½":10586,"ĠÐ¼iÐ½Ð´ÐµÑĤÑĤi":10587,"ĠÓ©ÑĤÑĸÐ»Ñĸ":10588,"ĠÒļÐ¾ÑĢÑĭÑĤÑĭÐ½Ð´Ñĭ":10589,"ĠÐ°ÑĢÑĤÑĤÑĭ":10590,"ĠÐ¡ÑĥÑĢÐµÑĤ":10591,"ĠÓ©Ð¼ÑĸÑĢÐ´ÐµÐ½":10592,"ĠÒ±ÑĪÑĭÑĢÐ°ÒĵÐ°Ð½":10593,"ĠÓ©Ð»Ð³ÐµÐ½":10594,"ĠÒĽÒ±ÑĢÑĭÐ»ÑĭÐ¼ÑĭÐ½":10595,"ĠÐ±ÐµÐ»ÑģÐµÐ½Ð´ÑĸÐ»ÑĸÐ³ÑĸÐ½":10596,"Ð¸ÑĤÐ¸ÐºÐ°Ð»ÑĭÒĽ":10597,"Ð¤Ðŀ":10598,"ÐĸÒ¯Ðº":10599,"Ð¸ÑĨÐ°":10600,"ĠÑĤÐµÒ£ÐµÑģ":10601,"ĠÐ¢Ðķ":10602,"ĠÐ·Ð°Ð»ÑĭÐ½Ð´Ð°":10603,"ĠÐ¼Ð¾Ð½Ð¸ÑĤÐ¾ÑĢÐ¸Ð½Ð³Ñĸ":10604,"ÑĪÐ°ÒĵÐ°Ð¹":10605,"ĠÐľÒ±ÒĵÐ°Ð»ÑĸÐ¼":10606,"ĠÓ©ÑĤÑĸÐ½ÑĸÑĪÑĤÐµÑĢÑĸÐ½":10607,"ĠÐ¶ÐµÐºÐµÑĪÐµÐ»ÐµÐ½":10608,"ĠÑģÐ°ÑĢÐ°Ð¹":10609,"ĠÐ°ÑıÒĵÑĭ":10610,"ÒĽÒ±Ð¶":10611,"ĠÐµÑĢÐµÐ¶ÐµÑģÑĸÐ½":10612,"ÐµÐ¾":10613,"ÑĤÑĸÐ³ÑĸÐ½Ðµ":10614,"ĠÐ½Ð°ÑĥÑĢÑĭÐ·Ð´Ð°ÒĵÑĭ":10615,"ÐĶÐķÐĿ":10616,"ĠÐ°ÑĥÐºÑĨÐ¸Ð¾Ð½":10617,"ĠÒ»":10618,"ĠÑĤÒ±Ð»ÒĵÐ°Ð½Ñĭ":10619,"ÐĨÐ·":10620,"Ð¿ÑĢÐ¾ÑĨ":10621,"ĠÐ´Ð°Ð¹ÑĭÐ½Ð´Ð°Ð»ÒĵÐ°Ð½":10622,"ÑĢÐ¸Ð³":10623,"ĠÓ©Ð·Ð³ÐµÑĢÑĥÑĸ":10624,"ĠÐ¼ÓĻÑĤÑĸÐ½Ð´Ñĸ":10625,"ĠÑĤÑĸÐ»ÐµÐ¹Ð¼ÑĸÐ·":10626,"ĠÐ¿Ð°Ðº":10627,"ĠÐ¶Ð¸Ð½Ð°ÒĵÐ°Ð½":10628,"ÑĦÐ¾ÑĢ":10629,"ĠÐĸÐ¾Ð»Ð´Ð°ÑĥÑĭÐ½Ð´Ð°":10630,"ĠÐµÐ»ÐµÑģÑĤ":10631,"Ġ56":10632,"ĠÒĽÐ°Ð¹Ñģ":10633,"ĠÑĥÑĩÐ°ÑģÐºÐµÐ»ÐµÑĢÑĸÐ½":10634,"Ð¿ÐµÑĢÐ¸Ð¼ÐµÐ½ÑĤ":10635,"ÐĸÐ¸":10636,"ĠÐºÐ¾Ð½ÑģÑĤÐ¸ÑĤÑĥÑĨÐ¸ÑıÐ»ÑĭÒĽ":10637,"Ð°Ð¼Ð½ÑĭÒ£":10638,"ĠÐ¿ÑĥÐ½ÐºÑĤ":10639,"ĠÑģÓĻÑĥÑĸÑĢÐ´Ðµ":10640,"ĠÐ°ÑĥÐ´Ð°ÑĢÒĵÐ°Ð½":10641,"ĠÑĤÐ°ÑĢÑĤÑĭÐ»ÒĵÐ°Ð½":10642,"ĠÐ·ÐµÑĢÐ´Ðµ":10643,"ĠÓĻÐ¼ÑĸÑĢ":10644,"ÑĪÑĸÐ»ÐµÑĢÐ´Ñĸ":10645,"ĠÐĲÐ¹Ð´Ð°ÑĢ":10646,"ĠÐ¶Ò¯ÑĢÐ´Ñĸ":10647,"ĠÐ°Ð»Ð°Ò£ÑĭÐ½Ð´Ð°":10648,"ĠÑĢÑĭÐ½":10649,"ĠÑĤÓ©Ò£":10650,"ĠÐ¿ÐµÑĢÑģÐ¾Ð½":10651,"ĠÐ¶Ð°Ð¹Ð»":10652,"ĠÐ¶Ð°Ð»Ð¿":10653,"ĠÐ¢ÐµÐ³ÑĸÐ½":10654,"ĠÐ¾ÒĽÑĭÑĤÑĥÑĪÑĭÑģÑĭ":10655,"ĠÐ¾Ð¹Ñĭ":10656,"ÑĨÐ¸Ð¹":10657,"ĠÑĤÑĥÑĭÐ»ÒĵÐ°Ð½":10658,"Ð¾ÒĽÑĭÑĤÑĥ":10659,"ĠÒ¯Ð¹ÑĸÐ½ÑĸÒ£":10660,"ĠÐ¼ÐµÑĤÐ°Ð»":10661,"Ð°ÒĵÑĭÐ½Ð°Ð½":10662,"ĠÑĤÐ°Ð¼ÑĭÐ·Ð´Ð°":10663,"ĠÐ¼Ð°ÒĵÑĭÐ½Ð°ÑģÑĭÐ½":10664,"ĠÑĤÐ°ÑģÑĤÐ°ÒĵÐ°Ð½":10665,"ĠÑĤÐµÐ»ÑĸÐ¼":10666,"ÑĤÑĤÐµÑĢ":10667,"Ð¢Ð°Ò£":10668,"ĠÒĽÑĭÐ¼ÑĭÐ·Ð´Ñĭ":10669,"ĠÐ¼ÐµÐ¼Ð»ÐµÐºÐµÑĤÑĸ":10670,"ĠÑģÒ¯Ñİ":10671,"ĠÐ¶Ð°ÑĤÑĤÑĭÒĽÑĤÑĭÑĢÑĥ":10672,"ĠÐ±Ð°ÑģÐ¿Ð°Ð½Ð°":10673,"ĠÑĤÐ¾Ð¿ÑĭÑĢ":10674,"Ġ;":10675,"Ð¼Ò±ÑħÐ°Ð¼ÐµÐ´":10676,"ĠÑĦÐ¸Ð»Ð¾ÑģÐ¾ÑĦÐ¸ÑıÐ»ÑĭÒĽ":10677,"ĠÐ¼ÓĻÑģÐ»Ð¸ÑħÐ°ÑĤÑĤÑĭÒ£":10678,"ĠÐ¼ÓĻÐ´ÐµÐ½Ð¸ÐµÑĤÑĸÐ½ÑĸÒ£":10679,"ĠÑģÐ°Ð±Ð°ÒĽÑĤÐ°ÑĢÑĭ":10680,"ĠÐ±Ð°Ð·Ð°ÑģÑĭ":10681,"ĠÐĹÐ°Ðº":10682,"ĠÐ±ÐµÐ»ÑģÐµÐ½Ðµ":10683,"ĠÐĶÐ°Ñĥ":10684,"Ð´ÑĸÐ»ÐµÑĢ":10685,"ĠÐ¶Ð°Ð½Ò±Ñı":10686,"ĠÐ¾Ñİ":10687,"ĠÓĺÐĶÐķÐĳÐĺ":10688,"ÑĭÐ½Ð´ÑĭÒĵÑĭÐ½":10689,"ĠÐ¸ÐµÐ»ÐµÐ½Ð´Ñĸ":10690,"ÑĸÑĢÑĸÑģ":10691,"ÑĤÑĸÑĢÑĸÐ¿":10692,"ĠÐ°Ð±Ð·Ð°Ð»":10693,"ÐĸÑĥ":10694,"ĠÐ½Ð°ÑĢÐ°Ð·ÑĭÐ»ÑĭÒĽ":10695,".(":10696,"ĠÑĤÑĸÐ»ÐµÐ³Ñĸ":10697,"ĠÐ¶Ð°ÑģÑĤÐ°ÑĢÑĭ":10698,"ĠÐ°ÑģÒĽÐ°Ð·Ð°Ð½":10699,"ĠÐºÑĸÑĢÐ³ÑĸÐ·":10700,"Ð½Ñı":10701,"ĠÑģÐ°ÑıÑģÐ°ÑĤÑĤÑĭÒ£":10702,"ĠÐ´Ð¸Ð½Ð°Ð¼":10703,"ĠÐ´ÐµÐ³ÐµÐ½Ð´ÐµÐ¹":10704,"ĠÐ±Ð¾Ð»Ð¼ÑĭÑģ":10705,"Ò®ÑĪÑĸÐ½ÑĪÑĸ":10706,"ĠÐ¡Ð°Ð±":10707,"Ð¼Ð°ÑĥÑĭ":10708,"Ġ44":10709,"ÐĸÐĹÒļ":10710,"ĠÒĵÐ°Ð»ÑĭÐ¼Ð´Ð°ÑĢÐ´ÑĭÒ£":10711,"Ó¨Ð½Ð´ÑĸÑĢ":10712,"ÐĳÐķÐļ":10713,"ĠÑĤÑĭÒ£Ð´Ð°Ð¿":10714,"ĠÑĤÑĭÑĢÑĭÑģÐ°Ð´Ñĭ":10715,"ĠÑĪÐµÐ±ÐµÑĢÑĸ":10716,"Ġ52":10717,"ÐµÐ³ÑĸÐ½ÐµÐ½":10718,"ĠÐĳÑĸÑĢÑĸÐºÐºÐµÐ½":10719,"Ð¸ÑĦÐ¸ÐºÐ°ÑĨÐ¸Ñı":10720,"ĠÐ°ÒĽÑĭÐ½Ñĭ":10721,"ĠÐ¶Ð¾ÑģÐ¿Ð°ÑĢÐ»Ð°Ð½ÑĭÐ¿":10722,"ĠÐ¼Ð³":10723,"indo":10724,"ĠÑĦÐ¸Ð»Ð¾ÑģÐ¾ÑĦÐ¸Ñı":10725,"ĠÐµÐºÐµÐ½ÑĸÐ½Ðµ":10726,"Ð´ÐµÑĤÑĤÐµÑĢ":10727,"ĠÐ¶Ð°ÒĵÐ´Ð°Ð¹ÑĭÐ½Ð´Ð°ÒĵÑĭ":10728,"ÐļÐµÐ»":10729,"ĠÑĤÑĢÐµÐ½Ð¸Ð½Ð³":10730,"ĠÐ°Ð»ÑģÐ°":10731,"Ġ250":10732,"Ð¼Ò¯":10733,"ĠÐºÐµÐ·Ð´ÐµÐ½":10734,"Ð¡Ð°Ð¹":10735,"ĠÐ´ÓĻÑĢÐµÐ¶ÐµÐ»Ñĸ":10736,"ĠÐ±ÑĸÑĢÐ¶Ð¾Ð»":10737,"ĠÑĥÐ°ÒĽÑĭÑĤÑĤÑĭ":10738,"ĠÓ©ÑĤÑĸÑĢÑĸÐº":10739,"ĠÐ¶ÐµÑĤÑĸÑģÐ¿ÐµÑĥ":10740,"ĠÑģÐ¾ÑĤÑĤÑĭÒ£":10741,"ÒļÑĥ":10742,"ĠÓ¨Ò£ÑĸÑĢ":10743,"ÒļÐ°Ð¼":10744,"ĠÒĽÐ°Ð½Ð°ÒĵÐ°ÑĤÑĤÐ°Ð½Ð´ÑĭÑĢÑĥ":10745,"Ð¾Ð²Ð°Ð½":10746,"ÐµÐ»Ð¸":10747,"ĠÐ¾ÑĢÐ½ÑĭÐ½ÑĭÒ£":10748,"Ð°Ð³Ð¾Ð½":10749,"Ð»ÑĭÐ»ÑĭÒĽ":10750,"Ð±ÐµÐ»Ð³Ñĸ":10751,"ÐºÐ»Ð°ÑģÒĽÐ°":10752,"ĠÐ¾ÒĽÑĭÑĤ":10753,"ĠÒĽÑĭÑģÒĽÑĭ":10754,"ĠÑĤÓĻÐ¼":10755,"ÐľÐ°Ð¼Ð°Ð½":10756,"ĠÐĲÐ»Ð»Ð°ÒĵÐ°":10757,"ĠÐ¿Ð»Ð°ÑĤ":10758,"ÐĳÑİÐ´Ð¶":10759,"Ð¾Ð¼ÑĭÑĪ":10760,"ÑĤÐ°ÑĥÑĭ":10761,"ÐµÐ½ÐºÐ¾":10762,"ĠÐ¶Ð°ÑĢÐ°Ð¼Ð´Ñĭ":10763,"ĠÑģÐµÐºÑĥÐ½Ð´":10764,"ĠÐ±Ð¸Ð»ÐµÑĥ":10765,"Ġ2025":10766,"ĠÐµÑĢÐ»ÐµÑĢ":10767,"VIII":10768,"ĠÐµÒ£Ð±ÐµÐºÑĤÑĸ":10769,"ĠÐºÐ¾Ð¾Ð¿ÐµÑĢÐ°ÑĤÐ¸Ð²":10770,"ĠÑįÑĤÐ½Ð¸ÐºÐ°Ð»ÑĭÒĽ":10771,"ĠÐ¶Ò¯ÑĢÐ³ÐµÐ½Ð´Ðµ":10772,"ĠÐºÓ©ÑĢÑĸÐ½ÑĸÐ¿":10773,"ĠÐ³Ð¸Ð³Ð¸ÐµÐ½":10774,"ÑĤiÑĢ":10775,"Ð½Ð°ÒĽ":10776,"ÑĪÐ°Ò£":10777,"Ð´Ð°ÑĥÒĵÐ°":10778,"ÒĵÐ°Ð»ÑĸÐ¼Ð½ÑĸÒ£":10779,"ĠÑĤÒ±Ð»ÒĵÐ°ÒĵÐ°":10780,"ĠÐłÐ°Ð¼Ð°Ð·Ð°Ð½":10781,"ÑĤÑĭÐ»Ð´Ñĭ":10782,"stana":10783,"ÒĽÑĭÑĪÑĤÐ°ÑĢ":10784,"ÒļÐ¾ÑĢÑĭÑĤÑĭÐ½Ð´Ñĭ":10785,"Ð¶ÐµÑĤÐºÐµÐ½":10786,"ĠÑģÑĥÐ°ÑĢ":10787,"Ð³ÐµÑĢÐ´ÑĸÒ£":10788,"ĠÑĪÐ°ÑĤ":10789,"ĠÐµÐ»ÑĪÑĸÑģÑĸ":10790,"ĠÑģÐ°Ð¿Ð°ÑģÑĭÐ½Ð°":10791,
[...]
